{
	"<s>": 0,
	"<pad>": 1,
	"</s>": 2,
	"<unk>": 3,
	"<mask>": 4,
	"<vis_token_1>": 5,
	"<vis_token_2>": 6,
	"<vis_token_3>": 7,
	"<vis_token_4>": 8,
	"<vis_token_5>": 9,
	"<vis_token_6>": 10,
	"<vis_token_7>": 11,
	"<vis_token_8>": 12,
	"<vis_token_9>": 13,
	"<vis_token_10>": 14,
	"<vis_token_11>": 15,
	"<vis_token_12>": 16,
	"<vis_token_13>": 17,
	"<vis_token_14>": 18,
	"<vis_token_15>": 19,
	"<vis_token_16>": 20,
	"<vis_token_17>": 21,
	"<vis_token_18>": 22,
	"<vis_token_19>": 23,
	"<vis_token_20>": 24,
	"<vis_token_21>": 25,
	"<vis_token_22>": 26,
	"<vis_token_23>": 27,
	"<vis_token_24>": 28,
	"<vis_token_25>": 29,
	"<vis_token_26>": 30,
	"<vis_token_27>": 31,
	"<vis_token_28>": 32,
	"<vis_token_29>": 33,
	"<vis_token_30>": 34,
	"<vis_token_31>": 35,
	"<vis_token_32>": 36,
	"<vis_token_33>": 37,
	"<vis_token_34>": 38,
	"<vis_token_35>": 39,
	"<vis_token_36>": 40,
	"<vis_token_37>": 41,
	"<vis_token_38>": 42,
	"<vis_token_39>": 43,
	"<vis_token_40>": 44,
	"<vis_token_41>": 45,
	"<vis_token_42>": 46,
	"<vis_token_43>": 47,
	"<vis_token_44>": 48,
	"<vis_token_45>": 49,
	"<vis_token_46>": 50,
	"<vis_token_47>": 51,
	"<vis_token_48>": 52,
	"<vis_token_49>": 53,
	"<vis_token_50>": 54,
	"<vis_token_51>": 55,
	"<vis_token_52>": 56,
	"<vis_token_53>": 57,
	"<vis_token_54>": 58,
	"<vis_token_55>": 59,
	"<vis_token_56>": 60,
	"<vis_token_57>": 61,
	"<vis_token_58>": 62,
	"<vis_token_59>": 63,
	"<vis_token_60>": 64,
	"<vis_token_61>": 65,
	"<vis_token_62>": 66,
	"<vis_token_63>": 67,
	"<vis_token_64>": 68,
	"<vis_token_65>": 69,
	"<vis_token_66>": 70,
	"<vis_token_67>": 71,
	"<vis_token_68>": 72,
	"<vis_token_69>": 73,
	"<vis_token_70>": 74,
	"<vis_token_71>": 75,
	"<vis_token_72>": 76,
	"<vis_token_73>": 77,
	"<vis_token_74>": 78,
	"<vis_token_75>": 79,
	"<vis_token_76>": 80,
	"<vis_token_77>": 81,
	"<vis_token_78>": 82,
	"<vis_token_79>": 83,
	"<vis_token_80>": 84,
	"<vis_token_81>": 85,
	"<vis_token_82>": 86,
	"<vis_token_83>": 87,
	"<vis_token_84>": 88,
	"<vis_token_85>": 89,
	"<vis_token_86>": 90,
	"<vis_token_87>": 91,
	"<vis_token_88>": 92,
	"<vis_token_89>": 93,
	"<vis_token_90>": 94,
	"<vis_token_91>": 95,
	"<vis_token_92>": 96,
	"<vis_token_93>": 97,
	"<vis_token_94>": 98,
	"<vis_token_95>": 99,
	"<vis_token_96>": 100,
	"<vis_token_97>": 101,
	"<vis_token_98>": 102,
	"<vis_token_99>": 103,
	"<vis_token_100>": 104,
	"!": 105,
	"\"": 106,
	"#": 107,
	"$": 108,
	"%": 109,
	"&": 110,
	"'": 111,
	"(": 112,
	")": 113,
	"*": 114,
	"+": 115,
	",": 116,
	"-": 117,
	".": 118,
	"/": 119,
	"0": 120,
	"1": 121,
	"2": 122,
	"3": 123,
	"4": 124,
	"5": 125,
	"6": 126,
	"7": 127,
	"8": 128,
	"9": 129,
	":": 130,
	";": 131,
	"<": 132,
	"=": 133,
	">": 134,
	"?": 135,
	"@": 136,
	"A": 137,
	"B": 138,
	"C": 139,
	"D": 140,
	"E": 141,
	"F": 142,
	"G": 143,
	"H": 144,
	"I": 145,
	"J": 146,
	"K": 147,
	"L": 148,
	"M": 149,
	"N": 150,
	"O": 151,
	"P": 152,
	"Q": 153,
	"R": 154,
	"S": 155,
	"T": 156,
	"U": 157,
	"V": 158,
	"W": 159,
	"X": 160,
	"Y": 161,
	"Z": 162,
	"[": 163,
	"\\": 164,
	"]": 165,
	"^": 166,
	"_": 167,
	"`": 168,
	"a": 169,
	"b": 170,
	"c": 171,
	"d": 172,
	"e": 173,
	"f": 174,
	"g": 175,
	"h": 176,
	"i": 177,
	"j": 178,
	"k": 179,
	"l": 180,
	"m": 181,
	"n": 182,
	"o": 183,
	"p": 184,
	"q": 185,
	"r": 186,
	"s": 187,
	"t": 188,
	"u": 189,
	"v": 190,
	"w": 191,
	"x": 192,
	"y": 193,
	"z": 194,
	"|": 195,
	"}": 196,
	"~": 197,
	"¢": 198,
	"¦": 199,
	"§": 200,
	"¨": 201,
	"©": 202,
	"°": 203,
	"±": 204,
	"´": 205,
	"»": 206,
	"½": 207,
	"Â": 208,
	"Ã": 209,
	"â": 210,
	"ĉ": 211,
	"Ċ": 212,
	"Ġ": 213,
	"Ģ": 214,
	"Ħ": 215,
	"Ķ": 216,
	"Ļ": 217,
	"Ġt": 218,
	"he": 219,
	"Ġo": 220,
	"Ġthe": 221,
	"Ġof": 222,
	"Ġto": 223,
	"le": 224,
	"ri": 225,
	"an": 226,
	"in": 227,
	"te": 228,
	"Ġb": 229,
	"Ġle": 230,
	"gh": 231,
	"ght": 232,
	"Ġri": 233,
	"Ġs": 234,
	"ft": 235,
	"Ġa": 236,
	"Ġleft": 237,
	"Ġright": 238,
	"Ġw": 239,
	"re": 240,
	"as": 241,
	"Ġc": 242,
	"Ġp": 243,
	"Ġh": 244,
	"er": 245,
	"hi": 246,
	"Ġon": 247,
	"la": 248,
	"ow": 249,
	"man": 250,
	"tt": 251,
	"ck": 252,
	"ing": 253,
	"ar": 254,
	"on": 255,
	"or": 256,
	"bu": 257,
	"is": 258,
	"Ġhas": 259,
	"al": 260,
	"Ġatt": 261,
	"Ġg": 262,
	"ribu": 263,
	"ribute": 264,
	"Ġattribute": 265,
	"Ġf": 266,
	"en": 267,
	"ir": 268,
	"at": 269,
	"et": 270,
	"es": 271,
	"and": 272,
	"Ġis": 273,
	"Ġin": 274,
	"ou": 275,
	"hite": 276,
	"Ġd": 277,
	"ra": 278,
	"il": 279,
	"it": 280,
	"rt": 281,
	"all": 282,
	"oo": 283,
	"ers": 284,
	"ind": 285,
	"hirt": 286,
	"ter": 287,
	"Ġwhite": 288,
	"the": 289,
	"el": 290,
	"Ġman": 291,
	"ad": 292,
	"ab": 293,
	"air": 294,
	"Ġm": 295,
	"oman": 296,
	"ch": 297,
	"ea": 298,
	"lack": 299,
	"ce": 300,
	"Ġst": 301,
	"erson": 302,
	"ed": 303,
	"ng": 304,
	"indow": 305,
	"ol": 306,
	"ding": 307,
	"Ġl": 308,
	"ass": 309,
	"bo": 310,
	"Ġsi": 311,
	"op": 312,
	"able": 313,
	"Ġbu": 314,
	"ring": 315,
	"ge": 316,
	"ree": 317,
	"low": 318,
	"ts": 319,
	"Ġblack": 320,
	"oun": 321,
	"oor": 322,
	"lu": 323,
	"ack": 324,
	"Ġand": 325,
	"Ġbo": 326,
	"Ġn": 327,
	"ve": 328,
	"se": 329,
	"ith": 330,
	"Ġwith": 331,
	"red": 332,
	"st": 333,
	"Ġshirt": 334,
	"earing": 335,
	"Ġwearing": 336,
	"lue": 337,
	"The": 338,
	"ro": 339,
	"row": 340,
	"reen": 341,
	"ear": 342,
	"ic": 343,
	"ilding": 344,
	"ot": 345,
	"Ġpla": 346,
	"head": 347,
	"Ġtable": 348,
	"ru": 349,
	"Ġblue": 350,
	"Ġla": 351,
	"Ġwall": 352,
	"ard": 353,
	"ap": 354,
	"shirt": 355,
	"lass": 356,
	"de": 357,
	"gn": 358,
	"rown": 359,
	"Ġwoman": 360,
	"ood": 361,
	"Ġwindow": 362,
	"mp": 363,
	"Ġsh": 364,
	"hair": 365,
	"ound": 366,
	"Ġperson": 367,
	"ain": 368,
	"round": 369,
	"ole": 370,
	"Ġsk": 371,
	"ont": 372,
	"woman": 373,
	"ight": 374,
	"Ġu": 375,
	"ff": 376,
	"person": 377,
	"ke": 378,
	"Ġcar": 379,
	"og": 380,
	"Ġgreen": 381,
	"Ġtree": 382,
	"Ġe": 383,
	"Ġred": 384,
	"ople": 385,
	"eople": 386,
	"mb": 387,
	"ur": 388,
	"Ġbrown": 389,
	"ook": 390,
	"Ġbuilding": 391,
	"Ġj": 392,
	"window": 393,
	"Ġco": 394,
	"hel": 395,
	"ver": 396,
	"sh": 397,
	"ag": 398,
	"board": 399,
	"Ġplate": 400,
	"ants": 401,
	"Ġtra": 402,
	"ttle": 403,
	"lo": 404,
	"irl": 405,
	"Ġare": 406,
	"ant": 407,
	"Ġhand": 408,
	"ves": 409,
	"Ġglass": 410,
	"ater": 411,
	"acket": 412,
	"Ġsign": 413,
	"rass": 414,
	"Ġchair": 415,
	"ark": 416,
	"cle": 417,
	"'s": 418,
	"white": 419,
	"ase": 420,
	"me": 421,
	"one": 422,
	"Ġbe": 423,
	"ellow": 424,
	"Ġcu": 425,
	"ion": 426,
	"tree": 427,
	"Ġdoor": 428,
	"alk": 429,
	"ran": 430,
	"car": 431,
	"ire": 432,
	"Ġy": 433,
	"che": 434,
	"Ġlight": 435,
	"wall": 436,
	"Ġhead": 437,
	"ph": 438,
	"Ġpole": 439,
	"si": 440,
	"reet": 441,
	"tting": 442,
	"Ġside": 443,
	"rees": 444,
	"Ġcol": 445,
	"Ġpi": 446,
	"let": 447,
	"Ġk": 448,
	"his": 449,
	"Ġtop": 450,
	"pla": 451,
	"ence": 452,
	"Ġhair": 453,
	"ffe": 454,
	"loor": 455,
	"ink": 456,
	"Ġwood": 457,
	"ine": 458,
	"mall": 459,
	"ront": 460,
	"ure": 461,
	"pp": 462,
	"ss": 463,
	"Ġwater": 464,
	"umb": 465,
	"Ġne": 466,
	"dy": 467,
	"roo": 468,
	"Ġback": 469,
	"owl": 470,
	"zz": 471,
	"ct": 472,
	"wo": 473,
	"Ġsitting": 474,
	"Ġhol": 475,
	"ate": 476,
	"ld": 477,
	"Ġro": 478,
	"Ġyellow": 479,
	"Ġgrass": 480,
	"Ġstand": 481,
	"ray": 482,
	"rel": 483,
	"lan": 484,
	"lou": 485,
	"Ġre": 486,
	"hat": 487,
	"zza": 488,
	"ycle": 489,
	"illow": 490,
	"Ġsky": 491,
	"rge": 492,
	"Ġfront": 493,
	"orse": 494,
	"chair": 495,
	"Ġleg": 496,
	"ds": 497,
	"door": 498,
	"leph": 499,
	"Ġpeople": 500,
	"ut": 501,
	"now": 502,
	"Ġbus": 503,
	"co": 504,
	"hind": 505,
	"aves": 506,
	"Ġbehind": 507,
	"building": 508,
	"Ġstreet": 509,
	"Ġdog": 510,
	"Ġboy": 511,
	"abin": 512,
	"Ġtrain": 513,
	"Ġground": 514,
	"Ġbottle": 515,
	"Ġtru": 516,
	"Ġjacket": 517,
	"if": 518,
	"ans": 519,
	"ture": 520,
	"Ġan": 521,
	"abinet": 522,
	"rella": 523,
	"nk": 524,
	"top": 525,
	"Ġholding": 526,
	"Ġgirl": 527,
	"cu": 528,
	"helf": 529,
	"ye": 530,
	"met": 531,
	"Ġsp": 532,
	"Ġpants": 533,
	"heel": 534,
	"people": 535,
	"ilver": 536,
	"this": 537,
	"ace": 538,
	"ying": 539,
	"Ġnear": 540,
	"black": 541,
	"sk": 542,
	"pole": 543,
	"der": 544,
	"ove": 545,
	"leg": 546,
	"Ġfloor": 547,
	"hand": 548,
	"uter": 549,
	"orts": 550,
	"mputer": 551,
	"Ġstanding": 552,
	"art": 553,
	"cks": 554,
	"ket": 555,
	"am": 556,
	"Ġbag": 557,
	"Ġcat": 558,
	"range": 559,
	"hild": 560,
	"glass": 561,
	"Ġph": 562,
	"boy": 563,
	"Ġv": 564,
	"li": 565,
	"icture": 566,
	"aper": 567,
	"ira": 568,
	"Ġsu": 569,
	"age": 570,
	"eld": 571,
	"ground": 572,
	"lephant": 573,
	"ail": 574,
	"eans": 575,
	"Ġra": 576,
	"nif": 577,
	"th": 578,
	"anan": 579,
	"Ġcolor": 580,
	"Ġpo": 581,
	"Ġcont": 582,
	"ouse": 583,
	"helmet": 584,
	"Ġhat": 585,
	"Ġfence": 586,
	"Ġdes": 587,
	"Ġsho": 588,
	"ench": 589,
	"ptop": 590,
	"Ġtrees": 591,
	"Ġbed": 592,
	"table": 593,
	"xt": 594,
	"Ġgray": 595,
	"walk": 596,
	"Ġlarge": 597,
	"ĠA": 598,
	"ong": 599,
	"yer": 600,
	"sign": 601,
	"otor": 602,
	"Ġorange": 603,
	"room": 604,
	"Ġso": 605,
	"girl": 606,
	"ay": 607,
	"ounter": 608,
	"Ġar": 609,
	"Ġbear": 610,
	"im": 611,
	"pe": 612,
	"rtain": 613,
	"ang": 614,
	"les": 615,
	"raw": 616,
	"au": 617,
	"lock": 618,
	"Ġpizza": 619,
	"iraffe": 620,
	"Ġbowl": 621,
	"Ġcup": 622,
	"Ġfor": 623,
	"ast": 624,
	"ted": 625,
	"ball": 626,
	"eat": 627,
	"Ġsnow": 628,
	"Ġsmall": 629,
	"Ġnext": 630,
	"Ġear": 631,
	"Ġpl": 632,
	"tter": 633,
	"ie": 634,
	"Ġhorse": 635,
	"cket": 636,
	"id": 637,
	"otorc": 638,
	"ent": 639,
	"ose": 640,
	"ress": 641,
	"ator": 642,
	"Ġclou": 643,
	"rol": 644,
	"otorcycle": 645,
	"Ġbat": 646,
	"Ġdis": 647,
	"urf": 648,
	"ger": 649,
	"ake": 650,
	"Ġflow": 651,
	"Ġat": 652,
	"etal": 653,
	"her": 654,
	"Ġbook": 655,
	"Ġumb": 656,
	"Ġroad": 657,
	"ze": 658,
	"po": 659,
	"Ġcou": 660,
	"Ġpark": 661,
	"ato": 662,
	"plate": 663,
	"nis": 664,
	"ike": 665,
	"ep": 666,
	"Ġfi": 667,
	"ror": 668,
	"irror": 669,
	"ul": 670,
	"Ġdesk": 671,
	"pants": 672,
	"Ġtow": 673,
	"Ġsilver": 674,
	"to": 675,
	"irt": 676,
	"Ġmetal": 677,
	"fri": 678,
	"ĠM": 679,
	"jacket": 680,
	"Ġarm": 681,
	"bra": 682,
	"ple": 683,
	"Ġwooden": 684,
	"ler": 685,
	"Ġumbrella": 686,
	"key": 687,
	"af": 688,
	"Ġfood": 689,
	"Ġpillow": 690,
	"Ġby": 691,
	"Ġbox": 692,
	"Ġwalk": 693,
	"Ġphone": 694,
	"bag": 695,
	"atch": 696,
	"Ġlamp": 697,
	"book": 698,
	"Ġglasses": 699,
	"su": 700,
	"umber": 701,
	"Ġsand": 702,
	"ilet": 703,
	"lane": 704,
	"ick": 705,
	"Ġcabinet": 706,
	"Ġsw": 707,
	"oot": 708,
	"ne": 709,
	"nder": 710,
	"Ġcomputer": 711,
	"Ġcounter": 712,
	"side": 713,
	"green": 714,
	"Ġleaves": 715,
	"White": 716,
	"Ġshelf": 717,
	"Ġletter": 718,
	"pen": 719,
	"ennis": 720,
	"Ġwheel": 721,
	"Ġelephant": 722,
	"Ġtruck": 723,
	"Man": 724,
	"part": 725,
	"Ġshorts": 726,
	"aseball": 727,
	"bottle": 728,
	"qu": 729,
	"orm": 730,
	"two": 731,
	"Ġ2": 732,
	"Ġbench": 733,
	"ateboard": 734,
	"ave": 735,
	"be": 736,
	"Ġcan": 737,
	"Ġhang": 738,
	"ainer": 739,
	"rey": 740,
	"ash": 741,
	"Ġsc": 742,
	"trees": 743,
	"Ġbri": 744,
	"Ġhelmet": 745,
	"arm": 746,
	"oli": 747,
	"Ġeye": 748,
	"Ġtennis": 749,
	"Ġdark": 750,
	"uy": 751,
	"ak": 752,
	"zebra": 753,
	"ite": 754,
	"Ġface": 755,
	"Ġpaper": 756,
	"Ġlaptop": 757,
	"ĠThe": 758,
	"ten": 759,
	"flow": 760,
	"Ġsurf": 761,
	"Ġsidewalk": 762,
	"Ġ25": 763,
	"Ġve": 764,
	"ĠAhead": 765,
	"ĠMove": 766,
	"Ġit": 767,
	"Ġhanging": 768,
	"anana": 769,
	"Ġair": 770,
	"ell": 771,
	"Ġgiraffe": 772,
	"Ġpicture": 773,
	"Ġjeans": 774,
	"read": 775,
	"eak": 776,
	"orn": 777,
	"lar": 778,
	"ird": 779,
	"Ġfield": 780,
	"ort": 781,
	"gerator": 782,
	"Ġpink": 783,
	"Ġclouds": 784,
	"heep": 785,
	"Ġmotorcycle": 786,
	"kin": 787,
	"asket": 788,
	"tra": 789,
	"grass": 790,
	"ffee": 791,
	"frigerator": 792,
	"Ġplayer": 793,
	"sho": 794,
	"Ġpot": 795,
	"Ġwalking": 796,
	"lag": 797,
	"Ġunder": 798,
	"cc": 799,
	"light": 800,
	"itche": 801,
	"get": 802,
	"ry": 803,
	"pillow": 804,
	"Ġball": 805,
	"pi": 806,
	"own": 807,
	"Ġbackground": 808,
	"keyboard": 809,
	"Ġchild": 810,
	"rame": 811,
	"fence": 812,
	"Ġout": 813,
	"Ġboat": 814,
	"ide": 815,
	"blue": 816,
	"Ġstri": 817,
	"iling": 818,
	"Ġlong": 819,
	"Ġclock": 820,
	"mato": 821,
	"ese": 822,
	"Ġpost": 823,
	"nife": 824,
	"Ġski": 825,
	"imal": 826,
	"wi": 827,
	"Ġcow": 828,
	"Ġfro": 829,
	"tru": 830,
	"cup": 831,
	"bus": 832,
	"way": 833,
	"Ġte": 834,
	"mo": 835,
	"ogo": 836,
	"Ġup": 837,
	"pper": 838,
	"gg": 839,
	"inds": 840,
	"Ġdress": 841,
	"each": 842,
	"letter": 843,
	"lev": 844,
	"pack": 845,
	"Ġtrunk": 846,
	"led": 847,
	"Ġli": 848,
	"Ġsuit": 849,
	"Ġch": 850,
	"Ġwri": 851,
	"Ġbaseball": 852,
	"apkin": 853,
	"ade": 854,
	"eye": 855,
	"astic": 856,
	"Ġcap": 857,
	"bove": 858,
	"Ġabove": 859,
	"Ġcontrol": 860,
	"Ġcouch": 861,
	"ruit": 862,
	"ord": 863,
	"ision": 864,
	"ven": 865,
	"shelf": 866,
	"brown": 867,
	"levision": 868,
	"bowl": 869,
	"cabinet": 870,
	"sky": 871,
	"Ġfri": 872,
	"so": 873,
	"Ġcurtain": 874,
	"Ġsink": 875,
	"Ġti": 876,
	"Ġtoilet": 877,
	"Ġcoat": 878,
	"Ġmirror": 879,
	"Ġgrey": 880,
	"dog": 881,
	"Ġskateboard": 882,
	"are": 883,
	"rash": 884,
	"Ġshoe": 885,
	"ored": 886,
	"case": 887,
	"sp": 888,
	"Ġbike": 889,
	"itor": 890,
	"Ġboard": 891,
	"eater": 892,
	"Ġcle": 893,
	"child": 894,
	"water": 895,
	"cat": 896,
	"Ġpur": 897,
	"Ġche": 898,
	"Ġparked": 899,
	"getable": 900,
	"oth": 901,
	"onitor": 902,
	"Black": 903,
	"leaves": 904,
	"Ġth": 905,
	"Ġtail": 906,
	"outh": 907,
	"Ġdown": 908,
	"Ġnose": 909,
	"Ġover": 910,
	"box": 911,
	"niform": 912,
	"rou": 913,
	"roof": 914,
	"Ġcake": 915,
	"lamp": 916,
	"hicle": 917,
	"wheel": 918,
	"icycle": 919,
	"Ġthat": 920,
	"ice": 921,
	"lanket": 922,
	"om": 923,
	"Ġtowel": 924,
	"Ġzebra": 925,
	"Ġru": 926,
	"Ġwindows": 927,
	"floor": 928,
	"Ġtan": 929,
	"ame": 930,
	"ffic": 931,
	"ped": 932,
	"Ġplastic": 933,
	"suit": 934,
	"lect": 935,
	"rocc": 936,
	"Ġneck": 937,
	"roccoli": 938,
	"wich": 939,
	"Ġlady": 940,
	"Ġshoes": 941,
	"ĠO": 942,
	"Ġlook": 943,
	"Ġopen": 944,
	"Ġfrom": 945,
	"ment": 946,
	"street": 947,
	"umbrella": 948,
	"Ġmu": 949,
	"itchen": 950,
	"horse": 951,
	"Ġapp": 952,
	"Ġtall": 953,
	"ount": 954,
	"Ġflower": 955,
	"old": 956,
	"pl": 957,
	"Ġpe": 958,
	"Ġcolored": 959,
	"Ġanimal": 960,
	"Ġwine": 961,
	"ower": 962,
	"love": 963,
	"Ġde": 964,
	"ect": 965,
	"bee": 966,
	"Ġcontainer": 967,
	"ork": 968,
	"oon": 969,
	"Ġflowers": 970,
	"Ġcove": 971,
	"auc": 972,
	"Ġdri": 973,
	"Ġbath": 974,
	"picture": 975,
	"Ġmouse": 976,
	"oung": 977,
	"Ġpie": 978,
	"food": 979,
	"hes": 980,
	"sbee": 981,
	"Two": 982,
	"shorts": 983,
	"Ġpain": 984,
	"ountain": 985,
	"ting": 986,
	"ananas": 987,
	"jeans": 988,
	"ey": 989,
	"ĠT": 990,
	"Ġleaf": 991,
	"Ġlegs": 992,
	"Ġframe": 993,
	"Ġkeyboard": 994,
	"lady": 995,
	"Ġste": 996,
	"rawer": 997,
	"Ġcoffee": 998,
	"Ġbeach": 999,
	"onut": 1000,
	"computer": 1001,
	"Ġracket": 1002,
	"Ġclear": 1003,
	"Ġbel": 1004,
	"ig": 1005,
	"rop": 1006,
	"large": 1007,
	"pizza": 1008,
	"train": 1009,
	"Ġbird": 1010,
	"uts": 1011,
	"alm": 1012,
	"face": 1013,
	"Ġen": 1014,
	"Ġsheep": 1015,
	"amer": 1016,
	"Ġkitchen": 1017,
	"dge": 1018,
	"Ġflag": 1019,
	"small": 1020,
	"shoe": 1021,
	"tan": 1022,
	"cher": 1023,
	"Ġwatch": 1024,
	"curtain": 1025,
	"clou": 1026,
	"ĠR": 1027,
	"plane": 1028,
	"Ġroom": 1029,
	"Ġround": 1030,
	"loth": 1031,
	"Ġvase": 1032,
	"Ġce": 1033,
	"Ġbasket": 1034,
	"ation": 1035,
	"Ġseat": 1036,
	"flower": 1037,
	"yellow": 1038,
	"amera": 1039,
	"cont": 1040,
	"glasses": 1041,
	"ving": 1042,
	"Ġclo": 1043,
	"Ġrefrigerator": 1044,
	"Ġdirt": 1045,
	"Ġbanana": 1046,
	"ill": 1047,
	"Ġhouse": 1048,
	"ber": 1049,
	"Ġtire": 1050,
	"Ġscreen": 1051,
	"Ġfl": 1052,
	"rot": 1053,
	"Ġnumber": 1054,
	"Ġplant": 1055,
	"Ġcon": 1056,
	"nose": 1057,
	"aby": 1058,
	"mote": 1059,
	"This": 1060,
	"Ġstove": 1061,
	"post": 1062,
	"Ġaround": 1063,
	"andle": 1064,
	"tail": 1065,
	"snow": 1066,
	"laptop": 1067,
	"Ġtray": 1068,
	"Ġbl": 1069,
	"Ġgra": 1070,
	"Ġfire": 1071,
	"Woman": 1072,
	"ore": 1073,
	"coat": 1074,
	"Ġplane": 1075,
	"Ġkite": 1076,
	"ĠS": 1077,
	"Ġmonitor": 1078,
	"Ġguy": 1079,
	"Ġknife": 1080,
	"What": 1081,
	"ating": 1082,
	"ines": 1083,
	"ange": 1084,
	"ll": 1085,
	"adow": 1086,
	"pes": 1087,
	"sc": 1088,
	"hield": 1089,
	"Ġsurfboard": 1090,
	"paper": 1091,
	"ches": 1092,
	"orange": 1093,
	"Ġfork": 1094,
	"Ġor": 1095,
	"elephant": 1096,
	"Ġthere": 1097,
	"Ġriding": 1098,
	"Ġlooking": 1099,
	"auce": 1100,
	"uff": 1101,
	"Ġoven": 1102,
	"back": 1103,
	"Ġfoot": 1104,
	"Ġmade": 1105,
	"ish": 1106,
	"Ġlogo": 1107,
	"Ġhandle": 1108,
	"ross": 1109,
	"HE": 1110,
	"ull": 1111,
	"pot": 1112,
	"Ġphot": 1113,
	"ric": 1114,
	"Ġplaying": 1115,
	"Ġcheese": 1116,
	"lice": 1117,
	"Ġcell": 1118,
	"indshield": 1119,
	"Ġshort": 1120,
	"Ġtie": 1121,
	"boat": 1122,
	"player": 1123,
	"Ġbread": 1124,
	"windows": 1125,
	"inger": 1126,
	"Ġfruit": 1127,
	"Ġwrist": 1128,
	"Ġnapkin": 1129,
	"guy": 1130,
	"Ġvehicle": 1131,
	"Ġtomato": 1132,
	"Ġstick": 1133,
	"ble": 1134,
	"ty": 1135,
	"ĠB": 1136,
	"Red": 1137,
	"Ġdish": 1138,
	"con": 1139,
	"bench": 1140,
	"cake": 1141,
	"dr": 1142,
	"Ġpan": 1143,
	"cow": 1144,
	"ĠI": 1145,
	"urn": 1146,
	"Ġbackpack": 1147,
	"ump": 1148,
	"aucet": 1149,
	"out": 1150,
	"Ġpiece": 1151,
	"edge": 1152,
	"Ġrock": 1153,
	"Ġsandwich": 1154,
	"bat": 1155,
	"eet": 1156,
	"mirror": 1157,
	"cou": 1158,
	"Ġse": 1159,
	"icrow": 1160,
	"Ġbicycle": 1161,
	"icrowave": 1162,
	"dle": 1163,
	"Ġcovered": 1164,
	"Ġsweater": 1165,
	"Ġline": 1166,
	"ydr": 1167,
	"Ġbun": 1168,
	"cor": 1169,
	"Ġpurple": 1170,
	"Ġbran": 1171,
	"ydrant": 1172,
	"Ġroof": 1173,
	"bel": 1174,
	"fa": 1175,
	"Ġbrick": 1176,
	"ren": 1177,
	"Ġhis": 1178,
	"dress": 1179,
	"cap": 1180,
	"ĠW": 1181,
	"Ġhydrant": 1182,
	"Ġvegetable": 1183,
	"Ġtelevision": 1184,
	"sand": 1185,
	"Ġtwo": 1186,
	"ly": 1187,
	"flowers": 1188,
	"plant": 1189,
	"des": 1190,
	"Ġmouth": 1191,
	"Ġbathroom": 1192,
	"giraffe": 1193,
	"truck": 1194,
	"ears": 1195,
	"long": 1196,
	"silver": 1197,
	"wood": 1198,
	"ĠC": 1199,
	"sw": 1200,
	"Ġtracks": 1201,
	"ses": 1202,
	"wine": 1203,
	"Ġuniform": 1204,
	"vest": 1205,
	"Ġblanket": 1206,
	"Ġbush": 1207,
	"our": 1208,
	"uce": 1209,
	"bed": 1210,
	"ue": 1211,
	"Ġoff": 1212,
	"banana": 1213,
	"Ġphoto": 1214,
	"Ġmen": 1215,
	"clock": 1216,
	"Ġsle": 1217,
	"eaker": 1218,
	"Green": 1219,
	"Ġinside": 1220,
	"ti": 1221,
	"owel": 1222,
	"Ġtower": 1223,
	"container": 1224,
	"number": 1225,
	"leaf": 1226,
	"aw": 1227,
	"trunk": 1228,
	"motorcycle": 1229,
	"Ġpepper": 1230,
	"flect": 1231,
	"Ġspoon": 1232,
	"Ġfrisbee": 1233,
	"neck": 1234,
	"ps": 1235,
	"Ġtraffic": 1236,
	"uffed": 1237,
	"phone": 1238,
	"Ġcamera": 1239,
	"Ġapple": 1240,
	"ther": 1241,
	"tire": 1242,
	"Ġtrash": 1243,
	"Ġstriped": 1244,
	"Ġpat": 1245,
	"Ġhill": 1246,
	"Ġwire": 1247,
	"ĠN": 1248,
	"pet": 1249,
	"cean": 1250,
	"ĠL": 1251,
	"towel": 1252,
	"sed": 1253,
	"Ġhands": 1254,
	"Ġceiling": 1255,
	"Small": 1256,
	"Is": 1257,
	"ping": 1258,
	"hick": 1259,
	"yes": 1260,
	"legs": 1261,
	"spo": 1262,
	"Ġyoung": 1263,
	"lad": 1264,
	"ub": 1265,
	"Ġslice": 1266,
	"Ġglove": 1267,
	"rin": 1268,
	"Ġhot": 1269,
	"Ġbroccoli": 1270,
	"tomato": 1271,
	"Ġvan": 1272,
	"Ġlights": 1273,
	"ched": 1274,
	"Blue": 1275,
	"eakers": 1276,
	"Ġeyes": 1277,
	"carf": 1278,
	"Ġcontroller": 1279,
	"road": 1280,
	"mpty": 1281,
	"ach": 1282,
	"Ġbananas": 1283,
	"men": 1284,
	"refrigerator": 1285,
	"ved": 1286,
	"Ġlid": 1287,
	"Person": 1288,
	"bike": 1289,
	"ner": 1290,
	"ttom": 1291,
	"cre": 1292,
	"tance": 1293,
	"counter": 1294,
	"Ġpad": 1295,
	"Ġgame": 1296,
	"Ġeating": 1297,
	"Ġdistance": 1298,
	"Ġmountain": 1299,
	"Ġbar": 1300,
	"sidewalk": 1301,
	"basket": 1302,
	"Ġbelow": 1303,
	"Ġno": 1304,
	"ttuce": 1305,
	"tens": 1306,
	"ries": 1307,
	"bush": 1308,
	"ĠP": 1309,
	"eddy": 1310,
	"bj": 1311,
	"IN": 1312,
	"ign": 1313,
	"ggage": 1314,
	"fork": 1315,
	"Ġairplane": 1316,
	"ser": 1317,
	"couch": 1318,
	"ome": 1319,
	"band": 1320,
	"rying": 1321,
	"Ġher": 1322,
	"An": 1323,
	"Ġbaby": 1324,
	"sheep": 1325,
	"foot": 1326,
	"Ġcook": 1327,
	"Ġpair": 1328,
	"Ġbes": 1329,
	"play": 1330,
	"ive": 1331,
	"tensil": 1332,
	"Ġremote": 1333,
	"Ġsm": 1334,
	"Ġletters": 1335,
	"Ġdrawer": 1336,
	"television": 1337,
	"sting": 1338,
	"logo": 1339,
	"Ġsauce": 1340,
	"ron": 1341,
	"mu": 1342,
	"Ġteddy": 1343,
	"ersey": 1344,
	"um": 1345,
	"toilet": 1346,
	"lic": 1347,
	"bear": 1348,
	"Ġbeside": 1349,
	"clouds": 1350,
	"ense": 1351,
	"bird": 1352,
	"thes": 1353,
	"bri": 1354,
	"flag": 1355,
	"can": 1356,
	"Ġstop": 1357,
	"bject": 1358,
	"napkin": 1359,
	"Ġbooks": 1360,
	"knife": 1361,
	"tton": 1362,
	"rist": 1363,
	"roup": 1364,
	"Ġlaying": 1365,
	"Ġocean": 1366,
	"backpack": 1367,
	"ĠY": 1368,
	"form": 1369,
	"stick": 1370,
	"place": 1371,
	"rock": 1372,
	"shoes": 1373,
	"heet": 1374,
	"Ġdonut": 1375,
	"Ġwet": 1376,
	"pepper": 1377,
	"Ġsuitcase": 1378,
	"ool": 1379,
	"Ġsqu": 1380,
	"house": 1381,
	"neakers": 1382,
	"ac": 1383,
	"trash": 1384,
	"col": 1385,
	"image": 1386,
	"ster": 1387,
	"ski": 1388,
	"coffee": 1389,
	"bread": 1390,
	"Brown": 1391,
	"Ġlines": 1392,
	"Ġhe": 1393,
	"rope": 1394,
	"Ġ9": 1395,
	"rots": 1396,
	"Ġsofa": 1397,
	"cheese": 1398,
	"Ġcourt": 1399,
	"Ġstone": 1400,
	"Ġdrink": 1401,
	"gra": 1402,
	"rush": 1403,
	"vase": 1404,
	"up": 1405,
	"Ġcorn": 1406,
	"fruit": 1407,
	"Ġslee": 1408,
	"loves": 1409,
	"Ġchairs": 1410,
	"Ġcloth": 1411,
	"lace": 1412,
	"Ġdo": 1413,
	"Ġarea": 1414,
	"Ġpainted": 1415,
	"Ġimage": 1416,
	"frame": 1417,
	"sink": 1418,
	"uniform": 1419,
	"Ġstraw": 1420,
	"umbers": 1421,
	"ond": 1422,
	"Ġparking": 1423,
	"surf": 1424,
	"aker": 1425,
	"atue": 1426,
	"ale": 1427,
	"Ġmeat": 1428,
	"Ġ90": 1429,
	"ĠNo": 1430,
	"otate": 1431,
	"broccoli": 1432,
	"crete": 1433,
	"Ġcarrying": 1434,
	"apple": 1435,
	"ful": 1436,
	"Ġfull": 1437,
	"sweater": 1438,
	"alad": 1439,
	"oots": 1440,
	"Ġmicrowave": 1441,
	"Ġmug": 1442,
	"Ġcars": 1443,
	"un": 1444,
	"med": 1445,
	"seat": 1446,
	"screen": 1447,
	"Ġold": 1448,
	"Ġbottom": 1449,
	"Ġouts": 1450,
	"ĠYes": 1451,
	"Ġfinger": 1452,
	"doors": 1453,
	"ity": 1454,
	"vegetable": 1455,
	"Ġcur": 1456,
	"ords": 1457,
	"Ġflying": 1458,
	"desk": 1459,
	"flection": 1460,
	"Ġrug": 1461,
	"AN": 1462,
	"Ġgold": 1463,
	"mouth": 1464,
	"Lar": 1465,
	"Ġpurse": 1466,
	"spoon": 1467,
	"ĠIS": 1468,
	"tie": 1469,
	"Ġme": 1470,
	"books": 1471,
	"lasses": 1472,
	"Ġcarrot": 1473,
	"less": 1474,
	"clo": 1475,
	"iny": 1476,
	"blanket": 1477,
	"ning": 1478,
	"skateboard": 1479,
	"Ġwheels": 1480,
	"Large": 1481,
	"Ġcollar": 1482,
	"Ġonion": 1483,
	"Ġdu": 1484,
	"fit": 1485,
	"Ġcandle": 1486,
	"Ġcross": 1487,
	"three": 1488,
	"Ġcart": 1489,
	"Ġpart": 1490,
	"vel": 1491,
	"berry": 1492,
	"bran": 1493,
	"Ġlot": 1494,
	"fire": 1495,
	"Ġoutside": 1496,
	"Ġcord": 1497,
	"di": 1498,
	"Ġcatcher": 1499,
	"Ġfaucet": 1500,
	"ogg": 1501,
	"no": 1502,
	"pur": 1503,
	"ĠD": 1504,
	"Ġvest": 1505,
	"assen": 1506,
	"tform": 1507,
	"quid": 1508,
	"Ġtri": 1509,
	"Ġmo": 1510,
	"Ġdoors": 1511,
	"late": 1512,
	"Ġempty": 1513,
	"ones": 1514,
	"Ġpen": 1515,
	"rink": 1516,
	"ĠRotate": 1517,
	"wooden": 1518,
	"Ġtag": 1519,
	"cloth": 1520,
	"Ġgo": 1521,
	"Ġfeet": 1522,
	"Ġwindshield": 1523,
	"watch": 1524,
	"glove": 1525,
	"rust": 1526,
	"Ġlying": 1527,
	"Ġdecor": 1528,
	"van": 1529,
	"oco": 1530,
	"Ġwatching": 1531,
	"kite": 1532,
	"oni": 1533,
	"ining": 1534,
	"Ġtile": 1535,
	"Ġlu": 1536,
	"wire": 1537,
	"Ġcre": 1538,
	"orses": 1539,
	"Ġbranch": 1540,
	"dark": 1541,
	"Ġlittle": 1542,
	"Ġrun": 1543,
	"drawer": 1544,
	"celet": 1545,
	"Ġfur": 1546,
	"racket": 1547,
	"we": 1548,
	"stand": 1549,
	"nglasses": 1550,
	"Ġsun": 1551,
	"hich": 1552,
	"Ġwa": 1553,
	"Ġ1": 1554,
	"dish": 1555,
	"Ġcom": 1556,
	"Ġag": 1557,
	"Ġtak": 1558,
	"THE": 1559,
	"Ġcarpet": 1560,
	"Ġpotato": 1561,
	"Ġdou": 1562,
	"ces": 1563,
	"Ġstuffed": 1564,
	"Bo": 1565,
	"ather": 1566,
	"Ġpalm": 1567,
	"Ġcorner": 1568,
	"donut": 1569,
	"Ġpillows": 1570,
	"Ġskirt": 1571,
	"roll": 1572,
	"lephants": 1573,
	"Ġsome": 1574,
	"bicycle": 1575,
	"Ġjar": 1576,
	"ige": 1577,
	"Ġsnowboard": 1578,
	"Ġconcrete": 1579,
	"Yellow": 1580,
	"itch": 1581,
	"Ġcabinets": 1582,
	"dirt": 1583,
	"Ġtank": 1584,
	"Ġcurtains": 1585,
	"letters": 1586,
	"lid": 1587,
	"Ġwing": 1588,
	"cell": 1589,
	"roller": 1590,
	"traffic": 1591,
	"ii": 1592,
	"Ġrocks": 1593,
	"Ġring": 1594,
	"Ġagain": 1595,
	"Ġdisplay": 1596,
	"carrot": 1597,
	"sing": 1598,
	"Ġbutton": 1599,
	"Ġvegetables": 1600,
	"ste": 1601,
	"Ġcone": 1602,
	"tern": 1603,
	"tray": 1604,
	"bananas": 1605,
	"tall": 1606,
	"Ġbuildings": 1607,
	"hot": 1608,
	"ING": 1609,
	"wrist": 1610,
	"Ġtoy": 1611,
	"Ġskis": 1612,
	"Ġagainst": 1613,
	"oggles": 1614,
	"Ġsquare": 1615,
	"est": 1616,
	"ras": 1617,
	"Ġdesign": 1618,
	"vehicle": 1619,
	"ction": 1620,
	"shroom": 1621,
	"itcher": 1622,
	"ik": 1623,
	"candle": 1624,
	"pain": 1625,
	"avement": 1626,
	"alf": 1627,
	"TE": 1628,
	"Ġalong": 1629,
	"RE": 1630,
	"Ġcloud": 1631,
	"Ġmid": 1632,
	"There": 1633,
	"mon": 1634,
	"cloud": 1635,
	"gray": 1636,
	"hicken": 1637,
	"metal": 1638,
	"ocolate": 1639,
	"Ġwears": 1640,
	"Ġstack": 1641,
	"rough": 1642,
	"Ġbright": 1643,
	"Ġbushes": 1644,
	"lat": 1645,
	"Ġscarf": 1646,
	"cars": 1647,
	"rowing": 1648,
	"Ġpaw": 1649,
	"tert": 1650,
	"Ġears": 1651,
	"Ġbig": 1652,
	"az": 1653,
	"da": 1654,
	"Ġchain": 1655,
	"Ġluggage": 1656,
	"tertop": 1657,
	"ountertop": 1658,
	"grey": 1659,
	"Ġshadow": 1660,
	"onion": 1661,
	"Ġbra": 1662,
	"oven": 1663,
	"Ġcream": 1664,
	"airs": 1665,
	"Ġdi": 1666,
	"HI": 1667,
	"helves": 1668,
	"Ġmark": 1669,
	"Ġsmiling": 1670,
	"Ġbatter": 1671,
	"Ġbelt": 1672,
	"ightstand": 1673,
	"ĠObject": 1674,
	"St": 1675,
	"apers": 1676,
	"lectric": 1677,
	"tub": 1678,
	"windshield": 1679,
	"bl": 1680,
	"AR": 1681,
	"Ġhi": 1682,
	"ached": 1683,
	"iraff": 1684,
	"ĠON": 1685,
	"ĠF": 1686,
	"straw": 1687,
	"Ġshade": 1688,
	"cord": 1689,
	"Ġbottles": 1690,
	"iraffes": 1691,
	"Ġdraw": 1692,
	"shadow": 1693,
	"Ġegg": 1694,
	"Ġother": 1695,
	"Ġutensil": 1696,
	"Ġstripes": 1697,
	"rap": 1698,
	"Ġattached": 1699,
	"Ġsocks": 1700,
	"Ġturn": 1701,
	"ax": 1702,
	"Ġcolorful": 1703,
	"cross": 1704,
	"Ġjersey": 1705,
	"Ġskier": 1706,
	"Ġgroup": 1707,
	"Ġclosed": 1708,
	"sandwich": 1709,
	"monitor": 1710,
	"Ġbur": 1711,
	"sta": 1712,
	"Ġprin": 1713,
	"Ġsheet": 1714,
	"omen": 1715,
	"Ġgloves": 1716,
	"palm": 1717,
	"Ġsunglasses": 1718,
	"app": 1719,
	"Ġbal": 1720,
	"Ġplace": 1721,
	"las": 1722,
	"front": 1723,
	"Ġend": 1724,
	"assenger": 1725,
	"Ġedge": 1726,
	"Are": 1727,
	"als": 1728,
	"Ġpro": 1729,
	"iss": 1730,
	"Ġleather": 1731,
	"ots": 1732,
	"Ġspeaker": 1733,
	"Ġrail": 1734,
	"People": 1735,
	"veral": 1736,
	"ramed": 1737,
	"animal": 1738,
	"onuts": 1739,
	"Ġplatform": 1740,
	"axi": 1741,
	"surfboard": 1742,
	"Ġspot": 1743,
	"hands": 1744,
	"Ġfil": 1745,
	"Ġsticker": 1746,
	"ask": 1747,
	"Ġlettuce": 1748,
	"Ġboots": 1749,
	"baseball": 1750,
	"eyes": 1751,
	"Ġswitch": 1752,
	"these": 1753,
	"lephone": 1754,
	"meat": 1755,
	"very": 1756,
	"nob": 1757,
	"Ġfore": 1758,
	"Ġstripe": 1759,
	"Ġsalad": 1760,
	"alt": 1761,
	"Ġsneakers": 1762,
	"ges": 1763,
	"Ġbranches": 1764,
	"tte": 1765,
	"Ġwomen": 1766,
	"agn": 1767,
	"Ġworn": 1768,
	"Ġcutting": 1769,
	"Th": 1770,
	"Ġbeing": 1771,
	"gar": 1772,
	"Ġshower": 1773,
	"ccer": 1774,
	"Ġsteel": 1775,
	"Ġthrough": 1776,
	"Ġhorses": 1777,
	"fi": 1778,
	"Ġwriting": 1779,
	"Ġstore": 1780,
	"faucet": 1781,
	"iew": 1782,
	"olice": 1783,
	"rowd": 1784,
	"rate": 1785,
	"eft": 1786,
	"Ġvis": 1787,
	"stove": 1788,
	"Ġad": 1789,
	"pink": 1790,
	"rain": 1791,
	"remote": 1792,
	"onde": 1793,
	"aning": 1794,
	"Silver": 1795,
	"Ġhorn": 1796,
	"berries": 1797,
	"Ġtiles": 1798,
	"finger": 1799,
	"cony": 1800,
	"Ġbridge": 1801,
	"catcher": 1802,
	"Ġju": 1803,
	"brush": 1804,
	"Ġskate": 1805,
	"Ġclothes": 1806,
	"Ġstatue": 1807,
	"icense": 1808,
	"Ġbeer": 1809,
	"Ġlabel": 1810,
	"Ġroll": 1811,
	"rellas": 1812,
	"bras": 1813,
	"purse": 1814,
	"Ġhave": 1815,
	"Ġpattern": 1816,
	"Ġcovering": 1817,
	"Ġfilled": 1818,
	"asher": 1819,
	"mountain": 1820,
	"Ġsock": 1821,
	"us": 1822,
	"Ġholder": 1823,
	"ĠH": 1824,
	"cone": 1825,
	"Ġblinds": 1826,
	"Ġstation": 1827,
	"ppers": 1828,
	"bushes": 1829,
	"mat": 1830,
	"Ġcity": 1831,
	"bur": 1832,
	"Ġinto": 1833,
	"airplane": 1834,
	"Ġplates": 1835,
	"jar": 1836,
	"mpire": 1837,
	"Ġbeige": 1838,
	"Ġcloudy": 1839,
	"Ġband": 1840,
	"Ġfridge": 1841,
	"Ġmiddle": 1842,
	"Ġrope": 1843,
	"Ġpavement": 1844,
	"Ġbody": 1845,
	"Ġcarrots": 1846,
	"rug": 1847,
	"ĠTHE": 1848,
	"Light": 1849,
	"riage": 1850,
	"curtains": 1851,
	"iti": 1852,
	"Ġdoorway": 1853,
	"Ġelephants": 1854,
	"ors": 1855,
	"eds": 1856,
	"Ġset": 1857,
	"eatshirt": 1858,
	"pect": 1859,
	"enter": 1860,
	"Ġben": 1861,
	"pped": 1862,
	"agaz": 1863,
	"zebras": 1864,
	"Ġshap": 1865,
	"ist": 1866,
	"Ġmane": 1867,
	"Ġread": 1868,
	"Ġfe": 1869,
	"ene": 1870,
	"Ġ15": 1871,
	"Ġsleeve": 1872,
	"Ġtv": 1873,
	"Ġlicense": 1874,
	"Ġplay": 1875,
	"LA": 1876,
	"collar": 1877,
	"ho": 1878,
	"Ġun": 1879,
	"pectator": 1880,
	"Ġgar": 1881,
	"speaker": 1882,
	"baby": 1883,
	"ular": 1884,
	"Ġtowels": 1885,
	"Ġword": 1886,
	"Ġgate": 1887,
	"pan": 1888,
	"Ġtea": 1889,
	"CK": 1890,
	"washer": 1891,
	"Ġrack": 1892,
	"rocks": 1893,
	"Ġleaning": 1894,
	"Ġgrowing": 1895,
	"agnet": 1896,
	"Ġliquid": 1897,
	"Ġbet": 1898,
	"Ġcard": 1899,
	"ĠĠ": 1900,
	"Ġplants": 1901,
	"Ġcover": 1902,
	"ffiti": 1903,
	"ween": 1904,
	"LE": 1905,
	"Ġwave": 1906,
	"Ġoutfit": 1907,
	"hill": 1908,
	"Ġoutlet": 1909,
	"Ġpast": 1910,
	"branch": 1911,
	"for": 1912,
	"frisbee": 1913,
	"Three": 1914,
	"right": 1915,
	"Ġbetween": 1916,
	"buildings": 1917,
	"Ġnecklace": 1918,
	"Ġcenter": 1919,
	"Ġbucket": 1920,
	"field": 1921,
	"sauce": 1922,
	"ingers": 1923,
	"ies": 1924,
	"Ġpaint": 1925,
	"Ġday": 1926,
	"Wood": 1927,
	"potato": 1928,
	"aster": 1929,
	"Ġfireplace": 1930,
	"Ġbookshelf": 1931,
	"Ġchi": 1932,
	"Ġone": 1933,
	"Ġkne": 1934,
	"Ġmeter": 1935,
	"Ġtent": 1936,
	"ock": 1937,
	"sock": 1938,
	"rican": 1939,
	"Ġbunch": 1940,
	"suitcase": 1941,
	"ms": 1942,
	"sticker": 1943,
	"skier": 1944,
	"Ġcir": 1945,
	"batter": 1946,
	"ĠG": 1947,
	"Ġke": 1948,
	"Ġbase": 1949,
	"irds": 1950,
	"Ġview": 1951,
	"Ġumpire": 1952,
	"angular": 1953,
	"Ġscene": 1954,
	"spectator": 1955,
	"aus": 1956,
	"Ġgiraffes": 1957,
	"wing": 1958,
	"Ġplan": 1959,
	"chairs": 1960,
	"Ġgri": 1961,
	"Ġcouple": 1962,
	"camera": 1963,
	"eth": 1964,
	"teddy": 1965,
	"ould": 1966,
	"cook": 1967,
	"Ġcrust": 1968,
	"Do": 1969,
	"eather": 1970,
	"Ġpoin": 1971,
	"microwave": 1972,
	"Ġwii": 1973,
	"ated": 1974,
	"lip": 1975,
	"ER": 1976,
	"Ġtooth": 1977,
	"Ġsurface": 1978,
	"Ġdriving": 1979,
	"tis": 1980,
	"bun": 1981,
	"Ġspect": 1982,
	"Ġbare": 1983,
	"lettuce": 1984,
	"ible": 1985,
	"Ġcut": 1986,
	"cabinets": 1987,
	"Ġframed": 1988,
	"Ġpainting": 1989,
	"Ġrunning": 1990,
	"Ġsit": 1991,
	"estri": 1992,
	"Ġvery": 1993,
	"Ġpoles": 1994,
	"ĠRight": 1995,
	"Ġpatch": 1996,
	"Ġsoap": 1997,
	"Ġheadboard": 1998,
	"Ġoli": 1999,
	"Ġspots": 2000,
	"Ġsea": 2001,
	"penser": 2002,
	"Ġrow": 2003,
	"Ġanimals": 2004,
	"oll": 2005,
	"iture": 2006,
	"aucer": 2007,
	"forter": 2008,
	"Ġchocolate": 2009,
	"urniture": 2010,
	"cumber": 2011,
	"Ġpocket": 2012,
	"Ġknob": 2013,
	"issors": 2014,
	"Ġgoggles": 2015,
	"ars": 2016,
	"Ġap": 2017,
	"feet": 2018,
	"Ġpa": 2019,
	"egg": 2020,
	"tag": 2021,
	"scarf": 2022,
	"shi": 2023,
	"Ġelectric": 2024,
	"Ġtablecloth": 2025,
	"ooter": 2026,
	"chup": 2027,
	"Ġpipe": 2028,
	"Ġarrow": 2029,
	"Sh": 2030,
	"Ġex": 2031,
	"Ġshaker": 2032,
	"wheels": 2033,
	"Ġblonde": 2034,
	"Ġnet": 2035,
	"Ġfurniture": 2036,
	"Ġapron": 2037,
	"Part": 2038,
	"Ġkey": 2039,
	"ĠOF": 2040,
	"clothes": 2041,
	"Ġmi": 2042,
	"bage": 2043,
	"Ġnumbers": 2044,
	"vegetables": 2045,
	"ĠLeft": 2046,
	"blinds": 2047,
	"paw": 2048,
	"dis": 2049,
	"ausage": 2050,
	"Ġblond": 2051,
	"ative": 2052,
	"skirt": 2053,
	"vy": 2054,
	"vice": 2055,
	"Ġtopping": 2056,
	"Ġfan": 2057,
	"Ġbracelet": 2058,
	"some": 2059,
	"Ġthis": 2060,
	"Ġble": 2061,
	"Ġtrack": 2062,
	"ous": 2063,
	"horn": 2064,
	"bath": 2065,
	"min": 2066,
	"Ġboot": 2067,
	"Ġhome": 2068,
	"Ġsoccer": 2069,
	"Ġspectator": 2070,
	"Ġtrim": 2071,
	"Ġacross": 2072,
	"Ġskin": 2073,
	"license": 2074,
	"lights": 2075,
	"Ġhu": 2076,
	"iting": 2077,
	"Ġarms": 2078,
	"eath": 2079,
	"Ġvisible": 2080,
	"Ġcows": 2081,
	"pillows": 2082,
	"Ġeng": 2083,
	"arrow": 2084,
	"Ġwires": 2085,
	"tennis": 2086,
	"achine": 2087,
	"there": 2088,
	"Ġcountertop": 2089,
	"tower": 2090,
	"mane": 2091,
	"park": 2092,
	"Orange": 2093,
	"Ġtaken": 2094,
	"Which": 2095,
	"umpire": 2096,
	"ooth": 2097,
	"Ġdough": 2098,
	"Ġapples": 2099,
	"Ġas": 2100,
	"Ġplaid": 2101,
	"Ġshop": 2102,
	"Ġfrosting": 2103,
	"Ġpitcher": 2104,
	"doorway": 2105,
	"ny": 2106,
	"stuffed": 2107,
	"go": 2108,
	"OW": 2109,
	"Ġcand": 2110,
	"ainless": 2111,
	"ideo": 2112,
	"Ġzebras": 2113,
	"ulti": 2114,
	"Ġnightstand": 2115,
	"Ġshiny": 2116,
	"label": 2117,
	"ings": 2118,
	"Ġliving": 2119,
	"ching": 2120,
	"Ġnot": 2121,
	"Ġdogs": 2122,
	"Ġpassenger": 2123,
	"stone": 2124,
	"ope": 2125,
	"phones": 2126,
	"Ġskiing": 2127,
	"Ġcontain": 2128,
	"Ġpine": 2129,
	"carpet": 2130,
	"arding": 2131,
	"oup": 2132,
	"Ġmat": 2133,
	"fur": 2134,
	"Ġboth": 2135,
	"Ġjump": 2136,
	"iler": 2137,
	"ware": 2138,
	"Ġcase": 2139,
	"Ġfac": 2140,
	"Ġmask": 2141,
	"ranges": 2142,
	"ection": 2143,
	"bb": 2144,
	"Ġhood": 2145,
	"ety": 2146,
	"acon": 2147,
	"Ġtomatoes": 2148,
	"belt": 2149,
	"Ġbeard": 2150,
	"Ġrailing": 2151,
	"Ġrect": 2152,
	"Ġdresser": 2153,
	"Ġfo": 2154,
	"opy": 2155,
	"Ġhigh": 2156,
	"He": 2157,
	"plants": 2158,
	"ney": 2159,
	"young": 2160,
	"ered": 2161,
	"Ġite": 2162,
	"clear": 2163,
	"Ġtoget": 2164,
	"ilk": 2165,
	"Ġtogether": 2166,
	"Ġpath": 2167,
	"du": 2168,
	"Boy": 2169,
	"Ġits": 2170,
	"ult": 2171,
	"Ġsliced": 2172,
	"louse": 2173,
	"Ġlit": 2174,
	"pple": 2175,
	"EN": 2176,
	"Ġmar": 2177,
	"Ġdrawers": 2178,
	"luggage": 2179,
	"Ġchicken": 2180,
	"Ġstairs": 2181,
	"xture": 2182,
	"utensil": 2183,
	"gu": 2184,
	"Ġfries": 2185,
	"jersey": 2186,
	"ape": 2187,
	"Ġser": 2188,
	"Ġcooked": 2189,
	"Ġhel": 2190,
	"Ġwaves": 2191,
	"Ġbathtub": 2192,
	"Ġho": 2193,
	"Ġpepperoni": 2194,
	"rinkles": 2195,
	"mney": 2196,
	"sofa": 2197,
	"Ġdeck": 2198,
	"Ġumbrellas": 2199,
	"Ġreflection": 2200,
	"Ġdirty": 2201,
	"Ġtu": 2202,
	"Ġsurfer": 2203,
	"geon": 2204,
	"Ġmaker": 2205,
	"Window": 2206,
	"Sk": 2207,
	"Ġpu": 2208,
	"Ġsoda": 2209,
	"pie": 2210,
	"Ġgu": 2211,
	"Ġbags": 2212,
	"agazine": 2213,
	"Ġchildren": 2214,
	"painting": 2215,
	"sneakers": 2216,
	"Ġkind": 2217,
	"Ġsigns": 2218,
	"Ġflat": 2219,
	"Ġposter": 2220,
	"Ġengine": 2221,
	"lices": 2222,
	"Ġz": 2223,
	"rier": 2224,
	"Ġcarriage": 2225,
	"mel": 2226,
	"Ġriver": 2227,
	"ĠU": 2228,
	"stard": 2229,
	"Ġhalf": 2230,
	"Ġkid": 2231,
	"Ġwork": 2232,
	"Ġtalk": 2233,
	"Ġoranges": 2234,
	"icing": 2235,
	"ooler": 2236,
	"oulder": 2237,
	"outlet": 2238,
	"Ġbricks": 2239,
	"ier": 2240,
	"Ġtelephone": 2241,
	"carrots": 2242,
	"four": 2243,
	"Ġshelves": 2244,
	"Ġwaiting": 2245,
	"Ġdonuts": 2246,
	"chain": 2247,
	"Ġpor": 2248,
	"Ġturned": 2249,
	"Ġcupboard": 2250,
	"Ġplayers": 2251,
	"Ġmushroom": 2252,
	"hed": 2253,
	"Ġshaped": 2254,
	"Ġbears": 2255,
	"icks": 2256,
	"Ġbrush": 2257,
	"ip": 2258,
	"Ġpile": 2259,
	"Ġswing": 2260,
	"Ġwetsuit": 2261,
	"Ġbik": 2262,
	"tent": 2263,
	"ded": 2264,
	"zing": 2265,
	"tten": 2266,
	"stri": 2267,
	"Ġcrowd": 2268,
	"Ġice": 2269,
	"Ġbutter": 2270,
	"reflection": 2271,
	"Ġwords": 2272,
	"headboard": 2273,
	"Ġsy": 2274,
	"Ġany": 2275,
	"Ġdra": 2276,
	"Ġwra": 2277,
	"olding": 2278,
	"pine": 2279,
	"amp": 2280,
	"Ġyou": 2281,
	"cted": 2282,
	"Ġgrassy": 2283,
	"snowboard": 2284,
	"Ġdispenser": 2285,
	"Ġshore": 2286,
	"Ġthree": 2287,
	"ming": 2288,
	"afety": 2289,
	"Ġtalking": 2290,
	"land": 2291,
	"Ġpack": 2292,
	"sert": 2293,
	"bottles": 2294,
	"atu": 2295,
	"Wooden": 2296,
	"Ġban": 2297,
	"Ġped": 2298,
	"Ġpre": 2299,
	"Ġdecoration": 2300,
	"Ġbea": 2301,
	"amic": 2302,
	"Ġusing": 2303,
	"Ġthin": 2304,
	"gate": 2305,
	"moke": 2306,
	"urant": 2307,
	"mbol": 2308,
	"open": 2309,
	"bookshelf": 2310,
	"Ġlette": 2311,
	"section": 2312,
	"Ġjuice": 2313,
	"OR": 2314,
	"Ġfixture": 2315,
	"Ġhard": 2316,
	"sue": 2317,
	"Trees": 2318,
	"boot": 2319,
	"eramic": 2320,
	"Ġpapers": 2321,
	"sheet": 2322,
	"tiles": 2323,
	"Ġkettle": 2324,
	"Ġdevice": 2325,
	"Ġcrate": 2326,
	"mug": 2327,
	"oral": 2328,
	"draw": 2329,
	"Ġwritten": 2330,
	"decor": 2331,
	"port": 2332,
	"Ġgrazing": 2333,
	"Ġlettering": 2334,
	"Ġcups": 2335,
	"eathers": 2336,
	"itar": 2337,
	"wsp": 2338,
	"Ġlemon": 2339,
	"nut": 2340,
	"Ġsweatshirt": 2341,
	"pipe": 2342,
	"Ġbul": 2343,
	"Ġcheck": 2344,
	"work": 2345,
	"staurant": 2346,
	"bracelet": 2347,
	"Ġskateboarder": 2348,
	"Ġmachine": 2349,
	"short": 2350,
	"outfit": 2351,
	"boarding": 2352,
	"Ġdrinking": 2353,
	"Ġbalcony": 2354,
	"several": 2355,
	"Ġreflect": 2356,
	"Ġearring": 2357,
	"cart": 2358,
	"pad": 2359,
	"Ġtaxi": 2360,
	"hone": 2361,
	"Ġpanel": 2362,
	"att": 2363,
	"Ġsay": 2364,
	"quet": 2365,
	"Ġstacked": 2366,
	"Girl": 2367,
	"rine": 2368,
	"Ġpick": 2369,
	"oliceman": 2370,
	"bar": 2371,
	"ance": 2372,
	"wires": 2373,
	"branches": 2374,
	"ON": 2375,
	"Ġpotatoes": 2376,
	"toy": 2377,
	"eping": 2378,
	"HITE": 2379,
	"Ġshow": 2380,
	"Ġdock": 2381,
	"akes": 2382,
	"beer": 2383,
	"Ġdouble": 2384,
	"Ġvideo": 2385,
	"Ġplu": 2386,
	"statue": 2387,
	"Ġsection": 2388,
	"agon": 2389,
	"wspaper": 2390,
	"Ġjet": 2391,
	"Ġrectangular": 2392,
	"Ġpower": 2393,
	"Cat": 2394,
	"Ġlog": 2395,
	"necklace": 2396,
	"left": 2397,
	"mushroom": 2398,
	"olded": 2399,
	"Ġsail": 2400,
	"set": 2401,
	"Ġlad": 2402,
	"bs": 2403,
	"Ġsurfing": 2404,
	"Ġresting": 2405,
	"rance": 2406,
	"sun": 2407,
	"ini": 2408,
	"bow": 2409,
	"Dark": 2410,
	"word": 2411,
	"Ġsn": 2412,
	"rent": 2413,
	"ĠIN": 2414,
	"tel": 2415,
	"Ġcircle": 2416,
	"Ġtiled": 2417,
	"ĠTV": 2418,
	"ases": 2419,
	"Ġsleeved": 2420,
	"Ġoutdoors": 2421,
	"other": 2422,
	"shion": 2423,
	"Ġbirds": 2424,
	"Ġrice": 2425,
	"Ġknee": 2426,
	"Ġkn": 2427,
	"Ġonions": 2428,
	"ĠDown": 2429,
	"Ġstar": 2430,
	"Ġboxes": 2431,
	"merican": 2432,
	"net": 2433,
	"Ġsur": 2434,
	"controller": 2435,
	"vertis": 2436,
	"Ġflu": 2437,
	"Ġsl": 2438,
	"bucket": 2439,
	"Ġwalls": 2440,
	"Ġtaking": 2441,
	"ards": 2442,
	"past": 2443,
	"skis": 2444,
	"couple": 2445,
	"Ġmountains": 2446,
	"na": 2447,
	"Ġscooter": 2448,
	"Ġal": 2449,
	"Ġclean": 2450,
	"utif": 2451,
	"Ġobject": 2452,
	"Ġ\"": 2453,
	"Ġlo": 2454,
	"socks": 2455,
	"Ġname": 2456,
	"AT": 2457,
	"Ġsaucer": 2458,
	"Ġcable": 2459,
	"numbers": 2460,
	"ile": 2461,
	"entrance": 2462,
	"dd": 2463,
	"Ġgoat": 2464,
	"LL": 2465,
	"ition": 2466,
	"Ġswim": 2467,
	"liquid": 2468,
	"words": 2469,
	"Ġwe": 2470,
	"Ġcoming": 2471,
	"verage": 2472,
	"Ġcurb": 2473,
	"parking": 2474,
	"little": 2475,
	"ari": 2476,
	"Ġgirls": 2477,
	"Ġshoulder": 2478,
	"pepperoni": 2479,
	"Ġsteps": 2480,
	"Ġceramic": 2481,
	"cl": 2482,
	"zer": 2483,
	"Ġpeppers": 2484,
	"utiful": 2485,
	"Ġsays": 2486,
	"Ġeach": 2487,
	"atula": 2488,
	"Ġladder": 2489,
	"Ġtong": 2490,
	"fireplace": 2491,
	"fferent": 2492,
	"lur": 2493,
	"apron": 2494,
	"Ġboys": 2495,
	"Ġpull": 2496,
	"appy": 2497,
	"Ġramp": 2498,
	"aking": 2499,
	"Ġflop": 2500,
	"ister": 2501,
	"Ġmans": 2502,
	"melon": 2503,
	"Ġtoothbrush": 2504,
	"ess": 2505,
	"resh": 2506,
	"Ġdining": 2507,
	"Ġswinging": 2508,
	"poster": 2509,
	"Ġwhich": 2510,
	"Ġwalkway": 2511,
	"nic": 2512,
	"com": 2513,
	"ND": 2514,
	"Ġnote": 2515,
	"pat": 2516,
	"Ġthick": 2517,
	"Ġmotor": 2518,
	"Ġblender": 2519,
	"Ġcrossing": 2520,
	"Ġcushion": 2521,
	"Ġteeth": 2522,
	"Ġpieces": 2523,
	"Ġduck": 2524,
	"Ġtub": 2525,
	"Ġpol": 2526,
	"ounted": 2527,
	"drink": 2528,
	"rench": 2529,
	"Ġbeak": 2530,
	"topping": 2531,
	"Ġart": 2532,
	"Ġdishwasher": 2533,
	"ents": 2534,
	"gloves": 2535,
	"Ġwas": 2536,
	"Ġutensils": 2537,
	"Ġcement": 2538,
	"Ġdry": 2539,
	"Ġsleeping": 2540,
	"eller": 2541,
	"AS": 2542,
	"Who": 2543,
	"Ġsoup": 2544,
	"inea": 2545,
	"plan": 2546,
	"Young": 2547,
	"plates": 2548,
	"Ġall": 2549,
	"illar": 2550,
	"chicken": 2551,
	"Ġland": 2552,
	"Ġhorns": 2553,
	"Ġwristband": 2554,
	"gold": 2555,
	"zed": 2556,
	"fro": 2557,
	"tablecloth": 2558,
	"Ġtis": 2559,
	"Ġdressed": 2560,
	"Ġslices": 2561,
	"Ġrestaurant": 2562,
	"ceiling": 2563,
	"salad": 2564,
	"Ġstrawberry": 2565,
	"Ġsee": 2566,
	"spread": 2567,
	"spots": 2568,
	"bal": 2569,
	"Ġsupp": 2570,
	"ropeller": 2571,
	"Ġmounted": 2572,
	"IR": 2573,
	"Gray": 2574,
	"Ġfour": 2575,
	"EAR": 2576,
	"Ġstool": 2577,
	"Ġleafy": 2578,
	"children": 2579,
	"Ġscissors": 2580,
	"io": 2581,
	"Ġtou": 2582,
	"squ": 2583,
	"Ġprint": 2584,
	"Tall": 2585,
	"Ġgrill": 2586,
	"estrian": 2587,
	"Ġburner": 2588,
	"ffy": 2589,
	"papers": 2590,
	"ins": 2591,
	"shower": 2592,
	"rice": 2593,
	"wn": 2594,
	"Ġlooks": 2595,
	"ife": 2596,
	"paint": 2597,
	"Ġboats": 2598,
	"ices": 2599,
	"Ġha": 2600,
	"icnic": 2601,
	"Ġheld": 2602,
	"Ġhole": 2603,
	"inach": 2604,
	"ES": 2605,
	"Ġdecorative": 2606,
	"Ġfacing": 2607,
	"Ġblock": 2608,
	"Ġsty": 2609,
	"Ġsits": 2610,
	"Ġoffice": 2611,
	"Ġtheir": 2612,
	"tertain": 2613,
	"Ġplanter": 2614,
	"Ġused": 2615,
	"ley": 2616,
	"Ġpar": 2617,
	"boots": 2618,
	"rack": 2619,
	"women": 2620,
	"Ġsafety": 2621,
	"Ġshining": 2622,
	"iron": 2623,
	"ED": 2624,
	"ud": 2625,
	"Ġjumping": 2626,
	"Ġolive": 2627,
	"wet": 2628,
	"purple": 2629,
	"Ġhappy": 2630,
	"etchup": 2631,
	"Ġrain": 2632,
	"Ġstem": 2633,
	"Ġcab": 2634,
	"pocket": 2635,
	"bright": 2636,
	"Big": 2637,
	"Ġmagnet": 2638,
	"Ġwhi": 2639,
	"tertainment": 2640,
	"taxi": 2641,
	"tomatoes": 2642,
	"Ġdoll": 2643,
	"Ġlink": 2644,
	"chi": 2645,
	"Ġrear": 2646,
	"Ġcomforter": 2647,
	"bathtub": 2648,
	"fan": 2649,
	"male": 2650,
	"Ġfingers": 2651,
	"Ġsuv": 2652,
	"ily": 2653,
	"IT": 2654,
	"cing": 2655,
	"nt": 2656,
	"ĠLook": 2657,
	"stairs": 2658,
	"Ġlike": 2659,
	"Ġmany": 2660,
	"OU": 2661,
	"Ġchop": 2662,
	"Ġbut": 2663,
	"Look": 2664,
	"ony": 2665,
	"Head": 2666,
	"ired": 2667,
	"ouses": 2668,
	"Ġstrap": 2669,
	"Metal": 2670,
	"crust": 2671,
	"suv": 2672,
	"ial": 2673,
	"bik": 2674,
	"pples": 2675,
	"Ġham": 2676,
	"pitcher": 2677,
	"Ġstands": 2678,
	"Ġclothing": 2679,
	"Ġcooking": 2680,
	"Ġstra": 2681,
	"Pick": 2682,
	"Ġstainless": 2683,
	"Ġfloral": 2684,
	"stache": 2685,
	"Ġpaved": 2686,
	"Ġcalm": 2687,
	"beach": 2688,
	"icrop": 2689,
	"bber": 2690,
	"apples": 2691,
	"Ġheadband": 2692,
	"Ġref": 2693,
	"diator": 2694,
	"Ġballoon": 2695,
	"Ġketchup": 2696,
	"Ġcardboard": 2697,
	"cular": 2698,
	"Ġpos": 2699,
	"Ġdifferent": 2700,
	"Ġbookcase": 2701,
	"Bu": 2702,
	"Re": 2703,
	"Ġfolded": 2704,
	"star": 2705,
	"Ġseen": 2706,
	"Ġi": 2707,
	"Ġfish": 2708,
	"soap": 2709,
	"icrophone": 2710,
	"countertop": 2711,
	"graffiti": 2712,
	"Ġtrailer": 2713,
	"Ġsugar": 2714,
	"frosting": 2715,
	"surfer": 2716,
	"arms": 2717,
	"hole": 2718,
	"Ġforest": 2719,
	"handle": 2720,
	"here": 2721,
	"ĠWHITE": 2722,
	"Ġthumb": 2723,
	"Pink": 2724,
	"ET": 2725,
	"Dog": 2726,
	"Ġstroller": 2727,
	"soda": 2728,
	"cand": 2729,
	"nightstand": 2730,
	"wii": 2731,
	"Ġdin": 2732,
	"strawberry": 2733,
	"Ġsandals": 2734,
	"Ġsausage": 2735,
	"Ġsticking": 2736,
	"Co": 2737,
	"Ġlake": 2738,
	"tank": 2739,
	"cupboard": 2740,
	"cakes": 2741,
	"pit": 2742,
	"lemon": 2743,
	"burner": 2744,
	"Ġiron": 2745,
	"Ġmilk": 2746,
	"ttoman": 2747,
	"piece": 2748,
	"Ġty": 2749,
	"Ġki": 2750,
	"Ġstring": 2751,
	"anges": 2752,
	"goggles": 2753,
	"Ġnight": 2754,
	"olive": 2755,
	"Ġcupcake": 2756,
	"Snow": 2757,
	"Ġdriver": 2758,
	"Ġgoing": 2759,
	"Ġflags": 2760,
	"river": 2761,
	"oranges": 2762,
	"On": 2763,
	"OM": 2764,
	"Ġtoaster": 2765,
	"plastic": 2766,
	"home": 2767,
	"ally": 2768,
	"Ġholds": 2769,
	"ju": 2770,
	"Ġhandles": 2771,
	"Ġdoughnut": 2772,
	"Picture": 2773,
	"ef": 2774,
	"Ġbedroom": 2775,
	"Ġchar": 2776,
	"magnet": 2777,
	"Ġlap": 2778,
	"lurry": 2779,
	"Ġgraffiti": 2780,
	"Ġcomp": 2781,
	"Ġflo": 2782,
	"beard": 2783,
	"shelves": 2784,
	"One": 2785,
	"cil": 2786,
	"cture": 2787,
	"bricks": 2788,
	"Ġgravel": 2789,
	"Ġicing": 2790,
	"ladder": 2791,
	"neath": 2792,
	"Ġsignal": 2793,
	"Ġphotog": 2794,
	"lower": 2795,
	"Ġairport": 2796,
	"Ġcucumber": 2797,
	"Shadow": 2798,
	"ycl": 2799,
	"ashing": 2800,
	"Ġwrapped": 2801,
	"Ġunderneath": 2802,
	"Ġreading": 2803,
	"pa": 2804,
	"Ġcast": 2805,
	"Ġheadlight": 2806,
	"Ġflip": 2807,
	"Ġcheckered": 2808,
	"icker": 2809,
	"Ġcond": 2810,
	"Ġmix": 2811,
	"stop": 2812,
	"group": 2813,
	"Ġpulling": 2814,
	"Long": 2815,
	"ium": 2816,
	"Ġel": 2817,
	"inter": 2818,
	"Ġbell": 2819,
	"fingers": 2820,
	"oc": 2821,
	"crate": 2822,
	"real": 2823,
	"oodles": 2824,
	"slice": 2825,
	"Ġskateboarding": 2826,
	"drawers": 2827,
	"bags": 2828,
	"Ġlift": 2829,
	"LACK": 2830,
	"cable": 2831,
	"ives": 2832,
	"Ġpony": 2833,
	"Ġbeautiful": 2834,
	"Ġrunway": 2835,
	"mbs": 2836,
	"ical": 2837,
	"Ġtoppings": 2838,
	"Ġblouse": 2839,
	"ement": 2840,
	"Ġsymbol": 2841,
	"Ġway": 2842,
	"Ġcooler": 2843,
	"cucumber": 2844,
	"Ġfruits": 2845,
	"Ġmotorcycles": 2846,
	"Ġbanner": 2847,
	"gers": 2848,
	"urch": 2849,
	"lumin": 2850,
	"liance": 2851,
	"Ġgrape": 2852,
	"Ġbacon": 2853,
	"decoration": 2854,
	"ckpit": 2855,
	"mountains": 2856,
	"ders": 2857,
	"balcony": 2858,
	"mas": 2859,
	"dishwasher": 2860,
	"Ġbulb": 2861,
	"Ġsalt": 2862,
	"Ġserving": 2863,
	"Ġdessert": 2864,
	"Ġcellphone": 2865,
	"wristband": 2866,
	"Ġport": 2867,
	"ineapple": 2868,
	"Ġrefle": 2869,
	"Ġfluffy": 2870,
	"donuts": 2871,
	"Ġeggs": 2872,
	"Ġshowing": 2873,
	"ering": 2874,
	"fries": 2875,
	"bridge": 2876,
	"Ġtee": 2877,
	"onions": 2878,
	"dra": 2879,
	"orful": 2880,
	"Ġbre": 2881,
	"Ġcandles": 2882,
	"corn": 2883,
	"Ġgrapes": 2884,
	"Ġcolour": 2885,
	"Does": 2886,
	"Ġcanopy": 2887,
	"Ġfeathers": 2888,
	"Ġripe": 2889,
	"ading": 2890,
	"ret": 2891,
	"line": 2892,
	"Ġenclo": 2893,
	"Ġlin": 2894,
	"hisk": 2895,
	"Ġshi": 2896,
	"grape": 2897,
	"platform": 2898,
	"earring": 2899,
	"Ġbikes": 2900,
	"gout": 2901,
	"kitchen": 2902,
	"empty": 2903,
	"store": 2904,
	"Glass": 2905,
	"Ch": 2906,
	"Ġper": 2907,
	"Ġbin": 2908,
	"Ġfen": 2909,
	"amily": 2910,
	"Ġoffic": 2911,
	"Ġslope": 2912,
	"Ġje": 2913,
	"fig": 2914,
	"Ġhay": 2915,
	"per": 2916,
	"Ġmulti": 2917,
	"Ġbuttons": 2918,
	"Ġcru": 2919,
	"Ġpastry": 2920,
	"Ġdoing": 2921,
	"cul": 2922,
	"Four": 2923,
	"game": 2924,
	"Ġready": 2925,
	"skateboarder": 2926,
	"ĠST": 2927,
	"log": 2928,
	"Ġitems": 2929,
	"Ġstru": 2930,
	"lery": 2931,
	"hing": 2932,
	"rome": 2933,
	"sted": 2934,
	"ddler": 2935,
	"Ġtissue": 2936,
	"Ġhotdog": 2937,
	"que": 2938,
	"culp": 2939,
	"Ġmustard": 2940,
	"Water": 2941,
	"Ġadvertis": 2942,
	"Ġpatterned": 2943,
	"Ġbla": 2944,
	"Ġaw": 2945,
	"Ġstep": 2946,
	"assengers": 2947,
	"Ġpillar": 2948,
	"abric": 2949,
	"day": 2950,
	"Ġplacemat": 2951,
	"Ġchimney": 2952,
	"Ġmagazine": 2953,
	"riz": 2954,
	"Ġreflected": 2955,
	"Ġmeal": 2956,
	"Ġmel": 2957,
	"Turn": 2958,
	"Ġsupport": 2959,
	"Li": 2960,
	"telephone": 2961,
	"Ġcats": 2962,
	"end": 2963,
	"EARING": 2964,
	"Some": 2965,
	"Ġbull": 2966,
	"ĠUp": 2967,
	"ĠE": 2968,
	"ĠWEARING": 2969,
	"sweatshirt": 2970,
	"Front": 2971,
	"ctor": 2972,
	"Ġstair": 2973,
	"Ġcla": 2974,
	"lain": 2975,
	"boxes": 2976,
	"Hand": 2977,
	"sticks": 2978,
	"Open": 2979,
	"mer": 2980,
	"ĠWii": 2981,
	"Ġbarrier": 2982,
	"Ġreflecting": 2983,
	"tooth": 2984,
	"Ġbent": 2985,
	"crowd": 2986,
	"rand": 2987,
	"Ġtables": 2988,
	"mouse": 2989,
	"boats": 2990,
	"Ġbow": 2991,
	"Ġtied": 2992,
	"Ġstyle": 2993,
	"power": 2994,
	"peppers": 2995,
	"Ġfresh": 2996,
	"burger": 2997,
	"culpture": 2998,
	"ward": 2999,
	"cups": 3000,
	"Ġdrain": 3001,
	"Ġtongue": 3002,
	"many": 3003,
	"Ġelectrical": 3004,
	"prin": 3005,
	"itten": 3006,
	"Ġheart": 3007,
	"Ġfla": 3008,
	"time": 3009,
	"inder": 3010,
	"vers": 3011,
	"ital": 3012,
	"Ġcontainers": 3013,
	"aked": 3014,
	"Ġolives": 3015,
	"Ġhoo": 3016,
	"Ġsprinkles": 3017,
	"To": 3018,
	"ana": 3019,
	"Ġbeneath": 3020,
	"Ġfeed": 3021,
	"Ġvehicles": 3022,
	"butter": 3023,
	"Ġdecker": 3024,
	"Ġplatter": 3025,
	"Ġcube": 3026,
	"sure": 3027,
	"fo": 3028,
	"ise": 3029,
	"duce": 3030,
	"goat": 3031,
	"Grey": 3032,
	"ages": 3033,
	"Ġcurved": 3034,
	"ters": 3035,
	"Sign": 3036,
	"sty": 3037,
	"Ġclose": 3038,
	"Ġab": 3039,
	"Ġpointing": 3040,
	"OO": 3041,
	"unch": 3042,
	"Ġfabric": 3043,
	"Ġpigeon": 3044,
	"Ġpool": 3045,
	"Ġcage": 3046,
	"yclist": 3047,
	"celain": 3048,
	"big": 3049,
	"Ġpul": 3050,
	"ĠMAN": 3051,
	"bookcase": 3052,
	"Ġbeverage": 3053,
	"gri": 3054,
	"Ġforeground": 3055,
	"Ġentrance": 3056,
	"wetsuit": 3057,
	"Ġnewspaper": 3058,
	"Ġtape": 3059,
	"angle": 3060,
	"avy": 3061,
	"Ġstructure": 3062,
	"comforter": 3063,
	"Ġsandy": 3064,
	"ume": 3065,
	"Ġmitt": 3066,
	"Ġpicnic": 3067,
	"Ġbowls": 3068,
	"umer": 3069,
	"Ġgas": 3070,
	"ado": 3071,
	"Ġmenu": 3072,
	"Ġnapkins": 3073,
	"Ġbeans": 3074,
	"Ġge": 3075,
	"Ġmale": 3076,
	"py": 3077,
	"estrians": 3078,
	"Ġlawn": 3079,
	"pick": 3080,
	"Se": 3081,
	"aul": 3082,
	"salt": 3083,
	"pigeon": 3084,
	"Ġmini": 3085,
	"Ġheadphones": 3086,
	"sausage": 3087,
	"chocolate": 3088,
	"Ġsnowboarder": 3089,
	"Ġrubber": 3090,
	"horses": 3091,
	"otive": 3092,
	"dresser": 3093,
	"Baseball": 3094,
	"elephants": 3095,
	"Ġhaired": 3096,
	"Ġbro": 3097,
	"Ġduring": 3098,
	"ristmas": 3099,
	"ild": 3100,
	"Put": 3101,
	"tenna": 3102,
	"Ġdishes": 3103,
	"brick": 3104,
	"she": 3105,
	"Ġhook": 3106,
	"tong": 3107,
	"Ġitem": 3108,
	"Ġgarbage": 3109,
	"Back": 3110,
	"Ġtext": 3111,
	"steps": 3112,
	"Ġprote": 3113,
	"patch": 3114,
	"Pi": 3115,
	"Ġgla": 3116,
	"Ġrais": 3117,
	"ocean": 3118,
	"raph": 3119,
	"lets": 3120,
	"cond": 3121,
	"Ġadult": 3122,
	"HIS": 3123,
	"umpkin": 3124,
	"wic": 3125,
	"Ġcords": 3126,
	"passenger": 3127,
	"Ġenclosure": 3128,
	"Ġdinner": 3129,
	"shop": 3130,
	"Ġcurly": 3131,
	"spectators": 3132,
	"Ġsmoke": 3133,
	"Ġsnowy": 3134,
	"Car": 3135,
	"beak": 3136,
	"Ġporcelain": 3137,
	"wiches": 3138,
	"rimp": 3139,
	"mi": 3140,
	"ketchup": 3141,
	"Ġwide": 3142,
	"ppy": 3143,
	"Ġthrow": 3144,
	"Ġrim": 3145,
	"cows": 3146,
	"Ġdot": 3147,
	"potatoes": 3148,
	"juice": 3149,
	"Ġwagon": 3150,
	"asted": 3151,
	"towels": 3152,
	"Ġzoo": 3153,
	"irth": 3154,
	"Ġyard": 3155,
	"Ġpolar": 3156,
	"Ġawning": 3157,
	"pping": 3158,
	"Ġlife": 3159,
	"cast": 3160,
	"teeth": 3161,
	"Ġsheets": 3162,
	"Ġkites": 3163,
	"Ġtime": 3164,
	"dio": 3165,
	"Ġfig": 3166,
	"voc": 3167,
	"vocado": 3168,
	"Ġweeds": 3169,
	"Ġtouching": 3170,
	"mething": 3171,
	"Ġanother": 3172,
	"lowing": 3173,
	"ĠSU": 3174,
	"Ġpaws": 3175,
	"asil": 3176,
	"Ġconne": 3177,
	"Pl": 3178,
	"Ġstor": 3179,
	"stru": 3180,
	"Ġamerican": 3181,
	"Ġcrosswalk": 3182,
	"american": 3183,
	"ano": 3184,
	"balloon": 3185,
	"mask": 3186,
	"Ġfigu": 3187,
	"Ġspl": 3188,
	"pair": 3189,
	"Ġfigure": 3190,
	"Ġpads": 3191,
	"Grass": 3192,
	"irthday": 3193,
	"onkey": 3194,
	"stume": 3195,
	"RA": 3196,
	"IG": 3197,
	"hak": 3198,
	"Ġpaddle": 3199,
	"wig": 3200,
	"Ġabout": 3201,
	"Ġhere": 3202,
	"Ġspatula": 3203,
	"Ġsli": 3204,
	"Ġcookie": 3205,
	"Ġofficer": 3206,
	"Ġbenches": 3207,
	"Ġmud": 3208,
	"acher": 3209,
	"ned": 3210,
	"cupcake": 3211,
	"Ġstrawberries": 3212,
	"Ġentertainment": 3213,
	"Ġtusk": 3214,
	"gravel": 3215,
	"Ġorn": 3216,
	"ling": 3217,
	"bbon": 3218,
	"Ġshel": 3219,
	"Ġchurch": 3220,
	"Ġinter": 3221,
	"ĠBLACK": 3222,
	"Ġwicker": 3223,
	"flags": 3224,
	"umbrellas": 3225,
	"stom": 3226,
	"jo": 3227,
	"horns": 3228,
	"Ġpulled": 3229,
	"hiskers": 3230,
	"Ġship": 3231,
	"skin": 3232,
	"ham": 3233,
	"Ġtires": 3234,
	"risbee": 3235,
	"Ġswimming": 3236,
	"Ġmaroon": 3237,
	"utensils": 3238,
	"Ġmatch": 3239,
	"oose": 3240,
	"Ġprinted": 3241,
	"Tennis": 3242,
	"Ġshirts": 3243,
	"Ġbedspread": 3244,
	"Ġhitting": 3245,
	"Ġcandy": 3246,
	"planter": 3247,
	"attress": 3248,
	"bacon": 3249,
	"carriage": 3250,
	"Ġcal": 3251,
	"Ġguitar": 3252,
	"arp": 3253,
	"Ġpas": 3254,
	"Building": 3255,
	"Tree": 3256,
	"policeman": 3257,
	"Ġhoriz": 3258,
	"Ġhose": 3259,
	"Ġbi": 3260,
	"Ġportion": 3261,
	"umn": 3262,
	"chimney": 3263,
	"iflower": 3264,
	"silverware": 3265,
	"Ġpots": 3266,
	"Ġchest": 3267,
	"Ġshopping": 3268,
	"tty": 3269,
	"Ġpictures": 3270,
	"cream": 3271,
	"pod": 3272,
	"Cle": 3273,
	"ĠAND": 3274,
	"grapes": 3275,
	"Ġdel": 3276,
	"sy": 3277,
	"blouse": 3278,
	"aded": 3279,
	"Ġhardwood": 3280,
	"dou": 3281,
	"ilt": 3282,
	"display": 3283,
	"auliflower": 3284,
	"Ġthem": 3285,
	"thumb": 3286,
	"colored": 3287,
	"achers": 3288,
	"sian": 3289,
	"card": 3290,
	"Ġber": 3291,
	"Ġappliance": 3292,
	"ious": 3293,
	"Ġpatio": 3294,
	"cutting": 3295,
	"sail": 3296,
	"stack": 3297,
	"nuts": 3298,
	"cords": 3299,
	"cooked": 3300,
	"haki": 3301,
	"Ġmound": 3302,
	"Ġsticks": 3303,
	"Ġfolding": 3304,
	"Ġgarage": 3305,
	"Ġwhile": 3306,
	"tea": 3307,
	"Ġcondition": 3308,
	"Ġenjo": 3309,
	"toaster": 3310,
	"Ġpropeller": 3311,
	"Ġcher": 3312,
	"Ġstrip": 3313,
	"OP": 3314,
	"Pizza": 3315,
	"Food": 3316,
	"Ġnumer": 3317,
	"Ġrider": 3318,
	"Ġrac": 3319,
	"bottom": 3320,
	"square": 3321,
	"Ġea": 3322,
	"THIS": 3323,
	"ronic": 3324,
	"kini": 3325,
	"Ġdaytime": 3326,
	"Ġspectators": 3327,
	"cra": 3328,
	"Ġfew": 3329,
	"walls": 3330,
	"ouquet": 3331,
	"Ġblurry": 3332,
	"Book": 3333,
	"Ġposing": 3334,
	"IC": 3335,
	"magazine": 3336,
	"Ze": 3337,
	"elier": 3338,
	"lectronic": 3339,
	"weeds": 3340,
	"Ġcrou": 3341,
	"nel": 3342,
	"Ġr": 3343,
	"allway": 3344,
	"Ġchin": 3345,
	"sea": 3346,
	"headband": 3347,
	"Ġribbon": 3348,
	"Ġpoliceman": 3349,
	"Ġtrunks": 3350,
	"Ġrest": 3351,
	"ian": 3352,
	"blender": 3353,
	"agazines": 3354,
	"scissors": 3355,
	"atting": 3356,
	"arette": 3357,
	"Ġsilverware": 3358,
	"Ġbor": 3359,
	"Little": 3360,
	"driver": 3361,
	"duck": 3362,
	"Ġwinter": 3363,
	"Ġsurround": 3364,
	"AD": 3365,
	"igarette": 3366,
	"Ġhoodie": 3367,
	"Ġoutdoor": 3368,
	"eling": 3369,
	"Ġdrapes": 3370,
	"Ġpasta": 3371,
	"ĠK": 3372,
	"ither": 3373,
	"Child": 3374,
	"Ġtrick": 3375,
	"Ġcrack": 3376,
	"Ġhandbag": 3377,
	"TER": 3378,
	"Ġenjoying": 3379,
	"LD": 3380,
	"Ġspe": 3381,
	"Ġfrench": 3382,
	"ially": 3383,
	"Ġtin": 3384,
	"Ġskies": 3385,
	"Ġrose": 3386,
	"Ġdugout": 3387,
	"Ġrailroad": 3388,
	"Ġstones": 3389,
	"ALL": 3390,
	"mark": 3391,
	"Ġfar": 3392,
	"Ġclu": 3393,
	"larm": 3394,
	"Ġhillside": 3395,
	"Ġsandal": 3396,
	"ged": 3397,
	"Ġmarket": 3398,
	"shiny": 3399,
	"Ġdire": 3400,
	"Ġballs": 3401,
	"path": 3402,
	"Ġgi": 3403,
	"Ġtype": 3404,
	"Ġpolice": 3405,
	"Ġpedestrian": 3406,
	"ken": 3407,
	"Ġintersection": 3408,
	"Ġeither": 3409,
	"pastry": 3410,
	"Ġseveral": 3411,
	"Ġgetting": 3412,
	"Ġmicrophone": 3413,
	"yard": 3414,
	"Ġpointy": 3415,
	"ooring": 3416,
	"Ġcircular": 3417,
	"ĠĠĠĠ": 3418,
	"Ġknobs": 3419,
	"Le": 3420,
	"phalt": 3421,
	"saucer": 3422,
	"Ġ3": 3423,
	"Ġspinach": 3424,
	"allet": 3425,
	"ĠARE": 3426,
	"giraffes": 3427,
	"dishes": 3428,
	"Ġfemale": 3429,
	"Windows": 3430,
	"Ġcans": 3431,
	"placemat": 3432,
	"fast": 3433,
	"Ġspray": 3434,
	"canopy": 3435,
	"riting": 3436,
	"vehicles": 3437,
	"LU": 3438,
	"oe": 3439,
	"birds": 3440,
	"ĠV": 3441,
	"pavement": 3442,
	"colorful": 3443,
	"Ġhotel": 3444,
	"Ġottoman": 3445,
	"par": 3446,
	"Ġgolden": 3447,
	"Ġopened": 3448,
	"Ġtran": 3449,
	"Ġlamb": 3450,
	"fla": 3451,
	"rane": 3452,
	"val": 3453,
	"Ġcones": 3454,
	"ery": 3455,
	"oy": 3456,
	"pt": 3457,
	"Ġfoil": 3458,
	"mustard": 3459,
	"smoke": 3460,
	"animals": 3461,
	"Ġwaist": 3462,
	"cur": 3463,
	"Ġsomething": 3464,
	"Ġcolors": 3465,
	"Train": 3466,
	"Ġaway": 3467,
	"menu": 3468,
	"Ġelbow": 3469,
	"Ġbuses": 3470,
	"Ġmustache": 3471,
	"cooler": 3472,
	"Ġcowboy": 3473,
	"Ġsame": 3474,
	"Ġwings": 3475,
	"jam": 3476,
	"Ġhit": 3477,
	"AND": 3478,
	"grill": 3479,
	"ats": 3480,
	"Ġmoving": 3481,
	"iness": 3482,
	"cumbers": 3483,
	"akfast": 3484,
	"Ġsunny": 3485,
	"Ġonto": 3486,
	"chool": 3487,
	"Ġmed": 3488,
	"Ġshape": 3489,
	"ACK": 3490,
	"Ġmotorbike": 3491,
	"AB": 3492,
	"urt": 3493,
	"Ġchips": 3494,
	"Pickup": 3495,
	"Ġeyeglasses": 3496,
	"Ġtoast": 3497,
	"Clear": 3498,
	"oned": 3499,
	"Ġradiator": 3500,
	"os": 3501,
	"Reflection": 3502,
	"Ġisland": 3503,
	"Ġhouses": 3504,
	"Ġupside": 3505,
	"Ġflooring": 3506,
	"cts": 3507,
	"Ġwhere": 3508,
	"Ġbirthday": 3509,
	"Ġfloating": 3510,
	"nequ": 3511,
	"eled": 3512,
	"Ġgear": 3513,
	"Ġkhaki": 3514,
	"Ġphotograph": 3515,
	"Ġfigurine": 3516,
	"Ġthrowing": 3517,
	"Ġam": 3518,
	"Ġden": 3519,
	"Ġfoam": 3520,
	"by": 3521,
	"Ġtowards": 3522,
	"Ġvent": 3523,
	"Ġshru": 3524,
	"icious": 3525,
	"Ġnotebook": 3526,
	"AL": 3527,
	"headphones": 3528,
	"Ġpasture": 3529,
	"Pie": 3530,
	"walkway": 3531,
	"olives": 3532,
	"gull": 3533,
	"Ġchrome": 3534,
	"Ġracquet": 3535,
	"These": 3536,
	"letic": 3537,
	"Ġlined": 3538,
	"Ġfried": 3539,
	"Ġskater": 3540,
	"roun": 3541,
	"players": 3542,
	"Ġtip": 3543,
	"Ġflops": 3544,
	"OT": 3545,
	"Ġseated": 3546,
	"Ġraised": 3547,
	"ĠJ": 3548,
	"sprinkles": 3549,
	"sole": 3550,
	"Ġtarm": 3551,
	"ames": 3552,
	"rapher": 3553,
	"Ġrange": 3554,
	"doll": 3555,
	"ĠFrisbee": 3556,
	"trailer": 3557,
	"ath": 3558,
	"aste": 3559,
	"Ġlan": 3560,
	"anda": 3561,
	"eggs": 3562,
	"arden": 3563,
	"Right": 3564,
	"pro": 3565,
	"Ġpolo": 3566,
	"Ġmet": 3567,
	"fish": 3568,
	"Ġhuman": 3569,
	"Ġbarn": 3570,
	"electric": 3571,
	"Ġspread": 3572,
	"Ġca": 3573,
	"button": 3574,
	"cy": 3575,
	"ament": 3576,
	"Ġcolumn": 3577,
	"Left": 3578,
	"boys": 3579,
	"Ġlow": 3580,
	"Ġqu": 3581,
	"step": 3582,
	"aching": 3583,
	"uck": 3584,
	"allic": 3585,
	"Ġwip": 3586,
	"Ġovercast": 3587,
	"LUE": 3588,
	"Ġspotted": 3589,
	"Ġporch": 3590,
	"Ġbald": 3591,
	"Ġext": 3592,
	"Ġwhiskers": 3593,
	"fly": 3594,
	"Ġworking": 3595,
	"Ġwithout": 3596,
	"Ġmuff": 3597,
	"stroller": 3598,
	"illa": 3599,
	"Ġsub": 3600,
	"Bus": 3601,
	"Ġstraight": 3602,
	"scooter": 3603,
	"Ġtrains": 3604,
	"Ġleading": 3605,
	"Round": 3606,
	"Ġbeen": 3607,
	"edding": 3608,
	"Ġbicycles": 3609,
	"strawberries": 3610,
	"ctive": 3611,
	"attoo": 3612,
	"ID": 3613,
	"teri": 3614,
	"Ġoverhead": 3615,
	"Ġlock": 3616,
	"Ġsad": 3617,
	"Ġwatermelon": 3618,
	"Ġbending": 3619,
	"alle": 3620,
	"Ġpacket": 3621,
	"Ġpow": 3622,
	"kettle": 3623,
	"IS": 3624,
	"Ġconditioner": 3625,
	"rounding": 3626,
	"drapes": 3627,
	"Pur": 3628,
	"ĠIt": 3629,
	"icol": 3630,
	"Zebra": 3631,
	"cookie": 3632,
	"nee": 3633,
	"Ġpencil": 3634,
	"amond": 3635,
	"Group": 3636,
	"Ġath": 3637,
	"els": 3638,
	"Ġbars": 3639,
	"Ġbiker": 3640,
	"toppings": 3641,
	"multi": 3642,
	"Top": 3643,
	"ulticol": 3644,
	"mes": 3645,
	"int": 3646,
	"Ġfurry": 3647,
	"Ġasphalt": 3648,
	"Ġchef": 3649,
	"Bottle": 3650,
	"candles": 3651,
	"Ġsurrounding": 3652,
	"aller": 3653,
	"Ġkids": 3654,
	"Ġkeys": 3655,
	"Ġposts": 3656,
	"Ġnoodles": 3657,
	"rinal": 3658,
	"agus": 3659,
	"fe": 3660,
	"Ġmarble": 3661,
	"bathroom": 3662,
	"AIR": 3663,
	"Old": 3664,
	"Ġlips": 3665,
	"Ġdenim": 3666,
	"sandal": 3667,
	"Ġleash": 3668,
	"Ġfall": 3669,
	"fore": 3670,
	"Ġcockpit": 3671,
	"Ġcloset": 3672,
	"Ġcereal": 3673,
	"Ġtool": 3674,
	"biker": 3675,
	"Ġhuge": 3676,
	"soccer": 3677,
	"acter": 3678,
	"Ġforward": 3679,
	"RT": 3680,
	"Ġtravel": 3681,
	"Ġprinter": 3682,
	"bikes": 3683,
	"barrier": 3684,
	"Ġstain": 3685,
	"Ġmaking": 3686,
	"Ġborder": 3687,
	"Ġcli": 3688,
	"Ġdecorated": 3689,
	"Several": 3690,
	"Ġheadlights": 3691,
	"Phot": 3692,
	"ghter": 3693,
	"nequin": 3694,
	"Ġplaced": 3695,
	"Tan": 3696,
	"figu": 3697,
	"jamas": 3698,
	"Ġhar": 3699,
	"Giraffe": 3700,
	"vi": 3701,
	"fruits": 3702,
	"pots": 3703,
	"igital": 3704,
	"gged": 3705,
	"Ġfree": 3706,
	"thick": 3707,
	"tissue": 3708,
	"ried": 3709,
	"Ġdrive": 3710,
	"Ġcanister": 3711,
	"toothbrush": 3712,
	"ingle": 3713,
	"chop": 3714,
	"ockey": 3715,
	"vergreen": 3716,
	"Ġexten": 3717,
	"isher": 3718,
	"Ġcabbage": 3719,
	"Ġknives": 3720,
	"Tra": 3721,
	"vert": 3722,
	"dience": 3723,
	"Ġdr": 3724,
	"kn": 3725,
	"kes": 3726,
	"Ġtur": 3727,
	"spatula": 3728,
	"irst": 3729,
	"Sand": 3730,
	"cases": 3731,
	"aring": 3732,
	"sm": 3733,
	"Ġtarmac": 3734,
	"ary": 3735,
	"ĠSUV": 3736,
	"Ġseats": 3737,
	"newspaper": 3738,
	"Ġadvertisement": 3739,
	"dered": 3740,
	"Ġmelted": 3741,
	"Ġbaked": 3742,
	"Ġpineapple": 3743,
	"ca": 3744,
	"Ġrocky": 3745,
	"Ġcherry": 3746,
	"napkins": 3747,
	"Ġmost": 3748,
	"Ġspices": 3749,
	"Ġarched": 3750,
	"Ġlamps": 3751,
	"Ġapart": 3752,
	"Pla": 3753,
	"symbol": 3754,
	"Street": 3755,
	"Ġsculpture": 3756,
	"Ġmother": 3757,
	"Ġskating": 3758,
	"Many": 3759,
	"Ġsurrounded": 3760,
	"Ġdead": 3761,
	"heart": 3762,
	"tape": 3763,
	"Ġindoors": 3764,
	"Ġsla": 3765,
	"scrap": 3766,
	"ute": 3767,
	"terior": 3768,
	"milk": 3769,
	"shing": 3770,
	"rail": 3771,
	"Lamp": 3772,
	"Ġsale": 3773,
	"Table": 3774,
	"Ġoil": 3775,
	"Ġrolling": 3776,
	"Ġpersons": 3777,
	"Ġconnected": 3778,
	"zzas": 3779,
	"rolled": 3780,
	"Ġhills": 3781,
	"Ġledge": 3782,
	"beige": 3783,
	"Ġwoods": 3784,
	"char": 3785,
	"Horse": 3786,
	"Ġsquash": 3787,
	"dessert": 3788,
	"Ġcrossed": 3789,
	"Ġwild": 3790,
	"cru": 3791,
	"Ġbusiness": 3792,
	"Purple": 3793,
	"arious": 3794,
	"craft": 3795,
	"ki": 3796,
	"Ġtoddler": 3797,
	"Ġnail": 3798,
	"note": 3799,
	"Ġkitten": 3800,
	"snowboarder": 3801,
	"Ġfamily": 3802,
	"Ġmot": 3803,
	"ERS": 3804,
	"Bri": 3805,
	"Ġponytail": 3806,
	"lose": 3807,
	"Ġmushrooms": 3808,
	"Slice": 3809,
	"name": 3810,
	"Ġstaircase": 3811,
	"Ġproduce": 3812,
	"feathers": 3813,
	"Ġwind": 3814,
	"ons": 3815,
	"rear": 3816,
	"Ġter": 3817,
	"Ġmetallic": 3818,
	"ream": 3819,
	"Ġind": 3820,
	"stem": 3821,
	"Ġdelicious": 3822,
	"mper": 3823,
	"ĠBU": 3824,
	"Ġtrou": 3825,
	"ROW": 3826,
	"lled": 3827,
	"OMAN": 3828,
	"ĠHAS": 3829,
	"Ġolder": 3830,
	"Ġcostume": 3831,
	"spinach": 3832,
	"ĠPLA": 3833,
	"Ġwool": 3834,
	"Ġpassengers": 3835,
	"Ġguard": 3836,
	"Bright": 3837,
	"Ġvisor": 3838,
	"pile": 3839,
	"Ġmattress": 3840,
	"Ġeaten": 3841,
	"Ġbleachers": 3842,
	"ads": 3843,
	"sandals": 3844,
	"ka": 3845,
	"body": 3846,
	"ulticolored": 3847,
	"Ġpea": 3848,
	"knee": 3849,
	"Ġdrawing": 3850,
	"dern": 3851,
	"phot": 3852,
	"Ġfencing": 3853,
	"Ġdrinks": 3854,
	"bble": 3855,
	"ĠCh": 3856,
	"hay": 3857,
	"Ġdirection": 3858,
	"Ġhung": 3859,
	"unnel": 3860,
	"beans": 3861,
	"CH": 3862,
	"propeller": 3863,
	"ingu": 3864,
	"ainers": 3865,
	"spi": 3866,
	"De": 3867,
	"ailbox": 3868,
	"spices": 3869,
	"concrete": 3870,
	"rup": 3871,
	"roiss": 3872,
	"REEN": 3873,
	"zzarella": 3874,
	"Ġtap": 3875,
	"Ġpartially": 3876,
	"Wall": 3877,
	"Ġhats": 3878,
	"Ġprepa": 3879,
	"radiator": 3880,
	"Ġelectronic": 3881,
	"Ġ4": 3882,
	"Ġbandana": 3883,
	"writing": 3884,
	"knob": 3885,
	"bor": 3886,
	"bull": 3887,
	"sues": 3888,
	"Ġsandwiches": 3889,
	"bedspread": 3890,
	"planes": 3891,
	"Ġpiano": 3892,
	"Ġsize": 3893,
	"acks": 3894,
	"canister": 3895,
	"Ġtiny": 3896,
	"azy": 3897,
	"Ġfeeding": 3898,
	"arsley": 3899,
	"Ġrusty": 3900,
	"pedestrian": 3901,
	"Ġwedding": 3902,
	"nish": 3903,
	"Ro": 3904,
	"Ġplain": 3905,
	"older": 3906,
	"stainless": 3907,
	"Ġphones": 3908,
	"Gold": 3909,
	"Ġgarden": 3910,
	"king": 3911,
	"Ġdiamond": 3912,
	"Ġbikini": 3913,
	"Photo": 3914,
	"rial": 3915,
	"paddle": 3916,
	"Be": 3917,
	"Ġpotted": 3918,
	"Ġstickers": 3919,
	"Plate": 3920,
	"Ġdesktop": 3921,
	"ility": 3922,
	"Door": 3923,
	"Ġcontrollers": 3924,
	"Ġteam": 3925,
	"CE": 3926,
	"Ġwho": 3927,
	"uc": 3928,
	"In": 3929,
	"Ġemb": 3930,
	"hose": 3931,
	"ĠSH": 3932,
	"inguisher": 3933,
	"ady": 3934,
	"Ġschool": 3935,
	"Sky": 3936,
	"ured": 3937,
	"Ġextinguisher": 3938,
	"ABLE": 3939,
	"lips": 3940,
	"Ġcalf": 3941,
	"dock": 3942,
	"soup": 3943,
	"Plastic": 3944,
	"girls": 3945,
	"ĠBLUE": 3946,
	"tongue": 3947,
	"del": 3948,
	"Ġblind": 3949,
	"containers": 3950,
	"Ġdots": 3951,
	"Ġlime": 3952,
	"ogurt": 3953,
	"ocom": 3954,
	"lit": 3955,
	"adium": 3956,
	"Ġpin": 3957,
	"Ġguys": 3958,
	"Ġmarker": 3959,
	"artwork": 3960,
	"Ġshe": 3961,
	"ocomotive": 3962,
	"Ġsecond": 3963,
	"Ġpackage": 3964,
	"Ġfountain": 3965,
	"ITH": 3966,
	"Ġartwork": 3967,
	"rasp": 3968,
	"ique": 3969,
	"Ġmate": 3970,
	"dispenser": 3971,
	"Ġcookies": 3972,
	"decorative": 3973,
	"Clock": 3974,
	"ĠWITH": 3975,
	"Ġdryer": 3976,
	"luminum": 3977,
	"bell": 3978,
	"Ġwristwatch": 3979,
	"thin": 3980,
	"Piece": 3981,
	"offic": 3982,
	"Ġdrawn": 3983,
	"vertical": 3984,
	"Ġplugged": 3985,
	"foam": 3986,
	"onge": 3987,
	"Ġwhat": 3988,
	"OUND": 3989,
	"Ġtopped": 3990,
	"wa": 3991,
	"Ġrod": 3992,
	"Ġ&": 3993,
	"Ġcelery": 3994,
	"Ġkick": 3995,
	"SS": 3996,
	"ĠClose": 3997,
	"Dirt": 3998,
	"Ġbean": 3999,
	"vd": 4000,
	"half": 4001,
	"rest": 4002,
	"Ġsoft": 4003,
	"Te": 4004,
	"its": 4005,
	"Ġlocomotive": 4006,
	"handbag": 4007,
	"Ġsaddle": 4008,
	"illumin": 4009,
	"Ġpiled": 4010,
	"Ġpond": 4011,
	"Ġshut": 4012,
	"Ġcarton": 4013,
	"SE": 4014,
	"watermelon": 4015,
	"figurine": 4016,
	"Ġgames": 4017,
	"Ġknit": 4018,
	"beverage": 4019,
	"Elephant": 4020,
	"Ġsides": 4021,
	"Ġappears": 4022,
	"Ġspeakers": 4023,
	"arent": 4024,
	"Ġathletic": 4025,
	"Ġsill": 4026,
	"Ġpumpkin": 4027,
	"Ġlace": 4028,
	"Ġbrand": 4029,
	"Ġlining": 4030,
	"tv": 4031,
	"shirts": 4032,
	"aptop": 4033,
	"tered": 4034,
	"shade": 4035,
	"unk": 4036,
	"Ġsneaker": 4037,
	"GE": 4038,
	"motorcycles": 4039,
	"Ġcatching": 4040,
	"Lights": 4041,
	"vds": 4042,
	"framed": 4043,
	"Ġdecorations": 4044,
	"nd": 4045,
	"Ġpant": 4046,
	"Ġindic": 4047,
	"squash": 4048,
	"Ġtrail": 4049,
	"striped": 4050,
	"Ġbeef": 4051,
	"Ġherd": 4052,
	"tile": 4053,
	"efcase": 4054,
	"cab": 4055,
	"Col": 4056,
	"bare": 4057,
	"Ġlaptops": 4058,
	"houses": 4059,
	"Ġspice": 4060,
	"gun": 4061,
	"scraper": 4062,
	"Ġpens": 4063,
	"Ġdisplayed": 4064,
	"any": 4065,
	"Ġcigarette": 4066,
	"Ġdeep": 4067,
	"Ġhorizon": 4068,
	"hered": 4069,
	"Ġmap": 4070,
	"Empty": 4071,
	"Laptop": 4072,
	"Ġtongs": 4073,
	"Ġpedestrians": 4074,
	"TS": 4075,
	"Ġed": 4076,
	"shadows": 4077,
	"Ġskinny": 4078,
	"heels": 4079,
	"HIRT": 4080,
	"Ġglo": 4081,
	"Ġjean": 4082,
	"Ġtops": 4083,
	"paste": 4084,
	"Ġsmooth": 4085,
	"bowls": 4086,
	"ws": 4087,
	"Ġwrink": 4088,
	"Ġwomans": 4089,
	"deck": 4090,
	"dless": 4091,
	"Ġstuck": 4092,
	"Ġburger": 4093,
	"Side": 4094,
	"rose": 4095,
	"Ġrolled": 4096,
	"Ġsweat": 4097,
	"Ġtoys": 4098,
	"officer": 4099,
	"stones": 4100,
	"Ġthen": 4101,
	"Ġcables": 4102,
	"Ġmagnets": 4103,
	"Ġcomputers": 4104,
	"Leg": 4105,
	"pasta": 4106,
	"uffy": 4107,
	"pol": 4108,
	"cir": 4109,
	"celets": 4110,
	"ĠRED": 4111,
	"ĠTABLE": 4112,
	"ouch": 4113,
	"kid": 4114,
	"sheets": 4115,
	"Ġseeds": 4116,
	"velope": 4117,
	"Ġwallpaper": 4118,
	"OOD": 4119,
	"Ġavocado": 4120,
	"Ġgood": 4121,
	"Ġthan": 4122,
	"Ġaluminum": 4123,
	"Ġsetting": 4124,
	"Computer": 4125,
	"Ġhoof": 4126,
	"sts": 4127,
	"Ġspace": 4128,
	"struction": 4129,
	"Ġfu": 4130,
	"Ġpizzas": 4131,
	"most": 4132,
	"Ġhallway": 4133,
	"ĠSt": 4134,
	"Ġmess": 4135,
	"Ġbroken": 4136,
	"Ġhedge": 4137,
	"Ġneon": 4138,
	"link": 4139,
	"Ġcalled": 4140,
	"tires": 4141,
	"thy": 4142,
	"fl": 4143,
	"pens": 4144,
	"candy": 4145,
	"Ġsteering": 4146,
	"Ġshrimp": 4147,
	"Ġvases": 4148,
	"Ġma": 4149,
	"Ġstud": 4150,
	"Ġpushing": 4151,
	"IL": 4152,
	"microphone": 4153,
	"Ġlunch": 4154,
	"ness": 4155,
	"Ġpuppy": 4156,
	"Ġcurled": 4157,
	"Ġhelmets": 4158,
	"getation": 4159,
	"Ġstorage": 4160,
	"Gra": 4161,
	"Ġtablet": 4162,
	"ades": 4163,
	"vet": 4164,
	"Ġtoasted": 4165,
	"Ġfrosted": 4166,
	"off": 4167,
	"Ġantenna": 4168,
	"Ġbreakfast": 4169,
	"Ġbouquet": 4170,
	"sunglasses": 4171,
	"Ġreaching": 4172,
	"Ġlush": 4173,
	"chand": 4174,
	"crosswalk": 4175,
	"oulders": 4176,
	"ranite": 4177,
	"Ġacc": 4178,
	"pu": 4179,
	"Ġgrou": 4180,
	"Ġfreezer": 4181,
	"Ġmaterial": 4182,
	"ROUND": 4183,
	"oney": 4184,
	"pineapple": 4185,
	"ipper": 4186,
	"Sp": 4187,
	"roissant": 4188,
	"drain": 4189,
	"Ġhold": 4190,
	"spice": 4191,
	"wards": 4192,
	"Ġkneeling": 4193,
	"Ġpreparing": 4194,
	"Ġradio": 4195,
	"flip": 4196,
	"ashi": 4197,
	"cockpit": 4198,
	"ucch": 4199,
	"Ġglazed": 4200,
	"cut": 4201,
	"robe": 4202,
	"Ġmixer": 4203,
	"bbles": 4204,
	"mustache": 4205,
	"hook": 4206,
	"Ġnarrow": 4207,
	"afe": 4208,
	"Po": 4209,
	"vent": 4210,
	"Skateboard": 4211,
	"ublic": 4212,
	"ert": 4213,
	"antique": 4214,
	"Ġclay": 4215,
	"Ġbasil": 4216,
	"Ġmarks": 4217,
	"Ġmostly": 4218,
	"Lady": 4219,
	"ex": 4220,
	"Ġlots": 4221,
	"flat": 4222,
	"Ġequ": 4223,
	"lour": 4224,
	"Ġdoes": 4225,
	"ROWN": 4226,
	"Ġunit": 4227,
	"ky": 4228,
	"ottoman": 4229,
	"Ġsailboat": 4230,
	"Ġstadium": 4231,
	"Chair": 4232,
	"cabbage": 4233,
	"Ġalarm": 4234,
	"Ġdesigns": 4235,
	"Ġcri": 4236,
	"Ġsingle": 4237,
	"Ġmuffin": 4238,
	"entertainment": 4239,
	"put": 4240,
	"Ġpanda": 4241,
	"Lea": 4242,
	"ucchini": 4243,
	"rows": 4244,
	"Ġrobe": 4245,
	"waves": 4246,
	"Ġnavy": 4247,
	"Ġcontaining": 4248,
	"Ġextended": 4249,
	"illuminated": 4250,
	"TH": 4251,
	"cial": 4252,
	"cereal": 4253,
	"Su": 4254,
	"handelier": 4255,
	"rus": 4256,
	"anging": 4257,
	"gas": 4258,
	"Ġskiers": 4259,
	"machine": 4260,
	"guitar": 4261,
	"Flow": 4262,
	"folding": 4263,
	"Ġplanes": 4264,
	"Ġcatch": 4265,
	"Ġtwig": 4266,
	"ĠSHIRT": 4267,
	"Ġleafless": 4268,
	"Ġfry": 4269,
	"tracks": 4270,
	"Ġconsole": 4271,
	"Ġpear": 4272,
	"illet": 4273,
	"Ġdump": 4274,
	"Ġlower": 4275,
	"lines": 4276,
	"Ġplug": 4277,
	"Bird": 4278,
	"Ġpale": 4279,
	"Ġsa": 4280,
	"Ġreflective": 4281,
	"Ġpier": 4282,
	"sliced": 4283,
	"retched": 4284,
	"Surf": 4285,
	"Ġupper": 4286,
	"Ġsplashing": 4287,
	"life": 4288,
	"noodles": 4289,
	"Ġeat": 4290,
	"LO": 4291,
	"Ġclocks": 4292,
	"Ġbumper": 4293,
	"Ġpane": 4294,
	"IGH": 4295,
	"Ġcloudless": 4296,
	"Ġearrings": 4297,
	"Ġarmchair": 4298,
	"Ġcauliflower": 4299,
	"ature": 4300,
	"Ġau": 4301,
	"Ġpastries": 4302,
	"meal": 4303,
	"printer": 4304,
	"cherry": 4305,
	"Ġchopped": 4306,
	"Ġpass": 4307,
	"elling": 4308,
	"Ġskinned": 4309,
	"Clou": 4310,
	"oldier": 4311,
	"Ġsteam": 4312,
	"celery": 4313,
	"Ġbol": 4314,
	"stomer": 4315,
	"Ġwrapper": 4316,
	"Ġcutter": 4317,
	"Handle": 4318,
	"dry": 4319,
	"stair": 4320,
	"tool": 4321,
	"ELL": 4322,
	"Ġ5": 4323,
	"Cow": 4324,
	"dershirt": 4325,
	"Ġsized": 4326,
	"kites": 4327,
	"Ġtrucks": 4328,
	"Ġlaces": 4329,
	"design": 4330,
	"lightly": 4331,
	"Cars": 4332,
	"Ġphotographer": 4333,
	"mother": 4334,
	"How": 4335,
	"Ġtransp": 4336,
	"ory": 4337,
	"zzy": 4338,
	"swim": 4339,
	"mix": 4340,
	"ARD": 4341,
	"hic": 4342,
	"Ġurinal": 4343,
	"Ġchalk": 4344,
	"Ġthink": 4345,
	"figure": 4346,
	"iled": 4347,
	"ĠAmerican": 4348,
	"drawing": 4349,
	"ason": 4350,
	"Ġfirst": 4351,
	"So": 4352,
	"Ġlanding": 4353,
	"turn": 4354,
	"Che": 4355,
	"bile": 4356,
	"ific": 4357,
	"chef": 4358,
	"mushrooms": 4359,
	"IND": 4360,
	"Ġtrimmed": 4361,
	"Ġmarkings": 4362,
	"ĠDO": 4363,
	"Ġcabin": 4364,
	"Ġpillars": 4365,
	"knives": 4366,
	"Ġpipes": 4367,
	"lamb": 4368,
	"Ġarch": 4369,
	"MAN": 4370,
	"Ġcanoe": 4371,
	"notebook": 4372,
	"Ġsnowboarding": 4373,
	"Bl": 4374,
	"Flowers": 4375,
	"elf": 4376,
	"Ġpud": 4377,
	"Ġcrash": 4378,
	"Ġsmile": 4379,
	"ipment": 4380,
	"BO": 4381,
	"Glasses": 4382,
	"Ġlip": 4383,
	"Ġevergreen": 4384,
	"Ġhighway": 4385,
	"Ġberries": 4386,
	"AP": 4387,
	"Ste": 4388,
	"Ġwashing": 4389,
	"rum": 4390,
	"ĠCO": 4391,
	"ects": 4392,
	"hills": 4393,
	"Ġhazy": 4394,
	"Ġcrane": 4395,
	"Ġform": 4396,
	"Rotate": 4397,
	"Mountain": 4398,
	"Ġvegg": 4399,
	"antenna": 4400,
	"Ġfra": 4401,
	"Ġbinder": 4402,
	"bjects": 4403,
	"Fence": 4404,
	"tables": 4405,
	"Ġpolka": 4406,
	"Ġmis": 4407,
	"Ġjeep": 4408,
	"shore": 4409,
	"orted": 4410,
	"Ġdigital": 4411,
	"She": 4412,
	"Ġblazer": 4413,
	"Ġcrouching": 4414,
	"Ġboards": 4415,
	"Ġbusy": 4416,
	"five": 4417,
	"Ġchandelier": 4418,
	"Ġob": 4419,
	"forest": 4420,
	"Ġoval": 4421,
	"Ġworker": 4422,
	"Ġhamburger": 4423,
	"bunch": 4424,
	"over": 4425,
	"Ġstaring": 4426,
	"Ġatop": 4427,
	"pencil": 4428,
	"lem": 4429,
	"Ġtattoo": 4430,
	"ĠWOMAN": 4431,
	"bears": 4432,
	"Ġbill": 4433,
	"tle": 4434,
	"gings": 4435,
	"fu": 4436,
	"platter": 4437,
	"Sun": 4438,
	"family": 4439,
	"gy": 4440,
	"Ġbeds": 4441,
	"Ġdressing": 4442,
	"sugar": 4443,
	"Ġfloors": 4444,
	"Ġvertical": 4445,
	"Ġmoss": 4446,
	"picnic": 4447,
	"oliage": 4448,
	"Ġlighting": 4449,
	"pedestrians": 4450,
	"Ġpeach": 4451,
	"Ġkept": 4452,
	"Ġroman": 4453,
	"Ġsurfboards": 4454,
	"lete": 4455,
	"Ġstory": 4456,
	"spar": 4457,
	"Pillow": 4458,
	"Ġstraps": 4459,
	"bicycles": 4460,
	"Ġang": 4461,
	"Ġnice": 4462,
	"dough": 4463,
	"ban": 4464,
	"Ġcotton": 4465,
	"ST": 4466,
	"Ġbas": 4467,
	"redded": 4468,
	"lies": 4469,
	"Ġprotective": 4470,
	"Ġsnowsuit": 4471,
	"Tail": 4472,
	"Ġpitch": 4473,
	"oped": 4474,
	"passengers": 4475,
	"bla": 4476,
	"LDING": 4477,
	"olid": 4478,
	"double": 4479,
	"Ġmes": 4480,
	"dirty": 4481,
	"Ġtw": 4482,
	"WHITE": 4483,
	"Ġshown": 4484,
	"Ġaircraft": 4485,
	"Ġdoughnuts": 4486,
	"look": 4487,
	"Ġtraveling": 4488,
	"Ġwell": 4489,
	"Ġprop": 4490,
	"magnets": 4491,
	"high": 4492,
	"basil": 4493,
	"Ġtarp": 4494,
	"Ġheater": 4495,
	"Ġcupcakes": 4496,
	"Baby": 4497,
	"Ġsleeves": 4498,
	"Ġholes": 4499,
	"Ġfalling": 4500,
	"Ġcucumbers": 4501,
	"Ġnumeral": 4502,
	"wristwatch": 4503,
	"Ġstopped": 4504,
	"Ġtab": 4505,
	"Ġpublic": 4506,
	"Ġblo": 4507,
	"Ġtoward": 4508,
	"Air": 4509,
	"Ġrails": 4510,
	"pow": 4511,
	"Books": 4512,
	"site": 4513,
	"Ġtshirt": 4514,
	"Ġcrashing": 4515,
	"ĠBO": 4516,
	"ontal": 4517,
	"video": 4518,
	"VE": 4519,
	"ĠApple": 4520,
	"Ġrece": 4521,
	"Traffic": 4522,
	"view": 4523,
	"ashioned": 4524,
	"Ġ'": 4525,
	"Ġpump": 4526,
	"garage": 4527,
	"rofoam": 4528,
	"Ġhaving": 4529,
	"Ġspoons": 4530,
	"Ġshades": 4531,
	"corner": 4532,
	"Ġcam": 4533,
	"intage": 4534,
	"Ġroses": 4535,
	"cal": 4536,
	"althy": 4537,
	"stickers": 4538,
	"Ġequipment": 4539,
	"ĠSK": 4540,
	"Ġbank": 4541,
	"Ġcontrols": 4542,
	"eautiful": 4543,
	"oof": 4544,
	"shrimp": 4545,
	"cookies": 4546,
	"Ġnuts": 4547,
	"gon": 4548,
	"cowboy": 4549,
	"Ġplank": 4550,
	"staircase": 4551,
	"Mirror": 4552,
	"tility": 4553,
	"Ġsleeveless": 4554,
	"inn": 4555,
	"Ġtissues": 4556,
	"Ġmotion": 4557,
	"mini": 4558,
	"lator": 4559,
	"Pair": 4560,
	"Ġcrown": 4561,
	"toast": 4562,
	"hu": 4563,
	"Ġantique": 4564,
	"Ġsomeone": 4565,
	"Ġbaking": 4566,
	"Ġhangs": 4567,
	"gundy": 4568,
	"Ġtrying": 4569,
	"pumpkin": 4570,
	"Ġtube": 4571,
	"Ġgrilled": 4572,
	"made": 4573,
	"hedge": 4574,
	"Ġrings": 4575,
	"Ġpajamas": 4576,
	"Ġcrumbs": 4577,
	"Cup": 4578,
	"rew": 4579,
	"Ġbuilt": 4580,
	"Ġpuffy": 4581,
	"por": 4582,
	"Ġwhe": 4583,
	"toddler": 4584,
	"Ġpickup": 4585,
	"Ġapartment": 4586,
	"Ġbaskets": 4587,
	"Paper": 4588,
	"cho": 4589,
	"iscu": 4590,
	"muff": 4591,
	"Ġstars": 4592,
	"Ġsports": 4593,
	"Ġsuitcases": 4594,
	"ging": 4595,
	"Toilet": 4596,
	"Ġbutterfly": 4597,
	"enches": 4598,
	"Stri": 4599,
	"je": 4600,
	"ners": 4601,
	"Ġcra": 4602,
	"Ġdome": 4603,
	"Ġcargo": 4604,
	"Ġmantle": 4605,
	"Ġcharacter": 4606,
	"Ġvegetation": 4607,
	"Ġmagazines": 4608,
	"EA": 4609,
	"Ġgranite": 4610,
	"tongs": 4611,
	"Ġeyeb": 4612,
	"Ġripples": 4613,
	"Ve": 4614,
	"Ġbatting": 4615,
	"Ġnike": 4616,
	"Number": 4617,
	"entle": 4618,
	"Tru": 4619,
	"Ġlampshade": 4620,
	"avocado": 4621,
	"Ġlemons": 4622,
	"Bear": 4623,
	"blonde": 4624,
	"Ġstump": 4625,
	"paws": 4626,
	"Ġpickles": 4627,
	"foil": 4628,
	"Electric": 4629,
	"Ġpans": 4630,
	"Ġopening": 4631,
	"Ġornate": 4632,
	"Ġcooker": 4633,
	"Ġmonkey": 4634,
	"Ġpuddle": 4635,
	"mar": 4636,
	"ropes": 4637,
	"Ġmodern": 4638,
	"dogs": 4639,
	"pillar": 4640,
	"tri": 4641,
	"ments": 4642,
	"Ġseagull": 4643,
	"Ġforks": 4644,
	"Ġpointed": 4645,
	"Ġmirrors": 4646,
	"itary": 4647,
	"oggle": 4648,
	"ident": 4649,
	"Ġroadway": 4650,
	"Ġornament": 4651,
	"Ġnumerals": 4652,
	"Ġlar": 4653,
	"Ġwhole": 4654,
	"Ġcharger": 4655,
	"curved": 4656,
	"Ġjackets": 4657,
	"do": 4658,
	"advertis": 4659,
	"Where": 4660,
	"Ġstuff": 4661,
	"Ġtusks": 4662,
	"yl": 4663,
	"allen": 4664,
	"station": 4665,
	"IGHT": 4666,
	"Ġilluminated": 4667,
	"cables": 4668,
	"sculpture": 4669,
	"cauliflower": 4670,
	"Ġwallet": 4671,
	"Ġlevel": 4672,
	"lime": 4673,
	"Ġsep": 4674,
	"Ġberry": 4675,
	"RI": 4676,
	"ates": 4677,
	"Ġblade": 4678,
	"nail": 4679,
	"Ġmixed": 4680,
	"Ġstill": 4681,
	"cement": 4682,
	"Patch": 4683,
	"ns": 4684,
	"Ġjars": 4685,
	"Bunch": 4686,
	"cans": 4687,
	"Ġtractor": 4688,
	"Ġaudience": 4689,
	"polo": 4690,
	"wallpaper": 4691,
	"Ġsliding": 4692,
	"ix": 4693,
	"ĠCAR": 4694,
	"Ġshelter": 4695,
	"electrical": 4696,
	"Ġbarrel": 4697,
	"bandana": 4698,
	"Ġtunnel": 4699,
	"ely": 4700,
	"Ġroo": 4701,
	"Multi": 4702,
	"artment": 4703,
	"ma": 4704,
	"Cu": 4705,
	"produce": 4706,
	"formation": 4707,
	"Ġblueberry": 4708,
	"ĠĠĠĠĠĠĠĠ": 4709,
	"Ġbushy": 4710,
	"Nose": 4711,
	"jet": 4712,
	"moss": 4713,
	"clu": 4714,
	"Ġcovers": 4715,
	"ĠBROWN": 4716,
	"crumbs": 4717,
	"tip": 4718,
	"oles": 4719,
	"hau": 4720,
	"Ġcycle": 4721,
	"benches": 4722,
	"ĠTO": 4723,
	"photog": 4724,
	"crack": 4725,
	"Ġmesh": 4726,
	"Ne": 4727,
	"Ġtrashcan": 4728,
	"Ġburnt": 4729,
	"closet": 4730,
	"tiny": 4731,
	"another": 4732,
	"radio": 4733,
	"stud": 4734,
	"twig": 4735,
	"Ġswimsuit": 4736,
	"rect": 4737,
	"pea": 4738,
	"Ġlogs": 4739,
	"safety": 4740,
	"sparagus": 4741,
	"mpled": 4742,
	"Ġperform": 4743,
	"haust": 4744,
	"Ġminivan": 4745,
	"Ġdraped": 4746,
	"conut": 4747,
	"Ġipod": 4748,
	"Ski": 4749,
	"locom": 4750,
	"locomotive": 4751,
	"Ġsupporting": 4752,
	"cage": 4753,
	"Ġcub": 4754,
	"golden": 4755,
	"cting": 4756,
	"Ġcupboards": 4757,
	"Ġswan": 4758,
	"Ġba": 4759,
	"ELLOW": 4760,
	"No": 4761,
	"ural": 4762,
	"binder": 4763,
	"His": 4764,
	"Ġobjects": 4765,
	"AM": 4766,
	"Ġwavy": 4767,
	"Ġboarding": 4768,
	"Ġtrays": 4769,
	"dges": 4770,
	"Ġseed": 4771,
	"LASS": 4772,
	"Ġgoal": 4773,
	"Ġslat": 4774,
	"ppo": 4775,
	"opper": 4776,
	"Ad": 4777,
	"Ġmulticolored": 4778,
	"wings": 4779,
	"headlight": 4780,
	"Fork": 4781,
	"magazines": 4782,
	"Ġrectangle": 4783,
	"din": 4784,
	"Ġfarm": 4785,
	"Ġrainbow": 4786,
	"Ġsubway": 4787,
	"Ġasparagus": 4788,
	"Ġframes": 4789,
	"Ġoct": 4790,
	"Ġmannequin": 4791,
	"Ġdried": 4792,
	"Ġfoliage": 4793,
	"Ġhim": 4794,
	"ĠBACK": 4795,
	"Ġsmaller": 4796,
	"phic": 4797,
	"Ġalongside": 4798,
	"Ġtake": 4799,
	"Ar": 4800,
	"Ġpus": 4801,
	"Coffee": 4802,
	"Ġhairy": 4803,
	"Ġcyclist": 4804,
	"Ġfashioned": 4805,
	"ilitary": 4806,
	"ship": 4807,
	"speakers": 4808,
	"Ġutility": 4809,
	"chandelier": 4810,
	"ipod": 4811,
	"Ġplush": 4812,
	"cyclist": 4813,
	"Ġslightly": 4814,
	"city": 4815,
	"apler": 4816,
	"Ġgrate": 4817,
	"ĠNike": 4818,
	"Ġshadows": 4819,
	"Ġsponge": 4820,
	"ripples": 4821,
	"Ri": 4822,
	"hol": 4823,
	"sn": 4824,
	"Beige": 4825,
	"Ġsus": 4826,
	"blueberry": 4827,
	"Eye": 4828,
	"Ġstage": 4829,
	"Ġknees": 4830,
	"Ġpetal": 4831,
	"rines": 4832,
	"ution": 4833,
	"Ġwear": 4834,
	"lee": 4835,
	"whi": 4836,
	"Ġboarder": 4837,
	"Ġtriangular": 4838,
	"weed": 4839,
	"Ġweather": 4840,
	"Ġteal": 4841,
	"Ġwipers": 4842,
	"ngth": 4843,
	"VER": 4844,
	"Ġwiper": 4845,
	"Ġtriangle": 4846,
	"Player": 4847,
	"minal": 4848,
	"trunks": 4849,
	"Ġcleats": 4850,
	"Ġbarefoot": 4851,
	"ĠHE": 4852,
	"Hot": 4853,
	"Buildings": 4854,
	"ĠTRA": 4855,
	"hard": 4856,
	"ountry": 4857,
	"Ġbeam": 4858,
	"Ġmake": 4859,
	"french": 4860,
	"IDE": 4861,
	"bro": 4862,
	"Ġbagel": 4863,
	"ls": 4864,
	"Ġharness": 4865,
	"Ġsprink": 4866,
	"snowsuit": 4867,
	"map": 4868,
	"ĠCH": 4869,
	"Ġfake": 4870,
	"balls": 4871,
	"ĠChristmas": 4872,
	"Wine": 4873,
	"cones": 4874,
	"Ġyogurt": 4875,
	"Ġass": 4876,
	"ĠGREEN": 4877,
	"Ġsystem": 4878,
	"arning": 4879,
	"Ġfive": 4880,
	"Ġsweet": 4881,
	"Short": 4882,
	"Ġjug": 4883,
	"Ġemblem": 4884,
	"EL": 4885,
	"ineapples": 4886,
	"Motorcycle": 4887,
	"steering": 4888,
	"wagon": 4889,
	"Ġwaste": 4890,
	"Ġcliff": 4891,
	"Ġsteak": 4892,
	"Ġasian": 4893,
	"Ġchopsticks": 4894,
	"Ġreg": 4895,
	"Ġwireless": 4896,
	"TING": 4897,
	"ttered": 4898,
	"TV": 4899,
	"base": 4900,
	"dining": 4901,
	"wool": 4902,
	"ipt": 4903,
	"entleman": 4904,
	"office": 4905,
	"Ġshin": 4906,
	"RED": 4907,
	"Ġpeas": 4908,
	"Ġpushed": 4909,
	"Ġcolla": 4910,
	"marker": 4911,
	"ject": 4912,
	"Ġfeeder": 4913,
	"prints": 4914,
	"Ġvanity": 4915,
	"cohol": 4916,
	"circular": 4917,
	"Stack": 4918,
	"aff": 4919,
	"gerine": 4920,
	"Ġcoke": 4921,
	"Ġposition": 4922,
	"Sc": 4923,
	"vid": 4924,
	"Ġ6": 4925,
	"pillars": 4926,
	"RO": 4927,
	"Men": 4928,
	"mercial": 4929,
	"Ġperched": 4930,
	"ghted": 4931,
	"Ġcrates": 4932,
	"Ġbriefcase": 4933,
	"my": 4934,
	"Ġstir": 4935,
	"ette": 4936,
	"armchair": 4937,
	"allow": 4938,
	"shopping": 4939,
	"Ġmay": 4940,
	"Colorful": 4941,
	"ished": 4942,
	"skater": 4943,
	"ERSON": 4944,
	"waist": 4945,
	"Ġaf": 4946,
	"amon": 4947,
	"Ġzipper": 4948,
	"pastries": 4949,
	"Ġcrouched": 4950,
	"Bag": 4951,
	"ĠPI": 4952,
	"Ġdrape": 4953,
	"slices": 4954,
	"acle": 4955,
	"ĠPut": 4956,
	"Sheep": 4957,
	"Ġloung": 4958,
	"ĠGIR": 4959,
	"scape": 4960,
	"police": 4961,
	"blind": 4962,
	"Ġjust": 4963,
	"inese": 4964,
	"pieces": 4965,
	"drinks": 4966,
	"olk": 4967,
	"Ġves": 4968,
	"Ġhing": 4969,
	"Box": 4970,
	"Ġpickle": 4971,
	"Ġwrinkled": 4972,
	"Con": 4973,
	"FF": 4974,
	"Ear": 4975,
	"Ġjockey": 4976,
	"that": 4977,
	"Ġnew": 4978,
	"anut": 4979,
	"lots": 4980,
	"Ġconstruction": 4981,
	"Ġpanels": 4982,
	"polar": 4983,
	"Ġdocked": 4984,
	"Ġstall": 4985,
	"pipes": 4986,
	"Ġhooves": 4987,
	"ilted": 4988,
	"zzle": 4989,
	"Ġsteep": 4990,
	"Ġrounded": 4991,
	"Ġgarnish": 4992,
	"Ġblueberries": 4993,
	"attered": 4994,
	"ĠAsian": 4995,
	"Ġent": 4996,
	"mixer": 4997,
	"aur": 4998,
	"hir": 4999,
	"Ġcompany": 5000,
	"br": 5001,
	"IGN": 5002,
	"KE": 5003,
	"iff": 5004,
	"ino": 5005,
	"Ġcd": 5006,
	"decorations": 5007,
	"Ġmuddy": 5008,
	"AIN": 5009,
	"Ġhind": 5010,
	"roman": 5011,
	"Ġmissing": 5012,
	"calf": 5013,
	"Ġgat": 5014,
	"sandwiches": 5015,
	"Ġvarious": 5016,
	"ia": 5017,
	"agne": 5018,
	"Ġmonitors": 5019,
	"Bottom": 5020,
	"Ġwarm": 5021,
	"Ġdivi": 5022,
	"ampagne": 5023,
	"Ġhealthy": 5024,
	"Ġow": 5025,
	"Guy": 5026,
	"Ġdisc": 5027,
	"Ġbrass": 5028,
	"stomers": 5029,
	"Ġmarking": 5030,
	"Sm": 5031,
	"Ġsyrup": 5032,
	"Ġgravy": 5033,
	"ional": 5034,
	"package": 5035,
	"Ġdonkey": 5036,
	"Ġcondim": 5037,
	"Ġgrain": 5038,
	"ions": 5039,
	"Catcher": 5040,
	"Ġ7": 5041,
	"Ġcoach": 5042,
	"ĠPLATE": 5043,
	"Brick": 5044,
	"lance": 5045,
	"tin": 5046,
	"igh": 5047,
	"hillside": 5048,
	"Ġadvertising": 5049,
	"bars": 5050,
	"Ġmailbox": 5051,
	"Ġfat": 5052,
	"Ġflight": 5053,
	"lection": 5054,
	"cd": 5055,
	"Ġstream": 5056,
	"Ġpockets": 5057,
	"Bat": 5058,
	"culator": 5059,
	"peted": 5060,
	"uring": 5061,
	"Ġkiwi": 5062,
	"Ġbooth": 5063,
	"Ġclip": 5064,
	"dies": 5065,
	"Des": 5066,
	"Ġbolt": 5067,
	"Ġballoons": 5068,
	"Ġlength": 5069,
	"Ġsto": 5070,
	"Ġserved": 5071,
	"bi": 5072,
	"tablet": 5073,
	"cucumbers": 5074,
	"Ġfuzzy": 5075,
	"Bowl": 5076,
	"Ġgiant": 5077,
	"Ġherbs": 5078,
	"Ġsepar": 5079,
	"Ġaqu": 5080,
	"Fire": 5081,
	"Ġsuspen": 5082,
	"Ġsplash": 5083,
	"rong": 5084,
	"Ġshot": 5085,
	"caroni": 5086,
	"Ġpowdered": 5087,
	"hallway": 5088,
	"Ġshirtless": 5089,
	"Ġmessy": 5090,
	"barn": 5091,
	"Ġfin": 5092,
	"Ġclass": 5093,
	"Ġsquatting": 5094,
	"Ġheads": 5095,
	"Ġparsley": 5096,
	"steam": 5097,
	"sunlight": 5098,
	"den": 5099,
	"muffin": 5100,
	"flu": 5101,
	"Ġgre": 5102,
	"Ġsharp": 5103,
	"Ġflowered": 5104,
	"Ġfans": 5105,
	"dugout": 5106,
	"ilot": 5107,
	"Ġairplanes": 5108,
	"toys": 5109,
	"Ġstems": 5110,
	"Ġbuoy": 5111,
	"Ġfancy": 5112,
	"Ġcountry": 5113,
	"Ġpatches": 5114,
	"Ġshield": 5115,
	"Ġbru": 5116,
	"ĠWA": 5117,
	"Ġskillet": 5118,
	"mud": 5119,
	"cess": 5120,
	"costume": 5121,
	"Ġbackwards": 5122,
	"blurry": 5123,
	"iscuit": 5124,
	"Ġdist": 5125,
	"pud": 5126,
	"Ġgraphic": 5127,
	"sers": 5128,
	"bouquet": 5129,
	"Ġchristmas": 5130,
	"seeds": 5131,
	"Mo": 5132,
	"Place": 5133,
	"spy": 5134,
	"Ġbracelets": 5135,
	"Ġsack": 5136,
	"pear": 5137,
	"lake": 5138,
	"Decor": 5139,
	"ets": 5140,
	"Ġmultiple": 5141,
	"Clouds": 5142,
	"Leaves": 5143,
	"paragus": 5144,
	"Ġgoats": 5145,
	"Ġrefri": 5146,
	"Ġgarlic": 5147,
	"Key": 5148,
	"asparagus": 5149,
	"arium": 5150,
	"serving": 5151,
	"jector": 5152,
	"Ġprice": 5153,
	"Ġspo": 5154,
	"Ġspeck": 5155,
	"ola": 5156,
	"Five": 5157,
	"bulance": 5158,
	"sailboat": 5159,
	"Ġmozzarella": 5160,
	"fresh": 5161,
	"ek": 5162,
	"Ġrace": 5163,
	"Ġtoothpaste": 5164,
	"closed": 5165,
	"Ġglowing": 5166,
	"device": 5167,
	"VD": 5168,
	"yond": 5169,
	"Ġhal": 5170,
	"Ġwaving": 5171,
	"Ġpeel": 5172,
	"Ġwoven": 5173,
	"akers": 5174,
	"icho": 5175,
	"melted": 5176,
	"cus": 5177,
	"Ġbeyond": 5178,
	"Ġscattered": 5179,
	"Ġmus": 5180,
	"Ġstained": 5181,
	"Park": 5182,
	"Ġcushions": 5183,
	"act": 5184,
	"Ġhorizontal": 5185,
	"osaur": 5186,
	"Ġmin": 5187,
	"dead": 5188,
	"Ġgoose": 5189,
	"mplo": 5190,
	"lamps": 5191,
	"derly": 5192,
	"Ġtrouser": 5193,
	"Ġtrousers": 5194,
	"Ġvintage": 5195,
	"bre": 5196,
	"crane": 5197,
	"drape": 5198,
	"rolley": 5199,
	"guin": 5200,
	"Cheese": 5201,
	"KING": 5202,
	"mploye": 5203,
	"Animal": 5204,
	"Ġshrubs": 5205,
	"hanging": 5206,
	"they": 5207,
	"ĠFR": 5208,
	"seagull": 5209,
	"Ġtinted": 5210,
	"alarm": 5211,
	"pattern": 5212,
	"ĠWOOD": 5213,
	"WO": 5214,
	"ĠToggle": 5215,
	"Ġperforming": 5216,
	"00": 5217,
	"Ġrough": 5218,
	"Ġheavy": 5219,
	"ampoo": 5220,
	"Ġshrub": 5221,
	"Ġroadside": 5222,
	"appliance": 5223,
	"someone": 5224,
	"tti": 5225,
	"lli": 5226,
	"atches": 5227,
	"Ġrailway": 5228,
	"Ġbasin": 5229,
	"oop": 5230,
	"Ġrou": 5231,
	"stal": 5232,
	"Pot": 5233,
	"Row": 5234,
	"run": 5235,
	"Ġsocket": 5236,
	"peas": 5237,
	"cooking": 5238,
	"Ġchunk": 5239,
	"Knife": 5240,
	"Floor": 5241,
	"Ġcarpeted": 5242,
	"Rocks": 5243,
	"Wire": 5244,
	"lanted": 5245,
	"Ġbedside": 5246,
	"worker": 5247,
	"Dou": 5248,
	"gla": 5249,
	"calm": 5250,
	"buoy": 5251,
	"Ġtags": 5252,
	"Ġrasp": 5253,
	"Ġmilitary": 5254,
	"canoe": 5255,
	"iner": 5256,
	"pickles": 5257,
	"Ġlion": 5258,
	"wallet": 5259,
	"scent": 5260,
	"Ġpancake": 5261,
	"lemons": 5262,
	"Ġturkey": 5263,
	"Ġmodel": 5264,
	"Ġdrop": 5265,
	"ĠPick": 5266,
	"Section": 5267,
	"Ġmousepad": 5268,
	"mannequin": 5269,
	"Ġskyscraper": 5270,
	"Ġnut": 5271,
	"oise": 5272,
	"wave": 5273,
	"puppy": 5274,
	"ains": 5275,
	"Ġstrings": 5276,
	"Ġfloppy": 5277,
	"Ġpretty": 5278,
	"Ġmelon": 5279,
	"Ġbrake": 5280,
	"ual": 5281,
	"floral": 5282,
	"Ġride": 5283,
	"Cell": 5284,
	"ctus": 5285,
	"Ġforehead": 5286,
	"Ġpop": 5287,
	"Mountains": 5288,
	"Ġreads": 5289,
	"BLACK": 5290,
	"ĠPickup": 5291,
	"Ġsmo": 5292,
	"Ġstock": 5293,
	"ways": 5294,
	"ripe": 5295,
	"eng": 5296,
	"INK": 5297,
	"Ġfallen": 5298,
	"Ġstripped": 5299,
	"Ġenvelope": 5300,
	"lette": 5301,
	"puddle": 5302,
	"Ġfacial": 5303,
	"innamon": 5304,
	"Ġterminal": 5305,
	"Ġdesigned": 5306,
	"blazer": 5307,
	"mbing": 5308,
	"controllers": 5309,
	"Ġvine": 5310,
	"Ġbelly": 5311,
	"tretched": 5312,
	"Ġlighthouse": 5313,
	"Ġdvd": 5314,
	"ĠSIGN": 5315,
	"hird": 5316,
	"Ġinformation": 5317,
	"UT": 5318,
	"Bed": 5319,
	"Ġladies": 5320,
	"Ġstyrofoam": 5321,
	"Ġlarger": 5322,
	"rushes": 5323,
	"Ġmon": 5324,
	"THAT": 5325,
	"Ġveggies": 5326,
	"Sunglasses": 5327,
	"Ġcold": 5328,
	"Ġhoney": 5329,
	"cupcakes": 5330,
	"Ġsnout": 5331,
	"Ġblocks": 5332,
	"Ġlane": 5333,
	"fans": 5334,
	"Ġpancakes": 5335,
	"Ġcollared": 5336,
	"mound": 5337,
	"Ġmobile": 5338,
	"Ġsha": 5339,
	"Ġalone": 5340,
	"cove": 5341,
	"Ġsets": 5342,
	"Ġshredded": 5343,
	"mployee": 5344,
	"multiple": 5345,
	"Pain": 5346,
	"pictures": 5347,
	"anta": 5348,
	"railing": 5349,
	"Ġbrushing": 5350,
	"Ġtrans": 5351,
	"urky": 5352,
	"peach": 5353,
	"Ġbillboard": 5354,
	"Ġlandscape": 5355,
	"Ġdrum": 5356,
	"Ġelev": 5357,
	"Ġedges": 5358,
	"Towel": 5359,
	"Clo": 5360,
	"island": 5361,
	"Ġident": 5362,
	"gging": 5363,
	"Ġwrap": 5364,
	"Ġbeanie": 5365,
	"Ġparty": 5366,
	"Ġmotorc": 5367,
	"Ġcommercial": 5368,
	"Ġflour": 5369,
	"mboo": 5370,
	"mple": 5371,
	"American": 5372,
	"va": 5373,
	"Ġslats": 5374,
	"Ġparrot": 5375,
	"Half": 5376,
	"REE": 5377,
	"mbled": 5378,
	"Ġblowing": 5379,
	"intersection": 5380,
	"Ġtents": 5381,
	"lawn": 5382,
	"elly": 5383,
	"gran": 5384,
	"lurred": 5385,
	"alend": 5386,
	"Ġrecl": 5387,
	"ornament": 5388,
	"acters": 5389,
	"Pe": 5390,
	"Ġundershirt": 5391,
	"sest": 5392,
	"Ġwhipped": 5393,
	"strich": 5394,
	"Ġonly": 5395,
	"Ġleggings": 5396,
	"jars": 5397,
	"beautiful": 5398,
	"Ġloc": 5399,
	"pos": 5400,
	"ĠOn": 5401,
	"aged": 5402,
	"Ġblankets": 5403,
	"Ġmain": 5404,
	"Ġstalk": 5405,
	"Broccoli": 5406,
	"looking": 5407,
	"heater": 5408,
	"rectangular": 5409,
	"ug": 5410,
	"Ġbeads": 5411,
	"Ġcane": 5412,
	"minivan": 5413,
	"piano": 5414,
	"Ġsuits": 5415,
	"Ġburgundy": 5416,
	"buses": 5417,
	"inten": 5418,
	"Ġbulbs": 5419,
	"ĠHO": 5420,
	"dump": 5421,
	"Ġcakes": 5422,
	"Skier": 5423,
	"Ġquilt": 5424,
	"ashed": 5425,
	"cent": 5426,
	"shel": 5427,
	"Ġcaps": 5428,
	"Ġparas": 5429,
	"Ġsed": 5430,
	"poin": 5431,
	"seed": 5432,
	"Ġval": 5433,
	"alendar": 5434,
	"Ġsport": 5435,
	"ugh": 5436,
	"'t": 5437,
	"Ġdumpster": 5438,
	"Ġcroissant": 5439,
	"character": 5440,
	"mozzarella": 5441,
	"ending": 5442,
	"dvds": 5443,
	"intendo": 5444,
	"Ġindicating": 5445,
	"Ġtransparent": 5446,
	"Ġtabby": 5447,
	"Ġfences": 5448,
	"Ġtor": 5449,
	"Ġuse": 5450,
	"swan": 5451,
	"Ġcaution": 5452,
	"Edge": 5453,
	"Ġdvds": 5454,
	"Ġsunlight": 5455,
	"tur": 5456,
	"Ġhooded": 5457,
	"arts": 5458,
	"porch": 5459,
	"icy": 5460,
	"Trash": 5461,
	"patio": 5462,
	"Ġbit": 5463,
	"Ġfaded": 5464,
	"telope": 5465,
	"US": 5466,
	"ĠWALL": 5467,
	"Ġsandw": 5468,
	"Ġdotted": 5469,
	"nch": 5470,
	"ckle": 5471,
	"Ġtrolley": 5472,
	"quoise": 5473,
	"Ġoppo": 5474,
	"Ġshakers": 5475,
	"Ġgreens": 5476,
	"Ġcloths": 5477,
	"Ġdesert": 5478,
	"Ġturning": 5479,
	"Ġtown": 5480,
	"Ġnotes": 5481,
	"ronze": 5482,
	"swimsuit": 5483,
	"Squ": 5484,
	"cigarette": 5485,
	"father": 5486,
	"gi": 5487,
	"Umpire": 5488,
	"Sandwich": 5489,
	"Ġseason": 5490,
	"blueberries": 5491,
	"son": 5492,
	"rought": 5493,
	"Stainless": 5494,
	"Ġpackets": 5495,
	"Ġscrew": 5496,
	"Ġdriveway": 5497,
	"Ġbuns": 5498,
	"BOARD": 5499,
	"Kite": 5500,
	"eta": 5501,
	"Hat": 5502,
	"restaurant": 5503,
	"Ġarran": 5504,
	"ĠTI": 5505,
	"Ġsix": 5506,
	"oil": 5507,
	"Ġmoped": 5508,
	"Ġoutstretched": 5509,
	"Ġlocated": 5510,
	"Bicycle": 5511,
	"Ġtight": 5512,
	"Ġ8": 5513,
	"Ġank": 5514,
	"spray": 5515,
	"Ġtort": 5516,
	"Ġevent": 5517,
	"ONT": 5518,
	"elbow": 5519,
	"packet": 5520,
	"Ġsedan": 5521,
	"Ġstools": 5522,
	"bbit": 5523,
	"ĠYELLOW": 5524,
	"sent": 5525,
	"Ġzucchini": 5526,
	"mailbox": 5527,
	"Ġmedium": 5528,
	"sack": 5529,
	"jockey": 5530,
	"Boat": 5531,
	"iced": 5532,
	"dgerator": 5533,
	"Ġsquares": 5534,
	"gle": 5535,
	"Ġloaf": 5536,
	"Ġwaters": 5537,
	"ĠRO": 5538,
	"spl": 5539,
	"Ġfenced": 5540,
	"Ġget": 5541,
	"dvd": 5542,
	"Ġhour": 5543,
	"Ex": 5544,
	"six": 5545,
	"Ġbroom": 5546,
	"Ġchinese": 5547,
	"estal": 5548,
	"Ġwash": 5549,
	"headlights": 5550,
	"bikini": 5551,
	"Ġglaze": 5552,
	"Ġfol": 5553,
	"iddle": 5554,
	"Un": 5555,
	"kiwi": 5556,
	"Ġsoldier": 5557,
	"folded": 5558,
	"mattress": 5559,
	"colli": 5560,
	"kitten": 5561,
	"Ġpig": 5562,
	"Ġexhaust": 5563,
	"Ġducks": 5564,
	"toon": 5565,
	"jeep": 5566,
	"Ġlaugh": 5567,
	"cessed": 5568,
	"chopsticks": 5569,
	"Ġwi": 5570,
	"Sho": 5571,
	"omes": 5572,
	"Ġrackets": 5573,
	"press": 5574,
	"tou": 5575,
	"eathered": 5576,
	"Very": 5577,
	"gan": 5578,
	"Ġsnack": 5579,
	"Ġpeak": 5580,
	"Tomato": 5581,
	"reline": 5582,
	"Ġstudent": 5583,
	"Ġcluttered": 5584,
	"Ġcafe": 5585,
	"Blonde": 5586,
	"pajamas": 5587,
	"dome": 5588,
	"parked": 5589,
	"herd": 5590,
	"painted": 5591,
	"PU": 5592,
	"hats": 5593,
	"INDOW": 5594,
	"ral": 5595,
	"Ġpetting": 5596,
	"iosk": 5597,
	"Power": 5598,
	"ined": 5599,
	"Kitchen": 5600,
	"icine": 5601,
	"Ġlay": 5602,
	"Ġshutters": 5603,
	"buttons": 5604,
	"audience": 5605,
	"Ġcasting": 5606,
	"chrome": 5607,
	"butterfly": 5608,
	"spoons": 5609,
	"advertisement": 5610,
	"ĠGLASS": 5611,
	"Her": 5612,
	"logs": 5613,
	"church": 5614,
	"Ġafter": 5615,
	"It": 5616,
	"Ġglobe": 5617,
	"ĠDOG": 5618,
	"Ġrust": 5619,
	"RAS": 5620,
	"Ġrimmed": 5621,
	"Rail": 5622,
	"engine": 5623,
	"laces": 5624,
	"Ġdistant": 5625,
	"full": 5626,
	"Ġbad": 5627,
	"powdered": 5628,
	"idas": 5629,
	"bagel": 5630,
	"nette": 5631,
	"Foot": 5632,
	"Ġgroom": 5633,
	"Ġmurky": 5634,
	"affolding": 5635,
	"Apple": 5636,
	"Ġarranged": 5637,
	"ACKET": 5638,
	"Ġchecked": 5639,
	"Ġgun": 5640,
	"ĠBUS": 5641,
	"Rear": 5642,
	"Ġteapot": 5643,
	"pancake": 5644,
	"ĠGIRL": 5645,
	"Ġhinge": 5646,
	"ĠPO": 5647,
	"Ġopposite": 5648,
	"Ġrolls": 5649,
	"icle": 5650,
	"TWO": 5651,
	"Thick": 5652,
	"Cake": 5653,
	"control": 5654,
	"Concrete": 5655,
	"Ġelderly": 5656,
	"rystal": 5657,
	"asian": 5658,
	"Thin": 5659,
	"portion": 5660,
	"Ġpears": 5661,
	"Ġgown": 5662,
	"parsley": 5663,
	"Fruit": 5664,
	"wide": 5665,
	"illing": 5666,
	"playing": 5667,
	"Ġropes": 5668,
	"Ġcoats": 5669,
	"Ġpou": 5670,
	"fountain": 5671,
	"Ġsinks": 5672,
	"Ġpreser": 5673,
	"Ġstre": 5674,
	"Cont": 5675,
	"Ġsemi": 5676,
	"Ġlaughing": 5677,
	"string": 5678,
	"Television": 5679,
	"beef": 5680,
	"Phone": 5681,
	"Decorative": 5682,
	"ariety": 5683,
	"Ġinterior": 5684,
	"Ġuniforms": 5685,
	"Ġthings": 5686,
	"isy": 5687,
	"guys": 5688,
	"Ġgathered": 5689,
	"Hel": 5690,
	"Ġbunny": 5691,
	"Ġspeed": 5692,
	"ART": 5693,
	"Ġbalding": 5694,
	"redi": 5695,
	"ĠPERSON": 5696,
	"RU": 5697,
	"Ġrusted": 5698,
	"Ġes": 5699,
	"Ġskateboards": 5700,
	"Ġcoaster": 5701,
	"Let": 5702,
	"ASE": 5703,
	"arment": 5704,
	"bleachers": 5705,
	"Ġclosest": 5706,
	"Ġprocess": 5707,
	"Ġamong": 5708,
	"Ġwheelchair": 5709,
	"ooked": 5710,
	"Ġbelong": 5711,
	"Ġweb": 5712,
	"GROUND": 5713,
	"Square": 5714,
	"rais": 5715,
	"stripes": 5716,
	"xing": 5717,
	"Ġcards": 5718,
	"ĠCD": 5719,
	"mingo": 5720,
	"Batter": 5721,
	"Ġrefridgerator": 5722,
	"Ġneat": 5723,
	"zel": 5724,
	"Teddy": 5725,
	"Ġsandwhich": 5726,
	"Ġbark": 5727,
	"Ġnecktie": 5728,
	"Ġkeep": 5729,
	"Ġfris": 5730,
	"Ġcustomer": 5731,
	"Ġcomb": 5732,
	"Ġgift": 5733,
	"Ġpedestal": 5734,
	"Ġbraid": 5735,
	"Ġbite": 5736,
	"Ġalcohol": 5737,
	"Ġpanes": 5738,
	"Ġnostri": 5739,
	"Ġharbor": 5740,
	"Ġpowder": 5741,
	"phol": 5742,
	"opter": 5743,
	"Ġraw": 5744,
	"zen": 5745,
	"Umb": 5746,
	"Ġfun": 5747,
	"ori": 5748,
	"Ġshallow": 5749,
	"Ġchili": 5750,
	"Ġexit": 5751,
	"Ġregister": 5752,
	"Ġcarried": 5753,
	"Pole": 5754,
	"TU": 5755,
	"Ġyolk": 5756,
	"ĠCHAIR": 5757,
	"Ġpassing": 5758,
	"adult": 5759,
	"Home": 5760,
	"Wheel": 5761,
	"Ġdep": 5762,
	"soft": 5763,
	"cabin": 5764,
	"ĠPAIR": 5765,
	"vases": 5766,
	"roses": 5767,
	"Ġshoulders": 5768,
	"Bench": 5769,
	"Ġlounge": 5770,
	"Ġaut": 5771,
	"herbs": 5772,
	"pre": 5773,
	"EE": 5774,
	"Ġprodu": 5775,
	"Ġpropped": 5776,
	"ĠSIDE": 5777,
	"Ġcastle": 5778,
	"Ġfixtures": 5779,
	"strument": 5780,
	"ancing": 5781,
	"xed": 5782,
	"Ġdeer": 5783,
	"grassy": 5784,
	"Ġsmart": 5785,
	"iral": 5786,
	"Ġposted": 5787,
	"atelli": 5788,
	"AY": 5789,
	"Ġgro": 5790,
	"stars": 5791,
	"covered": 5792,
	"ict": 5793,
	"ggy": 5794,
	"Ġchains": 5795,
	"Ġtricks": 5796,
	"atellite": 5797,
	"Ġhid": 5798,
	"Basket": 5799,
	"Pile": 5800,
	"Ġcatchers": 5801,
	"posable": 5802,
	"Bread": 5803,
	"hou": 5804,
	"icopter": 5805,
	"aped": 5806,
	"ĠHAND": 5807,
	"ffle": 5808,
	"Ġgrown": 5809,
	"Ġsecu": 5810,
	"Ground": 5811,
	"skyscraper": 5812,
	"pans": 5813,
	"agonal": 5814,
	"lish": 5815,
	"Ġboulder": 5816,
	"Ġhandled": 5817,
	"Ġtoo": 5818,
	"MB": 5819,
	"coach": 5820,
	"garnish": 5821,
	"photographer": 5822,
	"Ġupright": 5823,
	"vory": 5824,
	"Ġhedges": 5825,
	"tu": 5826,
	"Ġracing": 5827,
	"Electrical": 5828,
	"fluffy": 5829,
	"Rock": 5830,
	"cats": 5831,
	"Ġnails": 5832,
	"Wheels": 5833,
	"Road": 5834,
	"oodle": 5835,
	"ĠDVD": 5836,
	"Ġalmost": 5837,
	"ingredi": 5838,
	"rical": 5839,
	"Ġbats": 5840,
	"ification": 5841,
	"splash": 5842,
	"Ġcamp": 5843,
	"cked": 5844,
	"Stuffed": 5845,
	"Ġpencils": 5846,
	"Snowboard": 5847,
	"Ġheels": 5848,
	"Ġchampagne": 5849,
	"Ġappear": 5850,
	"Ġaction": 5851,
	"Ġrela": 5852,
	"tents": 5853,
	"shelter": 5854,
	"envelope": 5855,
	"rubber": 5856,
	"Ġbasketball": 5857,
	"Ġgrouped": 5858,
	"Curtain": 5859,
	"rity": 5860,
	"ĠTOP": 5861,
	"hamburger": 5862,
	"Ġdip": 5863,
	"Day": 5864,
	"ftop": 5865,
	"Ġgarland": 5866,
	"Flower": 5867,
	"almon": 5868,
	"Ġcas": 5869,
	"Ġentry": 5870,
	"Ġpadded": 5871,
	"Bike": 5872,
	"Striped": 5873,
	"Chocolate": 5874,
	"wear": 5875,
	"Ġrestroom": 5876,
	"Ġburners": 5877,
	"asty": 5878,
	"slee": 5879,
	"anuts": 5880,
	"Ġdragon": 5881,
	"Ġbloo": 5882,
	"female": 5883,
	"mber": 5884,
	"ĠSIT": 5885,
	"Ġpillowcase": 5886,
	"Ġhanger": 5887,
	"Ġkicking": 5888,
	"Bath": 5889,
	"ized": 5890,
	"Spo": 5891,
	"achute": 5892,
	"Ġbuckle": 5893,
	"Ġwired": 5894,
	"olf": 5895,
	"ARK": 5896,
	"..": 5897,
	"Ġshows": 5898,
	"Ġtwigs": 5899,
	"ilhou": 5900,
	"Ġeyebrow": 5901,
	"whipped": 5902,
	"ausages": 5903,
	"ĠPAN": 5904,
	"Ġbathing": 5905,
	"megran": 5906,
	"Shadows": 5907,
	"ĠThis": 5908,
	"Ġcircles": 5909,
	"law": 5910,
	"kids": 5911,
	"Ġahead": 5912,
	"core": 5913,
	"aggy": 5914,
	"opus": 5915,
	"charger": 5916,
	"Ġshoreline": 5917,
	"Ġdet": 5918,
	"Ġwh": 5919,
	"Ġhidden": 5920,
	"Ġputting": 5921,
	"earrings": 5922,
	"ispy": 5923,
	"Ġstom": 5924,
	"cloudy": 5925,
	"comp": 5926,
	"Ġcoconut": 5927,
	"Ġsurfers": 5928,
	"Ġprints": 5929,
	"Bananas": 5930,
	"UR": 5931,
	"Ġtools": 5932,
	"brushes": 5933,
	"student": 5934,
	"Ġfaces": 5935,
	"ĠBACKGROUND": 5936,
	"customer": 5937,
	"Ġwarning": 5938,
	"wel": 5939,
	"Ġcyl": 5940,
	"Ġthing": 5941,
	"Plane": 5942,
	"Ġpit": 5943,
	"Ġstrips": 5944,
	"chopped": 5945,
	"Ġstret": 5946,
	"console": 5947,
	"ĠWINDOW": 5948,
	"garland": 5949,
	"Ġfrying": 5950,
	"Ġlif": 5951,
	"Ġgiving": 5952,
	"quor": 5953,
	"signs": 5954,
	"Ġankle": 5955,
	"Ġsuspended": 5956,
	"Ġbunches": 5957,
	"ited": 5958,
	"izer": 5959,
	"Ġchoppy": 5960,
	"Ġrocking": 5961,
	"croissant": 5962,
	"Ġstomach": 5963,
	"mallow": 5964,
	"urinal": 5965,
	"Ġmugs": 5966,
	"Someone": 5967,
	"Airplane": 5968,
	"Ġbagels": 5969,
	"cupboards": 5970,
	"Ġslab": 5971,
	"Hair": 5972,
	"Ġformation": 5973,
	"shmallow": 5974,
	"ĠHOLDING": 5975,
	"ĠSITTING": 5976,
	"stra": 5977,
	"Ġuphol": 5978,
	"zucchini": 5979,
	"Ġfocus": 5980,
	"Ġslanted": 5981,
	"Ġdisplaying": 5982,
	"ĠWOODEN": 5983,
	"ONE": 5984,
	"Plant": 5985,
	"INE": 5986,
	"Ġstapler": 5987,
	"yogurt": 5988,
	"crown": 5989,
	"CHE": 5990,
	"Ġsteeple": 5991,
	"Ġassorted": 5992,
	"Ġgoods": 5993,
	"Helmet": 5994,
	"Ġminute": 5995,
	"Ġcheek": 5996,
	"Pillows": 5997,
	"Ġowl": 5998,
	"ATE": 5999,
	"Ġfeather": 6000,
	"utter": 6001,
	"spot": 6002,
	"vas": 6003,
	"Ġshed": 6004,
	"serts": 6005,
	"Ġdivider": 6006,
	"Stop": 6007,
	"fess": 6008,
	"spital": 6009,
	"Ġcolumns": 6010,
	"atural": 6011,
	"opened": 6012,
	"bit": 6013,
	"Ġther": 6014,
	"Face": 6015,
	"blond": 6016,
	"Ġwalks": 6017,
	"Ġ12": 6018,
	"Ġtour": 6019,
	"Ġbound": 6020,
	"crates": 6021,
	"Ġbib": 6022,
	"Another": 6023,
	"ANT": 6024,
	"ha": 6025,
	"dinner": 6026,
	"breakfast": 6027,
	"Logo": 6028,
	"Ġbamboo": 6029,
	"Ġindoor": 6030,
	"Sliced": 6031,
	"Ġcherries": 6032,
	"Ġcola": 6033,
	"ĠBE": 6034,
	"Ġphotos": 6035,
	"Ġkitty": 6036,
	"Ġarrange": 6037,
	"PE": 6038,
	"Ġcattle": 6039,
	"Ġmore": 6040,
	"ĠFOR": 6041,
	"ĠUS": 6042,
	"lush": 6043,
	"Ġpartly": 6044,
	"Ġbedding": 6045,
	"hotdog": 6046,
	"coke": 6047,
	"Ġcobble": 6048,
	"Shiny": 6049,
	"Ġpathway": 6050,
	"AG": 6051,
	"Ġpreserver": 6052,
	"Ġcanisters": 6053,
	"Ġcor": 6054,
	"onna": 6055,
	"Truck": 6056,
	"ĠSTAND": 6057,
	"Ġvines": 6058,
	"Ġpigeons": 6059,
	"Mu": 6060,
	"Ġkay": 6061,
	"CLE": 6062,
	"Ġclaws": 6063,
	"Ġfast": 6064,
	"Ġyour": 6065,
	"Ġtortilla": 6066,
	"Ġlim": 6067,
	"Ġjelly": 6068,
	"Waves": 6069,
	"Ġcopper": 6070,
	"items": 6071,
	"oog": 6072,
	"wrinkles": 6073,
	"stered": 6074,
	"railroad": 6075,
	"photo": 6076,
	"megranate": 6077,
	"Windshield": 6078,
	"Ġpeanut": 6079,
	"Ġprocessor": 6080,
	"Ġsnacks": 6081,
	"gravy": 6082,
	"Ġforefront": 6083,
	"onnaise": 6084,
	"Ġput": 6085,
	"Ġfender": 6086,
	"Ġlayer": 6087,
	"Ġsheer": 6088,
	"Ġlens": 6089,
	"Ġbreast": 6090,
	"Ġbunk": 6091,
	"Framed": 6092,
	"Ġsprinkled": 6093,
	"Ġcontains": 6094,
	"chains": 6095,
	"TLE": 6096,
	"Ġtypes": 6097,
	"bris": 6098,
	"Ġfishing": 6099,
	"ĠAT": 6100,
	"Ġseating": 6101,
	"Ġrabbit": 6102,
	"Ġjumpsuit": 6103,
	"Ġlanyard": 6104,
	"cri": 6105,
	"Ġcases": 6106,
	"Keyboard": 6107,
	"TURE": 6108,
	"lunch": 6109,
	"Ġduff": 6110,
	"lank": 6111,
	"Ġsunset": 6112,
	"Ġsolid": 6113,
	"Ġswitche": 6114,
	"PART": 6115,
	"Ġselling": 6116,
	"amel": 6117,
	"laptops": 6118,
	"Ġcrackers": 6119,
	"Chain": 6120,
	"Wii": 6121,
	"Ġreddish": 6122,
	"Double": 6123,
	"Ġmac": 6124,
	"like": 6125,
	"tch": 6126,
	"icap": 6127,
	"Ġda": 6128,
	"Ġoutlets": 6129,
	"Ġthey": 6130,
	"creen": 6131,
	"Stone": 6132,
	"Surfer": 6133,
	"dumpster": 6134,
	"soldier": 6135,
	"REET": 6136,
	"Ġmeet": 6137,
	"cooker": 6138,
	"Ġmanhole": 6139,
	"Ġdol": 6140,
	"pond": 6141,
	"vis": 6142,
	"Ġuncooked": 6143,
	"Ġcharacters": 6144,
	"stripe": 6145,
	"Ġrides": 6146,
	"monkey": 6147,
	"Ġshell": 6148,
	"ĠCOM": 6149,
	"Ġportable": 6150,
	"Ġmatching": 6151,
	"Ġhandlebars": 6152,
	"ental": 6153,
	"Ġskiis": 6154,
	"Women": 6155,
	"erase": 6156,
	"Ġheel": 6157,
	"Can": 6158,
	"Ġwinds": 6159,
	"OUN": 6160,
	"garlic": 6161,
	"Spectator": 6162,
	"Ġlipstick": 6163,
	"trains": 6164,
	"ĠCAT": 6165,
	"Ġremotes": 6166,
	"Ġspeckled": 6167,
	"ĠWATER": 6168,
	"panda": 6169,
	"MALL": 6170,
	"Ġwasher": 6171,
	"Ġur": 6172,
	"area": 6173,
	"Ġthrown": 6174,
	"fessional": 6175,
	"asuring": 6176,
	"Ġmoon": 6177,
	"cardboard": 6178,
	"RASS": 6179,
	"ared": 6180,
	"single": 6181,
	"Ġcrumpled": 6182,
	"Ġbeams": 6183,
	"tattoo": 6184,
	"vetop": 6185,
	"Ġfather": 6186,
	"Ġmit": 6187,
	"Ġbaker": 6188,
	"Ġskull": 6189,
	"washing": 6190,
	"toothpaste": 6191,
	"Ġarrangement": 6192,
	"goose": 6193,
	"ILDING": 6194,
	"both": 6195,
	"Flag": 6196,
	"rub": 6197,
	"Ġcrispy": 6198,
	"Ġstudents": 6199,
	"team": 6200,
	"Cut": 6201,
	"bbing": 6202,
	"Ġtilted": 6203,
	"Ġbrocolli": 6204,
	"Ġgentleman": 6205,
	"computers": 6206,
	"License": 6207,
	"asoned": 6208,
	"mans": 6209,
	"asy": 6210,
	"Ġlifted": 6211,
	"reo": 6212,
	"Ġpenguin": 6213,
	"Writing": 6214,
	"Meat": 6215,
	"Ġtourist": 6216,
	"Gravel": 6217,
	"ION": 6218,
	"Ġchalkboard": 6219,
	"balloons": 6220,
	"aqu": 6221,
	"gen": 6222,
	"Ġtowers": 6223,
	"shine": 6224,
	"Ġstatu": 6225,
	"shaped": 6226,
	"Ġties": 6227,
	"Ġvess": 6228,
	"Watch": 6229,
	"second": 6230,
	"Ġcartoon": 6231,
	"Mouse": 6232,
	"Ġoverlooking": 6233,
	"Bushes": 6234,
	"GREEN": 6235,
	"dent": 6236,
	"Ġtre": 6237,
	"Button": 6238,
	"Ġrows": 6239,
	"Ġprotection": 6240,
	"Ġfre": 6241,
	"Ġlighted": 6242,
	"Ġlighter": 6243,
	"steel": 6244,
	"Surfboard": 6245,
	"allest": 6246,
	"Ġambulance": 6247,
	"Ġfingernail": 6248,
	"Ġfootball": 6249,
	"Ġsoil": 6250,
	"Kid": 6251,
	"oggy": 6252,
	"Ġcleat": 6253,
	"Ġspectacle": 6254,
	"Ġbuggy": 6255,
	"Umbrella": 6256,
	"electronic": 6257,
	"flour": 6258,
	"color": 6259,
	"briefcase": 6260,
	"Ġfer": 6261,
	"Over": 6262,
	"beads": 6263,
	"Ġcute": 6264,
	"tunnel": 6265,
	"Ġcalendar": 6266,
	"Ġtangerine": 6267,
	"apartment": 6268,
	"pears": 6269,
	"Ġmixing": 6270,
	"Ġrag": 6271,
	"Ġscale": 6272,
	"well": 6273,
	"forks": 6274,
	"Ġneed": 6275,
	"Ġdisposable": 6276,
	"They": 6277,
	"peeled": 6278,
	"Ġ10": 6279,
	"broom": 6280,
	"ilhouette": 6281,
	"ĠAN": 6282,
	"Ġhospital": 6283,
	"hood": 6284,
	"Ġshaded": 6285,
	"Ġpoint": 6286,
	"smiling": 6287,
	"Ġthird": 6288,
	"Ġpeeled": 6289,
	"Ġmove": 6290,
	"hino": 6291,
	"Ġconve": 6292,
	"Ġmov": 6293,
	"Spoon": 6294,
	"Ġcleaning": 6295,
	"ĠSTOP": 6296,
	"teen": 6297,
	"undershirt": 6298,
	"Ġvariety": 6299,
	"Ġdirections": 6300,
	"Ġpeaches": 6301,
	"Ġbreaking": 6302,
	"Ġdeli": 6303,
	"tination": 6304,
	"oleslaw": 6305,
	"Six": 6306,
	"Ġdust": 6307,
	"Fresh": 6308,
	"Ġpri": 6309,
	"baskets": 6310,
	"Ġsmoking": 6311,
	"Remote": 6312,
	"NIS": 6313,
	"Ġbalance": 6314,
	"Ġstreetlight": 6315,
	"opes": 6316,
	"Asian": 6317,
	"Ġsaying": 6318,
	"Bal": 6319,
	"ummy": 6320,
	"Ġeyebrows": 6321,
	"ĠTEN": 6322,
	"Ġglare": 6323,
	"pass": 6324,
	"Ġdetail": 6325,
	"airplanes": 6326,
	"Bar": 6327,
	"baked": 6328,
	"medium": 6329,
	"Ġstretched": 6330,
	"Ġstairway": 6331,
	"Ġalso": 6332,
	"clean": 6333,
	"IE": 6334,
	"bagels": 6335,
	"Ġpresent": 6336,
	"sponge": 6337,
	"Ġreflector": 6338,
	"Ġtyping": 6339,
	"Lu": 6340,
	"Ġtouch": 6341,
	"plaid": 6342,
	"Ġdrainer": 6343,
	"Ġbridle": 6344,
	"Ġvessel": 6345,
	"christmas": 6346,
	"Ġfighter": 6347,
	"Older": 6348,
	"Ġspik": 6349,
	"Ġdinosaur": 6350,
	"Ġpetals": 6351,
	"PH": 6352,
	"ala": 6353,
	"ico": 6354,
	"Ġmeters": 6355,
	"Ġcalculator": 6356,
	"Ġcanvas": 6357,
	"Ġturquoise": 6358,
	"Ġcarved": 6359,
	"Ġpicket": 6360,
	"Ġkayak": 6361,
	"Ġpineapples": 6362,
	"ĠOpen": 6363,
	"Ġfile": 6364,
	"Ġmango": 6365,
	"ĠSTREET": 6366,
	"Ġtabletop": 6367,
	"fried": 6368,
	"Ġarrows": 6369,
	"Ġpouring": 6370,
	"French": 6371,
	"ĠFL": 6372,
	"Ġeggplant": 6373,
	"liding": 6374,
	"broken": 6375,
	"Ġtote": 6376,
	"ssom": 6377,
	"LOOR": 6378,
	"Ġaquarium": 6379,
	"Ġfigurines": 6380,
	"stump": 6381,
	"Ġblades": 6382,
	"Ġappro": 6383,
	"Ġcluster": 6384,
	"bracelets": 6385,
	"ĠLE": 6386,
	"Ġnotepad": 6387,
	"Ġtoiletries": 6388,
	"tery": 6389,
	"Ġlove": 6390,
	"Walk": 6391,
	"stacle": 6392,
	"Ball": 6393,
	"runway": 6394,
	"ĠJACKET": 6395,
	"Ġengines": 6396,
	"vines": 6397,
	"inside": 6398,
	"ĠSHO": 6399,
	"Ġbuds": 6400,
	"Ġvending": 6401,
	"Tire": 6402,
	"Ġcustomers": 6403,
	"Ġwooded": 6404,
	"ids": 6405,
	"Ġknot": 6406,
	"ETAL": 6407,
	"posed": 6408,
	"plain": 6409,
	"Ġbride": 6410,
	"Ġbronze": 6411,
	"Ġsour": 6412,
	"Ġstovetop": 6413,
	"Ġdisk": 6414,
	"ends": 6415,
	"Cou": 6416,
	"twigs": 6417,
	"eline": 6418,
	"ew": 6419,
	"Out": 6420,
	"Ġcarry": 6421,
	"Ġwrought": 6422,
	"cards": 6423,
	"Vehicle": 6424,
	"canisters": 6425,
	"chalk": 6426,
	"Ġcarrier": 6427,
	"icured": 6428,
	"ĠZ": 6429,
	"Dis": 6430,
	"eggplant": 6431,
	"huge": 6432,
	"Ġparade": 6433,
	"Ġpedal": 6434,
	"Dirty": 6435,
	"ĠBUILDING": 6436,
	"Ġrailings": 6437,
	"Ġmantel": 6438,
	"Ġfold": 6439,
	"ichoke": 6440,
	"Ġspiral": 6441,
	"ĠPE": 6442,
	"Ġhut": 6443,
	"Ġairl": 6444,
	"Ġraft": 6445,
	"Ġspokes": 6446,
	"ĠCU": 6447,
	"Ġgrout": 6448,
	"steak": 6449,
	"different": 6450,
	"Legs": 6451,
	"Bare": 6452,
	"ĠHAT": 6453,
	"Trunk": 6454,
	"Ġsword": 6455,
	"Ġhelping": 6456,
	"ĠSO": 6457,
	"strap": 6458,
	"ĠĠĠĠĠĠĠĠĠĠĠĠĠĠĠĠ": 6459,
	"tourist": 6460,
	"rito": 6461,
	"Ġshaggy": 6462,
	"ĠGRASS": 6463,
	"cuum": 6464,
	"wrink": 6465,
	"fall": 6466,
	"Ġbrunette": 6467,
	"Ġwatches": 6468,
	"close": 6469,
	"Ce": 6470,
	"goal": 6471,
	"Ġnetting": 6472,
	"Ġdang": 6473,
	"ameras": 6474,
	"ĠLIGHT": 6475,
	"Cur": 6476,
	"Ġmashed": 6477,
	"rece": 6478,
	"OOK": 6479,
	"skate": 6480,
	"Ġmeadow": 6481,
	"Ġpacked": 6482,
	"ob": 6483,
	"ZZ": 6484,
	"Ġfring": 6485,
	"Shirt": 6486,
	"vely": 6487,
	"Di": 6488,
	"Ġprojector": 6489,
	"cla": 6490,
	"dryer": 6491,
	"Ġcrystal": 6492,
	"Ġreceipt": 6493,
	"blankets": 6494,
	"Advertis": 6495,
	"paved": 6496,
	"living": 6497,
	"Ġfloret": 6498,
	"cli": 6499,
	"Ġbone": 6500,
	"tering": 6501,
	"Ġpouch": 6502,
	"Ġcondiments": 6503,
	"Ġwax": 6504,
	"syrup": 6505,
	"Ġjam": 6506,
	"Ġflush": 6507,
	"Ġfrisbe": 6508,
	"trucks": 6509,
	"surface": 6510,
	"Ġherb": 6511,
	"Ġcork": 6512,
	"Ġcuff": 6513,
	"Ġic": 6514,
	"Ġserve": 6515,
	"Ġamount": 6516,
	"Ġseal": 6517,
	"helmets": 6518,
	"dressing": 6519,
	"Ġbiscuit": 6520,
	"Ġgrasses": 6521,
	"Frisbee": 6522,
	"aucasian": 6523,
	"Ġmacaroni": 6524,
	"Ġwal": 6525,
	"trays": 6526,
	"tractor": 6527,
	"ĠCo": 6528,
	"jump": 6529,
	"rious": 6530,
	"Ġtransport": 6531,
	"Ġpatterns": 6532,
	"Ġgrip": 6533,
	"Ġfly": 6534,
	"fin": 6535,
	"arched": 6536,
	"Ġshampoo": 6537,
	"Spectators": 6538,
	"gown": 6539,
	"ĠHOR": 6540,
	"Ġcarries": 6541,
	"Ġcrumb": 6542,
	"rider": 6543,
	"Ġcarpeting": 6544,
	"PP": 6545,
	"wild": 6546,
	"hotel": 6547,
	"brary": 6548,
	"Ġvi": 6549,
	"Ġchip": 6550,
	"various": 6551,
	"Ġarchway": 6552,
	"ICTURE": 6553,
	"Microwave": 6554,
	"Ġsiding": 6555,
	"pockets": 6556,
	"keys": 6557,
	"Ġdrying": 6558,
	"athletic": 6559,
	"donkey": 6560,
	"Ġhoop": 6561,
	"mot": 6562,
	"Lots": 6563,
	"move": 6564,
	"Multiple": 6565,
	"aming": 6566,
	"Ġsideways": 6567,
	"Leaf": 6568,
	"ĠOff": 6569,
	"knobs": 6570,
	"Police": 6571,
	"gest": 6572,
	"Palm": 6573,
	"Ġscr": 6574,
	"Ġpolish": 6575,
	"iers": 6576,
	"Vegetable": 6577,
	"elt": 6578,
	"Ġclump": 6579,
	"orescent": 6580,
	"ably": 6581,
	"ris": 6582,
	"Ġdecal": 6583,
	"multicolored": 6584,
	"Ġenter": 6585,
	"tissues": 6586,
	"angs": 6587,
	"epsi": 6588,
	"ickey": 6589,
	"feed": 6590,
	"Ġrests": 6591,
	"tender": 6592,
	"Ġpet": 6593,
	"Ġfolder": 6594,
	"Ġfeat": 6595,
	"Straw": 6596,
	"grown": 6597,
	"aments": 6598,
	"ĠTENNIS": 6599,
	"TED": 6600,
	"suitcases": 6601,
	"Ġpilot": 6602,
	"Ġvend": 6603,
	"Ġriders": 6604,
	"ills": 6605,
	"ĠMac": 6606,
	"frican": 6607,
	"Fl": 6608,
	"deep": 6609,
	"Ġbrightly": 6610,
	"verages": 6611,
	"Ġblood": 6612,
	"Ġfoamy": 6613,
	"tain": 6614,
	"ĠTREE": 6615,
	"Ġunripe": 6616,
	"arse": 6617,
	"ee": 6618,
	"ĠWhite": 6619,
	"Ġnearby": 6620,
	"Ġshing": 6621,
	"Ġholders": 6622,
	"Ġostrich": 6623,
	"ĠSP": 6624,
	"WOMAN": 6625,
	"Ġslot": 6626,
	"Pro": 6627,
	"Ġorgan": 6628,
	"cock": 6629,
	"mergen": 6630,
	"Pieces": 6631,
	"Roof": 6632,
	"Ġcracked": 6633,
	"Ġram": 6634,
	"toiletries": 6635,
	"once": 6636,
	"Ġsniff": 6637,
	"digital": 6638,
	"Ġexpress": 6639,
	"Ġupholstered": 6640,
	"Ġdusty": 6641,
	"gage": 6642,
	"ashes": 6643,
	"Ġvel": 6644,
	"Ġhearts": 6645,
	"Ġscore": 6646,
	"market": 6647,
	"Ġfollowing": 6648,
	"Ġwedge": 6649,
	"vine": 6650,
	"leggings": 6651,
	"Ġcool": 6652,
	"Go": 6653,
	"Ġveggie": 6654,
	"ker": 6655,
	"Ġwindowsill": 6656,
	"rolling": 6657,
	"ĠFLOOR": 6658,
	"ceramic": 6659,
	"Ġres": 6660,
	"Ġbadge": 6661,
	"Ġvanilla": 6662,
	"aving": 6663,
	"iter": 6664,
	"Ġbreak": 6665,
	"Cement": 6666,
	"Ġbefore": 6667,
	"RAN": 6668,
	"Ġhub": 6669,
	"cliff": 6670,
	"ĠSTANDING": 6671,
	"take": 6672,
	"mirrors": 6673,
	"IKE": 6674,
	"Pen": 6675,
	"middle": 6676,
	"lings": 6677,
	"Ġmarked": 6678,
	"Ġexhi": 6679,
	"Ġtasty": 6680,
	"Art": 6681,
	"bald": 6682,
	"goats": 6683,
	"Ġplaque": 6684,
	"Ġexterior": 6685,
	"Ġpeeling": 6686,
	"pigeons": 6687,
	"Ġmedicine": 6688,
	"Ġracks": 6689,
	"icking": 6690,
	"ĠFEN": 6691,
	"potted": 6692,
	"Ġsat": 6693,
	"Ġmass": 6694,
	"Ġtoothpick": 6695,
	"Ġcracker": 6696,
	"Ġconnecting": 6697,
	"illed": 6698,
	"Name": 6699,
	"drop": 6700,
	"Ġcau": 6701,
	"ĠHAIR": 6702,
	"Ġwispy": 6703,
	"Ġearphones": 6704,
	"ZZA": 6705,
	"ificial": 6706,
	"Ġfoods": 6707,
	"evergreen": 6708,
	"Ġinfla": 6709,
	"Ġchina": 6710,
	"Line": 6711,
	"Ġbubble": 6712,
	"Golden": 6713,
	"Ġmer": 6714,
	"ĠSHOR": 6715,
	"Bathroom": 6716,
	"welry": 6717,
	"Ġrelaxing": 6718,
	"Ġblurred": 6719,
	"mergency": 6720,
	"circle": 6721,
	"Flat": 6722,
	"clocks": 6723,
	"whole": 6724,
	"Ripples": 6725,
	"honey": 6726,
	"Ġtails": 6727,
	"House": 6728,
	"Ġstorefront": 6729,
	"ĠGROUND": 6730,
	"pointy": 6731,
	"burnt": 6732,
	"IST": 6733,
	"Ġboulders": 6734,
	"Ġfog": 6735,
	"ĠIn": 6736,
	"tening": 6737,
	"maroon": 6738,
	"CT": 6739,
	"Ġbay": 6740,
	"Ġcobblestone": 6741,
	"Ġself": 6742,
	"Ġmeasuring": 6743,
	"Ġcommon": 6744,
	"Ġroasted": 6745,
	"Roll": 6746,
	"Ġdirectional": 6747,
	"Bottles": 6748,
	"ba": 6749,
	"Ġclimbing": 6750,
	"Ġguards": 6751,
	"Ġparachute": 6752,
	"Ġelevated": 6753,
	"Ġoper": 6754,
	"Ġladle": 6755,
	"Cir": 6756,
	"Ġpict": 6757,
	"Wet": 6758,
	"Ġiced": 6759,
	"Ġblow": 6760,
	"Ġeagle": 6761,
	"ĠPANTS": 6762,
	"Ġbelongs": 6763,
	"swimming": 6764,
	"Ġmusic": 6765,
	"Ġash": 6766,
	"desktop": 6767,
	"Pictures": 6768,
	"Ġloading": 6769,
	"Ġclassroom": 6770,
	"All": 6771,
	"Ġcro": 6772,
	"leather": 6773,
	"alls": 6774,
	"Ġwomens": 6775,
	"iles": 6776,
	"Ġroller": 6777,
	"Ġbubbles": 6778,
	"Ġinstrument": 6779,
	"rists": 6780,
	"Ġ[": 6781,
	"Oranges": 6782,
	"Ġskyline": 6783,
	"dering": 6784,
	"Ġscra": 6785,
	"Passenger": 6786,
	"Ġtips": 6787,
	"skillet": 6788,
	"ĠTRU": 6789,
	"Ġbookshelves": 6790,
	"Tracks": 6791,
	"Ġclaw": 6792,
	"Ġbalancing": 6793,
	"Ġsupplies": 6794,
	"Couple": 6795,
	"pineapples": 6796,
	"dant": 6797,
	"tish": 6798,
	"dium": 6799,
	"Ġpaneling": 6800,
	"dried": 6801,
	"seum": 6802,
	"tangerine": 6803,
	"flage": 6804,
	"bster": 6805,
	"lion": 6806,
	"Ġsunflower": 6807,
	"Chop": 6808,
	"gs": 6809,
	"Ġstorm": 6810,
	"LAN": 6811,
	"Ġsupports": 6812,
	"cery": 6813,
	"glaze": 6814,
	"Ġservice": 6815,
	"Ġcondiment": 6816,
	"receipt": 6817,
	"Ġhelicopter": 6818,
	"AIL": 6819,
	"Ġcompartment": 6820,
	"ĠTRAIN": 6821,
	"match": 6822,
	"Bra": 6823,
	"ĠDOOR": 6824,
	"ider": 6825,
	"Ġ20": 6826,
	"Banana": 6827,
	"Ġwheat": 6828,
	"solid": 6829,
	"ĠSN": 6830,
	"ĠHEAD": 6831,
	"pancakes": 6832,
	"ĠBEAR": 6833,
	"YCLE": 6834,
	"mmed": 6835,
	"Ġingredi": 6836,
	"Ġpee": 6837,
	"seaweed": 6838,
	"dden": 6839,
	"Ġtextured": 6840,
	"Ġcactus": 6841,
	"Ġoar": 6842,
	"Letters": 6843,
	"aughter": 6844,
	"Ġgall": 6845,
	"Ġboiled": 6846,
	"Ġstoplight": 6847,
	"Pepper": 6848,
	"Ġbacksplash": 6849,
	"Ġcoca": 6850,
	"Ġbiting": 6851,
	"manhole": 6852,
	"Ġcordless": 6853,
	"REY": 6854,
	"Ġcubes": 6855,
	"Plants": 6856,
	"isted": 6857,
	"Med": 6858,
	"Ġbuff": 6859,
	"Ġliner": 6860,
	"Sidewalk": 6861,
	"print": 6862,
	"Ġwea": 6863,
	"Mar": 6864,
	"derside": 6865,
	"Painting": 6866,
	"rait": 6867,
	"Ġshelving": 6868,
	"drum": 6869,
	"ĠX": 6870,
	"Cows": 6871,
	"Ġloose": 6872,
	"Ġunpeeled": 6873,
	"Ġhomemade": 6874,
	"Skateboarder": 6875,
	"Ġparasail": 6876,
	"Ġwhisk": 6877,
	"Arm": 6878,
	"Ġpaintings": 6879,
	"hoof": 6880,
	"mus": 6881,
	"Ġlantern": 6882,
	"Ġsniffing": 6883,
	"rusty": 6884,
	"Ġspraying": 6885,
	"handles": 6886,
	"Ġemployee": 6887,
	"hang": 6888,
	"Ġindi": 6889,
	"Ġtransit": 6890,
	"Ġcourtyard": 6891,
	"plu": 6892,
	"Ġome": 6893,
	"Ġraincoat": 6894,
	"Ġrel": 6895,
	"ila": 6896,
	"Ġbeet": 6897,
	"Ġsecurity": 6898,
	"jackets": 6899,
	"Ġripp": 6900,
	"vidual": 6901,
	"ked": 6902,
	"town": 6903,
	"footprints": 6904,
	"Desk": 6905,
	"Cream": 6906,
	"Headlight": 6907,
	"ĠSHE": 6908,
	"Male": 6909,
	"pers": 6910,
	"rainbow": 6911,
	"PUTER": 6912,
	"airport": 6913,
	"waste": 6914,
	"Ġcarts": 6915,
	"Ġplanted": 6916,
	"Ġwrapping": 6917,
	"decker": 6918,
	"gin": 6919,
	"Ġmail": 6920,
	"Ġmast": 6921,
	"students": 6922,
	"school": 6923,
	"urdle": 6924,
	"Smiling": 6925,
	"track": 6926,
	"bol": 6927,
	"Ġhugging": 6928,
	"herb": 6929,
	"ĠCOL": 6930,
	"Ġmanicured": 6931,
	"Ġori": 6932,
	"coats": 6933,
	"asing": 6934,
	"Hard": 6935,
	"self": 6936,
	"Ġseaweed": 6937,
	"ĠBAT": 6938,
	"Ġkiosk": 6939,
	"Ġplanks": 6940,
	"orage": 6941,
	"ĠNE": 6942,
	"Ġraspberries": 6943,
	"photograph": 6944,
	"ield": 6945,
	"ĠBOW": 6946,
	"Ġivory": 6947,
	"Ġlicking": 6948,
	"Ġdestination": 6949,
	"garbage": 6950,
	"Ġraspberry": 6951,
	"Ġnostril": 6952,
	"pas": 6953,
	"Ġfed": 6954,
	"Parking": 6955,
	"ument": 6956,
	"Ġtrop": 6957,
	"Ġpictured": 6958,
	"ILVER": 6959,
	"Ġaccents": 6960,
	"muter": 6961,
	"wicker": 6962,
	"rocky": 6963,
	"AVE": 6964,
	"Napkin": 6965,
	"mango": 6966,
	"REES": 6967,
	"ĠRE": 6968,
	"Dish": 6969,
	"Ġbraided": 6970,
	"Ġpersonal": 6971,
	"partially": 6972,
	"Headlights": 6973,
	"Ġofficers": 6974,
	"Ġcoin": 6975,
	"surfboards": 6976,
	"Ġstains": 6977,
	"Ġidentification": 6978,
	"Ġcushioned": 6979,
	"Ġexhibit": 6980,
	"Ġroute": 6981,
	"EY": 6982,
	"jumpsuit": 6983,
	"Ġey": 6984,
	"cane": 6985,
	"Ġparts": 6986,
	"Ġstun": 6987,
	"ances": 6988,
	"whiskers": 6989,
	"Ġpret": 6990,
	"atering": 6991,
	"coconut": 6992,
	"Ġseasoned": 6993,
	"Vase": 6994,
	"Ġseparating": 6995,
	"Ġgrow": 6996,
	"ĠDES": 6997,
	"od": 6998,
	"Ġfli": 6999,
	"bedroom": 7000,
	"angled": 7001,
	"ĠChinese": 7002,
	"Ġcinnamon": 7003,
	"beet": 7004,
	"Ġathlete": 7005,
	"guard": 7006,
	"mashed": 7007,
	"Telephone": 7008,
	"ĠBOY": 7009,
	"Ġson": 7010,
	"Christmas": 7011,
	"turkey": 7012,
	"ĠPLAY": 7013,
	"Ġmuffins": 7014,
	"Ġcour": 7015,
	"glowing": 7016,
	"navy": 7017,
	"Ġgreat": 7018,
	"arn": 7019,
	"Ġthese": 7020,
	"Ġcollection": 7021,
	"Hands": 7022,
	"Ġcorded": 7023,
	"powder": 7024,
	"ornate": 7025,
	"Papers": 7026,
	"Ġcompet": 7027,
	"ists": 7028,
	"Ġink": 7029,
	"iding": 7030,
	"raspberry": 7031,
	"ides": 7032,
	"Ġvol": 7033,
	"za": 7034,
	"Ġcapital": 7035,
	"gentleman": 7036,
	"Ġlibrary": 7037,
	"Ġale": 7038,
	"ican": 7039,
	"Ġothers": 7040,
	"Ġcandies": 7041,
	"leafy": 7042,
	"ĠPIZZA": 7043,
	"fortable": 7044,
	"Ġscreens": 7045,
	"Ġshutter": 7046,
	"Graffiti": 7047,
	"Sw": 7048,
	"Ġantelope": 7049,
	"bably": 7050,
	"customers": 7051,
	"Ġwake": 7052,
	"Ġteen": 7053,
	"hedges": 7054,
	"Ġkickstand": 7055,
	"We": 7056,
	"Ġheaded": 7057,
	"apay": 7058,
	"Ġflore": 7059,
	"Ġgarment": 7060,
	"Ġhalves": 7061,
	"Ġmolding": 7062,
	"Ġflamingo": 7063,
	"Carrots": 7064,
	"oca": 7065,
	"Ġrouter": 7066,
	"lap": 7067,
	"Ġliquor": 7068,
	"ilets": 7069,
	"Ġva": 7070,
	"dip": 7071,
	"Ġbutt": 7072,
	"mobile": 7073,
	"meter": 7074,
	"ckered": 7075,
	"lers": 7076,
	"Ġcran": 7077,
	"yor": 7078,
	"Ġrecliner": 7079,
	"Ġtoothbrushes": 7080,
	"Ġrooftop": 7081,
	"ortment": 7082,
	"Ġcleaner": 7083,
	"Ġhip": 7084,
	"Ġfrisbees": 7085,
	"Ġgreenery": 7086,
	"Ġbullet": 7087,
	"ĠPH": 7088,
	"Zebras": 7089,
	"Ġrunner": 7090,
	"Ġoutfield": 7091,
	"sweet": 7092,
	"rina": 7093,
	"Ġskiier": 7094,
	"Ġtofu": 7095,
	"tags": 7096,
	"Ġoctopus": 7097,
	"cherries": 7098,
	"feeder": 7099,
	"Ġlambs": 7100,
	"Ġfiling": 7101,
	"ANS": 7102,
	"Ġspear": 7103,
	"Ġscaffolding": 7104,
	"Ru": 7105,
	"Rect": 7106,
	"Ġhotdogs": 7107,
	"stapler": 7108,
	"pillowcase": 7109,
	"Ġsparse": 7110,
	"Ġbrist": 7111,
	"strial": 7112,
	"Ġcompact": 7113,
	"Ġswirl": 7114,
	"leep": 7115,
	"Ġextending": 7116,
	"Sunlight": 7117,
	"wash": 7118,
	"Ġthermo": 7119,
	"Dead": 7120,
	"neon": 7121,
	"Ġmuseum": 7122,
	"Ġfoggy": 7123,
	"Ġswitches": 7124,
	"BLUE": 7125,
	"Ġcop": 7126,
	"Knob": 7127,
	"notepad": 7128,
	"Ġlimb": 7129,
	"RY": 7130,
	"patterned": 7131,
	"tta": 7132,
	"pale": 7133,
	"bookshelves": 7134,
	"LEPH": 7135,
	"partial": 7136,
	"cloths": 7137,
	"Ġtakes": 7138,
	"something": 7139,
	"Ġstatues": 7140,
	"bbery": 7141,
	"Ġfilling": 7142,
	"ĠCOMPUTER": 7143,
	"Ġgrinder": 7144,
	"Cross": 7145,
	"Lettuce": 7146,
	"bubbles": 7147,
	"Ġfound": 7148,
	"Pitcher": 7149,
	"Pan": 7150,
	"Ġprofessional": 7151,
	"Ġpantry": 7152,
	"pant": 7153,
	"Ġtaped": 7154,
	"LET": 7155,
	"yy": 7156,
	"Ġpaneled": 7157,
	"Ġbaseboard": 7158,
	"cactus": 7159,
	"Fe": 7160,
	"Ġsnowboards": 7161,
	"ducks": 7162,
	"Ġpage": 7163,
	"Elephants": 7164,
	"Cabinet": 7165,
	"Ġchopping": 7166,
	"LES": 7167,
	"standing": 7168,
	"apaya": 7169,
	"Ġbarren": 7170,
	"Neck": 7171,
	"ĠCOLOR": 7172,
	"ĠFENCE": 7173,
	"Ġshrubbery": 7174,
	"Ġshops": 7175,
	"Ġgrocery": 7176,
	"Ġstrapped": 7177,
	"Ġdirect": 7178,
	"Beautiful": 7179,
	"Ġdom": 7180,
	"Ġburning": 7181,
	"peaches": 7182,
	"ouflage": 7183,
	"Clu": 7184,
	"cinnamon": 7185,
	"Ġpail": 7186,
	"Ġforming": 7187,
	"Ġdoorknob": 7188,
	"chinese": 7189,
	"Ġsausages": 7190,
	"alog": 7191,
	"Ġrecept": 7192,
	"Ġcash": 7193,
	"Ġpartition": 7194,
	"ĠGRA": 7195,
	"Ġgy": 7196,
	"lighthouse": 7197,
	"Ġapproaching": 7198,
	"Ġeven": 7199,
	"Ġsole": 7200,
	"Ġcurve": 7201,
	"Ġseasoning": 7202,
	"Ġgrabbing": 7203,
	"Ġhomes": 7204,
	"biscuit": 7205,
	"hetti": 7206,
	"armes": 7207,
	"pane": 7208,
	"Corn": 7209,
	"ens": 7210,
	"Closed": 7211,
	"ĠCoca": 7212,
	"pump": 7213,
	"ARGE": 7214,
	"ONG": 7215,
	"Ġdesserts": 7216,
	"ĠBOWL": 7217,
	"Ġelectronics": 7218,
	"Ġmou": 7219,
	"oring": 7220,
	"indrical": 7221,
	"ĠPICTURE": 7222,
	"Ġdrawings": 7223,
	"Ġturf": 7224,
	"Ġoverpass": 7225,
	"cluster": 7226,
	"Ġbands": 7227,
	"earest": 7228,
	"Ġim": 7229,
	"OPLE": 7230,
	"rubs": 7231,
	"Ġ.": 7232,
	"Ġhandicap": 7233,
	"Ġmedian": 7234,
	"poles": 7235,
	"Ġresi": 7236,
	"Gar": 7237,
	"Camera": 7238,
	"ĠHORSE": 7239,
	"VES": 7240,
	"Tile": 7241,
	"Ġslide": 7242,
	"Ġfron": 7243,
	"hest": 7244,
	"acked": 7245,
	"aghetti": 7246,
	"Ġkit": 7247,
	"Ġknitted": 7248,
	"Dry": 7249,
	"Ġjets": 7250,
	"smooth": 7251,
	"Ġfaucets": 7252,
	"used": 7253,
	"Ġarmrest": 7254,
	"issor": 7255,
	"Both": 7256,
	"Ġsushi": 7257,
	"Ġmidair": 7258,
	"Ġprobably": 7259,
	"Ġpatchy": 7260,
	"ank": 7261,
	"SH": 7262,
	"Ġflame": 7263,
	"conies": 7264,
	"macaroni": 7265,
	"Ġhips": 7266,
	"Ġminiature": 7267,
	"spe": 7268,
	"Ġsignals": 7269,
	"Ġ11": 7270,
	"human": 7271,
	"Sink": 7272,
	"ults": 7273,
	"ĠFRONT": 7274,
	"Ġclas": 7275,
	"Ġbarbed": 7276,
	"Ġstacks": 7277,
	"Ġstereo": 7278,
	"ichokes": 7279,
	"Ġnatural": 7280,
	"Ġridden": 7281,
	"armesan": 7282,
	"ama": 7283,
	"Ġvests": 7284,
	"MP": 7285,
	"Eyes": 7286,
	"CKS": 7287,
	"Chi": 7288,
	"Ġdial": 7289,
	"Ġdaisy": 7290,
	"Ġfringe": 7291,
	"Ġsprou": 7292,
	"Ġmir": 7293,
	"REL": 7294,
	"Soccer": 7295,
	"chandise": 7296,
	"Ġbackyard": 7297,
	"atmeal": 7298,
	"elds": 7299,
	"Ġtiger": 7300,
	"cellphone": 7301,
	"Ġware": 7302,
	"ĠMETAL": 7303,
	"Ġpodium": 7304,
	"Ġbottoms": 7305,
	"ĠBED": 7306,
	"Ġtoilets": 7307,
	"TOP": 7308,
	"Ġblu": 7309,
	"Ġcamo": 7310,
	"aprt": 7311,
	"ICE": 7312,
	"Ġsleep": 7313,
	"sive": 7314,
	"Ġterra": 7315,
	"Ġbrace": 7316,
	"Ġtim": 7317,
	"Ġworkers": 7318,
	"Ġx": 7319,
	"Vegetables": 7320,
	"Ġtone": 7321,
	"CD": 7322,
	"brass": 7323,
	"Ġoutline": 7324,
	"bot": 7325,
	"Ġbrownie": 7326,
	"cover": 7327,
	"CO": 7328,
	"Ġblank": 7329,
	"calculator": 7330,
	"Ġtrough": 7331,
	"Ġkeypad": 7332,
	"deer": 7333,
	"Ġdarker": 7334,
	"ĠBOT": 7335,
	"Toy": 7336,
	"Blanket": 7337,
	"ĠWI": 7338,
	"atee": 7339,
	"Ġconveyor": 7340,
	"ton": 7341,
	"Ġtucked": 7342,
	"vender": 7343,
	"Ġsort": 7344,
	"Ġcouches": 7345,
	"Ġshaved": 7346,
	"Ġwhit": 7347,
	"hour": 7348,
	"Ġtwin": 7349,
	"motor": 7350,
	"Ġdiced": 7351,
	"Ġstew": 7352,
	"Ġbins": 7353,
	"grilled": 7354,
	"bone": 7355,
	"DY": 7356,
	"Ġus": 7357,
	"shield": 7358,
	"Ġlotion": 7359,
	"Ġaqua": 7360,
	"Ġpicking": 7361,
	"Ġappli": 7362,
	"undry": 7363,
	"Ġwheeled": 7364,
	"Tea": 7365,
	"Various": 7366,
	"Ġpeanuts": 7367,
	"irrel": 7368,
	"Ġhandlebar": 7369,
	"Wires": 7370,
	"Ġturt": 7371,
	"ANG": 7372,
	"pilot": 7373,
	"Ġcourse": 7374,
	"gift": 7375,
	"Ġdash": 7376,
	"Ġserver": 7377,
	"Set": 7378,
	"employee": 7379,
	"ATCH": 7380,
	"Ġbangs": 7381,
	"overhead": 7382,
	"Ġterrain": 7383,
	"ĠNintendo": 7384,
	"Mouth": 7385,
	"Burn": 7386,
	"Ġsteamed": 7387,
	"Ġgolf": 7388,
	"ĠRed": 7389,
	"bby": 7390,
	"Ġgym": 7391,
	"FA": 7392,
	"bucks": 7393,
	"Ġreins": 7394,
	"ripple": 7395,
	"Ġfrog": 7396,
	"Ġbatters": 7397,
	"Ġdec": 7398,
	"Ġtorso": 7399,
	"mmer": 7400,
	"sushi": 7401,
	"Ġitself": 7402,
	"asser": 7403,
	"Ġsailboats": 7404,
	"Ġbracket": 7405,
	"Ġcondu": 7406,
	"raspberries": 7407,
	"Ġangled": 7408,
	"Statue": 7409,
	"Ġevery": 7410,
	"Ġlead": 7411,
	"Ped": 7412,
	"Ġfriends": 7413,
	"pencils": 7414,
	"down": 7415,
	"Ġdev": 7416,
	"Ġnearest": 7417,
	"Snowboarder": 7418,
	"oval": 7419,
	"temp": 7420,
	"igar": 7421,
	"Ġsheeps": 7422,
	"HIND": 7423,
	"ci": 7424,
	"tow": 7425,
	"AGE": 7426,
	"av": 7427,
	"Ġbeaded": 7428,
	"haired": 7429,
	"Ġlatch": 7430,
	"tools": 7431,
	"cushion": 7432,
	"Egg": 7433,
	"ixed": 7434,
	"redit": 7435,
	"Ġpowered": 7436,
	"Ġinfield": 7437,
	"Children": 7438,
	"Ġfully": 7439,
	"Ġtoe": 7440,
	"anding": 7441,
	"Ġdate": 7442,
	"ĠWAL": 7443,
	"Ġdelivery": 7444,
	"bedding": 7445,
	"ĠSKY": 7446,
	"Cooked": 7447,
	"Salt": 7448,
	"patches": 7449,
	"ĠBEHIND": 7450,
	"dragon": 7451,
	"asserole": 7452,
	"Hu": 7453,
	"Ġreally": 7454,
	"Ġmarshmallow": 7455,
	"Ceiling": 7456,
	"Ġcape": 7457,
	"Ġobserving": 7458,
	"Ġgrapefruit": 7459,
	"Ġpra": 7460,
	"Ġmom": 7461,
	"Ġauto": 7462,
	"istening": 7463,
	"ĠORAN": 7464,
	"reflections": 7465,
	"Bran": 7466,
	"Ġchecker": 7467,
	"Ġwor": 7468,
	"Ġtines": 7469,
	"cer": 7470,
	"Ġtattoos": 7471,
	"Ġpadd": 7472,
	"Ġstab": 7473,
	"Ġprong": 7474,
	"Ġflames": 7475,
	"Ġcds": 7476,
	"Ġmotorcyclist": 7477,
	"esame": 7478,
	"ccu": 7479,
	"ĠOUT": 7480,
	"Ġstreak": 7481,
	"lipstick": 7482,
	"iffel": 7483,
	"Ġlen": 7484,
	"shampoo": 7485,
	"ĠBlack": 7486,
	"Ġboardwalk": 7487,
	"uttle": 7488,
	"Ġspire": 7489,
	"Ġscooters": 7490,
	"Ġmount": 7491,
	"Ġspring": 7492,
	"Ġhanding": 7493,
	"Silverware": 7494,
	"Ring": 7495,
	"Ġselfie": 7496,
	"Ġdispens": 7497,
	"LM": 7498,
	"brand": 7499,
	"Ġstocking": 7500,
	"Ġcrowded": 7501,
	"aquarium": 7502,
	"Ġchunks": 7503,
	"Ġsticky": 7504,
	"Buttons": 7505,
	"Ġentering": 7506,
	"Ġexpression": 7507,
	"Horses": 7508,
	"SMALL": 7509,
	"Ġsold": 7510,
	"Ġflash": 7511,
	"Ġsailing": 7512,
	"tscreen": 7513,
	"AMP": 7514,
	"Ġlaid": 7515,
	"Ġoctagonal": 7516,
	"Ġtook": 7517,
	"Birds": 7518,
	"Ġgras": 7519,
	"Ġforeign": 7520,
	"smaller": 7521,
	"Ġrecessed": 7522,
	"ĠBIKE": 7523,
	"Ġcubicle": 7524,
	"lig": 7525,
	"Ġaccent": 7526,
	"dinosaur": 7527,
	"Shoes": 7528,
	"Ġspout": 7529,
	"bul": 7530,
	"Ġstamp": 7531,
	"Ġmonument": 7532,
	"pasture": 7533,
	"Ġcracks": 7534,
	"Ġindicator": 7535,
	"Ġpitching": 7536,
	"shake": 7537,
	"Ġsatellite": 7538,
	"Ġmoney": 7539,
	"ĠELEPH": 7540,
	"ĠSC": 7541,
	"blood": 7542,
	"file": 7543,
	"Ġpolicemen": 7544,
	"ĠGREY": 7545,
	"phin": 7546,
	"ADE": 7547,
	"crackers": 7548,
	"RELLA": 7549,
	"bunny": 7550,
	"onal": 7551,
	"OG": 7552,
	"OTOR": 7553,
	"ations": 7554,
	"ĠCLO": 7555,
	"ĠJE": 7556,
	"Words": 7557,
	"Ġleafs": 7558,
	"Ġasleep": 7559,
	"Seat": 7560,
	"elev": 7561,
	"suits": 7562,
	"Ġstu": 7563,
	"Ġpretzel": 7564,
	"outlets": 7565,
	"Medium": 7566,
	"Slices": 7567,
	"ortilla": 7568,
	"Ġlab": 7569,
	"Ġcapped": 7570,
	"Ġfiretruck": 7571,
	"price": 7572,
	"Ġturtle": 7573,
	"Ġmakes": 7574,
	"MBRELLA": 7575,
	"doughnut": 7576,
	"projector": 7577,
	"Single": 7578,
	"Curtains": 7579,
	"Eng": 7580,
	"cds": 7581,
	"Ġalley": 7582,
	"Ġflakes": 7583,
	"Ġlids": 7584,
	"banner": 7585,
	"Lit": 7586,
	"Ġpal": 7587,
	"Ġvendor": 7588,
	"Draw": 7589,
	"12": 7590,
	"Ġif": 7591,
	"Ġconvers": 7592,
	"APER": 7593,
	"Ġbaggage": 7594,
	"ĠTIRE": 7595,
	"Ġbristles": 7596,
	"Ġneatly": 7597,
	"Sauce": 7598,
	"flies": 7599,
	"Ġ@": 7600,
	"ĠIT": 7601,
	"Ġends": 7602,
	"ĠUn": 7603,
	"Ġcreamy": 7604,
	"curb": 7605,
	"Rug": 7606,
	"Ġdipping": 7607,
	"opyright": 7608,
	"sandy": 7609,
	"Ġseem": 7610,
	"sleeve": 7611,
	"ĠDESK": 7612,
	"ough": 7613,
	"peanut": 7614,
	"Ġadju": 7615,
	"horiz": 7616,
	"Ġbrowned": 7617,
	"Ġvelvet": 7618,
	"narrow": 7619,
	"text": 7620,
	"roadside": 7621,
	"Ġsubst": 7622,
	"garden": 7623,
	"Ġbud": 7624,
	"rely": 7625,
	"Ġdials": 7626,
	"Ġthigh": 7627,
	"Ġdebris": 7628,
	"ements": 7629,
	"Ġsummer": 7630,
	"object": 7631,
	"Ġcanal": 7632,
	"cam": 7633,
	"Ġwatering": 7634,
	"Ġcomplete": 7635,
	"Ġpebbles": 7636,
	"ENT": 7637,
	"Ġdividing": 7638,
	"Shoe": 7639,
	"Ġdangling": 7640,
	"rooked": 7641,
	"what": 7642,
	"Ġtoes": 7643,
	"Ġbind": 7644,
	"Ġleaving": 7645,
	"Ġbump": 7646,
	"Ġdirectly": 7647,
	"parrot": 7648,
	"Ġox": 7649,
	"Ġwil": 7650,
	"Ġwre": 7651,
	"Hanging": 7652,
	"Ġleave": 7653,
	"upper": 7654,
	"vity": 7655,
	"ane": 7656,
	"may": 7657,
	"Ġmayonnaise": 7658,
	"chili": 7659,
	"Ġtoss": 7660,
	"ĠCUP": 7661,
	"ĠCL": 7662,
	"Ġbug": 7663,
	"Ġobstacle": 7664,
	"Bro": 7665,
	"vending": 7666,
	"Ġflowing": 7667,
	"Tooth": 7668,
	"aco": 7669,
	"ATEBOARD": 7670,
	"ops": 7671,
	"Ġchasing": 7672,
	"Ġmovie": 7673,
	"Female": 7674,
	"Donut": 7675,
	"Ġgrin": 7676,
	"Ġshapes": 7677,
	"Ġoak": 7678,
	"addle": 7679,
	"Ġjuicy": 7680,
	"Ġsilk": 7681,
	"ager": 7682,
	"antelope": 7683,
	"athlete": 7684,
	"Chairs": 7685,
	"Ġalert": 7686,
	"Ġdownhill": 7687,
	"outdoor": 7688,
	"eyeglasses": 7689,
	"Ġgloved": 7690,
	"Cook": 7691,
	"Ġpeace": 7692,
	"Ġweathered": 7693,
	"vac": 7694,
	"Numbers": 7695,
	"ĠRoman": 7696,
	"igan": 7697,
	"Ġsweatband": 7698,
	"OWER": 7699,
	"dustrial": 7700,
	"castle": 7701,
	"Ġpitchers": 7702,
	"Ġopener": 7703,
	"Ġmuzzle": 7704,
	"roadway": 7705,
	"Pod": 7706,
	"ational": 7707,
	"Ġshark": 7708,
	"Ġhatch": 7709,
	"Ġskateboarders": 7710,
	"una": 7711,
	"Ġcrab": 7712,
	"iz": 7713,
	"Ġproducts": 7714,
	"ĠBEN": 7715,
	"inner": 7716,
	"baking": 7717,
	"wer": 7718,
	"Ġhandrail": 7719,
	"Faucet": 7720,
	"Ġwaffle": 7721,
	"Ġfacade": 7722,
	"opard": 7723,
	"figurines": 7724,
	"Ġslippers": 7725,
	"ĠSHOES": 7726,
	"ĠJEANS": 7727,
	"Ġteh": 7728,
	"Ġhiding": 7729,
	"Ġgoatee": 7730,
	"Ġstores": 7731,
	"oom": 7732,
	"picks": 7733,
	"abies": 7734,
	"NDER": 7735,
	"lla": 7736,
	"angu": 7737,
	"storage": 7738,
	"ĠUMBRELLA": 7739,
	"yers": 7740,
	"Ġeight": 7741,
	"ora": 7742,
	"Ġoriental": 7743,
	"Salad": 7744,
	"Ġweed": 7745,
	"Ġinflatable": 7746,
	"owed": 7747,
	"Ġareas": 7748,
	"Ġoveralls": 7749,
	"Ġcamouflage": 7750,
	"nice": 7751,
	"ĠPINK": 7752,
	"Ġaged": 7753,
	"Chrome": 7754,
	"Ġscissor": 7755,
	"Ġtaller": 7756,
	"Ġlimbs": 7757,
	"Ġjumper": 7758,
	"Ġanch": 7759,
	"aint": 7760,
	"Ġbricked": 7761,
	"inyl": 7762,
	"Container": 7763,
	"ost": 7764,
	"bunches": 7765,
	"first": 7766,
	"drawings": 7767,
	"Advertisement": 7768,
	"sunflower": 7769,
	"Chicken": 7770,
	"GLASS": 7771,
	"Ġsanta": 7772,
	"cker": 7773,
	"Ġsidel": 7774,
	"Ġele": 7775,
	"ĠTRUCK": 7776,
	"Ġplayground": 7777,
	"Ġblossom": 7778,
	"pret": 7779,
	"Ġcameras": 7780,
	"Ġovergrown": 7781,
	"Crack": 7782,
	"zipper": 7783,
	"Port": 7784,
	"Ġtier": 7785,
	"Ġlangu": 7786,
	"Boats": 7787,
	"Ġbarric": 7788,
	"Poster": 7789,
	"ĠUP": 7790,
	"Move": 7791,
	"skinny": 7792,
	"Ġmarina": 7793,
	"Ġtrey": 7794,
	"Ġcrib": 7795,
	"Horn": 7796,
	"Ġchilds": 7797,
	"res": 7798,
	"UN": 7799,
	"tw": 7800,
	"Ġmixture": 7801,
	"Cloudy": 7802,
	"Luggage": 7803,
	"seven": 7804,
	"ĠORANGE": 7805,
	"scaffolding": 7806,
	"ĠSHORTS": 7807,
	"Ġkeyboards": 7808,
	"umerous": 7809,
	"Ġruff": 7810,
	"Ġbattery": 7811,
	"Ġartificial": 7812,
	"worn": 7813,
	"CYCLE": 7814,
	"Ġconditioning": 7815,
	"PLE": 7816,
	"glo": 7817,
	"Ġstreets": 7818,
	"Ġrhino": 7819,
	"Kn": 7820,
	"cape": 7821,
	"Ġfrozen": 7822,
	"Ġtass": 7823,
	"Couch": 7824,
	"Ġlone": 7825,
	"lot": 7826,
	"bubble": 7827,
	"Ġdam": 7828,
	"Ġcommuter": 7829,
	"Screen": 7830,
	"EB": 7831,
	"Ġgrand": 7832,
	"Ġruns": 7833,
	"ĠBAG": 7834,
	"Floral": 7835,
	"Ġadidas": 7836,
	"Ġduffle": 7837,
	"Ġfurt": 7838,
	"Ġparent": 7839,
	"Ġprotect": 7840,
	"Sea": 7841,
	"Ġfle": 7842,
	"Ġrising": 7843,
	"daisy": 7844,
	"Ġcardigan": 7845,
	"lined": 7846,
	"moon": 7847,
	"Ġsau": 7848,
	"ison": 7849,
	"Ġgaming": 7850,
	"Ġbordering": 7851,
	"Ġtripod": 7852,
	"Ġrainy": 7853,
	"Take": 7854,
	"issing": 7855,
	"aping": 7856,
	"Ġwritings": 7857,
	"ambulance": 7858,
	"YELLOW": 7859,
	"tofu": 7860,
	"ĠGLASSES": 7861,
	"AKE": 7862,
	"cue": 7863,
	"Ġlaundry": 7864,
	"Ġpeeking": 7865,
	"fog": 7866,
	"ĠAir": 7867,
	"Ġbroth": 7868,
	"Shelf": 7869,
	"shredded": 7870,
	"Ice": 7871,
	"Ġcalico": 7872,
	"OUSE": 7873,
	"ladle": 7874,
	"pied": 7875,
	"tortilla": 7876,
	"chunk": 7877,
	"Gri": 7878,
	"Ġplays": 7879,
	"toasted": 7880,
	"Design": 7881,
	"Ġvalley": 7882,
	"oping": 7883,
	"wri": 7884,
	"Ġgrater": 7885,
	"Smoke": 7886,
	"oleum": 7887,
	"hardwood": 7888,
	"orter": 7889,
	"Ġburrito": 7890,
	"Ġboundary": 7891,
	"Ġrowing": 7892,
	"chief": 7893,
	"Animals": 7894,
	"aved": 7895,
	"fen": 7896,
	"Ġcharging": 7897,
	"BALL": 7898,
	"tective": 7899,
	"OTORCYCLE": 7900,
	"Ġpress": 7901,
	"Ġten": 7902,
	"snacks": 7903,
	"Ġslopes": 7904,
	"Ġsplit": 7905,
	"nty": 7906,
	"Ġple": 7907,
	"cracker": 7908,
	"Ġbuckets": 7909,
	"Most": 7910,
	"earphones": 7911,
	"pouch": 7912,
	"Ġfootprints": 7913,
	"Ġbeverages": 7914,
	"Tip": 7915,
	"modern": 7916,
	"ĠTH": 7917,
	"Ġclothe": 7918,
	"nge": 7919,
	"Ġupward": 7920,
	"Ġcel": 7921,
	"ĠBri": 7922,
	"Ġstunt": 7923,
	"Ġlic": 7924,
	"Ġgl": 7925,
	"Ġflorets": 7926,
	"tone": 7927,
	"mode": 7928,
	"cation": 7929,
	"Rectangular": 7930,
	"Vehicles": 7931,
	"Ġappliances": 7932,
	"Ġpottery": 7933,
	"ĠSAND": 7934,
	"ĠSNOW": 7935,
	"Ġroast": 7936,
	"Ġbakery": 7937,
	"Tag": 7938,
	"HEEL": 7939,
	"Ġshuttle": 7940,
	"Ġproduct": 7941,
	"ulch": 7942,
	"ĠSTRI": 7943,
	"Potato": 7944,
	"ufa": 7945,
	"grapefruit": 7946,
	"comb": 7947,
	"Ġhorseback": 7948,
	"chalkboard": 7949,
	"Ġwig": 7950,
	"router": 7951,
	"pport": 7952,
	"minute": 7953,
	"furry": 7954,
	"Ġinte": 7955,
	"KET": 7956,
	"Ġwithin": 7957,
	"wheelchair": 7958,
	"Ġzi": 7959,
	"Cru": 7960,
	"Ġbolts": 7961,
	"Ġsitted": 7962,
	"ĠEng": 7963,
	"Ġaccess": 7964,
	"Ġresort": 7965,
	"Ġrelish": 7966,
	"lacks": 7967,
	"Ġbabies": 7968,
	"ligator": 7969,
	"DS": 7970,
	"Ġfair": 7971,
	"Signs": 7972,
	"Base": 7973,
	"Ġnoodle": 7974,
	"IRT": 7975,
	"Ġinner": 7976,
	"mekin": 7977,
	"Ġarmy": 7978,
	"giant": 7979,
	"Ġfluorescent": 7980,
	"Ġmall": 7981,
	"Ġmeeting": 7982,
	"Ġdiaper": 7983,
	"Ġpromot": 7984,
	"yclists": 7985,
	"Ġcredit": 7986,
	"ĠSA": 7987,
	"pizzas": 7988,
	"Ġhubcap": 7989,
	"Ġveg": 7990,
	"ĠBENCH": 7991,
	"angles": 7992,
	"rinals": 7993,
	"Ġjo": 7994,
	"Ġornaments": 7995,
	"Ġindustrial": 7996,
	"Bun": 7997,
	"Sto": 7998,
	"Ġisn": 7999,
	"Flu": 8000,
	"amole": 8001,
	"THER": 8002,
	"Card": 8003,
	"Ġlego": 8004,
	"utility": 8005,
	"Ġadults": 8006,
	"Crowd": 8007,
	"Wearing": 8008,
	"ROOM": 8009,
	"Ġsuite": 8010,
	"awning": 8011,
	"Ġnintendo": 8012,
	"pretzel": 8013,
	"ĠStreet": 8014,
	"kiosk": 8015,
	"PEN": 8016,
	"Ġskatepark": 8017,
	"ĠNO": 8018,
	"Ġloves": 8019,
	"Ġchees": 8020,
	"Beer": 8021,
	"ĠSKI": 8022,
	"Drink": 8023,
	"pomegranate": 8024,
	"Ġroofs": 8025,
	"Ġangle": 8026,
	"ung": 8027,
	"Ġpairs": 8028,
	"acamole": 8029,
	"Ġsunshine": 8030,
	"Ġunderside": 8031,
	"borne": 8032,
	"Ġont": 8033,
	"Ġimp": 8034,
	"Ġfalls": 8035,
	"ĠELEPHANT": 8036,
	"Ġsubstance": 8037,
	"AFF": 8038,
	"Ġcomfortable": 8039,
	"Ġalligator": 8040,
	"stain": 8041,
	"Stairs": 8042,
	"lation": 8043,
	"10": 8044,
	"Ġsprinkle": 8045,
	"BROWN": 8046,
	"gre": 8047,
	"penguin": 8048,
	"Ġbesides": 8049,
	"atching": 8050,
	"lowed": 8051,
	"snack": 8052,
	"Ġspeak": 8053,
	"Ġstabil": 8054,
	"Ġloaded": 8055,
	"Ġsmartphone": 8056,
	"Ġtorn": 8057,
	"Ġthread": 8058,
	"Ġashtray": 8059,
	"HEAD": 8060,
	"FT": 8061,
	"item": 8062,
	"ĠSKATEBOARD": 8063,
	"Ġshaving": 8064,
	"nas": 8065,
	"outs": 8066,
	"Ġexposed": 8067,
	"Ġcall": 8068,
	"ĠSUR": 8069,
	"Ġreceptacle": 8070,
	"semb": 8071,
	"Ġdude": 8072,
	"ĠUNDER": 8073,
	"Ġsails": 8074,
	"Pine": 8075,
	"Ġsections": 8076,
	"Ġeas": 8077,
	"Grassy": 8078,
	"uous": 8079,
	"more": 8080,
	"istant": 8081,
	"marble": 8082,
	"ĠCola": 8083,
	"Ġcoleslaw": 8084,
	"Ġslacks": 8085,
	"Ġflap": 8086,
	"Ġparasol": 8087,
	"thing": 8088,
	"Bricks": 8089,
	"Ġdull": 8090,
	"Ġswi": 8091,
	"Stick": 8092,
	"sa": 8093,
	"Ġsconce": 8094,
	"shops": 8095,
	"mond": 8096,
	"Chopped": 8097,
	"ssy": 8098,
	"Ġquar": 8099,
	"Ġfixed": 8100,
	"ĠSh": 8101,
	"Ġpackages": 8102,
	"Ġurban": 8103,
	"parent": 8104,
	"Ġfloat": 8105,
	"yle": 8106,
	"ration": 8107,
	"Ġmarkers": 8108,
	"chopstick": 8109,
	"Ġsan": 8110,
	"Skis": 8111,
	"scrapers": 8112,
	"Ġyarn": 8113,
	"ĠLAP": 8114,
	"upside": 8115,
	"cycle": 8116,
	"sailboats": 8117,
	"Ġnap": 8118,
	"Ġbacks": 8119,
	"Ġpomegranate": 8120,
	"sword": 8121,
	"Ġaff": 8122,
	"Plaid": 8123,
	"wind": 8124,
	"ĠSW": 8125,
	"dor": 8126,
	"Ġcylindrical": 8127,
	"sour": 8128,
	"bats": 8129,
	"Ġprotru": 8130,
	"Ġhun": 8131,
	"Bur": 8132,
	"ĠWR": 8133,
	"Ġcylinder": 8134,
	"Ġchipped": 8135,
	"Ġarena": 8136,
	"Ġicon": 8137,
	"wh": 8138,
	"games": 8139,
	"Ġsalmon": 8140,
	"Ġreal": 8141,
	"hazy": 8142,
	"Ġovens": 8143,
	"wal": 8144,
	"Ho": 8145,
	"Ġpork": 8146,
	"chan": 8147,
	"ĠBlue": 8148,
	"Refrigerator": 8149,
	"Ġlanguage": 8150,
	"hering": 8151,
	"stool": 8152,
	"Ġspaghetti": 8153,
	"bent": 8154,
	"Ġspoke": 8155,
	"Ġbanners": 8156,
	"company": 8157,
	"oogie": 8158,
	"apan": 8159,
	"THESE": 8160,
	"Ġstretch": 8161,
	"High": 8162,
	"Ġstrong": 8163,
	"allel": 8164,
	"ĠAd": 8165,
	"pointed": 8166,
	"Ġpoints": 8167,
	"Ġcheesecake": 8168,
	"ĠHIS": 8169,
	"Ġfut": 8170,
	"Ġovers": 8171,
	"Ġramekin": 8172,
	"homes": 8173,
	"Ġac": 8174,
	"Ġnest": 8175,
	"Ġgreenish": 8176,
	"lettering": 8177,
	"ĠPAPER": 8178,
	"Ġfigures": 8179,
	"Adult": 8180,
	"Rope": 8181,
	"Ġsilhouette": 8182,
	"ĠPARK": 8183,
	"Ġflock": 8184,
	"Ears": 8185,
	"Ġpendant": 8186,
	"roissants": 8187,
	"ANGING": 8188,
	"Ġrims": 8189,
	"andy": 8190,
	"Ġdesks": 8191,
	"Ġscrambled": 8192,
	"ĠBOTTLE": 8193,
	"satellite": 8194,
	"ractive": 8195,
	"uniforms": 8196,
	"Oven": 8197,
	"Ġcrest": 8198,
	"garment": 8199,
	"Ġloveseat": 8200,
	"Ġtights": 8201,
	"Ġmowed": 8202,
	"Ġplugs": 8203,
	"Pepperoni": 8204,
	"Ġstepping": 8205,
	"Ġreclining": 8206,
	"birthday": 8207,
	"assorted": 8208,
	"STIC": 8209,
	"itching": 8210,
	"copper": 8211,
	"ubby": 8212,
	"ĠFrench": 8213,
	"Ġbead": 8214,
	"throw": 8215,
	"Ġhooked": 8216,
	"Ġvacuum": 8217,
	"dition": 8218,
	"Ġseven": 8219,
	"rence": 8220,
	"Ġpulls": 8221,
	"rushed": 8222,
	"ylon": 8223,
	"Circular": 8224,
	"Lot": 8225,
	"Ġslic": 8226,
	"emb": 8227,
	"abit": 8228,
	"IRR": 8229,
	"Bush": 8230,
	"Ġloo": 8231,
	"Ġportrait": 8232,
	"Ġchecking": 8233,
	"Ġcoloring": 8234,
	"Ġprotector": 8235,
	"LANE": 8236,
	"oogles": 8237,
	"Ġsquirrel": 8238,
	"Soap": 8239,
	"Ġattach": 8240,
	"Folded": 8241,
	"Ġeyel": 8242,
	"Ġhall": 8243,
	"belly": 8244,
	"Ġhimself": 8245,
	"ĠPHONE": 8246,
	"Fur": 8247,
	"tran": 8248,
	"dex": 8249,
	"Blinds": 8250,
	"pantry": 8251,
	"Ġspiky": 8252,
	"rilla": 8253,
	"Ġleans": 8254,
	"Ġbulletin": 8255,
	"Ġaffixed": 8256,
	"Ġkinds": 8257,
	"Ġbigger": 8258,
	"alapen": 8259,
	"Ġprepared": 8260,
	"Ġvisitor": 8261,
	"bolt": 8262,
	"Ġsesame": 8263,
	"Ġwill": 8264,
	"ram": 8265,
	"Opened": 8266,
	"Ġcent": 8267,
	"ccupied": 8268,
	"Ġanalog": 8269,
	"edges": 8270,
	"Ġdispensers": 8271,
	"Tri": 8272,
	"Ġomelette": 8273,
	"dential": 8274,
	"Ġemergency": 8275,
	"boulders": 8276,
	"yal": 8277,
	"arch": 8278,
	"tyrofoam": 8279,
	"Ġenclosed": 8280,
	"flective": 8281,
	"ooves": 8282,
	"Ġchewing": 8283,
	"Ġspectacles": 8284,
	"rusted": 8285,
	"Shower": 8286,
	"PERSON": 8287,
	"Parked": 8288,
	"IRROR": 8289,
	"recessed": 8290,
	"Ġpoking": 8291,
	"ĠKN": 8292,
	"kra": 8293,
	"Ġlean": 8294,
	"Nike": 8295,
	"Ocean": 8296,
	"Off": 8297,
	"Ġchained": 8298,
	"Ġlitter": 8299,
	"Ġroot": 8300,
	"ures": 8301,
	"rews": 8302,
	"Potted": 8303,
	"Ġflav": 8304,
	"Ġurinals": 8305,
	"Ġcruise": 8306,
	"ĠPEOPLE": 8307,
	"Ġact": 8308,
	"Ġbrownish": 8309,
	"Ġtexting": 8310,
	"tended": 8311,
	"ITCHE": 8312,
	"City": 8313,
	"ĠLEA": 8314,
	"Ġwait": 8315,
	"reek": 8316,
	"under": 8317,
	"Ġgeese": 8318,
	"ostrich": 8319,
	"buns": 8320,
	"Ġinclu": 8321,
	"Ġangry": 8322,
	"Ġstart": 8323,
	"Ġoblong": 8324,
	"umin": 8325,
	"Ġrefe": 8326,
	"Ġyounger": 8327,
	"Corner": 8328,
	"ĠCHI": 8329,
	"50": 8330,
	"Mel": 8331,
	"Ġtropical": 8332,
	"11": 8333,
	"IF": 8334,
	"Ġhig": 8335,
	"Ġint": 8336,
	"Ġshine": 8337,
	"WOOD": 8338,
	"Steel": 8339,
	"Tomatoes": 8340,
	"Carpet": 8341,
	"Van": 8342,
	"ĠPOLE": 8343,
	"Ġblocking": 8344,
	"Ġhooks": 8345,
	"Ġtwisted": 8346,
	"touch": 8347,
	"Ġbic": 8348,
	"ĠROAD": 8349,
	"Sticker": 8350,
	"Suit": 8351,
	"ĠGRAY": 8352,
	"Com": 8353,
	"Ġhurdle": 8354,
	"har": 8355,
	"Ġlobster": 8356,
	"flamingo": 8357,
	"fle": 8358,
	"Ġheading": 8359,
	"Ġunlit": 8360,
	"Bridge": 8361,
	"aps": 8362,
	"itched": 8363,
	"Monitor": 8364,
	"EP": 8365,
	"Blurry": 8366,
	"landing": 8367,
	"Ġlifting": 8368,
	"cotton": 8369,
	"Ġvinyl": 8370,
	"Ġbalconies": 8371,
	"Ġcages": 8372,
	"Backpack": 8373,
	"oct": 8374,
	"Ġlimit": 8375,
	"blo": 8376,
	"Ġlemonade": 8377,
	"Ġassortment": 8378,
	"skiers": 8379,
	"Ġpolished": 8380,
	"sses": 8381,
	"Ġspons": 8382,
	"THERE": 8383,
	"Ġstockings": 8384,
	"Ġdaughter": 8385,
	"main": 8386,
	"Ġcrooked": 8387,
	"ASEBALL": 8388,
	"Ġseems": 8389,
	"azel": 8390,
	"Ġstalks": 8391,
	"ĠWALKING": 8392,
	"ĠTREES": 8393,
	"Ġhabit": 8394,
	"ackson": 8395,
	"Ġhum": 8396,
	"wearing": 8397,
	"Ġaer": 8398,
	"Ġsignboard": 8399,
	"Ġbits": 8400,
	"adian": 8401,
	"ĠHELM": 8402,
	"Towels": 8403,
	"tattoos": 8404,
	"Ġbrim": 8405,
	"AC": 8406,
	"action": 8407,
	"EAT": 8408,
	"fake": 8409,
	"Ġfa": 8410,
	"ĠLAMP": 8411,
	"alcohol": 8412,
	"ĠOPEN": 8413,
	"ĠHANGING": 8414,
	"Past": 8415,
	"Ġconductor": 8416,
	"illage": 8417,
	"Pat": 8418,
	"ils": 8419,
	"brownie": 8420,
	"ĠAIR": 8421,
	"bly": 8422,
	"Ġdevices": 8423,
	"Ġbloom": 8424,
	"Ġduffel": 8425,
	"Ġsprouts": 8426,
	"Ġpromotional": 8427,
	"lighted": 8428,
	"ADOW": 8429,
	"baker": 8430,
	"Ġsilvery": 8431,
	"coin": 8432,
	"Ġbunched": 8433,
	"Ġescape": 8434,
	"teries": 8435,
	"LLOW": 8436,
	"bin": 8437,
	"Ġchopstick": 8438,
	"Dough": 8439,
	"Ġcrisp": 8440,
	"Fan": 8441,
	"Ġlast": 8442,
	"Ġsuper": 8443,
	"ĠMOTORCYCLE": 8444,
	"Ġcele": 8445,
	"Ġmach": 8446,
	"ĠAR": 8447,
	"Ġcamel": 8448,
	"Ġbuffet": 8449,
	"Ġpearl": 8450,
	"Ġgutter": 8451,
	"stage": 8452,
	"Ġswivel": 8453,
	"ĠLAPTOP": 8454,
	"zy": 8455,
	"Ġcapti": 8456,
	"Mini": 8457,
	"Outdoor": 8458,
	"ĠBALL": 8459,
	"Giraffes": 8460,
	"Ġflies": 8461,
	"Ġlargest": 8462,
	"Ġcaught": 8463,
	"Ġ0": 8464,
	"Ġstabilizer": 8465,
	"Middle": 8466,
	"Ġbrow": 8467,
	"style": 8468,
	"Ġcigarettes": 8469,
	"ondon": 8470,
	"Ġcamper": 8471,
	"Ġcoffe": 8472,
	"ĠCOUN": 8473,
	"candies": 8474,
	"Tiles": 8475,
	"Ġalmond": 8476,
	"fant": 8477,
	"highway": 8478,
	"ĠWHEEL": 8479,
	"Cap": 8480,
	"ramp": 8481,
	"Ġairborne": 8482,
	"Ġcha": 8483,
	"ĠBOAT": 8484,
	"Ġnostrils": 8485,
	"raincoat": 8486,
	"Ġhad": 8487,
	"turned": 8488,
	"fuzzy": 8489,
	"lannel": 8490,
	"Ġoatmeal": 8491,
	"Ġraisins": 8492,
	"ever": 8493,
	"iduous": 8494,
	"Ġske": 8495,
	"ufacture": 8496,
	"Ġspeaking": 8497,
	"othing": 8498,
	"ĠSOFA": 8499,
	"Ġplaza": 8500,
	"Ġbackpacks": 8501,
	"fts": 8502,
	"Ġlegged": 8503,
	"condim": 8504,
	"Ġairline": 8505,
	"center": 8506,
	"neven": 8507,
	"Ġflatscreen": 8508,
	"Ġbarricade": 8509,
	"Ġzip": 8510,
	"Ġwrinkles": 8511,
	"Ġpita": 8512,
	"fitti": 8513,
	"BOY": 8514,
	"crab": 8515,
	"ĠCan": 8516,
	"ycling": 8517,
	"eaten": 8518,
	"Ġshines": 8519,
	"flames": 8520,
	"cute": 8521,
	"Ġdresses": 8522,
	"Ġbend": 8523,
	"Ġcould": 8524,
	"ĠCOU": 8525,
	"Ġbundle": 8526,
	"sliding": 8527,
	"Ġvane": 8528,
	"Maroon": 8529,
	"Ġscoreboard": 8530,
	"loaf": 8531,
	"Mushroom": 8532,
	"Ġga": 8533,
	"champagne": 8534,
	"frog": 8535,
	"Ġrid": 8536,
	"ladies": 8537,
	"cracks": 8538,
	"Ġreflections": 8539,
	"ĠBOARD": 8540,
	"ĠMacBook": 8541,
	"ĠBEA": 8542,
	"ĠSUN": 8543,
	"Ġlays": 8544,
	"Ġgripping": 8545,
	"Ġcrock": 8546,
	"Ġthermos": 8547,
	"Ġown": 8548,
	"Rain": 8549,
	"Ġposters": 8550,
	"cel": 8551,
	"cedes": 8552,
	"rounded": 8553,
	"Ġhairs": 8554,
	"Ġgran": 8555,
	"ised": 8556,
	"ĠGIRAFF": 8557,
	"Ġhabitat": 8558,
	"Ġcarving": 8559,
	"ctory": 8560,
	"Ġvolley": 8561,
	"monitors": 8562,
	"Board": 8563,
	"marshmallow": 8564,
	"leece": 8565,
	"Ġali": 8566,
	"ĠiPod": 8567,
	"Huge": 8568,
	"ara": 8569,
	"Ġsplas": 8570,
	"Ġdrops": 8571,
	"Ġtransportation": 8572,
	"nger": 8573,
	"Ġlicence": 8574,
	"Ġscar": 8575,
	"Ġlinoleum": 8576,
	"Ġjack": 8577,
	"paintings": 8578,
	"Ġspider": 8579,
	"Letter": 8580,
	"Or": 8581,
	"Ġodd": 8582,
	"zes": 8583,
	"stacks": 8584,
	"Ġoctagon": 8585,
	"Ġload": 8586,
	"fully": 8587,
	"apanese": 8588,
	"whisk": 8589,
	"smile": 8590,
	"Ġboogie": 8591,
	"Stripes": 8592,
	"Ġfuton": 8593,
	"Cord": 8594,
	"rored": 8595,
	"Ġloop": 8596,
	"peanuts": 8597,
	"battery": 8598,
	"faded": 8599,
	"Ġdone": 8600,
	"Ġsauc": 8601,
	"Calm": 8602,
	"Full": 8603,
	"Ġgoes": 8604,
	"Ġarches": 8605,
	"Ġartichoke": 8606,
	"Ġcare": 8607,
	"space": 8608,
	"Ass": 8609,
	"policemen": 8610,
	"towers": 8611,
	"Ġarc": 8612,
	"iscuits": 8613,
	"Ġingredients": 8614,
	"aches": 8615,
	"Ġpaddling": 8616,
	"Ġtof": 8617,
	"Ġlovely": 8618,
	"strip": 8619,
	"checkered": 8620,
	"happy": 8621,
	"cuff": 8622,
	"Ġautomobile": 8623,
	"Ġbackdrop": 8624,
	"Ġmic": 8625,
	"Ġwatermark": 8626,
	"Ġpeacock": 8627,
	"bled": 8628,
	"Ġdolls": 8629,
	"lender": 8630,
	"ĠBen": 8631,
	"Ġfins": 8632,
	"Ġmaybe": 8633,
	"Ġcooling": 8634,
	"Ġoverhang": 8635,
	"triangular": 8636,
	"heavy": 8637,
	"Portion": 8638,
	"Ġfunny": 8639,
	"awk": 8640,
	"UMB": 8641,
	"Ġlavender": 8642,
	"advertising": 8643,
	"Ġembro": 8644,
	"Ġcock": 8645,
	"Ġstopper": 8646,
	"interior": 8647,
	"Ġseafood": 8648,
	"Ġwebsite": 8649,
	"Ġbartender": 8650,
	"Ġlies": 8651,
	"Ġherding": 8652,
	"aces": 8653,
	"aging": 8654,
	"Ġbarely": 8655,
	"Candle": 8656,
	"Ġlever": 8657,
	"Ġpay": 8658,
	"Second": 8659,
	"Plu": 8660,
	"Ġwreath": 8661,
	"ĠCOUNTER": 8662,
	"rson": 8663,
	"oured": 8664,
	"Ġwaterfall": 8665,
	"pri": 8666,
	"lular": 8667,
	"Ġcoast": 8668,
	"Ġtourists": 8669,
	"finished": 8670,
	"HROOM": 8671,
	"anna": 8672,
	"Ġnecklaces": 8673,
	"Engine": 8674,
	"alumin": 8675,
	"Ġsided": 8676,
	"agged": 8677,
	"Ġunderwear": 8678,
	"Ġpropellers": 8679,
	"aluminum": 8680,
	"Ġearing": 8681,
	"Railing": 8682,
	"ĠZEB": 8683,
	"artichoke": 8684,
	"Ġjewelry": 8685,
	"Ġshoelaces": 8686,
	"Ġentryway": 8687,
	"Ġawnings": 8688,
	"Ġplantains": 8689,
	"Ġlabels": 8690,
	"vil": 8691,
	"Ġ19": 8692,
	"womans": 8693,
	"Ġwildflowers": 8694,
	"Ġrise": 8695,
	"Ġwatercraft": 8696,
	"sung": 8697,
	"diced": 8698,
	"Ġgrows": 8699,
	"Ġtomatoe": 8700,
	"Scissors": 8701,
	"ousel": 8702,
	"Apples": 8703,
	"Ġran": 8704,
	"ufacturer": 8705,
	"Ġlogos": 8706,
	"Ġscrub": 8707,
	"Broken": 8708,
	"itted": 8709,
	"feta": 8710,
	"enger": 8711,
	"Ġpract": 8712,
	"Comp": 8713,
	"Ġimages": 8714,
	"LI": 8715,
	"Ġswung": 8716,
	"Ġvents": 8717,
	"GH": 8718,
	"Ġhy": 8719,
	"Ġearth": 8720,
	"Ġedging": 8721,
	"Ġdivid": 8722,
	"Horns": 8723,
	"Feet": 8724,
	"monds": 8725,
	"leton": 8726,
	"Ġgathering": 8727,
	"Ġparallel": 8728,
	"Ġresidential": 8729,
	"hedr": 8730,
	"boards": 8731,
	"Ġwoo": 8732,
	"Ġtit": 8733,
	"IRE": 8734,
	"Ġyear": 8735,
	"tiled": 8736,
	"Kids": 8737,
	"Ġindicates": 8738,
	"Ġmoustache": 8739,
	"mayonnaise": 8740,
	"ĠPOT": 8741,
	"ĠHELMET": 8742,
	"Ġward": 8743,
	"Ġneigh": 8744,
	"Control": 8745,
	"Tu": 8746,
	"End": 8747,
	"Tiny": 8748,
	"oothi": 8749,
	"Ġlinen": 8750,
	"ference": 8751,
	"Tray": 8752,
	"Lines": 8753,
	"rating": 8754,
	"Ġdug": 8755,
	"ĠEnglish": 8756,
	"Ġsuspenders": 8757,
	"ĠMIRROR": 8758,
	"Ġpeice": 8759,
	"Cloth": 8760,
	"Ġgallon": 8761,
	"ĠFLA": 8762,
	"Ġbandage": 8763,
	"ckles": 8764,
	"ditional": 8765,
	"bes": 8766,
	"shed": 8767,
	"Ġwhtie": 8768,
	"Ġfleece": 8769,
	"Ġdense": 8770,
	"Ġer": 8771,
	"ĠEY": 8772,
	"workers": 8773,
	"Ġgoogles": 8774,
	"Ġcaramel": 8775,
	"ĠBY": 8776,
	"orry": 8777,
	"ngle": 8778,
	"Ġprep": 8779,
	"Ġkeeping": 8780,
	"ĠSINK": 8781,
	"Ġhik": 8782,
	"Branches": 8783,
	"Oli": 8784,
	"rig": 8785,
	"snowy": 8786,
	"ĠPLASTIC": 8787,
	"Ġcroche": 8788,
	"Ġevening": 8789,
	"tension": 8790,
	"hedral": 8791,
	"ander": 8792,
	"ased": 8793,
	"Ġfriend": 8794,
	"Ġlamppost": 8795,
	"column": 8796,
	"OUR": 8797,
	"Ġwading": 8798,
	"Ġowner": 8799,
	"vintage": 8800,
	"Ġremo": 8801,
	"reddish": 8802,
	"Ġbalck": 8803,
	"Ġfrees": 8804,
	"Ġstretching": 8805,
	"racks": 8806,
	"Roman": 8807,
	"Ġhaircut": 8808,
	"ĠTAN": 8809,
	"erman": 8810,
	"aircraft": 8811,
	"Ġcurrent": 8812,
	"ddles": 8813,
	"Ġless": 8814,
	"igns": 8815,
	"riers": 8816,
	"inning": 8817,
	"itrus": 8818,
	"medicine": 8819,
	"Jackson": 8820,
	"Ġgrated": 8821,
	"eple": 8822,
	"Ġspec": 8823,
	"AK": 8824,
	"Lab": 8825,
	"Ġticket": 8826,
	"Ġflood": 8827,
	"Ġheating": 8828,
	"Ġthumbs": 8829,
	"teal": 8830,
	"Ġprotruding": 8831,
	"ĠUSB": 8832,
	"amsung": 8833,
	"SU": 8834,
	"Ġribs": 8835,
	"Overhead": 8836,
	"horizontal": 8837,
	"blurred": 8838,
	"cash": 8839,
	"glazed": 8840,
	"Ġflowering": 8841,
	"ĠCHE": 8842,
	"20": 8843,
	"ests": 8844,
	"Ġwardrobe": 8845,
	"asting": 8846,
	"ote": 8847,
	"velling": 8848,
	"web": 8849,
	"Ġspecks": 8850,
	"Ġedged": 8851,
	"Ġoperating": 8852,
	"clump": 8853,
	"Ġrustic": 8854,
	"Ġreferee": 8855,
	"Ġseries": 8856,
	"FR": 8857,
	"ails": 8858,
	"ĠBOX": 8859,
	"Melted": 8860,
	"Ġtar": 8861,
	"Ġsnowboarders": 8862,
	"ĠAfrican": 8863,
	"Ġsing": 8864,
	"ĠCAKE": 8865,
	"ĠSILVER": 8866,
	"innie": 8867,
	"ingus": 8868,
	"Ġupwards": 8869,
	"Ġcaucasian": 8870,
	"ĠSanta": 8871,
	"bandoned": 8872,
	"Speaker": 8873,
	"PLA": 8874,
	"Ġsled": 8875,
	"Ġcasserole": 8876,
	"keypad": 8877,
	"IM": 8878,
	"Ġouter": 8879,
	"kerchief": 8880,
	"ABY": 8881,
	"ĠCLOCK": 8882,
	"Ġmas": 8883,
	"bride": 8884,
	"ĠStates": 8885,
	"Ġmaple": 8886,
	"ĠSTRIP": 8887,
	"rinse": 8888,
	"Ġtangled": 8889,
	"Ġ18": 8890,
	"ĠHOT": 8891,
	"Ġdripping": 8892,
	"String": 8893,
	"yed": 8894,
	"Ġridge": 8895,
	"Ġdecorating": 8896,
	"vanna": 8897,
	"Ġindex": 8898,
	"burgundy": 8899,
	"raisins": 8900,
	"Ġpallet": 8901,
	"Ġflannel": 8902,
	"Ġtying": 8903,
	"Ġtouchpad": 8904,
	"lover": 8905,
	"Garbage": 8906,
	"Onions": 8907,
	"Ġshingles": 8908,
	"Ġresemb": 8909,
	"Ġwatermelons": 8910,
	"wrinkle": 8911,
	"Ġcomf": 8912,
	"Ġsaf": 8913,
	"Ġbeets": 8914,
	"Hardwood": 8915,
	"Ġfeta": 8916,
	"Ġlorry": 8917,
	"Ġribbons": 8918,
	"ridge": 8919,
	"wildflowers": 8920,
	"Ġginger": 8921,
	"Ġsurrounds": 8922,
	"Ġhinges": 8923,
	"alsa": 8924,
	"Players": 8925,
	"ĠOVER": 8926,
	"Cardboard": 8927,
	"Ite": 8928,
	"Ketchup": 8929,
	"mostat": 8930,
	"sausages": 8931,
	"Field": 8932,
	"OWERS": 8933,
	"ITCHEN": 8934,
	"ĠNew": 8935,
	"Different": 8936,
	"DVD": 8937,
	"Ġblooming": 8938,
	"Ġruffled": 8939,
	"QU": 8940,
	"Ġpamp": 8941,
	"raised": 8942,
	"IELD": 8943,
	"ically": 8944,
	"Ġpepsi": 8945,
	"Ġnine": 8946,
	"where": 8947,
	"Ġfaced": 8948,
	"Ġmechan": 8949,
	"sli": 8950,
	"Ġhammer": 8951,
	"Ġstate": 8952,
	"Ġflown": 8953,
	"Ġtimer": 8954,
	"lucent": 8955,
	"sleeved": 8956,
	"Ġgrasping": 8957,
	"ooh": 8958,
	"Ġvalve": 8959,
	"Ġlayers": 8960,
	"Beach": 8961,
	"Ġneedles": 8962,
	"Ġtoned": 8963,
	"Ġeasy": 8964,
	"Ġprongs": 8965,
	"ĠLONG": 8966,
	"Ġcreamer": 8967,
	"Ġshinny": 8968,
	"Ġtravelling": 8969,
	"Houses": 8970,
	"Ġcommode": 8971,
	"UL": 8972,
	"bine": 8973,
	"night": 8974,
	"mperature": 8975,
	"Ġtipped": 8976,
	"ares": 8977,
	"holes": 8978,
	"Ġci": 8979,
	"mugs": 8980,
	"Ġkicked": 8981,
	"Ġhelp": 8982,
	"Ġsunflowers": 8983,
	"Ġoutfits": 8984,
	"Ġhalter": 8985,
	"FFEE": 8986,
	"Ġcaptivity": 8987,
	"plenty": 8988,
	"Ġgrid": 8989,
	"GG": 8990,
	"leeping": 8991,
	"Ġrearview": 8992,
	"Ġattire": 8993,
	"nequins": 8994,
	"Ġspark": 8995,
	"Ġfeaturing": 8996,
	"tusk": 8997,
	"peice": 8998,
	"characters": 8999,
	"PErson": 9000,
	"Ġcompetition": 9001,
	"ĠBIR": 9002,
	"Ġstemmed": 9003,
	"dri": 9004,
	"Ġhow": 9005,
	"Ġshingled": 9006,
	"Necklace": 9007,
	"orders": 9008,
	"Ġrobot": 9009,
	"ĠĠĠĠĠĠĠĠĠĠĠĠĠĠĠĠĠĠĠĠĠĠĠĠĠĠĠĠĠĠĠĠ": 9010,
	"Ġsite": 9011,
	"Cola": 9012,
	"Ġdon": 9013,
	"ĠPark": 9014,
	"Ġidentical": 9015,
	"stomach": 9016,
	"eight": 9017,
	"Ġthru": 9018,
	"Plates": 9019,
	"ĠPLANE": 9020,
	"Clean": 9021,
	"lated": 9022,
	"Ġnothing": 9023,
	"Eyeglasses": 9024,
	"bru": 9025,
	"ilson": 9026,
	"Ġdoily": 9027,
	"ĠMingus": 9028,
	"stacked": 9029,
	"cro": 9030,
	"Ġmountainside": 9031,
	"Ġbarbe": 9032,
	"Ġaddress": 9033,
	"stract": 9034,
	"ption": 9035,
	"Ġlounging": 9036,
	"ĠWII": 9037,
	"Goggles": 9038,
	"Ġformal": 9039,
	"Ġnozzle": 9040,
	"sheer": 9041,
	"Clothes": 9042,
	"Ġamber": 9043,
	"Ġsal": 9044,
	"aut": 9045,
	"ANCE": 9046,
	"Utensil": 9047,
	"cran": 9048,
	"orized": 9049,
	"Area": 9050,
	"VING": 9051,
	"Ġhangar": 9052,
	"rainer": 9053,
	"Ġant": 9054,
	"oppy": 9055,
	"ĠPILLOW": 9056,
	"Ġdomed": 9057,
	"Ġobs": 9058,
	"seal": 9059,
	"Ġshinning": 9060,
	"ĠKEY": 9061,
	"Ġseagulls": 9062,
	"Butter": 9063,
	"Ġ-": 9064,
	"Ġmulch": 9065,
	"Ġkneep": 9066,
	"Ġpossi": 9067,
	"Ġscrews": 9068,
	"oul": 9069,
	"Ġrepre": 9070,
	"ricate": 9071,
	"Ġretri": 9072,
	"ifier": 9073,
	"Ġorder": 9074,
	"ĠCOW": 9075,
	"raisin": 9076,
	"Ġlodge": 9077,
	"Multicolored": 9078,
	"hy": 9079,
	"ILET": 9080,
	"Ġrippled": 9081,
	"Ġpom": 9082,
	"Ġmural": 9083,
	"pig": 9084,
	"ĠUnited": 9085,
	"bles": 9086,
	"triangle": 9087,
	"MENT": 9088,
	"Ġsound": 9089,
	"zzled": 9090,
	"dles": 9091,
	"Ġdrivers": 9092,
	"itting": 9093,
	"Ġalmonds": 9094,
	"Ġcarousel": 9095,
	"Ġfinish": 9096,
	"Ġsoftball": 9097,
	"Ġbroad": 9098,
	"Ġdowntown": 9099,
	"ĠSURF": 9100,
	"tion": 9101,
	"Ġdownward": 9102,
	"Ġraisin": 9103,
	"Ġcellular": 9104,
	"adget": 9105,
	"Ġlistening": 9106,
	"otorcyclist": 9107,
	"Ġwo": 9108,
	"ĠMADE": 9109,
	"Ġweight": 9110,
	"En": 9111,
	"fridge": 9112,
	"Hills": 9113,
	"onda": 9114,
	"Ġtaillight": 9115,
	"Ġbutterflies": 9116,
	"icles": 9117,
	"ĠLIT": 9118,
	"Stove": 9119,
	"Ġdonkeys": 9120,
	"seated": 9121,
	"noccupied": 9122,
	"OME": 9123,
	"Shelves": 9124,
	"Pu": 9125,
	"wra": 9126,
	"Ġsimple": 9127,
	"Ġconver": 9128,
	"ĠGreen": 9129,
	"ĠHI": 9130,
	"hearts": 9131,
	"ĠDIS": 9132,
	"Ġjumps": 9133,
	"Ġextra": 9134,
	"Lad": 9135,
	"Ġnic": 9136,
	"Ġwaiter": 9137,
	"First": 9138,
	"ĠTOW": 9139,
	"Ġmett": 9140,
	"Ġviewing": 9141,
	"chest": 9142,
	"Ġmacbook": 9143,
	"tennas": 9144,
	"puffy": 9145,
	"Ġburned": 9146,
	"LER": 9147,
	"Ġspine": 9148,
	"ffles": 9149,
	"scene": 9150,
	"Ġdiner": 9151,
	"Ġabandoned": 9152,
	"Ġplanters": 9153,
	"Ġplumbing": 9154,
	"crumpled": 9155,
	"Steps": 9156,
	"Ġcompletely": 9157,
	"ĠSMALL": 9158,
	"ĠHANDLE": 9159,
	"fancy": 9160,
	"coleslaw": 9161,
	"ĠBASEBALL": 9162,
	"knot": 9163,
	"Ġpumpkins": 9164,
	"cafe": 9165,
	"arian": 9166,
	"Ġlinked": 9167,
	"und": 9168,
	"clothing": 9169,
	"Ġraquet": 9170,
	"wrinkled": 9171,
	"Ġeasel": 9172,
	"rhino": 9173,
	"Ġlanes": 9174,
	"erc": 9175,
	"ĠKITCHEN": 9176,
	"oothie": 9177,
	"Ġstirrup": 9178,
	"ĠCDs": 9179,
	"octopus": 9180,
	"ĠWATCH": 9181,
	"Body": 9182,
	"Ġmessenger": 9183,
	"Ġmode": 9184,
	"instrument": 9185,
	"liet": 9186,
	"bug": 9187,
	"zard": 9188,
	"ILING": 9189,
	"ĠGIRAFFE": 9190,
	"Ġeats": 9191,
	"ĠDIST": 9192,
	"Ġseg": 9193,
	"Knee": 9194,
	"Ġesca": 9195,
	"Ġlocked": 9196,
	"exhaust": 9197,
	"muffins": 9198,
	"alian": 9199,
	"Ġfreshly": 9200,
	"Ġpush": 9201,
	"acant": 9202,
	"ta": 9203,
	"ĠCONT": 9204,
	"orium": 9205,
	"use": 9206,
	"esti": 9207,
	"Ġshelve": 9208,
	"Mustard": 9209,
	"Kites": 9210,
	"Ġwrinkly": 9211,
	"fect": 9212,
	"holding": 9213,
	"ATO": 9214,
	"ĠFROM": 9215,
	"Cellphone": 9216,
	"Ġsunlit": 9217,
	"Ġchimneys": 9218,
	"Star": 9219,
	"Ġelevator": 9220,
	"crispy": 9221,
	"Ġdim": 9222,
	"ica": 9223,
	"pickle": 9224,
	"ĠKID": 9225,
	"Ġobscu": 9226,
	"Ġtallest": 9227,
	"kraut": 9228,
	"rooftop": 9229,
	"hip": 9230,
	"Ġplunger": 9231,
	"bronze": 9232,
	"Ġil": 9233,
	"Ġdaylight": 9234,
	"waiter": 9235,
	"zebo": 9236,
	"Donuts": 9237,
	"ĠCLOU": 9238,
	"ĠPARKED": 9239,
	"ĠLEFT": 9240,
	"ext": 9241,
	"Ġcigar": 9242,
	"Ġfocu": 9243,
	"Ġbandanna": 9244,
	"Ġbowtie": 9245,
	"XT": 9246,
	"Bags": 9247,
	"Ġbrownies": 9248,
	"idered": 9249,
	"Ġbulding": 9250,
	"Ġsectional": 9251,
	"Ġlevels": 9252,
	"IGHTS": 9253,
	"touchpad": 9254,
	"Ġcelebr": 9255,
	"ceries": 9256,
	"stores": 9257,
	"Ġslatted": 9258,
	"Ġferry": 9259,
	"Ġmerchandise": 9260,
	"ime": 9261,
	"Weeds": 9262,
	"polka": 9263,
	"Ġerase": 9264,
	"Ġspare": 9265,
	"Ġunoccupied": 9266,
	"Du": 9267,
	"diamond": 9268,
	"fencing": 9269,
	"ener": 9270,
	"Ġshopper": 9271,
	"fallen": 9272,
	"ination": 9273,
	"Ġflyer": 9274,
	"Ġjungle": 9275,
	"Ġdamaged": 9276,
	"ĠPLAYER": 9277,
	"Bracelet": 9278,
	"vo": 9279,
	"Ġquilted": 9280,
	"Potatoes": 9281,
	"Ġfight": 9282,
	"Ġshaking": 9283,
	"khaki": 9284,
	"Ġ13": 9285,
	"ĠSL": 9286,
	"xedo": 9287,
	"ĠDE": 9288,
	"LED": 9289,
	"Stra": 9290,
	"Ġoutlined": 9291,
	"Ġsliver": 9292,
	"Store": 9293,
	"Ġpages": 9294,
	"Ġblocked": 9295,
	"Ġhalved": 9296,
	"new": 9297,
	"Ġelectricity": 9298,
	"Ham": 9299,
	"dian": 9300,
	"nostri": 9301,
	"gro": 9302,
	"ĠAdidas": 9303,
	"Ġpamph": 9304,
	"Ġmop": 9305,
	"Ġteacup": 9306,
	"ĠTRAY": 9307,
	"Ġseparate": 9308,
	"ĠDVDs": 9309,
	"ona": 9310,
	"andel": 9311,
	"Ġones": 9312,
	"rectangle": 9313,
	"Ġ14": 9314,
	"itorium": 9315,
	"Ġsignage": 9316,
	"Ġkissing": 9317,
	"Ġinfant": 9318,
	"grinder": 9319,
	"Tie": 9320,
	"Ġcob": 9321,
	"ĠEN": 9322,
	"Counter": 9323,
	"saddle": 9324,
	"Ġheat": 9325,
	"ened": 9326,
	"ograph": 9327,
	"ĠLARGE": 9328,
	"burn": 9329,
	"Knobs": 9330,
	"ĠFIELD": 9331,
	"Ġgrowth": 9332,
	"ĠSUIT": 9333,
	"Ġlapel": 9334,
	"Items": 9335,
	"Ġray": 9336,
	"bie": 9337,
	"Ġunmade": 9338,
	"ox": 9339,
	"Ġpoodle": 9340,
	"Ġshorter": 9341,
	"Ġpatty": 9342,
	"Ġreflects": 9343,
	"scra": 9344,
	"Ġadj": 9345,
	"Handles": 9346,
	"Ġwedges": 9347,
	"Ġstrainer": 9348,
	"Ġcoated": 9349,
	"Ġexiting": 9350,
	"illboard": 9351,
	"Ġpadding": 9352,
	"ĠCOFFEE": 9353,
	"Ġfreesbee": 9354,
	"Ġsil": 9355,
	"Ġfoots": 9356,
	"vacy": 9357,
	"Ġdepic": 9358,
	"ĠEAR": 9359,
	"Burnt": 9360,
	"Ġswoo": 9361,
	"bank": 9362,
	"strings": 9363,
	"Ġclassic": 9364,
	"ĠDISTANCE": 9365,
	"Ġlate": 9366,
	"Ġlearning": 9367,
	"yered": 9368,
	"stadium": 9369,
	"Ġslicing": 9370,
	"Ġborders": 9371,
	"OND": 9372,
	"printed": 9373,
	"ĠMON": 9374,
	"ĠBu": 9375,
	"collection": 9376,
	"Ġnu": 9377,
	"jewelry": 9378,
	"Ġmotorcyle": 9379,
	"Pre": 9380,
	"Ġna": 9381,
	"Ġcurious": 9382,
	"hinge": 9383,
	"Ġtreat": 9384,
	"Label": 9385,
	"Hill": 9386,
	"ĠWindow": 9387,
	"ĠKI": 9388,
	"Ġacces": 9389,
	"VEN": 9390,
	"Ġtide": 9391,
	"curled": 9392,
	"blade": 9393,
	"ĠRIGHT": 9394,
	"Painted": 9395,
	"Wide": 9396,
	"tention": 9397,
	"Ġsmiley": 9398,
	"ĠLe": 9399,
	"Ġid": 9400,
	"alic": 9401,
	"Ġentire": 9402,
	"vacuum": 9403,
	"Ġillumin": 9404,
	"Ġcopyright": 9405,
	"Ġdocu": 9406,
	"Ġven": 9407,
	"coming": 9408,
	"Ġscrap": 9409,
	"money": 9410,
	"Ġhardware": 9411,
	"Ġduvet": 9412,
	"Ġracer": 9413,
	"ĠAROUND": 9414,
	"Ġcamping": 9415,
	"Ġbackside": 9416,
	"Ġtrench": 9417,
	"LIGHT": 9418,
	"Ġsewing": 9419,
	"ĠPUR": 9420,
	"football": 9421,
	"brant": 9422,
	"Ġrecord": 9423,
	"ĠMan": 9424,
	"Ġtaco": 9425,
	"Ġcircus": 9426,
	"Boxes": 9427,
	"Ġboo": 9428,
	"ced": 9429,
	"written": 9430,
	"ĠHER": 9431,
	"Ġtric": 9432,
	"ĠBR": 9433,
	"Pale": 9434,
	"Ġsoles": 9435,
	"Rocky": 9436,
	"atched": 9437,
	"ifying": 9438,
	"delicious": 9439,
	"Ġhanged": 9440,
	"Ġrods": 9441,
	"Ġdrople": 9442,
	"Ser": 9443,
	"Ġstraws": 9444,
	"Ġsloped": 9445,
	"Orn": 9446,
	"curly": 9447,
	"Smaller": 9448,
	"Bald": 9449,
	"slanted": 9450,
	"sharp": 9451,
	"bartender": 9452,
	"helicopter": 9453,
	"sized": 9454,
	"Ġpaving": 9455,
	"Toddler": 9456,
	"Ġslaw": 9457,
	"Stem": 9458,
	"Ġpiles": 9459,
	"ĠFLOWERS": 9460,
	"Ġtheater": 9461,
	"mpet": 9462,
	"Polar": 9463,
	"stir": 9464,
	"shrubs": 9465,
	"Ġtuxedo": 9466,
	"Ġurn": 9467,
	"Tis": 9468,
	"Ġstructures": 9469,
	"Ġpinned": 9470,
	"LF": 9471,
	"Ġmonster": 9472,
	"Ġcarafe": 9473,
	"sitting": 9474,
	"Ġlandline": 9475,
	"erly": 9476,
	"mband": 9477,
	"Ġdisplays": 9478,
	"Ġfreight": 9479,
	"Rust": 9480,
	"OLD": 9481,
	"Ġpose": 9482,
	"Ġsnowman": 9483,
	"omelette": 9484,
	"Ġchord": 9485,
	"Ġartichokes": 9486,
	"ĠNEXT": 9487,
	"Ġnaked": 9488,
	"milar": 9489,
	"reg": 9490,
	"Ġheight": 9491,
	"THREE": 9492,
	"Crust": 9493,
	"Jar": 9494,
	"Ġdancing": 9495,
	"walking": 9496,
	"Ġsquared": 9497,
	"Ġnearly": 9498,
	"Del": 9499,
	"dol": 9500,
	"teed": 9501,
	"ago": 9502,
	"alapeno": 9503,
	"Ġsol": 9504,
	"Ġclub": 9505,
	"Ġbuoys": 9506,
	"grater": 9507,
	"RESS": 9508,
	"Ġtiered": 9509,
	"ĠStyrofoam": 9510,
	"Ġstrand": 9511,
	"Ġbulls": 9512,
	"ttice": 9513,
	"Ġprofile": 9514,
	"Ġtoliet": 9515,
	"Ġextension": 9516,
	"Ġpac": 9517,
	"alo": 9518,
	"Ġwhen": 9519,
	"Tattoo": 9520,
	"irection": 9521,
	"essy": 9522,
	"ello": 9523,
	"ĠYork": 9524,
	"acent": 9525,
	"EAK": 9526,
	"Carrot": 9527,
	"ĠSTE": 9528,
	"ĠBEACH": 9529,
	"Ġforearm": 9530,
	"Ġengineer": 9531,
	"Ġdeciduous": 9532,
	"Prin": 9533,
	"Ġbold": 9534,
	"borhood": 9535,
	"Ġcourts": 9536,
	"Ġpapaya": 9537,
	"Bre": 9538,
	"Ġthemed": 9539,
	"Ġbottled": 9540,
	"Ġbowling": 9541,
	"Ġstirring": 9542,
	"Log": 9543,
	"getarian": 9544,
	"Ġcorners": 9545,
	"Ġsavanna": 9546,
	"Fluffy": 9547,
	"zzly": 9548,
	"asphalt": 9549,
	"asoning": 9550,
	"Brand": 9551,
	"almond": 9552,
	"ĠNEAR": 9553,
	"ĠLINE": 9554,
	"Of": 9555,
	"ĠFA": 9556,
	"Me": 9557,
	"Gu": 9558,
	"Magazine": 9559,
	"Ġivy": 9560,
	"chid": 9561,
	"Inside": 9562,
	"lown": 9563,
	"Ġcurving": 9564,
	"Ġscall": 9565,
	"Ġcrusty": 9566,
	"RAW": 9567,
	"urdy": 9568,
	"Ġfields": 9569,
	"Family": 9570,
	"ĠCoke": 9571,
	"Ġfedora": 9572,
	"Ġcrop": 9573,
	"Ġscen": 9574,
	"Ġtram": 9575,
	"neat": 9576,
	"information": 9577,
	"taining": 9578,
	"elevated": 9579,
	"Ġneeds": 9580,
	"Newspaper": 9581,
	"Driver": 9582,
	"Ġleopard": 9583,
	"acht": 9584,
	"Bacon": 9585,
	"jama": 9586,
	"ulticolor": 9587,
	"Ġangel": 9588,
	"Ġboun": 9589,
	"Ġmelons": 9590,
	"flo": 9591,
	"Ġappet": 9592,
	"Ġindividual": 9593,
	"Ent": 9594,
	"antro": 9595,
	"Assorted": 9596,
	"Ġfas": 9597,
	"visitor": 9598,
	"orary": 9599,
	"liquor": 9600,
	"Ġcapris": 9601,
	"Jacket": 9602,
	"Ġtexture": 9603,
	"Ġupon": 9604,
	"AYING": 9605,
	"angry": 9606,
	"desserts": 9607,
	"ĠSTO": 9608,
	"Wrist": 9609,
	"elican": 9610,
	"amed": 9611,
	"ĠTOILET": 9612,
	"saic": 9613,
	"Ġuses": 9614,
	"Post": 9615,
	"Up": 9616,
	"Cart": 9617,
	"Lemon": 9618,
	"farm": 9619,
	"business": 9620,
	"Pack": 9621,
	"Ġscroll": 9622,
	"Ġworld": 9623,
	"ni": 9624,
	"ĠPi": 9625,
	"hydrant": 9626,
	"sual": 9627,
	"Ġplayed": 9628,
	"yyyy": 9629,
	"bits": 9630,
	"Ġvolleyball": 9631,
	"tible": 9632,
	"Ġescalator": 9633,
	"Ġsid": 9634,
	"Ġsizes": 9635,
	"Ġamid": 9636,
	"story": 9637,
	"ĠCAP": 9638,
	"Suitcase": 9639,
	"opening": 9640,
	"meric": 9641,
	"Ġvacant": 9642,
	"Ġleast": 9643,
	"buoys": 9644,
	"Balcony": 9645,
	"Curved": 9646,
	"shoulder": 9647,
	"Ġroyal": 9648,
	"Ġroots": 9649,
	"Keys": 9650,
	"Ġnon": 9651,
	"Ġcaboose": 9652,
	"OOKS": 9653,
	"Ġwhip": 9654,
	"MW": 9655,
	"Ġwastebasket": 9656,
	"Ġyellowish": 9657,
	"Ġarmband": 9658,
	"Ġsidelines": 9659,
	"onald": 9660,
	"ilation": 9661,
	"stable": 9662,
	"Ġbookbag": 9663,
	"Cable": 9664,
	"Lid": 9665,
	"ARKING": 9666,
	"drinking": 9667,
	"Al": 9668,
	"shirtless": 9669,
	"ga": 9670,
	"Net": 9671,
	"Sail": 9672,
	"lor": 9673,
	"only": 9674,
	"rails": 9675,
	"Pedestrian": 9676,
	"debris": 9677,
	"Ġdozen": 9678,
	"Ġdolphin": 9679,
	"ĠiPhone": 9680,
	"silhouette": 9681,
	"LADY": 9682,
	"ied": 9683,
	"ks": 9684,
	"cartoon": 9685,
	"ĠBritish": 9686,
	"mostly": 9687,
	"Ġfurthest": 9688,
	"Ġlimes": 9689,
	"Ġsippy": 9690,
	"Ġbusses": 9691,
	"Ġscratching": 9692,
	"Ġcray": 9693,
	"metric": 9694,
	"GLASSES": 9695,
	"rim": 9696,
	"tops": 9697,
	"SILVER": 9698,
	"ĠDARK": 9699,
	"Ġunopened": 9700,
	"Railroad": 9701,
	"Night": 9702,
	"blossom": 9703,
	"Clump": 9704,
	"kick": 9705,
	"Ġtuna": 9706,
	"Ġadjacent": 9707,
	"Ġsimilar": 9708,
	"Ġcurvy": 9709,
	"Ġfingernails": 9710,
	"len": 9711,
	"Ġleads": 9712,
	"ĠZEBRA": 9713,
	"Ġadjusting": 9714,
	"ALK": 9715,
	"azelle": 9716,
	"Jeans": 9717,
	"dot": 9718,
	"not": 9719,
	"Ġconcent": 9720,
	"signia": 9721,
	"Fried": 9722,
	"ĠRID": 9723,
	"PS": 9724,
	"Wing": 9725,
	"Ġknow": 9726,
	"OWN": 9727,
	"Ġsymbols": 9728,
	"Ġgreasy": 9729,
	"Close": 9730,
	"Ġtuft": 9731,
	"Dress": 9732,
	"nes": 9733,
	"Ġattachment": 9734,
	"Ġmettalic": 9735,
	"oplane": 9736,
	"Ġhatchback": 9737,
	"urope": 9738,
	"vaila": 9739,
	"Ġswoosh": 9740,
	"\".": 9741,
	"Ġtemple": 9742,
	"Fireplace": 9743,
	"Ġvalance": 9744,
	"Leather": 9745,
	"Cabinets": 9746,
	"Blond": 9747,
	"Ġfist": 9748,
	"Ġbarriers": 9749,
	"free": 9750,
	"Ġbrushed": 9751,
	"Ġknack": 9752,
	"Ġlenses": 9753,
	"reflective": 9754,
	"Ġnecks": 9755,
	"Mug": 9756,
	"mented": 9757,
	"ESE": 9758,
	"Hole": 9759,
	"KIN": 9760,
	"Ġsponsor": 9761,
	"Ġconference": 9762,
	"Ġrooster": 9763,
	"Ġscoop": 9764,
	"rette": 9765,
	"liers": 9766,
	"ĠBABY": 9767,
	"Ġwaits": 9768,
	"wedding": 9769,
	"Ġkhak": 9770,
	"pebbles": 9771,
	"ĠLight": 9772,
	"13": 9773,
	"ASKET": 9774,
	"ARE": 9775,
	"fer": 9776,
	"oak": 9777,
	"ĠMouse": 9778,
	"Ġbrushes": 9779,
	"lay": 9780,
	"Ġretaining": 9781,
	"papaya": 9782,
	"vegetation": 9783,
	"sely": 9784,
	"ashion": 9785,
	"Ġlamin": 9786,
	"Ġbegin": 9787,
	"ĠTOWEL": 9788,
	"ĠBAN": 9789,
	"leene": 9790,
	"Ġcot": 9791,
	"Ġsweatpants": 9792,
	"Ġnews": 9793,
	"Ġpaste": 9794,
	"ina": 9795,
	"looks": 9796,
	"Ġgour": 9797,
	"Ġfixing": 9798,
	"Ġpullover": 9799,
	"quee": 9800,
	"eper": 9801,
	"cheesecake": 9802,
	"Ġskeleton": 9803,
	"leenex": 9804,
	"third": 9805,
	"Magazines": 9806,
	"ells": 9807,
	"Ġexerc": 9808,
	"Ġgau": 9809,
	"Ġparka": 9810,
	"cola": 9811,
	"Ġsandles": 9812,
	"lex": 9813,
	"clay": 9814,
	"tes": 9815,
	"Ġking": 9816,
	"ient": 9817,
	"spokes": 9818,
	"ABIN": 9819,
	"Ġprivacy": 9820,
	"Gi": 9821,
	"Ġswings": 9822,
	"Ġpinky": 9823,
	"Ġdeter": 9824,
	"ĠCPU": 9825,
	"vailable": 9826,
	"Ġvillage": 9827,
	"Ġsmelling": 9828,
	"Ġcreated": 9829,
	"Ġnicely": 9830,
	"coli": 9831,
	"chment": 9832,
	"zor": 9833,
	"Boys": 9834,
	"healthy": 9835,
	"rated": 9836,
	"Ġpavers": 9837,
	"Ġironing": 9838,
	"support": 9839,
	"Ġstreaks": 9840,
	"Ġreigns": 9841,
	"Ġspool": 9842,
	"ĠFOOD": 9843,
	"Ġbulld": 9844,
	"Ġpup": 9845,
	"structure": 9846,
	"Ġtemperature": 9847,
	"greens": 9848,
	"Ġmoose": 9849,
	"SK": 9850,
	"Ġslow": 9851,
	"Mac": 9852,
	"Ġcitrus": 9853,
	"aqua": 9854,
	"Ġmassive": 9855,
	"OON": 9856,
	"Ġsalsa": 9857,
	"ĠSM": 9858,
	"Flags": 9859,
	"Ġdete": 9860,
	"Sandy": 9861,
	"Ġkhakis": 9862,
	"terminal": 9863,
	"Ġavocados": 9864,
	"Ġmessage": 9865,
	"Safety": 9866,
	"Ġslender": 9867,
	"Ġpajama": 9868,
	"Ġpastel": 9869,
	"UMBER": 9870,
	"ometric": 9871,
	"Ġobscured": 9872,
	"Ġeyelashes": 9873,
	"Ġgazebo": 9874,
	"Ġrivet": 9875,
	"Ġdying": 9876,
	"Ġstreamers": 9877,
	"Ġhash": 9878,
	"mely": 9879,
	"Ġtarmacked": 9880,
	"Qu": 9881,
	"fabric": 9882,
	"Gla": 9883,
	"Ġdrizzled": 9884,
	"screw": 9885,
	"Ġswitched": 9886,
	"Seven": 9887,
	"Magnet": 9888,
	"Ġmy": 9889,
	"Ġkno": 9890,
	"EST": 9891,
	"Ġcreek": 9892,
	"curity": 9893,
	"Partially": 9894,
	"shopper": 9895,
	"Ġrec": 9896,
	"Ġmilkshake": 9897,
	"remely": 9898,
	"Ġshoot": 9899,
	"muddy": 9900,
	"Ġcotta": 9901,
	"BLE": 9902,
	"Navy": 9903,
	"sher": 9904,
	"Ġwinding": 9905,
	"Ġfeathered": 9906,
	"Ġglossy": 9907,
	"oomy": 9908,
	"Spinach": 9909,
	"Purse": 9910,
	"Ġgranola": 9911,
	"Ġinfront": 9912,
	"Ġnur": 9913,
	"ĠDell": 9914,
	"ĠPIE": 9915,
	"woven": 9916,
	"Ġclaim": 9917,
	"lighter": 9918,
	"Ġgroomed": 9919,
	"Ġretriever": 9920,
	"olet": 9921,
	"WOODEN": 9922,
	"pony": 9923,
	"Ġthrew": 9924,
	"Ġgull": 9925,
	"Ġuneven": 9926,
	"ague": 9927,
	"plantains": 9928,
	"Ġcathedral": 9929,
	"Ġblossoms": 9930,
	"Ġvert": 9931,
	"Ġmatches": 9932,
	"ITOR": 9933,
	"dust": 9934,
	"Ġanchored": 9935,
	"Ġslim": 9936,
	"Ġguiding": 9937,
	"Ġhutch": 9938,
	"Eld": 9939,
	"INES": 9940,
	"Ġcasing": 9941,
	"Ġmovies": 9942,
	"Ġcranberry": 9943,
	"merica": 9944,
	"hooves": 9945,
	"Ġmens": 9946,
	"Ġmotorbikes": 9947,
	"Ġorganizer": 9948,
	"Ġbowel": 9949,
	"Gas": 9950,
	"Ġgir": 9951,
	"ABINET": 9952,
	"hell": 9953,
	"dumplings": 9954,
	"Wave": 9955,
	"Wicker": 9956,
	"Menu": 9957,
	"Ġgrease": 9958,
	"ĠLAYING": 9959,
	"Ġbuild": 9960,
	"iver": 9961,
	"Ġcode": 9962,
	"Ġshells": 9963,
	"Ġfighting": 9964,
	"brow": 9965,
	"cD": 9966,
	"Ġattaching": 9967,
	"Ġintere": 9968,
	"erkraut": 9969,
	"Ġattemp": 9970,
	"Ġ24": 9971,
	"blet": 9972,
	"Ġsignpost": 9973,
	"Ġbacked": 9974,
	"Ġhou": 9975,
	"Display": 9976,
	"Ġformed": 9977,
	"nister": 9978,
	"Ġguide": 9979,
	"Ġinstruction": 9980,
	"Ġstormy": 9981,
	"ĠDe": 9982,
	"test": 9983,
	"hua": 9984,
	"vin": 9985,
	"Collar": 9986,
	"OOKING": 9987,
	"Ġmangoes": 9988,
	"izers": 9989,
	"Ġphotographs": 9990,
	"Ġcheesy": 9991,
	"Ġted": 9992,
	"Ġmuch": 9993,
	"LARGE": 9994,
	"Ġripple": 9995,
	"Ġmats": 9996,
	"Ġhiking": 9997,
	"estic": 9998,
	"Footprints": 9999
}
