#version: 0.2 - Trained by `huggingface/tokenizers`
r i
Ġ o
Ġ t
ri b
e s
r e
o n
d es
c rib
des crib
describ e
Ġ re
i on
a t
h e
e c
Ġt he
ec t
Ġo b
j ect
Ġob ject
Ġo f
l at
lat ion
Ġre lation
Ġt o
Ġre g
Ġreg ion
l e
Ġ b
Ġ s
a n
i n
Ġ w
t e
Ġ le
g h
Ġ p
gh t
Ġ c
Ġ ri
f t
Ġle ft
Ġri ght
Ġ a
Ġ h
u te
Ġ at
Ġat t
e r
rib ute
Ġatt ribute
a s
Ġ m
h i
Ġo n
o w
a r
Ġ g
in g
Ġ f
c k
o r
l l
i s
Ġh as
e n
l a
i r
Ġm an
Ġ d
e t
an d
Ġ is
i t
Ġ in
o u
o m
hi te
Ġw hite
r a
r t
a ll
Ġb o
er s
Ġ l
l d
in d
hi rt
Ġs t
Ġb u
Ġs hirt
a b
a ir
om an
r o
la ck
e d
Ġ T
a d
Ġs i
Ġt re
Ġw oman
ers on
Ġw ind
Ġ n
e a
Ġb lack
Ġp erson
Ġ A
n g
Ġwind ow
c e
as s
Ġp o
Ġ e
a l
o o
c h
Ġw all
Ġb l
ld ing
Ġd o
g e
ri ng
Ġp i
ou n
t s
l o
u e
a ck
Ġ and
ab le
Ġ he
Ġs h
o p
it h
Ġw ith
Ġtre e
Ġc ar
ea ring
Ġw earing
Ġt able
r ow
ĠT he
re en
v e
Ġc h
Ġbl ue
Ġc o
Ġs k
s e
te r
Ġ j
Ġg r
Ġ la
i lding
Ġbu ilding
Ġb e
ar d
r u
Ġ u
Ġp lat
l ass
Ġl i
Ġg reen
Ġre d
g n
Ġp e
row n
Ġch air
oo d
ll ow
d e
oun d
Ġ ro
b o
Ġh and
Ġg ir
a in
Ġc u
Ġg lass
Ġ k
a p
Ġb rown
Ġt ra
Ġdo or
Ġplat e
Ġsi gn
y e
Ġhe ad
on t
t t
i l
Ġpo le
Ġh air
i c
e l
f f
o t
op le
s t
r an
m b
at er
Ġpe ople
bo ard
u r
Ġle g
v er
Ġp an
a g
Ġbu s
Ġbo y
Ġ W
an s
Ġa re
Ġn e
Ġli ght
Ġgir l
Ġbo tt
m p
t ing
v es
Ġ B
Ġs he
ack et
Ġs c
Ġsi de
ar k
Ġj acket
' s
Ġgr ass
Ġpan ts
Ġf r
Ġf l
as e
p p
k e
Ġa r
Ġw ater
Ġp l
Ġs p
on e
Ġsk y
al k
l es
Ġle a
Ġ an
Ġw ood
Ġt ru
w er
an t
Ġ ye
Ġye llow
Ġst re
Ġb ack
Ġb ag
Ġbott le
c le
Ġstre et
Ġbo o
Ġdo g
Ġf lo
q u
Ġh or
hi s
Ġp la
Ġgr ound
Ġ S
Ġtre es
i re
Ġto p
Ġh o
Ġf en
Ġtra in
Ġg ra
p h
Ġs m
Ġsh o
ff e
Ġflo or
Ġfen ce
in k
Ġc at
Ġe ar
in e
Ġh at
Ġs n
ar ge
Ġs it
i e
Ġc lo
Ġboo k
Ġ v
Ġs u
Ġb ow
Ġfl ow
Ġf a
Ġsh or
Ġcu p
u re
Ġfr ont
d y
u t
l i
z z
Ġbow l
a m
Ġsit ting
ran ge
Ġst and
Ġc ont
t ter
Ġ P
es t
Ġc om
w o
zz a
Ġc ab
Ġpla y
he r
Ġl arge
Ġar m
c t
Ġc hi
re ll
Ġpi llow
le ph
l ou
Ġhor se
mb rell
Ġt h
Ġu mbrell
Ġpi zza
Ġ ra
Ġp h
d s
Ġbe h
Ġbeh ind
Ġo range
t h
Ġsm all
Ġt his
e at
Ġsn ow
Ġc lou
Ġcab in
y cle
l f
Ġ des
Ġb ed
Ġle tter
Ġho lding
n k
Ġcabin et
Ġf or
at e
Ġw he
Ġs o
Ġu n
Ġumbrell a
Ġla mp
Ġe ye
Ġbo x
le t
Ġb at
Ġlea ves
Ġe leph
Ġne ar
Ġwhe el
Ġb en
Ġ M
r ound
Ġf ood
Ġcom p
ute r
i f
Ġgra y
Ġc ou
Ġstand ing
Ġd is
ou se
ck s
Ġt a
a ge
Ġc oun
Ġb an
Ġco l
Ġcomp uter
Ġshor ts
p t
Ġ qu
Ġp ap
Ġj e
Ġsi l
Ġn o
ar t
Ġb i
re d
Ġsil ver
k et
Ġchi ld
Ġcol or
est ion
Ġqu estion
ans wer
l m
Ġglass es
e y
x t
Ġshe lf
Ġbe ar
Ġben ch
o g
Ġgir a
on g
Ġro ad
Ġpi ct
r es
Ġeleph ant
Ġfa ce
Ġhe lm
i m
Ġhelm et
Ġm ot
u mb
Ġje ans
Ġban an
Ġs and
Ġs a
et al
Ġla pt
Ġlapt op
Ġs w
Ġ C
d er
Ġpict ure
i de
Ġ ve
Ġdes k
Ġtru ck
Ġt wo
Ġt en
Ġpap er
as t
Ġc e
Ġmot or
w alk
Ġcoun ter
oo k
Ġph one
Ġwood en
rt ain
en e
Ġsc ene
Ġm etal
it c
Ġne xt
Ġp ark
Ġplay er
Ġgira ffe
Ġs ur
ck et
Ġpo st
Ġpo t
res s
Ġre f
at or
Ġk n
a y
Ġmotor c
Ġb ri
Ġside walk
g er
Ġcu rtain
Ġc an
Ġ z
an g
Ġc ow
y ing
Ġsho e
Ġt e
Ġp art
Ġbo at
Ġsur f
e b
ec k
Ġ G
at o
Ġd ark
Ġco at
Ġclo ck
a ke
Ġla dy
Ġclou ds
p e
n is
Ġa ir
Ġd ress
Ġno se
e p
r or
ir ror
Ġmotorc ycle
m e
Ġc ap
Ġtru nk
Ġsk ate
Ġw alk
Ġm irror
ir t
Ġcont ain
Ġta il
Ġto w
at ch
Ġflow er
Ġb all
Ġg u
Ġn umb
Ġz eb
le r
Ġd ra
Ġb ase
Ġwindow s
Ġsk i
Ġbus h
Ġm u
Ġb y
Ġ L
Ġten nis
en t
Ġcou ch
an e
Ġo ut
b all
Ġp ink
ie ld
i let
Ġb ir
Ġskate board
Ġw ri
Ġf ra
es e
ĠW hite
Ġto ilet
Ġf ield
c o
as h
te d
Ġn eck
Ġtow el
ĠM an
Ġk ey
Ġl ong
Ġs ink
Ġw ine
or m
Ġ R
ro l
Ġ it
Ġbi ke
Ġh ang
a ve
Ġa pp
Ġflow ers
Ġcontain er
re y
Ġf ri
Ġc he
p en
i d
Ġzeb ra
Ġc ake
Ġbase ball
Ġst o
Ġp ur
Ġgu y
Ġlea f
Ġl og
i ck
Ġb as
Ġsho es
Ġhang ing
g round
Ġc or
Ġf la
Ġg lo
Ġg rey
Ġleg s
Ġbanan a
ea k
re ad
Ġpl ant
o on
Ġnumb er
i te
ger ator
Ġst ri
k in
Ġref ri
Ġ I
u l
ffe e
Ġun der
Ġwalk ing
r y
Ġ ru
u ce
Ġshe ep
Ġrefri gerator
Ġcont rol
Ġbas ket
Ġbir d
g et
Ġt an
Ġfla g
Ġback ground
Ġ O
Ġco ffee
Ġkey board
p le
s h
il ing
Ġs eat
Ġt all
Ġfra me
Ġc le
ro om
Ġpe pp
e e
Ġbook s
if e
Ġv ase
im al
oo t
Ġt ire
Ġfor k
s hirt
Ġto m
Ġtom ato
w ay
Ġu p
ea ch
Ġ F
Ġkn ife
Ġan imal
g g
Ġp ain
Ġw or
Ġra cket
Ġsc reen
w i
Ġlog o
Ġh ouse
Ġ D
le d
le v
ap kin
Ġf oot
ow n
ad e
om e
ast ic
Ġcar ro
Ġa bo
Ġabo ve
Ġn apkin
Ġdis h
Ġf ire
ru it
p ack
is ion
Ġ y
lev ision
Ġd irt
Ġm on
Ġs te
Ġback pack
Ġb read
Ġd on
Ġw atch
Ġbo ard
Ġd ri
Ġt r
v en
Ġo pen
Ġ H
Ġte levision
Ġche ese
Ġsw e
Ġro ck
a k
Ġpl astic
Ġf ruit
Ġbat h
Ġve get
Ġst ick
Ġb ro
Ġtra y
Ġpark ed
Ġo ver
it or
Ġro o
wi ch
Ġswe ater
l ect
lo red
d ing
ĠB lack
Ġt ie
Ġd own
Ġth at
ou th
Ġmon itor
Ġce ll
i ll
a re
ran ch
if orm
Ġun iform
Ġg o
Ġsto ve
Ġroo f
Ġsand wich
Ġpepp er
i ce
Ġstri p
Ġbe l
Ġm outh
Ġb ranch
Ġcle ar
Ġc and
Ġbl an
Ġsu it
Ġwri st
a c
Ġsurf board
Ġtr ash
Ġve hi
Ġb ic
Ġblan ket
Ġk ite
Ġst ra
Ġo ven
c co
Ġ round
Ġ en
Ġm ouse
u c
cco li
m ent
Ġapp le
Ġl ook
Ġsp oon
re e
itc he
Ġb each
Ġfr om
i ght
Ġ Y
Ġbro ccoli
itche n
ff ic
Ġco lored
t ain
Ġk itchen
Ġpi ec
Ġthe re
Ġclo th
Ġm en
s ide
Ġair p
n er
s b
am e
Ġco ve
Ġm oun
Ġglo ve
Ġy ou
Ġtra ffic
Ġf ing
Ġbic ycle
s s
Ġc on
ĠW h
n s
sb ee
ĠT wo
Ġro om
Ġf e
ow er
t le
Ġli d
Ġbanan as
Ġvehi cle
Ġshor t
Ġc am
Ġdra wer
Ġt i
u ts
d ge
Ġhand s
Ġbu n
Ġv an
al m
Ġletter s
Ġp a
ar s
Ġhand le
u ff
p la
y es
m o
an ts
at ion
ran t
Ġ N
Ġh ot
Ġe yes
Ġfri sbee
Ġcam er
l ane
Ġdon ut
Ġpl ane
v ing
ĠT his
Ġcamer a
Ġo r
Ġh ill
Ġto wer
ab y
hi e
Ġmoun tain
Ġar ound
Ġpur ple
Ġm ic
Ġpiec e
Ġf ur
ĠW oman
Ġairp lane
Ġph ot
ĠWh at
mo te
at ing
in es
Ġf o
hie ld
ad ow
Ġcarro t
b er
Ġre mote
Ġsu itc
Ġb aby
Ġcar s
Ġri ding
Ġstra w
Ġlook ing
ed dy
Ġyou ng
li ce
Ġbri ck
ri c
t y
Ġm ade
ĠT H
Ġsa uce
Ġcand le
u ll
Ġon ion
ll ar
Ġl it
Ġplay ing
ro ss
ri n
Ġt eddy
s hield
Ġm eat
an ce
Ġh is
Ġl ine
Ġ ed
ab les
c her
ĠR ed
Ġclou d
Ġc ook
Ġof f
Ġbath room
u s
Ġwind shield
Ġsuitc ase
Ġcor d
ou p
he d
Ġce iling
Ġfing er
Ġcontrol ler
l y
u m
uc et
Ġp at
Ġpur se
Ġtra cks
Ġfa ucet
Ġcove red
Ġchair s
Ġru g
row ave
y d
Ġm a
Ġcat cher
f a
Ġh yd
Ġed ge
Ġ ves
Ġs e
Ġp alm
p s
Ġmic rowave
Ġhyd rant
Ġco llar
re n
Ġw a
Ġl u
Ġlight s
Ġso fa
Ġsh adow
Ġphot o
Ġsp eak
d le
i g
Ġg ame
Ġves t
ĠB l
Ġstrip ed
Ġref lect
Ġwheel s
Ġs le
Ġst one
Ġin side
u b
Ġw ire
Ġw e
ĠTH E
Ġcurtain s
Ġdoor s
Ġc one
Ġt ag
Ġp en
ld er
ĠG reen
s es
Ġfe et
Ġst uff
Ġpot ato
ĠS m
Ġw et
Ġhe r
Ġb ar
Ġro cks
Ġd u
Ġmu g
Ġs qu
Ġbush es
Ġp ad
Ġst op
Ġdri nk
ou gh
Ġcar t
Ġbuilding s
Ġp air
Ġd ec
Ġpark ing
b le
Ġj u
Ġcabinet s
ce an
Ġth ree
Ġa l
Ġdis t
p et
l ic
ĠSm all
Ġsk irt
Ġsnow board
ĠI s
Ġs ome
Ġo cean
i ve
Ġpillow s
Ġw ing
Ġstuff ed
Ġcar pet
ĠBl ue
Ġveget ables
Ġj ar
Ġbl ind
Ġgo ld
is s
Ġbat ter
ar f
s ed
Ġdec or
mp ty
Ġsc arf
Ġspeak er
Ġski er
ou r
v ed
ĠP erson
Ġpa w
Ġri ng
Ġe ating
te n
Ġdist ance
i gn
Ġbel ow
Ġe gg
Ġw i
Ġstick er
Ġb ra
Ġlit tle
ri es
Ġp ro
Ġle tt
on d
I N
gg age
Ġveget able
Ġsn eak
ĠA n
Ġpo s
Ġlett uce
ir es
Ġbel t
Ġlu ggage
Ġm o
or t
Ġc ru
ns il
Ġbott om
Ġb es
Ġsu n
Ġso ck
lass es
Ġ E
ĠN o
Ġc ross
Ġto y
Ġ ute
Ġe mpty
Ġch ain
Ġear s
s p
Ġute nsil
Ġl ines
ers ey
Ġcu r
Ġbes ide
en se
Ġj ersey
Ġsk is
Ġla b
Ġcloth es
p es
r on
Ġbott les
Ġbu r
Ġla ying
f orm
tt on
Ġ im
Ġblind s
Ġdra w
ru sh
u it
or s
b and
Ġp ast
c les
Ġli c
s er
Ġtan k
ur n
Ġlab el
Ġo ld
ĠB rown
Ġsneak ers
Ġim age
mp ire
Ġsp ect
o ts
Ġare a
Ġ r
Ġshe et
les s
il es
Ġpain ted
Ġdoor way
Ġlic ense
Ġbri ght
Ġman e
Ġsle e
Ġro pe
Ġso cks
Ġcou rt
r ying
Ġa p
Ġst at
c re
li ght
Ġc re
pp ing
Ġon e
Ġdis pla
Ġf ull
Ġst air
Ġgr oup
la ce
Ġglo ves
Ġbranch es
Ġspect ator
Ġs lice
Ġn ight
ak er
Ġcarro ts
Ġsh in
Ġt iles
la d
Ġk et
Ġcar rying
Ġo uts
Ġpl ants
cre te
om en
Ġu mpire
f ul
Ġbooks he
Ġfl ying
Ġdispla y
s uit
Ġti le
ĠY es
Ġbra ce
Ġstat ue
it y
Ġbe er
Ġd e
Ġp ass
Ġt ri
Ġsa lad
Ġout let
is h
Ġout f
Ġbi g
Ġboo ts
ĠI S
n ing
Ġsh ower
Ġli qu
Ġf ro
Ġw omen
ĠL arge
Ġcon crete
A N
Ġc r
Ġl ot
Ġbu tton
Ġst ack
ect ion
Ġouts ide
Ġpain ting
Ġo li
Ġs lic
Ġoutf it
Ġbookshe lf
Ġg ate
tt ing
Ġcre am
Ġbo ot
Ġwor d
Ġplat es
lat e
Ġstraw ber
Ġcor ner
g es
on y
on es
Ġten t
t o
Ġt ab
Ġneck lace
Ġhead board
m ed
c ase
Ġplat form
Ġliqu id
o l
Ġsqu are
pla ce
Ġbu cket
Ġru n
Ġp u
on i
Ġl ying
Ġwatch ing
Ġt ea
Ġg ar
Ġfire place
Ġcou ple
Ġdes ign
lo th
Ġpass en
Ġcolor ful
ul ar
Ġd i
Ġbri dge
ĠB o
Ġpi pe
Ġpain t
ng lasses
Ġl o
Ġm ark
it ch
Ġbrace let
hi ch
d o
Ġshe l
Ġhor ses
Ġa g
Ġta k
Ġen d
Ġp ine
og g
ĠT h
Ġsto re
ĠS t
at her
Ġw ires
ĠY e
Ġnumb ers
u p
Ġcu tting
Ġp rin
ĠYe llow
l ec
Ġar row
Ġsp ots
Ġap ron
d i
i ge
lec loth
Ġm at
Ġe lect
Ġreflect ion
c c
Ġtab lecloth
Ġcru st
Ġp atch
Ġm id
Ġto pping
Ġag ain
Ġn et
st and
Ġa d
ou t
Ġpo cket
Ġeleph ants
Ġro ll
Ġsu nglasses
Ġwi i
ot h
IN G
Ġso ap
Ġagain st
ogg les
E R
Ġ row
a ch
sh room
itc her
oo l
Ġsm iling
Ġf an
ave ment
a z
al f
Ġal ong
Ġtowel s
st ing
Ġm e
pp ed
Ġt urn
Ġg oggles
ck en
o co
Ġclo sed
ĠP e
Ġp avement
ĠThe re
Ġwe ars
Ġstrip es
Ġwri ting
Ġmu shroom
oco late
Ġb al
Ġpepper oni
a u
te rt
t her
Ġs et
Ġra il
a ce
ve l
Ġp itcher
ter n
tert op
Ġpl an
Ġapp les
Ġpla ce
Ġcoun tertop
Ġarm s
le n
Ġchi cken
Ġto oth
Ġm as
A R
Ġd in
Ġsh ade
Ġtomato es
Ġpos ter
i p
Ġfro sting
Ġbe ige
Ġwor ds
row ing
d a
et h
ĠO N
Ġnight stand
w e
Ġh ome
Ġo ther
ac hed
Ġ ver
t ub
ff es
o b
Ġchild ren
Ġbath tub
Ġf our
Ġatt ached
Ġsp ot
Ġle ather
Ġsw eat
Ġbe ard
Ġch ocolate
ran ges
Ġstair s
Ġb and
Ġsand al
Ġbun ch
Ġgira ffes
Ġg ri
Ġsw itch
m on
t i
Ġt v
Ġsurf er
Ġstri pe
ĠA re
Ġth ese
Ġbo dy
Ġpap ers
Ġcar ri
Ġe x
Ġso da
Ġste el
Ġc ity
ap er
ĠD o
R E
x i
Ġst ation
u n
Ġdraw ers
Ġf il
ver al
ĠPe ople
Ġcup board
Ġo ranges
I T
Ġcow s
Ġwor n
Ġanimal s
Ġcar d
Ġbi k
Ġfri es
Ġbri cks
ter s
Ġv is
Ġshel ves
Ġmu st
Ġta xi
leph one
Ġsk in
op p
Ġbag s
Ġpassen ger
Ġcu c
Ġcuc umb
al t
Ġb are
r ough
Ġclou dy
Ġbe ing
Ġelect ric
Ġdress er
Ġdon uts
cc er
ĠS il
Ġth rough
Ġc ir
row d
Ġle mon
Ġbal c
Ġpat tern
ĠSil ver
Ġmid dle
on de
ie w
Ġmas k
an ing
i gh
Ġdecor ation
Ġst ar
Ġte lephone
ph one
y cles
r as
a il
Ġshin y
Ġf ig
Ġw ave
Ġfil led
Ġfra med
Ġcove ring
Ġla d
Ġfri dge
Ġso ccer
Ġc rowd
Ġh ave
Ġ K
Ġho lder
as her
Ġbu tter
ĠL ight
Ġbalc ony
Ġwet suit
Ġhor n
Ġumbrell as
Ġin to
Ġear ring
ap e
Ġcup c
it i
Ġskateboard er
Ġslee ve
ed s
c ing
Ġpat h
Ġpo lice
Ġcarri age
Ġkn ob
Ġver y
Ġsweat shirt
Ġre ad
ra y
Ġlad der
Ġonion s
ag az
Ġmountain s
Ġcup s
Ġzeb ras
Ġpo in
Ġstrawber ry
Ġc en
Ġra ck
Ġcu t
Ġju ice
Ġsu v
Ġco ver
Ġbl onde
ric an
ĠS h
Ġle aning
Ġdecor at
Ġbur ner
Ġp ower
Ġdish w
Ġa s
Ġto as
Ġst ain
is t
t te
Ġg rowing
gn et
ar m
C K
Ġ Ġ
des t
her s
Ġcen ter
Ġs ea
Ġv iew
m an
Ġd ay
Ġb et
Ġs y
Ġdishw asher
ff iti
we en
b e
Ġt hi
Ġoli ve
Ġbox es
Ġpotato es
Ġm agaz
Ġk it
ĠTh ree
Ġr est
Ġwrist band
Ġri ce
Ġbet ween
Ġma gnet
Ġsurf ace
ĠW ood
Ġplay ers
Ġpepp ers
Ġd ough
Ġgo at
L A
Ġb rush
Ġout do
Ġcook ed
Ġcom f
Ġfing ers
Ġf lat
ou s
Ġpe dest
me rican
Ġdis pen
Ġen g
Ġ ice
Ġpo les
Ġmu l
ĠO n
Ġste ps
ang ular
Ġt ong
b rush
ĠG ir
Ġgra ffiti
c hed
Ġse veral
o ck
Ġd ry
Ġbl ond
o le
L E
Ġdog s
Ġpi le
Ġsho re
l b
i ble
Ġslic ed
Ġsa uc
i es
Ġb eak
Ġdri ving
Ġwa ves
Ġrun ning
Ġhead light
Ġh alf
Ġpi ck
Ġsa us
Ġn ot
Ġte eth
Ġwall s
len der
Ġ "
m s
Ġre ct
Ġket tle
Ġk id
Ġsc oo
Ġcr ate
ĠP i
Ġs ection
Ġa c
Ġbir ds
Ġme ter
Ġtra ck
or ter
n it
Ġdispen ser
Ġsc iss
Ġsa il
Ġdirt y
ri nk
Ġm ar
Ġa rt
Ġtooth brush
Ġutensil s
Ġman y
Ġ V
Ġsauc er
Ġfur nit
Ġhor ns
Ġfurnit ure
Ġpla id
Ġra iling
Ġcucumb er
Ġth in
Ġcomf orter
Ġsh aker
Ġh igh
Ġ ite
ch up
Ġd eck
Ġb lender
Ġdu ck
ĠP art
Ġwor k
Ġbear s
ĠO F
Ġf i
Ġli ving
b age
ou ble
Ġbook case
y s
Ġ res
Ġpedest ri
Ġbo th
Ġri ver
Ġma ch
e f
Ġtri m
Ġ ic
Ġt iss
v y
ĠW ind
Ġp ack
v ice
Ġsciss ors
ĠC h
Ġgra pe
Ġboy s
Ġju mp
Ġh a
Ġwalk way
Ġket chup
Ġvis ible
ap ed
Ġdo ck
Ġac ross
Ġsaus age
it ing
eat h
Ġball oon
ĠO range
Ġboat s
Ġkn ee
s ing
Ġs er
Ġplan ter
Ġm il
Ġgri ll
Ġh ood
Ġtak en
Ġmach ine
Ġn ame
ĠW hich
Ġw ra
Ġf eat
Ġra di
ing s
n y
Ġeng ine
O W
Ġdo ll
Ġ U
Ġthi ck
ide o
Ġp or
Ġsign s
ch ing
Ġc ase
Ġhead band
Ġcupc ake
ĠH e
Ġh ard
Ġski ing
Ġp in
Ġgirl s
Ġne w
Ġth umb
is e
Ġflag s
A T
Ġpo l
Ġs alt
Ġscoo ter
o ke
Ġb ea
es s
Ġst u
i ler
Ġsp rink
Ġv ideo
Ġgra vel
E N
Ġd ouble
et y
in i
ph ones
op y
ac on
w are
Ġgrass y
Ġj et
Ġde vice
Ġtoas ter
Ġw h
im e
Ġs oup
n ey
f e
Ġk ind
Ġto get
Ġtoget her
Ġsw im
e red
ĠS k
Ġdri ver
ĠWind ow
Ġb acon
Ġ ent
Ġt ub
Ġbl ouse
i x
pp le
i ke
rol ler
Ġtra iler
i cks
Ġdecorat ive
Ġre ar
m ney
Ġra in
I R
ĠBo y
Ġgra pes
Ġst roller
ge on
Ġit s
ĠT V
Ġm aker
pp er
Ġpi geon
xt ure
Ġrect angular
Ġdes ser
or k
Ġc oo
i er
m at
Ġturn ed
Ġf ish
ow ing
ou ng
uff y
Ġt alk
re es
Ġchi mney
at ed
Ġwa iting
ou lder
Ġsw ing
Ġstain less
Ġcoo ler
el on
Ġt in
Ġsh aped
Ġho ld
Ġle tte
E D
t ten
Ġcan opy
lo pe
t op
ur es
Ġmagaz ine
z ing
Ġc able
Ġcand les
Ġpast ry
e ar
Ġdin ing
Ġmil k
Ġan y
Ġce ment
Ġsandal s
Ġche ck
ĠW H
Ġlette ring
Ġno te
Ġic ing
Ġegg s
g ar
Ġpiec es
ĠWood en
Ġtalk ing
Ġtopping s
f ety
Ġplace mat
m bo
Ġa merican
Ġmust ard
p y
Ġu sing
Ġch ar
Ġa ll
Ġfo re
Ġp ar
Ġdough n
d ed
am ic
Ġslic es
a le
ĠT rees
at u
mbo l
Ġdrink ing
Ġfruit s
es h
Ġc er
Ġ 2
Ġstack ed
Ġfo ld
la z
Ġsy mbol
o s
Ġcle an
au rant
c es
Ġpan el
Ġvehi cles
Ġwri tten
Ġgra zing
Ġk i
Ġsa fety
Ġspectator s
Ġh u
a mp
Ġmul ti
IT E
Ġc ra
Ġoff ice
Ġcor ds
Ġto u
Ġbar ri
Ġste p
Ġdesser t
O R
Ġw hi
ĠC at
ea l
Ġoli ves
Ġti led
Ġrest aurant
Ġwe eds
Ġcer amic
ĠGir l
or al
Ġsprink les
Ġmen u
Ġman s
it ar
Ġtiss ue
Ġfeat hers
Ġfor est
qu et
Ġsu gar
rin e
og ra
Ġcur b
Ġsm oke
ep ing
Ġsh op
Ġbik es
Ġsurf ing
ĠWH ITE
Ġhead phones
ak es
Ġbarri er
Ġl and
Ġh ay
ag on
Ġp ort
sp aper
i an
ĠG r
Ġl in
Ġbe ver
ĠD ark
O N
sh ion
Ġmotorc ycles
Ġres ting
Ġpolice man
ran ce
Ġbu ll
m ing
Ġfl ip
ĠI N
Ġsilver ware
Ġp ull
ren t
ver t
Ġoff ic
Ġdish es
Ġslee ved
Ġoutdo ors
as es
c l
Ġw as
Ġbe ll
en ts
Ġste m
Ġra mp
Ġsh oulder
Ġh it
Ġcu shion
Ġtak ing
ash ing
I S
Ġm ix
Ġcook ing
l and
L L
ru ct
Ġnew spaper
Ġc alm
Ġfl oral
Ġhe art
ĠB u
Ġpl u
ut if
Ġt ape
d d
Ġnapkin s
ot her
Ġleaf y
it ion
Ġent rance
p el
Ġtong ue
Ġ each
Ġcom ing
Ġcook ie
Ġstrawber ries
b ag
Ġcontain ers
Ġsnowboard er
Ġsa ys
utif ul
Ġfi xture
Ġphot ogra
Ġla ke
Ġfig u
ffe rent
Ġbe ans
atu la
Ġcir cle
ap py
Ġstra p
Ġcor n
Ġswing ing
N D
Ġsle eping
Ġsu pp
Ġsp atula
Ġw hich
Ġfold ed
r ont
p ed
Ġcross ing
b ook
f l
E S
ak ing
Ġbever age
he ad
w n
Ġdra in
Ġprin t
ĠH and
Ġst ool
ĠY oung
Ġ 1
Ġh am
Ġs ee
Ġcard board
s c
Ġen te
Ġb er
i le
p er
ĠWh o
Ġlook s
Ġp re
Ġbowl s
w ard
Ġdress ed
Ġmoun ted
Ġsur round
Ġdi fferent
Ġdra pes
Ġst y
A S
ĠT ra
n ic
ĠT all
ri st
ĠG ray
pel ler
Ġpad dle
Ġpu mp
Ġad vert
n a
Ġbl ock
Ġu sed
Ġsp in
sp read
Ġpi c
Ġthe ir
Ġst ring
Ġpa ved
Ġh appy
Ġt ables
Ġpo ts
Ġc a
d og
ren ch
Ġb a
Ġbed spread
Ġpin ea
ke y
a ri
Ġhe ld
Ġh ook
ĠB ig
Ġg as
Ġbea utiful
Ġfa cing
ul t
Ġbl ur
ic es
Ġsit s
Ġc her
Ġpro peller
Ġs hi
Ġcon d
ĠM AN
Ġbu lb
ĠL e
Ġjump ing
Ġcloth ing
Ġshin ing
Ġm eal
Ġsheet s
Ġpic nic
Ġoffic er
ir on
le y
Ġcross walk
Ġl ink
Ġelectric al
Ġbu t
b b
rtain ment
Ġsh opp
Ġho se
E AR
Ġ J
Ġplat ter
Ġkit es
Ġla mb
i al
Ġcur ved
ĠS n
Ġsign al
Ġhand les
Ġb re
Ġt ires
ĠHe ad
in s
Ġspin ach
Ġm ini
Ġshirt s
ĠM etal
Ġbed room
Ġcand y
Ġente rtainment
Ġli ke
E T
ac he
Ġfl uffy
Ġpedestri an
ou ses
Ġor n
O U
Ġpi e
Ġ iron
Ġstand s
b s
Ġmic ro
Ġdoughn ut
Ġhand bag
Ġairp ort
Ġbutton s
Ġli fe
Ġrun way
Ġbik er
w ork
Ġwater m
pp les
Ġgu itar
o c
Ġc age
t ic
b ber
Ġc l
pp y
Ġfr esh
Ġser ving
ic t
Ġradi ator
i o
te l
il y
ĠB ri
Ġpast a
ĠD og
Ġpaw s
Ġse en
ĠW i
Ġclo s
Ġfo lding
Ġcat s
Ġblue ber
n t
Ġhot dog
Ġro se
ĠP ink
Ġt y
ĠSn ow
ĠS T
Ġan other
Ġite ms
en ce
ĠS H
Ġapp li
Ġcheck ered
Ġm it
Ġw agon
Ġlo c
Ġmicro phone
Ġstick ing
Ġst ones
Ġfigu rine
Ġban ner
Ġbench es
Ġcell phone
Ġco ck
Ġpol ar
oun tain
Ġma le
tt oman
Ġfig ure
Ġh ouses
Ġgar age
Ġgo ing
Ġn ood
ĠP ict
Ġo ttoman
O M
ĠS p
Ġla wn
Ġhold s
Ġmust ache
ĠOn e
Ġh oo
all y
Ġp ony
Ġwra pped
c il
Ġpro d
ĠWi i
c ed
um in
Ġwaterm elon
Ġcan is
Ġho le
c ular
c lo
l led
Ġsp ices
ch air
Ġread ing
Ġla p
p it
Ġunder n
Ġst or
Ġc la
Ġshi p
ĠSh adow
Ġst icks
Ġundern eath
bo y
Ġmu d
Ġri pe
Ġnote book
ĠL ong
Ġclo se
y cl
Ġskateboard ing
ick er
Ġco lou
re al
Ġdu g
Ġpattern ed
Ġshopp ing
Ġpull ing
w ood
Ġw ide
Ġli ft
Ġad ult
Ġe at
Ġp er
i ves
Ġra is
ri z
an a
LA CK
q ue
Ġfe ed
ire d
ĠB LACK
Ġc li
Ġw ay
bo at
Ġcra ck
Ġce real
Ġtrunk s
ur ch
g ers
Ġdin ner
Ġte e
Ġcock pit
Ġa w
i um
fl ower
Ġ i
Ġcow boy
e ring
Ġsqu ash
Ġf rench
Ġtow ard
Ġappli ance
Ġb in
Ġb r
o d
Ġsh owing
g s
Ġli ps
Ġch urch
Ġpict ures
ĠP l
Ġnood les
Ġen clo
ĠC hi
ĠG lass
Ġblur ry
ĠDo es
Ġgold en
Ġcolou r
a ring
Ġy ard
ad ing
Ġc ans
Ġs li
Ġche f
Ġfo il
Ġprin ter
Ġs lope
Ġpro t
Ġru bber
Ġpinea pple
his k
Ġ Z
Ġcab bage
Ġto ast
Ġm ound
Ġsp l
Ġb ou
Ġbic ycles
al s
Ġhill side
Ġart work
Ġpat io
Ġport ion
m ale
Ġwing s
Ġpen cil
Ġdug out
Ġg et
ĠB ase
Ġgar bage
ct ion
Ġben t
Ġcon es
ro ad
Ġsi z
Ġsand y
Ġcir cular
Ġdo ing
Ġread y
us k
ĠF our
Ġp ow
p ad
st y
ĠPict ure
ler y
Ġcher ry
Ġch opp
Ġm atch
Ġlo ck
a vy
Ġa b
Ġwa ist
Ġpo lo
ĠT urn
Ġkn ives
ĠW ater
d ers
Ġmu ff
r ome
dd ler
Ġc ast
Ġto ol
Ġs ec
Ġti p
Ġin ters
Ġt ur
ab ric
Ġw hisk
Ġst ruct
Ġreflect ed
n e
Ġmot her
Ġm ed
Ġ 3
Ġfa m
Ġc ro
ĠS ign
Ġite m
Ġcru mb
Ġd v
d ay
Ġsc ul
Ġf abric
ĠW EAR
Ġ rib
Ġinters ection
Ġti ed
te red
Ġmushroom s
ĠF ront
ĠS ome
ĠWEAR ING
Ġhill s
ĠS he
l ine
lb ow
Ġdraw ing
Ġa v
la in
Ġfam ily
Ġth row
Ġreflect ing
ĠF ri
ĠG rey
Ġmar oon
Ġclos et
Ġswim ming
om ot
Ġsty le
Ġw icker
Ġc al
Ġball s
Ġg i
Ġsnow y
Ġpo ol
an o
v ers
Ġcu be
Ġpassen gers
Ġbus es
Ġscul pt
Ġaw ning
Ġben eath
at es
ak ed
el ted
Ġcur ly
it al
Ġstair case
o k
Ġbar n
Ġto ddler
Ġp each
Ġdeck er
Ġis land
m as
ĠS U
ĠBo tt
Ġe lbow
ag es
Ġan ten
Ġpoin ting
ĠC ar
Ġce lery
ĠB ack
ind er
Ġch in
ĠBase ball
Ġri m
Ġsp ice
ise ment
Ġsail boat
Ġpor ce
O O
l ing
Ġrail road
Ġsk ater
age l
Ġfore ground
ycl ist
ĠF l
w atch
Ġkn e
Ġri der
Ġfe male
um er
u me
Ġt ime
Ġsculpt ure
Ġho riz
Ġstick ers
Ġprod uce
Ġb agel
Ġdo t
Ġmit t
Ġstruct ure
Ġt usk
s ure
Ġch rome
Ġporce lain
Ġha ired
Ġg laz
Ġwrist watch
Ġdu ring
rist mas
Ġpor ch
Ġd el
Ġhard wood
Ġco st
Ġh um
Ġcook ies
Ġband ana
ang le
Ġat h
Ġpan c
Ġc au
t ime
Ġz oo
Ġenclo sure
Ġw in
le ts
Ġc ran
g lasses
ĠL it
Ġcon n
Ġb or
m er
ĠR ef
Ġtin y
ri mp
Ġprin ted
Ġpedestri ans
Ġli me
Ġp acket
Ġb le
Ġhe re
Ġw ool
Ġp ul
Ġknob s
ĠT en
p aper
o e
I G
Ġpump kin
Ġch est
ĠGr ass
Ġs om
Ġpoin ty
Ġho tel
Ġchar ac
Ġm elted
Ġanten na
oc ad
Ġmagnet s
Ġpad s
Ġtou ching
eth ing
Ġh all
omot ive
s ted
Ġw ed
Ġdrink s
Ġde ad
Ġw al
Ġo lder
Ġoutdo or
Ġch op
ĠI t
Ġheadlight s
th day
Ġtong s
g o
Ġc ig
ĠTen nis
and el
Ġab out
h ak
Ġcost ume
Ġloc omotive
Ġsh rimp
Ġhe dge
ĠBu ilding
ar p
Ġrib b
Ġsandwich es
Ġav ocad
Ġbas il
Ġconn ect
Ġthe m
ĠT ree
Ġpul led
Ġmark et
ĠC o
bo x
Ġlamp s
Ġfri ed
oo se
Ġn umer
st ri
Ġmark er
Ġspeak ers
Ġcab les
ĠPi zza
Ġki ds
Ġsom ething
Ġc alf
Ġwall paper
Ġtrain s
ĠC le
Ġwri nk
R A
Ġl ow
n ch
ĠFri sbee
ĠS e
Ġadvert isement
Ġpi ll
ĠR o
Ġphotogra ph
Ġfe w
Ġhit ting
Ġmat t
A D
Ġbre ak
Ġpack age
j o
Ġsp ray
Ġv ent
Ġble ac
Ġra c
Ġin do
ĠP h
Ġpen s
Ġk hak
Ġshadow s
Ġday time
Ġribb on
ĠH or
u rt
Ġkit ten
ĠW he
el s
Ġstu d
Ġopen ed
ĠA ND
li flower
Ġt ran
ad ed
Ġsh ru
Ġm ap
Ġba ld
il t
Ġo il
Ġt wi
Ġeye glasses
Ġmatt ress
Ġdecoration s
z er
i ous
I C
ĠF ood
Ġmotor b
Ġcontroller s
Ġcanis ter
Ġpi ano
Ġradi o
Ġwin ter
ĠTH IS
Ġcau liflower
l an
Ġwhi le
Ġen jo
ĠC lo
Ġfo am
oo th
Ġpast ure
Ġcond ition
Ġd ire
Ġhu ge
Ġste ering
n ed
Ġkey s
Ġup side
Ġwhisk ers
ing le
ron ic
Ġbleac hers
O T
o ld
Ġm et
kin i
Ġbir thday
Ġpos ing
ĠT o
Ġhat s
Ġbi kini
andel ier
Ġski es
Ġsh a
ĠLit tle
Ġhood ie
Ġwi ld
ĠB L
ĠZ eb
O P
s ter
Ġtoy s
ĠChi ld
Ġorn am
ur ger
Ġap art
ĠWindow s
Ġhum an
Ġgu ard
Ġhall way
u es
st om
Ġover head
Ġarm chair
Ġtooth p
ct or
ĠRef lect
Ġmix er
Ġse eds
Ġtri ck
Ġcr ou
Ġtable t
Ġty pe
g reen
Ġkhak i
it her
Ġenjo ying
L D
i ally
c ast
Ġavocad o
Ġmo ss
Ġte xt
Ġf ar
ĠT A
Ġb inder
Ġbou quet
Ġguy s
Ġar ched
Ġseat ed
Ġsun ny
Ġcol um
Ġro be
Ġe ither
Ġf ountain
n el
re et
Ġpast ries
Ġb aked
Ġget ting
Ġrais ed
y er
o st
Ġch andelier
Ġcu stom
k en
Ġste am
Ġmuff in
Ġcig are
g ed
el ing
Ġprot ect
Ġsu b
ĠĠ ĠĠ
ĠGir a
Ġchi ps
Ġfur ry
Ġin d
Ġmotorb ike
Ġchop st
Ġpill ars
oo ring
ow ers
ĠA RE
ph alt
Ġpu ppy
Ġrock y
at t
Ġk e
Ġl ots
Ġmo ving
Ġal arm
Ġg am
Ġpe ar
Ġelect ronic
Ġmar ble
Ġd en
Ġcrumb s
Ġa u
Ġs ad
Ġf ive
t ail
Ġber ries
Ġ ip
Ġpi pes
ec e
Ġsnow suit
Ġu rin
Ġcolor s
v an
Ġcon s
Ġfl ooring
as p
Ġs ame
Ġv ari
e led
Ġbe ef
Ġtea m
e ll
Ġbur ger
Ġa way
or d
Ġmagaz ines
Ġwhe re
Ġrac quet
Ġsupp ort
Ġpla in
Ġover cast
ĠCle ar
Ġbutter f
Ġe ver
Ġstra ight
Ġsh ape
ĠTra in
an y
Ġflo ating
Ġr oman
Ġpu d
f ast
AN D
Ġri pples
ines s
Ġon to
A CK
ch ool
Ġspot ted
Ġ 4
Ġb laz
Ġh ar
ĠReflect ion
Ġas phalt
ĠTh ese
Ġg ear
Ġsec ond
Ġ range
Ġroll ing
ĠB ook
Ġt arm
Ġso ft
Ġb la
U E
ne qu
Ġp ond
Ġcran e
Ġth rowing
Ġb ars
Ġma il
Ġlin ed
j am
ĠC om
Ġdu mp
Ġtoward s
C H
Ġle ash
Ġcan oe
ic ious
Ġcucumb ers
Ġmo st
er y
ĠSt reet
v al
Ġpart ially
p her
ĠR ight
Ġblueber ry
let ic
Ġv ases
Ġflo ps
Ġsp read
Ġdesk top
g ull
Ġco ll
Ġwork er
Ġher d
ĠLe ft
Ġlaptop s
Ġip od
and a
Ġs lat
Ġpa jam
Ġru sty
Ġman nequ
ĠA merican
Ġblaz er
Ġpot ted
Ġden im
Ġt er
ĠR ED
Ġli p
Ġber ry
ard en
Ġc yclist
Ġs chool
A L
A LL
Ġbor der
ĠGr oup
Ġex ten
Ġdecorat ed
Ġbl o
Ġpos ts
Ġwork ing
Ġath letic
Ġpre p
ĠB R
all ic
te ri
ach ing
or ts
Ġcomputer s
ĠBL UE
Ġsome one
Ġbreak fast
ĠE leph
Ġwith out
ĠR ound
ĠB ir
Ġcupc akes
b y
Ġlu nch
f o
Ġn ail
Ġle ading
Ġfor ward
Ġben ding
Ġg l
co lored
Ġbe en
ER S
ĠP ur
ĠI n
Ġdi am
ĠB e
att oo
ar y
Ġf all
Ġt un
Ġg arden
Ġje ep
Ġseat s
at s
Ġsea gull
Ġcondition er
ĠSU V
Ġtra vel
ĠPh ot
Ġhe ater
ĠZeb ra
m es
mb urger
sp ar
Ġdry er
Ġpick les
Ġlemon s
ĠGira ffe
Ġbus iness
ĠT an
gg ed
Ġde ep
Ġf ree
al ler
Ġearring s
c ial
c ra
ĠB U
ar row
c y
ag us
Ġdel icious
ra l
ĠO pen
Ġcons ole
Ġbro ken
Ġn uts
Ġau di
Ġpi llar
Ġm aking
Ġwal let
Ġpud dle
spar agus
Ġchopp ed
Ġcigare tte
Ġsurround ing
Ġsp on
Ġperson s
I D
Ġp anda
Ġs ingle
ĠG RE
Ġfen cing
bb les
Ġtarm ac
A IR
Ġhelmet s
Ġcharac ter
rell a
ĠT op
Ġa sparagus
Ġurin al
ĠSe veral
Ġornam ent
mp er
Ġdri ve
Ġp ut
Ġspoon s
Ġpla ced
ĠS and
Ġle dge
Ġsn ack
p ing
ĠA pple
Ġcart on
Ġha mburger
Ġe mb
ig ital
Ġpajam as
Ġj ars
Ġhoo f
Ġbr and
in t
one y
Ġsk ating
Ġmet allic
Ġdiam ond
Ġsm ooth
Ġbutterf ly
Ġmannequ in
IR T
ir st
B LE
Ġm elon
Ġro ses
Ġpi zz
Ġwed ding
Ġd ome
Ġgam es
Ġdire ction
ĠP LA
ĠL amp
as te
umin um
Ġne on
Ġph ones
Ġpony tail
Ġwood s
is her
de red
Ġmini van
Ġcross ed
Ġphotogra pher
ĠHor se
e ars
Ġsa le
ĠW all
Ġswim suit
Ġdra pe
Ġsurround ed
Ġsu s
Ġsw an
ĠMan y
Ġst ars
ĠP la
Ġaudi ence
Ġskin ny
Ġconnect ed
Ġar ch
Ġindo ors
Ġt u
Ġvis or
Ġch alk
teri or
Ġt attoo
ĠPur ple
Ġp ea
ock ey
Ġse ed
h ouse
Ġp ri
Ġclo cks
ĠP ick
ĠK n
Ġwh at
Ġsad dle
Ġpan s
Ġk ick
Ġtru cks
Ġn avy
Ġc rown
Ġn ice
Ġkn it
Ġver tic
sh ing
ĠW OM
o lored
Ġ ill
ĠBri ght
ad s
Ġlog s
Ġeat en
Ġv en
cra ft
Ġro lled
ĠH AS
ĠC H
Ġsky sc
Ġpizz as
Ġh az
Ġstor age
Ġso ld
Ġskysc ra
Ġhu ng
Ġchar ger
Ġpa le
k a
Ġmul tic
re t
ĠCom p
Ġshel ter
b ow
Ġwh o
Ġtoas ted
ĠT able
Ġwoman s
Ġn arrow
Ġbu o
Ġever green
Ġlu sh
Ġa m
Ġd igital
Ġun ders
nis h
Ġpan t
Ġc d
Ġfeed ing
Ġw ashing
Ġchopst icks
ĠG old
ĠWOM AN
ill a
Ġmail box
Ġdress ing
as on
Ġf ans
Ġal uminum
Ġpan e
ru p
zza rella
Ġcook er
Ġblueber ries
Ġapart ment
Ġpe as
Ġj ockey
a red
ur f
ĠB at
Ġbasket s
Ġmulti ple
Ġsiz e
Ġy og
Ġsneak er
Ġdo ts
Ġc as
Ġbo l
ĠPl astic
ting u
k y
ars ley
Ġsh ut
ĠPhot o
Ġbe an
Ġs ack
Ġsh ow
Ġsun light
ĠA ir
E L
ĠB us
Ġcupboard s
ĠClo ck
Ġfork s
ri al
Ġbed s
Ġtop s
Ġstu mp
Ġtiss ues
Ġex tingu
Ġsurfboard s
Ġki wi
Ġf u
Ġl ower
Ġro d
Ġmo zzarella
Ġbri ef
ĠSk y
Ġw eat
ad y
Ġmon key
lo t
ro t
Ġgar nish
Ġcro iss
Ġm ess
ĠT e
Ġglaz ed
Ġt w
Ġa cc
Ġcur led
Ġsuitc ases
ber ry
Ġski ers
Ġdraw n
ad ium
Ġu pper
ĠEleph ant
Ġwe ll
Ġco c
et te
Ġtra il
ic al
Ġm ate
ĠPi ece
IT H
Ġpow dered
Ġf irst
Ġo val
C E
Ġextingu isher
Ġz i
Ġp res
b or
ĠW ITH
Ġhoriz on
ĠD irt
he red
Ġtun nel
Ġplu gged
Ġyog urt
S S
Ġr asp
ĠA s
n ess
Ġ &
Ġp arsley
Ġto pped
Ġvertic al
Ġapp ears
t il
Ġa lm
Ġsp ace
Ġco ach
Ġsi ll
OU ND
Ġsi des
Ġpi led
y l
Ġm ac
ĠSk ate
ĠL ap
Ġst adium
Ġmirror s
OW N
Ġla ce
Ġje an
Ġtra ctor
Ġmost ly
der n
Ġill umin
Ġb it
Ġcla y
Ġcolum n
Ġplan es
Ġher bs
ĠLight s
Ġflo p
Ġwh ole
re l
Ġcr ates
Ġland ing
are nt
Ġre ce
Ġco ke
Ġlin ing
Ġhaz y
Ġ 5
Ġcat ching
ri s
Ġfro sted
Ġind ic
ĠLap top
ĠTA BLE
ĠS ide
Ġjacket s
Ġen ve
Ġdv d
st ruct
Ġ '
Ġspon ge
Ġgo al
Ġpanc ake
all ow
Ġhigh way
Ġleaf less
Ġreflect ive
ti que
ĠComp uter
Ġdv ds
Ġgri lled
Ġg ood
ĠE mpty
Ġpe an
Ġsm ile
Ġtray s
Ġdisplay ed
g u
Ġmark s
Ġmultic olored
et s
ĠN umb
Ġbur nt
ĠS o
ĠG ra
Ġfree zer
ĠP late
Ġthe n
Ġgra vy
ĠB O
Ġexten ded
Ġp ou
Ġbrief case
ĠBott le
ĠDo or
T S
id ent
ĠGRE EN
d ges
Ġco tton
I L
is ing
Ġorn ate
Ġb aking
Ġstu ck
ĠS u
un ch
lan es
Ġpi er
Ġe qu
Ġun it
ĠSkate board
Ġsi x
Ġskyscra per
Ġste ak
Ġset ting
Ġth an
Ġpol ka
Ġdesign s
S E
Ġbu mper
p ers
p l
til ity
ĠO ld
i der
ĠCh air
ĠAs ian
Ġdri ed
OO D
Ġrain bow
m in
u nk
Ġli gh
struct ion
Ġta ke
Ġbi ll
Ġballoon s
Ġcat ch
Ġenve lope
th y
Ġcal led
Ġair craft
z e
Ġp ub
Ġpu shing
Ġcli ff
ĠL ea
Ġmate rial
Ġgar lic
t ie
Ġa qu
ĠS c
l ink
Ġre aching
ld ers
on ut
Ġtran sp
Ġspl ashing
Ġcloud less
Ġin f
Ġthe y
Ġd ru
Ġho les
Ġkne eling
G E
ĠC he
ber ries
Ġprep aring
Ġg oose
ro p
Ġairp lanes
Ġmo dern
Ġse ason
IG H
Ġsy rup
Ġvari ous
Ġwhi pped
Ġtoothp aste
Ġroad way
uc ch
ĠCh ristmas
ĠL ady
Ġch ristmas
Ġwas te
ĠD O
Ġgr an
le m
Ġpocket s
Ġpoin ted
re w
Ġbrace lets
Ġan tique
Ġn ut
Ġa ss
Ġdo es
ĠS te
ĠBir d
Ġfr y
k ing
Ġve gg
Ġc ri
Ġprotect ive
ash ion
Ġstra ps
Ġz ucch
Ġl ion
ĠC O
Ġp uffy
Ġcroiss ant
E LL
ĠM ot
Ġla ces
Ġmark ings
Ġsk il
Ġsm aller
ĠSH IRT
Ġcontain ing
ĠBR OWN
Ġtrim med
Ġt ap
Ġillumin ated
Ġfeed er
tt y
R OUND
ĠS K
Ġdoughn uts
ĠC lou
Ġwra pper
ĠB an
Ġlight ing
ward s
T ER
Ġzucch ini
Ġfor m
ĠC ow
Ġb is
Ġsli ding
i led
ĠHand le
v id
Ġbuo y
Ġs light
Ġw o
Ġstud ent
Ġbus y
b ed
Ġgoat s
ĠS urf
k s
ĠM ountain
Ġveget ation
ĠE lect
Ġskin ned
Ġskil let
Ġcu tter
ĠC ars
Ġbu ilt
Ġfl our
Ġopen ing
ĠMot or
Ġswe et
ĠBook s
Ġb ru
Ġth ink
ll ing
b row
Ġu tility
c u
ĠH ow
Ġrail s
Ġunders hirt
Ġsiz ed
Ġbe ads
Ġs hield
zz y
Ġsnowboard ing
Ġdump ster
ĠFl owers
or y
ĠV e
or ting
sh ade
Ġboard s
Ġex p
c ent
AR D
ĠG lasses
ric al
Ġgran ite
Ġl ar
Ġan g
Ġo ct
Ġsold ier
at ure
Ġtwi g
Ġp et
Ġbr ass
Ġbla de
IN D
if ic
Ġcustom er
ll y
Ġcar go
Ġn ike
Ġpub lic
Ġp itch
A P
Ġtub e
g y
Ġt arp
Ġleg g
Ġspl ash
v et
ĠN ike
Ġgl owing
ip ment
Ġcrou ching
ĠA d
c an
ĠF ence
fo am
Ġeye brow
ĠS un
Ġzi pper
Ġcontrol s
Ġm ay
d ish
Ġten ts
Ġblanket s
or ted
ol or
Ġfloor s
Ġb room
Ġmed ium
Ġfa ke
Ġtri angular
ĠS a
Ġat op
ĠP o
ĠPi llow
Ġst aring
Ġsp eck
Ġa f
Ġsha des
Ġmix ed
Ġgar land
Ġh oney
iss ing
Ġcr ashing
Ġrect angle
Ġequ ipment
Ġlamp shade
Ġt shirt
ĠB ro
Ġlegg ings
Ġpatch es
l s
li age
Ġo w
T E
ĠB aby
Ġslee ves
ĠP atch
Ġpanc akes
g on
Ġke pt
Ġstor y
Ġst age
u mp
ĠTra ffic
f ront
Ġtag s
Ġsp orts
Ġf arm
Ġtri angle
Ġtravel ing
Ġtea l
Ġpe ars
red ded
Ġstop ped
Ġdru m
Ġhoriz ont
Ġbat ting
Ġm in
Ġmo de
LD ING
Ġfl u
Ġfall ing
Ġpick up
Ġh ing
Ġsh own
Ġchain s
Ġsleeve less
L O
Ġst ill
r ou
Ġbush y
Ġobject s
Ġnumer al
Ġring s
Ġplu g
Ġtur key
ĠC AR
o re
s te
ĠU n
ĠB unch
Ġha ving
ĠP aper
Ġgi ant
Ġcl ut
Ġpri ce
ĠP air
Ġcomp any
ĠT ru
hi c
Ġv ine
Ġas ian
ashion ed
ĠM irror
ro foam
li d
ĠC up
int age
Ġper form
Ġban k
Ġlight house
Ġslight ly
f oot
l ves
Ġstre t
Ġmot ion
Ġhead s
k es
ĠB ear
ĠSt ri
u st
g un
Ġfo liage
Ġmonitor s
Ġroad side
Ġm esh
Ġround ed
i a
Ġtr ying
p rin
Ġcan e
Ġcond im
Ġman tle
ĠSk i
Ġcla w
pl ant
ri ght
ĠTo ilet
lat or
Ġtusk s
ĠT ail
Ġglaz e
c uit
ĠNumb er
Ġa mb
Ġh i
Ġhang s
gun dy
n ers
Ġst ir
Ġemb lem
Ġadvert ising
h ole
Ġfu zzy
Ġs ep
Ġsc rew
Ġwa vy
Ġg re
di es
ok es
Ġwrink led
Ġpick le
a f
as ter
Ġsh arp
Ġcar ds
i z
Ġch unk
ĠA r
er t
Ġg own
Ġtrash can
ĠF R
Ġbol t
g ing
Ġg ent
Ġ 6
Ġbar rel
Ġplu sh
m ade
le te
Ġtwi gs
Ġro pes
ook ed
Ġweat her
Ġhair y
ĠM ul
Ġche es
itar y
Ġbagel s
Ġnumer als
Ġl oung
Ġstre am
Ġwire less
Ġr ough
Ġle vel
IGH T
Ġe lev
at ers
Ġpar rot
Ġste ep
ĠWhe re
Ġchin ese
ĠT O
al len
Ġhoo ves
Ġp etal
Ġpro ject
Ġdu cks
ĠC u
ĠG u
ĠMotor c
s o
Ġmud dy
ĠL et
Ġhe al
Ġdis c
ĠG IR
Ġkne es
Ġsuit s
Ġcoat s
V ER
Ġsh redded
ĠP I
Ġ 7
Ġh ind
Ġhandle b
Ġfan cy
Ġcloth s
p hic
Ġf ather
a cle
ĠNo se
ll i
Ġhorizont al
ĠMul ti
Ġsub way
Ġcri sp
st ick
Ġh our
ĠT RA
ĠB ACK
Ġco vers
Ġcu b
Ġv intage
A M
Ġbare foot
Ġcanis ters
Ġhe avy
Ġto rt
Ġrece i
y ard
Ġshirt less
Ġg ro
Ġcon struction
Ġst ap
ĠĠĠĠ ĠĠĠĠ
Ġv ines
Ġc akes
Ġcle ats
ĠCo ffee
ĠP ark
b ble
Ġsqu at
Ġwi pers
u ring
ĠP AR
Ġhar ness
form ation
Ġtan ge
Ġdon key
Ġpow der
Ġbis cuit
ĠW OOD
mp led
Ġf at
Ġgra in
h au
Ġfra mes
m i
Ġru st
Ġdra ped
Ġheal thy
ĠH ot
ĠE ye
ĠSt ack
Ġgent le
Ġsupp orting
c us
in er
Ġboard ing
hau st
ĠC olor
Ġshru bs
ĠF lo
Ġla dies
Ġwi per
in n
ĠC on
ĠY ELL
ĠYELL OW
ĠF ork
Ġhe dges
ut ion
Ġtou rist
at tered
LA SS
ĠB ow
Ġboard er
Ġwo ven
Ġpigeon s
ĠH is
ĠPla yer
m en
Ġbea m
a w
ĠB en
on s
Ġh im
Ġgi ft
us hed
opp er
r est
Ġalong side
ĠBe ige
t ry
Ġcoc onut
Ġf ashioned
ar es
Ġs la
Ġsus pen
V E
Ġc ycle
l ish
Ġbun ny
Ġsy ste
Ġmess y
Ġpillow case
Ġde er
Ġwe ar
Ġdra gon
Ġm ake
Ġvan ity
Ġgr ate
Ġf allen
Ġgra phic
Ġbu ns
u al
rin es
ĠSh ort
a gn
Ġal co
Ġflow ered
ng th
ĠM en
ĠW ine
ĠBuilding s
Ġstring s
Ġegg plant
Ġtin ted
Ġm op
min al
p ot
l ook
us ter
Ġstain ed
Ġland sc
Ġste ms
Ġbur gundy
Ġgu n
Ġw arm
Ġf aded
ĠS lice
Ġc lass
ID E
Ġm issing
Ġchi li
Ġwheel chair
ĠLe g
Ġstap ler
T ING
a ff
b ack
ĠE ar
Ġsyste m
ĠP ut
Ġso lid
Ġpencil s
Ġdi p
ĠBo x
ar ning
lder ly
ĠD es
Ġ ident
Ġin formation
Ġf in
Ġpre tty
Ġter minal
E B
Ġcher ries
Ġbra ke
ĠC e
Ġcrou ched
Ġcli p
a is
v ent
Ġp ushed
Ġjump suit
Ġw ash
u g
o lding
Ġman hole
ĠD ec
ĠColor ful
Ġlo af
Ġpanel s
Ġfl ight
ĠShe ep
Ġju g
Ġstud ents
Ġlar ger
Ġtoilet ries
Ġpos ition
Ġtange rine
light s
ĠF ire
mer cial
Ġper ched
Ġtool s
Ġuniform s
Ġju st
Ġcast le
m ents
Ġmark ing
ERS ON
is hed
Ġtran s
Ġh id
Ġon ly
Ġst all
l it
ĠBri ck
Ġhe el
Ġru sted
Ġdock ed
ure d
ĠP ERSON
Ġmil itary
Ġre c
ĠR e
Ġpinea pples
Ġgentle man
i ch
A IN
ĠT RE
Ġcom b
Ġto f
ĠS lic
Ġsep ar
Ġboot h
Ġg at
K E
Ġg rin
ĠB ag
Ġrow s
Ġbill board
il ted
zz le
Ġbed ding
ĠB E
Ġex haust
ĠCat cher
ĠS tain
IG N
li es
Ġback wards
F F
ĠBott om
Ġshru b
we ed
Ġbed side
Ġsc attered
Ġin terior
Ġalco h
Ġch amp
Ġd et
st ru
Ġbell y
ck ing
agn e
ĠA N
Ġpe el
Ġbunch es
Ġrecei pt
at ive
Ġca fe
prin ts
Ġsh ot
Ġbat s
Ġsquat ting
i ff
ĠN e
b ile
a ur
Ġpen gu
Ġle ngth
Ġmode l
Ġe mp
in o
r d
Ġun c
Ġher b
Ġsp e
Ġsn out
Ġcushion s
pe ted
Ġcoun try
Ġw eb
Ġtow n
Ġser ved
Ġpean ut
as ket
ĠGu y
ĠL E
ĠP E
Ġpeach es
Ġflo ppy
ĠP lace
is ter
Ġh al
cu lator
in y
ĠK ey
ĠTH AT
Ġsty rofoam
ar oni
ĠDec or
Ġcustom ers
Ġpi g
Ġp ed
ion al
ĠPLA TE
Ġlip stick
fl owers
Ġcrack ers
m et
Ġhing e
Ġout lets
Ġmouse pad
ĠP ot
ĠLea ves
Ġnote pad
Ġrail way
Ġto r
Ġgreen s
r ong
ĠD V
Ġdes ert
stri ch
Ġwa ving
Ġmu s
ĠClou ds
Ġchamp agne
an ger
Ġa ction
Ġra ce
Ġco ld
ĠT ow
Ġst alk
Ġs lo
or n
ĠF ive
Ġfore head
Ġcom mercial
Ġtort illa
Ġfa cial
ĠC D
ĠSand wich
Ġcar peted
ĠC ou
Ġman go
w hite
Ġ lat
ĠAn imal
Ġsnack s
Ġbro co
Ġvegg ies
ou ser
Ġne at
Ġre m
Ġass orted
Ġcal culator
ra w
Ġso cket
ari um
ĠR i
Ġmas hed
Ġno stri
ul ance
Ġpar as
b u
Ġbas in
Ġracket s
Ġdist ant
Ġca ution
Ġv al
Ġm ain
ĠKn ife
Ġbe y
Ġtransp arent
Ġbey ond
ĠFlo or
0 0
Ġtr ouser
ĠC U
Ġ 8
a ves
Ġsand w
Ġd ro
ĠDV D
Ġstri pped
os aur
Ġtr ous
Ġmo bile
Ġtrous ers
ak ers
ĠMotorc ycle
ĠS IGN
ĠT W
Ġmo re
E E
lo ye
Ġqu ilt
Ġm oon
Ġset s
K ING
ĠM o
Ġperform ing
ĠW AT
Ġt ight
Ġdin osaur
Ġmac aroni
E AD
Ġra w
a ct
Ġow l
ĠC ell
S H
Ġart ich
amp oo
S T
ĠBow l
Ġsea weed
Ġaqu arium
Ġca ct
Ġcl uster
Ġw aters
s on
ĠL og
ĠRo cks
ĠB ed
Ġc opper
ĠW IND
ĠR ow
ck le
om ach
rol ley
ĠChe ese
Ġtou ch
Ġhe els
ĠG LASS
len d
Ġamb ulance
ĠU S
Ġs lan
Ġsc ra
o ise
Ġchalk board
Ġe lderly
ĠTW O
Ġalcoh ol
Ġba lding
Ġtab by
Ġemp loye
Ġter ra
Ġle ns
Ġblo cks
Ġre cl
st al
Ġpengu in
Ġo strich
ĠP ain
Ġslat s
ĠBu sh
Ġhe ar
am on
f la
ĠS ection
Ġbe et
Ġlandsc ape
ra ct
Ġmug s
t one
Ġven ding
Ġo pp
Ġri de
Ġpro f
Ġwrink les
Ġbookshe lves
Ġfigu rines
Ġbu bbles
Ġdesign ed
Ġl ane
ĠAir p
Ġb ark
Ġst omach
at h
Ġ 9
uff ed
Ġproject or
Ġsh ampoo
Ġloung e
iz ed
c ess
Ġcoll ared
ĠT hi
ĠB ic
Ġed ges
n ail
Ġcact us
Ġrasp berry
ĠMountain s
p os
T he
ret ched
Ġouts t
ĠGIR L
Ġbean ie
ĠBro ccoli
ĠS qu
Ġwra p
ĠK itchen
Ġhe l
Ġread s
as ted
Ġpart y
ĠSu nglasses
way s
Ġhar bor
Ġcap s
Ġmin ute
Ġan k
inn amon
Ġdot ted
Ġa ut
co at
Ġfo cus
Ġpi lot
Ġt rolley
Ġh om
Ġspe ed
Ġthe r
Ġskateboard s
ĠH AND
el y
Ġb aker
mp le
IN K
Ġp it
Ġbl ood
g le
Ġlo ve
Ġglo be
Ġan te
Ġslan ted
ĠR O
pp ers
ĠG R
Ġex it
ĠT eddy
Ġd ais
Ġal one
ĠH alf
Ġclut tered
Ġbrush ing
gg ing
Ġse mi
ur ky
Ġbl owing
Ġred dish
Ġpou ch
ĠF la
ant a
Ġg room
Ġshe er
ĠW ALL
Ġg e
ĠC an
ĠT I
Ġs ed
Ġp eak
Ġb one
Ġnot es
Ġoutst retched
Ġpacket s
mb oo
re am
ra il
Ġshe ll
Ġb ad
Ġsh allow
Ġtow ers
Ġc innamon
Ġs our
l ash
ĠF rench
Ġv ac
ĠU mpire
ĠH at
Ġmop ed
Ġemploye e
Ġcharac ters
ĠS M
t he
r ash
Ġhood ed
Ġsw ord
ĠWOOD EN
on ds
Ġc ute
Ġdi v
ĠT om
Ġsh ou
Ġs el
ĠE x
Ġra bb
Ġsc ru
ĠSk ier
Ġsqu ares
Ġfen ces
ĠD e
Ġplan k
Ġg la
Ġdrive way
lend ar
Ġbu bble
Ġf un
Ġbulb s
se l
Ġrasp berries
ion s
Ġfen ced
u gh
Ġrabb it
ĠDO G
Ġroll s
Ġu se
ĠT rash
Ġli mb
Ġmo ve
ten do
ĠH O
se lf
Ġcru mpled
Ġm urky
ĠE dge
Ġturn ing
Ġth ings
in tendo
A Y
g an
Ġindic ating
ĠBen ch
R I
Ġsed an
ĠC ont
Ġshut ters
Ġcart oon
ag ed
Ġup right
Ġsh akers
Ġstool s
ĠStain less
m y
Ġsandw hich
Ġcrisp y
b r
ĠBo at
Ġ ea
qu oise
Ġfoot ball
Ġtea pot
Ġear phones
ĠP O
' t
ron ze
Ġbasket ball
Ġf og
Ġla ugh
Ġsun flower
Ġe vent
Ġar ran
Ġla dle
Ġchopp y
Ġloc ated
Ġl an
ON T
Ġsurf ers
O ARD
Ġalm ost
Ġent ry
look ing
ĠH er
Ġfish ing
Ġsc aff
Ġbri de
Ġsm ok
ĠTom ato
d gerator
Ġligh ted
ĠV ery
Ġfla ming
in ation
ĠP ower
v iew
igh ter
t z
ĠTe levision
rou ght
Ġcrack er
Ġin stru
Ġsm art
Ġte xture
Ġsteep le
Ġsus hi
os ite
Ġre p
Ġcheck ed
ĠD ay
Ġrest room
Ġante lope
Ġmed ic
ĠF ruit
b an
ĠA T
Ġpre tz
Ġcatcher s
ĠF oot
Ġfoot prints
ĠM ouse
ĠSqu are
ĠBl onde
Ġ es
ang ing
Ġclos est
Ġba mboo
Ġbou lders
Ġindo or
Ġneck tie
ic ed
ĠCon crete
Ġbra id
Ġpet ting
ar se
ra med
or es
Ġpedest al
f ruit
Ġkn ot
Ġw arning
ĠWIND OW
Ġnail s
Ġaf ter
ĠC ake
oo f
Ġcas ting
Ġstrip s
Ġlaugh ing
Ġki os
ck ed
Ġr h
Ġpo p
Ġrim med
Ġy ol
ĠU mbrell
f ted
Ġsink s
u ri
ĠR ear
ACK ET
id as
Ġb ronze
Ġthi rd
d en
Ġopp osite
Ġscaff olding
Ġarran ged
ĠCH AIR
Ġkios k
i ds
in ing
Ġcl ump
Ġ1 2
Ġtof u
p ost
Ġro uter
Ġcolum ns
Ġpart ly
ĠB A
Ġsh ag
ĠThi ck
Ġche e
Ġfeat her
ot es
en ger
ĠP ole
Ġrefri dgerator
ry stal
n ette
Ġc yl
ĠRo ad
ĠTh in
Ġsea l
ĠSt op
Ġd ep
Ġw is
Ġc amp
Ġbur ners
Ġsu ns
ĠSnow board
Ġdraw ings
Ġb oulder
Ġport able
Ġpres er
x ing
ĠDecor ative
in ed
ill ing
ĠR ock
ĠS IDE
Ġcat tle
un d
gg y
Ġbu l
Ġgat hered
Ġath lete
Ġshore line
Ġmedic ine
Ġpro cess
ĠF e
Ġbroco lli
ĠBat ter
Ġbel ong
Ġmatch ing
Ġbu ckle
red i
Ġke ep
Ġpan es
u ng
Ġrock ing
Ġsp i
Ġwire d
ĠP AIR
Ġam ong
Ġven d
R O
Ġmix ing
Ġfri sb
Ġblur red
Ġc ds
Ġfinger nail
ĠH el
ĠB read
Ġra cing
Ġmar sh
ĠWhe el
ĠBat h
Ġgrape fruit
ĠH ome
Ġca lendar
Ġg rown
ĠF ace
Ġsp okes
an as
i ers
Ġunc ooked
or ds
ĠM ic
Ġhear ts
Ġyol k
Ġpro pped
xt ures
Ġank le
ĠH air
Ġpad ded
Ġte en
Ġrain coat
Ġpainting s
Ġclaw s
Ġgar ment
Ġdais y
Ġco in
Ġcir cles
ĠB asket
Ġfr ying
Ġdis pos
Ġco aster
Ġshop s
ph ol
op ter
ĠG round
Ġfi xtures
ff le
Ġpass ing
x ed
Ġshou lders
Ġwhi t
Ġm er
Ġcarri ed
ĠCh ocolate
Ġtur quoise
Ġblo om
Ġprin ts
ĠT OP
Ġpos ted
Ġflaming o
ic le
ĠCu rtain
Ġhandleb ars
Ġphoto s
R U
ĠNe w
z en
ĠFl ower
ĠH EAD
Ġf ast
Ġsp ort
an cing
Ġpant ry
Ġg row
ir al
Ġhe lic
Ġcand ies
ĠPi le
Ġb ound
Ġreg ister
Ġtri cks
ĠSt uffed
Ġpath way
ĠCh in
T U
ate ll
Ġh anger
et a
Ġ ing
ĠB ike
Ġdu st
Ġgla re
Ġinstru ment
o sed
Ġfri en
G ROUND
ĠElect rical
Ġhand led
ĠP AN
any ard
AS S
Ġfa ces
ĠWhe els
agon al
Ġo me
Ġje lly
ĠC AT
w ing
la ces
M B
ĠCh ain
v ory
Ġbi te
Ġkit ty
Ġsk ull
Ġbath ing
Ġto ur
g ran
ĠStri ped
Ġk ay
Ġhom es
te ns
Ġsuspen ded
atell ite
Ġdiv ider
ific ation
Ġu phol
Ġw rought
Ġapp ear
Ġing redi
Ġsuns et
ĠF OR
Ġsailboat s
ĠBO Y
U T
Ġgroup ed
Ġpar ach
Ġad j
IT TING
h ou
Ġmay on
Ġstreet light
Ġbright ly
ĠBan anas
Ġkick ing
Ġfo llow
ome gran
Ġelev ated
ve red
ft op
Ġsla b
res h
ĠP lane
Ġhelic opter
R AN
Ġmo v
ĠBU S
Ġbla des
Ġhid den
ast y
Ġshow s
Ġcar ved
ĠF L
Ġrem otes
Ġshe d
ĠVe get
Ġpu tting
Ġbri dle
Ġla yer
Ġvari ety
Ġpretz el
ap ers
ri ting
Ġf er
ĠAirp lane
ec es
ĠPo lice
Ġre t
i ter
n d
ĠShadow s
Ġseat ing
Ġme as
Ġp omegran
P U
ĠB ar
Ġfen der
. .
ĠP ass
Ġc rystal
Ġth ing
Ġligh ter
Ġbrown ie
Ġl anyard
Ġa head
la w
op us
ĠE ng
Ġbre ast
ĠM ac
we ar
ic y
Ġcondim ents
i zer
ĠLog o
Ġski is
on ed
ĠHel met
ces sed
art ment
ĠBACK GROUND
Ġgood s
ĠTru ck
Ġspeck led
Ġmuff ins
Ġstack s
Ġgi ving
ĠWAT ER
Ġi P
ter ns
Ġbi b
I E
Ġbu nk
ĠH o
ĠST OP
c he
ĠS ITTING
ĠPl ant
Ġome let
k n
ĠHO LDING
ĠPillow s
sc reen
Ġform ation
Ġt ilted
Ġco la
ĠBic ycle
Ġar range
Ġdispos able
Ġre cessed
ĠS P
Ġsc r
Ġc ash
Ġbru nette
Ġsp iral
Ġd uff
ĠC OM
Ġtattoo s
Ġsp arse
Ġoct opus
y ers
i ted
Ġcoll ection
m allow
Ġsaus ages
l ler
Ġfro g
ĠSome one
Ġpean uts
Ġdispla ying
Ġroo ftop
Ġtoothp ick
IN E
ri ed
ĠPAR T
uri ty
l ines
Ġd iced
Ġs atellite
Ġsc ale
Ġea gle
c hi
v as
sp ital
ĠSlic ed
ĠST AND
Ġa sh
atu ral
ĠW alk
ĠAn other
Ġreflection s
Ġfla mes
Ġwalk s
Ġmarsh mallow
Ġc ases
Ġcom m
Ġu r
ĠKey board
ĠSh iny
ĠC ru
ores cent
ĠL IGHT
Ġwork ers
Ġsprink led
Ġkey pad
I ON
Ġl oose
ĠD ouble
Ġp arent
Ġpe eled
Ġgrin der
Ġ1 0
ri pe
Ġre la
Ġbea ms
ĠP ro
ator s
ĠWind shield
Ġ [
Ġcra cks
Ġvan illa
ĠL ic
Ġliqu or
Ġpreser ver
ĠW aves
Ġcar ts
Ġdes t
Ġme adow
ent al
c ap
ĠSt one
Ġshag gy
Ġpolice men
Ġyou r
n ut
mb led
Ġse ven
Ġsh aded
Ġp al
ut ter
Ġprocess or
Ġstair way
na ise
ĠM ET
ĠF ramed
Ġfore front
Ġfoam y
Ġf ighter
ĠUmbrell a
Ġpomegran ate
Ġcle at
Ġin di
Ġco bbles
Ġty pes
Ġdel i
Ġcle aning
Ġf ring
T LE
Ġcontain s
i b
a ld
Ġreflect or
Ġpoin t
TU RE
Ġd eb
Ġsw ir
Ġse lling
Ġcra b
ĠST RE
Ġsh ing
Ġne ed
Ġwis py
Ġli fted
ĠC ut
ĠSurf er
ĠChin ese
Ġwa it
Ġcrack ed
ĠC A
ĠD ish
Ġdesser ts
ic ap
Ġarrange ment
li ke
ĠW omen
Ġtoothbrush es
ĠSp ect
Ġho spital
Ġt asty
ĠC ab
ĠT EN
Ġrailing s
Ġnet ting
Ġw asher
re o
Ġacc ess
Ġwood ed
Ġmayon naise
ĠSp oon
ĠSTRE ET
ĠTow el
Ġgrass es
Ġkay ak
ĠS O
Ġcu ff
Ġri des
U R
Ġi vory
ĠO ver
Ġarch way
ĠW atch
ĠSM ALL
hi b
Ġex terior
er ase
Ġth rown
OU N
Ġbatter y
Ġcli mb
ec h
Ġsil hou
Ġbu ggy
Ġped al
Ġcondim ent
er a
Ġdi vid
Ġti es
ĠBU I
ĠC oc
ess ional
Ġin s
ĠBu tton
ĠR oman
ro ts
Ġso il
Ġcan vas
vet op
Ġparach ute
Ġe xt
ĠLic ense
Ġst orm
ĠK ite
Ġeyebrow s
ON E
ĠB are
ĠSurf board
ĠM eat
Ġbre aking
l ong
Ġsp ear
ĠBUI LDING
Ġarrow s
Ġe as
Ġpart ial
Ġfi le
ĠF resh
ĠW riting
ĠO ut
Ġm ou
ĠGR ASS
Ġcon ve
ĠB all
Ġeng ines
Ġcarpet ing
Ġsto vetop
Ġpla que
ĠGra vel
Ġident ification
Ġpetal s
en ed
bo dy
ĠL u
Ġl oo
Ġprot ection
ain s
Ġchopst ick
Ġdirection s
Ġflo ret
ĠBush es
gh ter
ĠS hirt
Ġpi cket
Ġflu sh
Ġro asted
Ġover looking
ĠD i
Ġnostri l
Ġwed ge
Ġra ft
Ġtexture d
Ġaqu a
i ed
Ġsmok ing
Ġj am
ĠS to
Ġgreen ery
ĠG o
Ġm oney
ĠH OR
w el
Ġbu ff
ĠK id
h a
ĠVe hi
ĠF LO
a i
Ġd rop
Ġs on
Ġsc ore
Ġtable top
Ġsec urity
sh aped
Ġpack ed
Ġdec al
ĠM u
Ġski ier
Ġelectronic s
Ġes c
g en
Ġf re
Ġdirection al
s tered
oun t
Ġs at
Ġwa x
Ġe ight
Ġpres ent
Ġgr out
Ġri pple
Ġlamb s
Ġcor k
el t
o es
ĠSH O
r and
a iling
Ġstret ched
ĠS ix
Ġstor es
Ġsa ying
Ġpe eling
Ġw ake
Ġman ic
Ġto te
ĠS N
ver y
les law
Ġcobbles tone
Ġdest ination
Ġo ri
Ġinf lat
Ġra cks
ĠH AT
Ġrh ino
Ġal so
N IS
Ġmus ic
Ġty ping
Ġdrain er
Ġe mer
eck er
ĠCoc a
Ġh ub
Ġcar ry
bber y
ĠC ra
Ġpar ade
Ġpou ring
Ġme ters
ĠRe mote
Ġh ut
Ġchi p
Ġh ur
ĠO lder
a v
bb ing
Ġapp ro
Ġves sel
Ġob st
Ġmini ature
Ġdeb ris
ĠH ouse
ĠLe gs
Ġpe e
Ġmeas uring
Ġdu sty
Ġsnowboard s
Ġcourt yard
Ġhome made
ĠJ ACKET
Ġkick stand
Ġbu ds
ĠTEN NIS
Ġri ders
ĠB ra
Ġperson al
hi ll
ĠThe y
p ass
ĠTru nk
ĠTRE E
Ġbad ge
Ġcarri er
Ġob ser
Ġg oo
ĠC ur
Ġoffic ers
Ġsteam ed
Ġpe bbles
Ġman tel
Ġcoc a
ss om
Ġste w
ĠM on
Ġside ways
ĠFLO OR
Ġd ate
Ġseason ing
Ġen ter
Ġcur ve
Ġm ass
ĠDirt y
er c
Ġsc on
Ġra g
Ġstick y
ĠP en
Ġstain s
Ġo ak
Ġcord less
uc as
ĠM ar
ĠAd vert
t ru
Ġsi ding
Ġscoo ters
ĠF lat
ĠD ra
ĠElect ric
Ġor gan
ĠP IC
Ġic ed
Ġpat terns
ĠB AS
ĠP alm
ogg y
ĠPark ing
Ġchee k
Ġfo lder
Ġblo ssom
ĠMET AL
Ġco leslaw
ri to
ĠĠĠĠĠĠĠĠ ĠĠĠĠĠĠĠĠ
ec ake
Ġchunk s
Ġprof essional
ĠC a
Ġwatch es
Ġgr ater
Ġgri p
Ġpo o
P H
Ġd rying
Ġmotorc yclist
Ġtail s
Ġun ripe
Ġti ps
Ġs lot
co vered
u um
Ġad d
Ġscr atch
Ġ X
l ings
Ġuphol stered
ĠB ea
Ġs l
ll a
ĠPh one
ĠC l
ing er
ĠPe pper
Ġvegg ie
ĠC and
P P
Ġhel ping
ĠFla g
OO K
ĠL ine
Ġstop light
Ġstore front
Ġc ool
Z Z
Ġhand icap
ĠW ire
ĠC am
ĠFR ONT
Ġv ol
ĠK it
Ġro ller
ĠF EN
k ed
Ġg az
Ġn atural
E AT
Ġhoo p
ĠLea f
Ġb ay
ic o
Ġser ve
op e
Ġo ar
Ġtw in
ĠBath room
ĠMic rowave
ĠSt raw
Ġartich oke
Ġchin a
Ġg all
Ġam ount
ĠGold en
ĠR ail
Ġsky line
Ġweat hered
Ġwhe at
Ġm om
Ġje wel
Ġexp ress
Ġves ts
Ġther mo
Ġvend or
Ġre mo
Ġseason ed
ucas ian
m it
Ġcomp act
Ġobst acle
Ġin ter
Ġri pp
ĠT RU
I CK
ĠSpect ators
Ġbo iled
Ġd om
ĠG ROUND
l ph
Ġcar ries
Ġra m
ĠPIC TURE
ĠR oof
Ġwa ffle
p i
br ary
Ġbar bed
Ġpol ish
o la
et ing
Ġcamer as
Ġpar ts
Ġshel ving
ĠA ll
Ġt ines
fo re
ĠMulti ple
C T
Ġvac uum
Ġm ast
sp lash
Ġwindows ill
Ġblan k
A VE
g est
Ġ2 0
ĠG RA
Ġlo ading
ĠR E
Ġnear by
ĠSH OR
Ġclass room
ab ly
ĠL ots
Ġoutf ield
Ġthi gh
Ġrais ins
C LE
ick ey
ro be
Ġres ts
i des
ĠB AT
ĠPi eces
c om
ĠTRA IN
ĠDO OR
Ġser vice
Ġti ger
Ġneat ly
a la
Ġsel f
l or
Ġmark ed
ĠN ame
Ġover h
Ġgre at
Ġan ch
Ġfrisb e
ĠC loth
Ġsh ark
ĠCe ment
oni es
Ġdark er
Ġwild flowers
ĠPI ZZ
ra it
y ed
Ġhold ers
pe eled
Ġbri st
Ġf eta
Ġsupp lies
Ġfood s
Ġsn iff
ĠSTAND ING
alm on
Ġwomen s
ris ts
Ġo per
ĠDes k
Ġbro th
Ġomelet te
AN T
Ġfollow ing
Ġex hib
Ġste reo
Ġconnect ing
s ite
Ġmanic ured
Ġchees ecake
as hed
ort able
Ġrela xing
IS T
ĠH AIR
ra ying
Ġbe fore
Ġbul let
ĠC ir
Ġvis itor
Ġshru bbery
Ġp r
Ġstat ues
al es
ĠB EAR
Ġcord ed
ĠSide walk
ten der
Ġscon ce
Ġc op
I KE
Ġbever ages
Ġfla me
Ġpe ice
Ġw ea
Ġback yard
Ġhotdog s
Ġplan ks
Ġve l
Ġsto ck
Ġang ry
ig ator
Ġbar ren
Ġlat ch
Ġclimb ing
do or
ĠBan ana
gen cy
ĠCab in
ĠTra cks
ific ial
es ame
ĠPIZZ A
Ġin k
Ġli brary
ĠBott les
ĠW et
ĠO RAN
Ġt urt
Ġcom mon
ĠCO L
Ġd ash
Ġcomp artment
Ġbu g
Ġbal ancing
le e
ĠRi pples
Ġsheep s
Ġto e
ĠCou ple
Ġa le
s hed
i ld
ĠAr m
ten ing
ĠPass enger
ten t
ĠO ranges
Ġguard s
Ġpanel ing
Ġalm ond
Ġcub es
g age
ĠV ase
Ġpack ages
Ġbur rito
Ġt ro
ĠPAN TS
ĠH ill
Ġwra pping
ler s
Ġd au
Ġt im
Ġso le
ĠPict ures
ĠM ed
ĠN E
Ġtrans it
Ġback splash
Ġornam ents
ĠP H
Ġun peeled
Ġarm rest
Ġbelong s
Ġsp ec
Ġsupp orts
tru ck
Ġs almon
ĠH ard
Ġm ir
g rown
ĠN intendo
f all
Ġfa c
Ġshut ter
Ġbri m
Ġcam o
itche d
Ġma rin
Ġall igator
Ġjewel ry
Ġrun ner
ĠE LE
Ġhandleb ar
Ġdet ail
Ġdi al
Ġbraid ed
Ġbar tender
Ġdis k
Ġcushion ed
am el
Ġju icy
ĠC ream
Ġlin er
de ring
se um
ĠD is
fla ge
ĠC L
ĠLet ters
id ing
ĠN apkin
c ery
di um
ĠL i
us ed
Ġsk e
ĠSkateboard er
Ġf ed
Ġl one
ĠPl ants
ĠB OW
Ġtouch pad
Ġf oggy
ĠD ES
Ġrais in
Ġf iling
Y CLE
Ġcap ital
Ġ x
ĠD on
Ġf le
Ġbrown ed
opp ed
Ġb iting
Ġbu mp
ĠV ari
ĠPain ting
an ge
Ġfl y
Ġplan ted
Ġmo lding
an ces
Ġbol ts
ĠT ire
R T
is ted
Ġknit ted
Ġaut om
ĠSm iling
Ġfring e
Ġsilhou ette
kn ob
Ġsp raying
s or
Ġang led
Ġport rait
ĠGRE Y
ĠB OT
ĠM ale
Ġbit s
ĠHead light
Ġcream y
Ġf illing
Ġlo bs
ĠC ross
Ġpatch y
Ġban gs
Ġsniff ing
Ġleg o
Ġte h
Ġdi aper
ĠCow s
all s
g in
Ġexhib it
Ġ1 1
Ġexp osed
ĠA rt
Ġdau ghter
ĠA f
vid ual
Ġc ass
Ġro ute
ĠPLA Y
Ġfull y
ĠD ry
Ġjet s
Ġwa iter
Ġbra cket
ĠTe lephone
Ġw ig
Ġsa y
Ġhu gging
ĠHand s
Ġover pass
Ġe ven
p a
Ġbu tt
Ġinf ield
Ġkeyboard s
dd en
ill ight
ĠS IL
Ġdoor knob
Ġcouch es
air s
oo ts
sh ine
Ġpicture d
Ġpow ered
Ġge ese
Ġart ificial
Ġbase board
ke ys
ĠP L
as ing
Ġre ins
Ġp age
ĠP an
Ġpen d
ow ed
Ġli cking
t uce
Ġru ff
Ġst un
Ġtri p
u tt
Ġhur dle
me kin
ĠHOR SE
PU TER
u ment
B OARD
Ġplant ains
f ood
Ġtransp ort
Ġacc ents
ĠCOM PUTER
Ġscreen s
ri e
Ġfore ign
ĠHead lights
A CH
Ġswitch es
Ġscra mbled
Ġh ip
Ġcheck er
ĠSIL VER
Ġclean er
ĠFEN CE
Ġde v
Ġlobs ter
Ġsepar ating
u ct
Ġmu seum
ĠTRE ES
Ġtou rists
ĠCont ain
Ġcou r
Ġrecl iner
Ġcam ou
ĠGra ffiti
Ġb row
Ġposter s
ĠP apers
Ġw ate
ĠC or
Ġpart ition
Ġg y
ĠS ink
tt es
Ġout line
ri an
Ġto ile
ll s
Ġwhe eled
u ck
Ġother s
Ġmu zzle
is ts
Ġre ally
ri ous
ĠKn ob
Ġgro cery
ĠCar rots
ĠORAN GE
Ġori ental
Ġfrisbe es
Ġmed ian
Ġsle ep
Ġchopp ing
ĠG ar
ĠCOL OR
Ġpa il
Ġband age
Ġhal ves
ĠG lo
Ġsha ved
Ġbatter s
Ġ .
Ġover grown
Ġconve y
Ġc opy
Ġglo ved
ĠP itcher
Ġin t
ĠC ity
Ġp rong
Ġhead ed
Ġrece pt
ĠBl an
b ably
Ġt aped
Ġo at
Ġn am
Ġpan eled
Ġra mekin
am a
Ġsli de
ĠJ e
Ġdi als
Ġtur f
Ġwe ed
Ġbal ance
que e
Ġf ound
ĠBOW L
ĠB ED
Ġsp ring
Ġband s
Ġin ner
ric a
ĠBea utiful
Ġwind s
Ġfl ash
ort ment
Ġfaucet s
ĠSK Y
Ġbottom s
ĠSK AT
ĠClo sed
ĠN eck
ĠZeb ras
ĠS eat
ĠR ect
Ġgo lf
Ġbur ning
Ġdire ct
Ġlot ion
u stri
Ġexten ding
ĠSun light
ĠLet tuce
he tt
o ver
ur ry
Ġpo dium
ĠEleph ants
Ġtu ft
Ġs anta
ĠDe ad
Ġcyl ind
Ġe le
Ġunders ide
ĠM OT
Ġlemon ade
Ġstre ak
ĠSt and
ĠP INK
Ġpap ay
E EL
ustri al
ĠS et
Ġflu orescent
ra m
Ġtoile ts
Ġsh ine
Ġtak es
Ġc ages
Ġpo tter
Ġle ad
Ġalm onds
AN S
Ġser ver
co ck
Ġd ense
Ġbag gage
ll o
Ġappro aching
Ġterra in
Ġlan tern
Ġever y
Ġsi d
Ġdi pping
y y
ir d
Ġfrien ds
Ġwater fall
ĠT ile
Ġdoll s
Ġto es
Ġprod uc
Ġconvey or
p ants
b l
Ġpor k
Ġbrist les
Ġstra pped
Ġbe ets
t ish
ĠL AR
ĠSo ccer
Ġin cl
ĠW I
Ġcomm uter
Ġbuo ys
Ġmer ch
Ġspl it
ar n
Ġgreen ish
Ġb ins
Ġro ast
Ġgra bbing
Ġshopp er
ĠS C
co lor
Ġfor ming
ĠM agaz
Ġcap e
Ġhi ps
Ġgy m
ĠPE OP
Ġpro bably
Ġbl ow
ĠT ea
Ġtor so
Ġco lo
Ġsqu ir
n et
hett i
Ġw re
arm es
Ġdo lph
m eal
Ġchi pped
ON G
ĠTo y
Ġlin en
Ġemer gency
Ġchild s
Ġtr ough
ĠS A
ok ed
ĠPEOP LE
Ġs esame
Ġfl i
Ġsp ider
ĠE yes
ĠP ol
Ġweb site
ĠSN OW
Ġp ay
Ġsignal s
ĠVeget ables
Ġw ard
ĠLAR GE
m ark
ĠSt ar
ack ed
Ġcar amel
es ted
Ġbe aded
Ġsp ire
z a
Ġtu cked
Ġre lish
Ġd ang
Ġcal ico
Ġpit a
Ġpapay a
Ġdeli very
Ġmid air
Ġj o
ac les
V ES
p o
ag hetti
AM P
ob ile
ĠSt at
n se
Ġdress es
ĠP os
g lass
Ġt ass
Ġwatermelon s
Ġmov ie
al og
R Y
Ġmon ument
f in
A K
Ġtor n
Ġskateboard ers
Ġsun flowers
d ecker
ul ts
i xture
Ġsha ving
Ġ Q
Ġsh ap
Ġboard walk
AS E
ĠE Y
ĠBlan ket
v o
Ġinflat able
ap s
am s
Ġcamou flage
Ġri dden
ĠC LO
armes an
Ġb ind
Ġgr and
ĠC ard
Ġrain y
it ti
Ġsp out
EN T
and ise
LE S
Ġt one
Ġpi les
Ġward robe
Ġdu de
i kes
Ġra dish
ack s
ĠH anging
Ġpitcher s
p ark
Ġoven s
ĠS alt
Ġartich okes
Ġhi pp
Ġnear est
Ġwate ring
rop ical
Ġla und
Ġcour se
Ġbackpack s
Ġcomp lete
Ġf it
Ġflo ck
Ġcrowd ed
ĠSh oes
ĠCam era
ĠStat ue
ate e
ĠRo ll
Ġind ustrial
Ġpea cock
ĠB oth
ĠD onut
Ġsun shine
Ġscru b
ĠW ires
Ġt aller
Ġmarin a
ven der
Ġsea food
ĠP AP
Ġs ort
Ġham mer
Ġmerch andise
ĠB IKE
IC E
Ġpick ing
ĠVari ous
g ie
ĠI T
ĠCou ch
ĠM outh
RE L
Ġo x
ĠE gg
an nel
Ġback s
m a
ĠW AL
Ġsu m
Ġbrown ies
ĠP lat
ix ed
ĠSh oe
Ġi mp
Ġbaker y
ĠSa uce
ĠSK I
ĠBir ds
Ġneck laces
ĠO UT
Ġsto cking
red it
ĠCe iling
um my
Ġap rt
Ġale rt
ĠF a
Ġa li
Ġlaund ry
Ġta illight
Ġwh tie
Ġad idas
Ġgo atee
Ġen ds
Ġm all
bu cks
LE T
Ġoct agonal
ĠSnowboard er
ĠP A
Ġstret ch
Ġst ab
re ts
ĠELE PH
ation s
Ġit self
Ġlimb s
Ġst amp
Ġbrick ed
Ġoat meal
Ġd am
Ġcam el
Ġleaf s
Ġban ners
ĠC ook
le ep
Ġsciss or
ĠU P
er ole
Ġobser ving
Ġpea ce
cc up
Ġsweat band
Ġlea ve
ĠS w
ind s
Ġpitch ing
la mp
Ġass ortment
u ctor
Ġbrown ish
Ġacc ent
ha ired
ĠBE H
Ġa ct
Ġsa iling
Ġli ds
ĠFL OW
ĠS mo
Ġpad d
Ġspi ky
Ġrib s
Ġro bo
Ġpotter y
ĠC ooked
Ġbu d
Ġsquir rel
Ġsli ppers
y al
ĠDon uts
ĠBEH IND
Ġunder wear
Ġdown hill
Ġfire truck
b rown
Ġhand rail
ĠR ing
ome ter
Ġn ine
old ed
ĠCU P
t ray
ĠB ranch
Ġexpress ion
Ġplay ground
AN G
is tening
bb y
ĠCurtain s
ĠHor ses
Ġref e
ĠSlic es
Ġdivid ing
Ġal ley
Ġflow ing
Ġself ie
Ġ @
Ġbl u
Ġla id
T ED
Ġsp aghetti
Ġcig ar
Ġto ss
Ġbound ary
Ġhand ing
Ġparas ail
Ġp ress
ĠDES K
ĠSilver ware
iff el
ĠA l
Ġw are
Ġcub icle
ĠS ingle
h and
Ġente ring
Ġc redit
IE LD
b ee
Ġbalc onies
Ġstreet s
ĠL AP
c up
Ġ if
ĠSH AD
ĠButton s
ĠTRU CK
Ġdang ling
Ġto ok
Ġcan al
Ġun lit
Ġcass erole
Ġm akes
Ġfla kes
ĠS AND
AR K
ĠChild ren
ĠBo ard
Ġcylind rical
Ġm ixture
Ġoutfit s
de x
Ġfresh ly
ĠRef ri
RI P
Ġl ast
Ġcon vers
ru s
ĠP ort
Ġcap ped
ĠTI RE
Ġwriting s
T OP
Ġseagull s
Ġhub cap
Ġob long
Ġdump lings
Ġn est
Ġv ents
ĠMed ium
Ġsum mer
li p
ĠJ E
ĠS ec
Ġad ults
ull y
Ġfro zen
ation al
Ġas leep
Ġsub st
ĠJ ack
ĠGRA Y
Ġag ed
Ġrear view
REL LA
ĠMOT OR
el ine
ĠIn di
ĠW ords
Ġproduc ts
Ġhat ch
Ġo vers
ĠFa ucet
ĠR ug
Ġbar b
ang led
ĠU MB
Ġvel vet
ĠSc reen
Ġext ra
Ġcomf ortable
ĠChi cken
Ġbucket s
P EN
Ġsee m
Ġbuff et
ĠUMB RELLA
Ġsh utt
ĠM a
ĠShe lf
Ġtrip od
Ġcomp et
Ġpend ant
Ġprod uct
n uts
g les
Ġarm y
ell ing
ĠN O
Ġnostri ls
Ġla vender
Ġt ropical
Ġadvert ise
ĠFe male
F A
ĠB EN
ĠT ooth
Ġwaterm ark
Ġtra ve
Ġengine er
s i
ĠSHO ES
ĠT ake
Ġfac ade
Ġtw isted
N G
Ġlea ving
ĠBA G
Ġshap es
ĠW earing
ĠChair s
Ġgam ing
Ġst rong
Ġduff le
Ġindic ator
Ġdirect ly
ig an
ĠSp eak
ĠH igh
Ġbur ned
v ity
ĠNumb ers
EB OARD
ĠSU R
ĠC ap
Ġpol ished
Ġappli ances
op ened
ain t
ĠSa lad
Ġcond uctor
Ġpear l
Ġb ab
Ġare as
A GE
Ġve g
Ġdon keys
Ġch asing
al le
ĠSKAT EBOARD
Ġash tray
Ġsu per
Ġlit ter
Ġic on
ĠD ri
Ġflo rets
ag er
ĠAdvert isement
Ġp le
Ġopen er
Ġnood le
s lee
w he
Ġplay s
Ġsprink le
Ġcigare ttes
M P
Ġv in
il led
Ġgre ase
ĠBOT TLE
Ġf urt
ro ll
c ut
Ġjump er
ĠClou dy
Ġval ley
ĠPAP ER
Ġindi vidual
tt a
Ġqu ar
Ġrobo t
ĠP at
ĠContain er
Ġth read
b led
Ġri d
Ġover alls
Ġchar ging
Ġsp oke
lat ed
ĠD raw
ĠJE ANS
Ġhid ing
Ġbullet in
ang u
O G
Ġelev ator
Ġ crib
ĠG ri
ĠLu ggage
ĠCh rome
u ge
ND ER
Ġbun dle
Ġri sing
op ard
Ġf air
Ġcr est
Ġyoung er
Ġf ut
Ġatt ach
Ġslo pes
Ġroof s
ĠBo ats
Ġhair s
Ġfig ures
ĠBEN CH
Ġbro ad
Ġn intendo
Ġmango es
Ġcard igan
i ent
or a
ĠTh at
Ġcran berry
s ers
Ġdolph in
Ġcro oked
Ġl angu
Ġlo aded
Ġshutt le
ĠS ty
ĠB urn
ĠL AD
Ġlo ves
Ġplu gs
o f
CK S
Ġp om
Ġa ff
Ġdro ps
ĠiP od
ĠSHOR TS
ĠDes ign
Ġsmart phone
ĠK et
ĠM id
Ġti er
as y
Ġfla p
mb er
ĠW R
Ġte x
Ġgr ated
ĠUS B
ĠV an
ĠT OW
Ġre al
Ġs an
ĠK N
ĠI ce
Ġgu m
Ġco ffe
ĠS anta
Ġbal ck
te mp
Ġc all
gu ard
Ġingredi ents
Ġcondition ing
ĠO ff
ĠGLASS ES
Ġsp are
ĠPot ato
Ġro ot
Ġmelon s
Ġstab il
Ġan alog
Ġbutterf lies
Ġru ns
ĠFl oral
ĠAf rican
ĠT ri
Ġsail s
ĠST RIP
ĠVehi cles
C YCLE
Ġtre y
ĠS ea
ĠT ag
Ġpr omot
y le
Ġhorse back
Ġbor dering
Ġrefe ree
Ġpee king
Ġtur b
ĠW e
Ġsp rou
ap ing
ĠPe dest
Ġparas ol
ri pt
ĠO PEN
ĠD rink
Ġbo ld
Ġ1 5
ĠSign s
Ġg inger
ĠO r
Ġst itch
Ġt as
ĠAnimal s
ĠO ven
Ġy arn
ps i
Ġspect acles
Ġrow ing
ĠELEPH ANT
Ġfl ood
OU SE
ĠUn ited
Ġpair s
Ġstun t
Ġbab ies
ĠH OT
Ġmark ers
Ġpumpkin s
Ġm is
Ġlic ence
H ER
Ġgr ano
Ġgrano la
b read
ĠSmo ke
Ġvin yl
Ġto o
ĠM ini
ole um
Ġturt le
ĠCo la
Ġingredi ent
ĠWH EEL
ĠBe er
ccup ied
Ġther m
ĠMOTOR CYCLE
Ġflo at
ĠT ip
ĠP ine
Ġscore board
Ġup ward
Ġsection s
Ġpe psi
Ġmeat ball
Ġe l
Ġsp ark
ĠE AR
Ġse ries
hie f
Ġair line
ĠM ost
Ġur ban
Ġri dge
ĠLAP TOP
Ġcar ving
Ġim ages
B ook
ĠO f
Ġlar gest
len ty
Ġd ull
Ġmap le
Ġtun a
Ġtomato e
Ġres ort
ĠRect angular
Ġo uter
fa ct
Ġc ent
ĠN ight
IT CH
r ation
Ġwrink le
u fact
Ġloves eat
Ġstalk s
Ġskate park
ĠMo ve
ĠF o
Ġwith in
Ġapp et
Ġcyl inder
Ġsit ted
Ġme eting
Ġtoothp icks
Ġang le
lack s
al c
Ġcru ise
ĠT AN
Ġt it
Ġemb ro
ĠS W
AN E
t al
Ġin dex
Ġprep ared
ĠBra ce
Ġflat screen
Ġm ickey
Ġsilver y
Ġm owed
ĠSk is
ĠC rowd
ycl ists
Ġanch o
ĠSte el
A FF
am ole
ĠP u
ĠGrass y
Ġadvertise ments
Ġp armesan
ĠM U
Ġis n
ĠSt ick
ĠAd idas
u ous
ĠRefri gerator
F T
P LE
Ġhook s
E Y
Ġbe ad
Ġrecl ining
ĠB each
ĠU NDER
Ġste pping
v a
umb ing
ĠSt airs
ac y
Ġpu sh
Ġo dd
Ġon t
e x
yl on
Ġare na
eat her
ac amole
Ġsubst ance
ĠC oun
Ġla yers
Ġfall s
Ġhang ar
Ġcopy right
Ġtool box
erc hief
Ġbes ides
sh ake
p an
he ring
ĠBri dge
ĠL AMP
Ġair bor
ĠPH ONE
Ġruff led
Ġbottle d
Ġfi xed
pi ece
Ġi vy
Ġenclo sed
Ġgu acamole
es ting
ĠH ANG
Ġwal nut
Ġtall est
Ġt ar
D S
ĠL ot
ĠBri cks
Ġloo p
Ġye ar
Ġt angled
Ġz ip
Ġchees eb
Ġhing es
Ġs lacks
Ġrecept acle
b les
ĠPepper oni
ĠA R
ĠE ars
Ġ 0
it o
Ġarch es
ĠA IR
ĠH EL
Ġst rand
ĠL ONG
h one
Ġpoin ts
c er
l ined
Ġp as
Ġdesk s
ch es
ĠPark ed
Ġmilk shake
Ġd ou
Ġurin als
ĠM ust
Ġlin oleum
ĠCh opped
Ġg utter
K ET
ss y
Ġbig ger
ĠGIR AFF
Ġcolo ring
Ġavocad os
Ġlamp post
ident ial
Ġcamp er
Ġte mple
ĠD ell
Ġwre ath
Ġgra b
Ġsw ive
Ġp ec
ĠAd ult
ĠPla id
ĠPAR K
ĠL IT
ĠB ur
ĠH IS
Ġgall on
ric ade
ĠTHE SE
B Y
ract ive
ĠO cean
Ġentry way
Ġf ins
ĠB ALL
te nsil
Ġlangu age
ĠD ough
u se
Ġyellow ish
n as
Ġben d
Ġamb er
u ro
l iner
Ġoverh ang
Ġlogo s
Ġa er
Ġpropeller s
Ġri ms
Ġhook ed
ĠR ope
ĠBack pack
Ġoct agon
Ġairbor ne
ap an
ĠL ar
ĠCor ner
Ġback side
ĠGira ffes
Ġflow ering
th ing
Ġtight s
Ġpoo dle
Ġrust ic
Ġhe ating
Ġn ap
ĠSo ap
ĠF olded
Ġw ill
Ġche wing
Ġpro g
ub by
Ġvol ley
ĠL ab
Ġcheck ing
ĠCra ck
ĠBO AT
Ġprotect or
ĠSh ower
ĠEY E
ĠCir cular
er man
asp ing
Ġadd ress
alle l
ĠTHE RE
Ġ1 9
ĠTomato es
Ġduff el
ĠP ast
Ġcro che
ĠSt icker
ĠZ EB
Ġmul ch
Ġf ou
Ġle opard
ĠO b
ĠCan ad
Ġkind s
Ġstock ings
ST IC
Ġu s
c ting
ĠBl inds
ĠPLA STIC
ĠPO LE
ab it
Ġpull s
ĠMon itor
Ġle an
ren ce
Ġdispen sers
O VE
Ġsli ver
ri lla
Ġprof ile
ĠEng lish
Ġpa mp
ĠSO FA
Ġbare ly
Ġv i
IR R
ĠCar pet
Ġmu ral
Ġsi mple
Ġbun ched
Ġgro o
RO OM
Ġhim self
c orn
ĠRO AD
ĠHANG ING
on ald
ar a
Ġfun ny
Ġle ans
ĠMac Book
p u
ĠOpen ed
Ġaff ixed
ĠL and
ala pen
bl ue
Ġmot o
Ġcheeseb urger
ĠE nt
Ġawning s
ĠBri tish
re m
ĠF LA
iss ors
Ġchain ed
Ġprot ru
ĠC OW
Ġsprou ts
Ġri nse
ĠBl urry
Ġp lenty
ĠP UR
ĠSty rofoam
Ġlove ly
ĠPot ted
Ġfut on
Ġli mit
Ġle ver
ĠS L
ĠM IRR
Ġpo king
ĠMIRR OR
Ġprong s
O C
ech an
Ġpromot ional
hi p
Ġta co
Ġcro ck
k ra
Ġtex ting
ĠC OU
Ġthermo s
Ġmon ster
Ġglo b
Ġsil k
Ġincl u
ĠF an
Ġspect acle
op ing
Ġbar ricade
RE E
ĠHEL M
ĠR ailing
ĠLet ter
Ġgo rilla
Ġboo gie
ĠCLO CK
ĠC OUN
ĠPos ter
Ġj ack
Ġesc ape
Ġsign board
Ġpri v
d rop
Ġsc all
Ġfrien d
Ġce le
Ġstop per
Ġshoe laces
Ġblock ing
ĠWAL KING
Ġhead ing
I F
Ġautom obile
ĠOut door
Ġh abit
ang les
ĠTow els
Ġh un
ree k
Ġsi m
ĠMid dle
Ġsee ms
Ġlift ing
ĠDVD s
band oned
Ġpla za
ĠF A
Ġan ge
Ġro yal
Ġscrew s
Ġh ad
c ard
t own
Ġpar allel
Ġ20 1
Ġshing les
Ġdom ed
Ġsold iers
EB ALL
ĠBAS EBALL
v i
ĠEng ine
Ġdev ices
Ġsnowboard ers
Ġfl ies
Ġmac book
ĠM c
Ġti cket
Ġwrink ly
ĠR U
Ġper f
Ġtim er
es ts
Ġun made
Ġres idential
ĠTA LL
ĠR ain
t a
ĠMar oon
Ġskyscra pers
Ġgra f
ill age
ĠN umer
R OW
ĠMu shroom
Ġblossom s
Ġe iffel
Ġgri d
e mb
Ġ1 8
Ġstabil izer
ĠA pples
ĠPI LL
Ġpo ss
ĠJack son
Ġcou ld
Ġla ys
ĠF or
Ġcar a
ĠP ar
Ġmou st
p ole
Ġst ru
is ed
la ge
and er
Ġdri vers
AD E
ĠBO ARD
r om
Ġne igh
Ġali en
Ġclass ic
Ġshin ny
Ġmir ro
ĠB OOK
Ġtransport ation
Ġpl umbing
Ġlo ad
ition al
k er
Ġco ast
ĠF ield
Ġsm oot
Ġcau ght
Ġc are
ĠBO X
w ri
z y
il son
ond on
Ġhipp o
Ġs ing
ĠT iles
Ġdri pping
s a
d own
Ġnear ly
Ġchimney s
Ġlabel s
Ġch a
oth ing
ĠSUR F
sty le
Ġor der
riz ed
Ġspeck s
c loth
Ġgoo gles
Ġsoft ball
ĠStri pes
Ġman ufact
Ġback drop
Ġdec id
Ġca ucasian
te en
Ġspeak ing
ure r
Ġrec ord
Ġmay be
Ġleg ged
ĠL ines
Ġgri pping
Ġla pel
ĠP ep
ĠCont rol
ĠCOUN TER
Ġsu ite
Ġribbon s
ra me
Ġhas h
ycl ing
Ġv ane
Ġsh ines
mo de
Ġhabit at
Ġcool ing
ĠM ult
Ġswive l
lo ck
li ding
ĠSec ond
Ġear th
Ġcroiss ants
Ġm echan
Ġmen s
Ġun i
Ġun opened
Ġthumb s
ce des
ĠC alm
ĠE nd
ĠR u
Ġmountain side
Ġsp ine
ĠH uge
Ġmeat s
Ġident ical
Ġstem med
ĠP OT
Ġhe at
ĠS er
Ġa bandoned
ctor y
Ġfl annel
Ġgat hering
ĠPILL OW
ĠCD s
ĠA ss
Ġpop corn
Ġd im
apan ese
ĠSHAD OW
Ġmoust ache
ĠSc issors
ĠF I
Ġc pu
ĠT ray
Ġ earing
Ġsuspen ders
Ġdecid uous
ĠL ook
ĠLAD Y
ac es
Ġher ding
n o
Ġed ging
ĠPhot ogra
Ġfarm er
Ġpadd ling
Ġd one
ĠAre a
Ġwh ale
Ġoper ating
Ġpamp h
Ġv illage
Ġshor ter
5 0
Ġgo es
ĠPort ion
Ġprotru ding
Ġn on
s et
ĠP ost
ĠN avy
Ġneed les
ĠCL OU
Ġp ract
U MB
Ġkne ep
ĠFe et
ĠO li
Ġhal ter
ĠPep si
Ġeven ing
ĠCA KE
Ġsea m
Ġblack berries
Ġre ign
Ġn ick
Ġtherm ometer
Ġno zzle
Ġshing led
li et
ĠO VER
EE P
Ġ id
ĠHELM ET
Ġs led
ĠU p
Ġsun lit
Ġri se
ĠLE G
Ġli es
Ġval ve
Ġcele br
ĠD el
Ġic ons
an na
Ġp ages
ĠD ARK
ĠHor ns
ĠBro ken
Ġfre ight
Ġripp led
IL ING
Ġsign age
ĠG i
Ġsi ded
Ġsp ri
Ġfle ece
Ġscoo p
Ġwater craft
Ġc res
ĠL o
Ġform al
Ġre ach
prin t
Ġj alapen
Ġadj ust
Ġw oo
ĠSu itc
ĠSto ve
Ġp est
Ġgrow s
n der
te ries
c ted
n es
ĠKet chup
Ġkick ed
Ġm oose
Ġqu ilted
len t
ag ing
Ġglo ssy
Ġsmile y
ĠT iny
Ġow ner
Ġti pped
Ġsw ung
I M
ĠCH E
Ġpal let
Ġcur rent
let on
ĠCand le
Ġdo ily
e ven
ag ged
Ġs ound
Ġindic ates
Ġtea cup
ĠK ids
o ccupied
Ġh ow
ĠGIRAFF E
Ġplu ng
Ġelectric ity
A G
it s
Ġsc en
Ġpas tel
hed ral
Ġbeard ed
ĠWI I
Ġsa ute
b asket
b lack
Ġc i
ĠHard wood
ĠBranch es
Ġl ess
ĠB Y
ouse l
ĠC ONT
ĠJ acket
Ġke eping
Ġclo the
Ġval ance
ĠN et
Ġcom mode
Ġcomplete ly
c ro
Ġslo ped
Ġse wer
Ġri dges
ĠBir thday
ĠS INK
ĠPla yers
Ġl or
OU R
Ġplan ters
ĠM elted
ĠK EY
as ed
ĠC oke
ĠSt ring
v il
ĠSpeak er
Ġeas y
Ġhair cut
Ġbloom ing
ĠSto re
Ġin struction
ng le
ĠI D
Ġw ading
it rus
Ġun even
ĠOver head
ĠT E
Ġpa ving
Ġgre asy
h o
Ġdam aged
Ġstret ching
ue l
ĠDi fferent
Ġf oots
Ġcream er
Ġind ent
Ġse g
dd les
Ġdown town
Ġeas el
fin ished
ĠP AT
tens ion
ĠMult ic
ĠWAT CH
Ġfa ced
Ġhel p
Ġdecor ating
Ġent ire
Ġob sc
ĠI te
Ġed ged
ams ung
f lo
Ġfer ry
ĠR EAR
ĠPL ANE
ĠL a
ĠOn ions
Ġrid ged
Ġres emb
Ġup wards
Ġsnow man
fe rence
Ġslat ted
Ġchees y
an k
Ġso l
Ġ1 4
Ġcrust y
Ġinf ant
ĠPlat es
Ġo wn
ĠL ad
Ġview ing
ĠTH REE
Ġchi ck
ĠSt ates
ĠGar bage
Ġcat hedral
ĠLE A
ĠHAND LE
Ġn othing
Ġcu rious
Ġwe ight
ĠBA BY
Ġpec an
O L
l uc
Ġfin ish
ĠU tensil
Ġcell ular
ĠCa ucasian
ĠM ark
eat en
Ġcap ti
Ġspon sor
ĠCard board
Ġt ying
ĠCle an
Ġplung er
Ġs al
r son
ĠT ower
Ġmotorc yle
Ġnumer ous
Ġday light
Ġnew s
van na
ĠT ie
Ġco b
ing us
st at
Ġbat teries
Ġsle nder
ĠH ouses
Ġswir l
Ġcompet ition
al ian
Ġ -
Ġor chi
ck les
ri um
ĠB utter
ĠBAT H
Ġlor ry
Ġsurround s
Ġstruct ures
Ġgr asping
ĠD IS
ĠLE FT
Ġc itrus
Ġro t
als a
b ird
Ġmeatball s
ĠG oggles
Ġsepar ate
us ted
lash es
Ġtrave lling
Ġy ummy
Ġfingernail s
T H
ĠVehi cle
Ġf rees
Ġst ate
ĠMust ard
Ġphotograph s
Ġange l
ĠC ord
Ġart ist
Ġnice ly
h at
ĠH ER
an ish
ĠB alc
Ġ er
Ġtw el
ĠP rin
Ġth ru
ĠK ITCH
Ġtwel ve
ĠKITCH EN
Ġcar ousel
Ġl istening
ĠSt ra
m med
Ġflow n
Ġloung ing
ĠShe lves
Ġt oned
Ġlo dge
Ġm int
Ġfl yer
Ġpad ding
ĠD IRT
ĠCH I
Ġsi ppy
Ġstraw s
Ġmess enger
Ġgraf itti
Ġbowl ing
ĠM il
ĠD in
Ġg our
ĠK ID
Ġrac er
ĠPain ted
Ġsc roll
luc ent
Ġdown ward
mper ature
Ġatt ire
Ġm el
Ġland line
Ġju ngle
ib ly
Ġcl ub
ĠF irst
ĠCO FF
Ġcapti vity
ĠCOFF EE
Ġsome body
slee ved
Ġesc a
Ġw ines
Ġstitch ing
Ġshin ning
Ġfeat uring
ĠPE rson
ĠCloth es
ĠNeck lace
ĠTO I
ĠEye glasses
ĠĠĠĠĠĠĠĠĠĠĠĠĠĠĠĠ ĠĠĠĠĠĠĠĠĠĠĠĠĠĠĠĠ
G G
Ġsp ool
Ġwhi p
Ġstir rup
Ġbic yclist
Ġcir cus
Ġ1 3
Ġwor ld
ĠPol ar
Ġgray ish
Ġhal ved
ĠFLOW ERS
Ġdin er
ĠSte ps
Ġt ide
ĠP a
Ġhard ware
s ive
ĠP ack
ĠM ingus
st ract
Ġrep res
Ġc row
Ġn aked
li day
Ġjump s
ĠC ON
Ġbow tie
Ġlock ed
Ġun occupied
ĠZEB RA
Ġwait ress
ĠC LE
Ġmirro red
V ING
Ġcara fe
Ġske leton
ĠD ress
ĠBo dy
Ġd ream
AN CE
ĠBack ground
Ġret rie
Ġsn ake
Ġlan es
Ġkn ick
urn ed
Ġwed ges
Ġroo ster
ĠF am
ĠMultic olored
Ġpl um
Ġfa ctory
Ġwaste basket
ĠF OOD
ĠCabin et
il s
Ġfore arm
h est
I ES
ĠPLAY ER
M ENT
zz led
Ġturb ine
o te
ĠHill s
Ġcon f
X T
ĠE n
ĠTOI LET
Ġk ing
d u
f ield
Ġbu lding
ĠKn ee
ĠB re
Ġsection al
ĠT a
ad get
ĠM ADE
Ġsel ection
Ġs quee
ĠD E
ond a
Ġlink ed
Ġclut ter
Ġmass ive
ic les
Ġsqu ared
b ar
Ġf aint
Ġband anna
a h
Ġsn ap
um n
Ġsli m
Ġbarb ec
Ġbru shed
Ġte mperature
Ġcur ving
ph y
l t
Ġroo ts
ĠJe ans
ĠT ur
Ġvisitor s
Ġto liet
Ġsi te
e bo
Ġcur vy
Ġch ord
Ġcon ver
c ake
z ard
Ġthe ater
ĠR IGHT
Ġcra ft
ĠPARK ED
ĠKnob s
Ġra quet
Ġstream ers
Ġp aste
OM E
Ġau d
Ġvolley ball
om b
Ġre tain
Ġchicken s
Ġteen ager
Ġur n
ĠSh ru
Ġfr on
Ġsw oo
Ġlife guard
Ġgrow th
Ġli mes
ĠD IST
ĠLab el
ĠN UMB
Ġse wing
Ġshopp ers
w l
Ġpink y
li ps
Ġex tension
Ġbor ders
ĠCell phone
ĠCO VER
k i
Ġcoat ed
Ġmannequ ins
ĠKit es
ĠM ON
ĠF IELD
Ġeat s
Ġremo ve
Ġgift s
ĠiP hone
Ġstreak s
ĠL A
ĠPUR PLE
Ġbiscuit s
ĠIte ms
Ġshel ve
Ġg adget
la ble
ĠBag s
Ġatt ractive
ari an
Ġovers ized
Ġla min
Ġpat ty
ĠPl an
Ġg au
ĠS E
Ġmu sc
Ġlevel s
el le
AT O
ĠFR OM
Ġmusc ular
Ġslic ing
Ġso les
Ġ2 5
Ġh ap
Ġro ds
Ġstreet lamp
Ġcamp ing
Ġmoto rized
at ic
Ġsmoot hie
Ġdo zen
ĠW rist
ĠG O
t on
Ġbull s
ĠSU IT
kra ut
Ġtu xed
ect ing
Ġcab oose
IGH TS
Ġvine gar
ĠOr n
ĠBrace let
h ood
ide red
Ġsymbol s
ĠBE ACH
Ġle arning
Ġp ac
Ġg en
st one
Ġstra iner
Ġon es
ce ries
ĠRE F
Ġk issing
ĠTRA Y
ĠB rand
Ġfield s
Ġsplash es
Ġiron ing
ĠWe eds
ĠW ide
ĠPotato es
Ġblock ed
ag o
Ġta x
f ather
Ġ erase
Ġbro ch
Ġat tent
Ġcrumb led
ĠPI E
ĠRock y
C ola
Ġbu id
Ġf ight
Ġpud ding
Ġsh aking
Ġhill y
ĠR OUND
ĠB ald
Ġtre nch
ĠM et
Ġout lined
ĠC al
Ġchain link
Ġad or
ĠG ame
Ġmot oc
Ġ late
ĠHand les
ĠR A
Ġmov ies
ito rium
ĠTA IL
ĠLIT TLE
Ġradish es
ĠCoun ter
Ġs alsa
Ġtra m
Ġreflect s
RE EN
Ġdri ft
ser t
Ġpin stri
at ched
Ġside view
Ġd ying
pla y
Ġj agged
ic ing
ĠT iss
Ġsla w
Ġun finished
Ġsa vanna
Ġstorm y
Ġreign s
Ġpe lic
Ġtrans lucent
Ġcorn ers
Ġbook bag
Ġmess age
Ġfrees bee
Ġaud itorium
Ġbus ses
ĠF ull
ĠB acon
Ġex iting
ĠBurn t
ĠCru st
Ġneigh bor
Ġdep ic
Ġ et
ec ar
Ġtie red
Ġgaz ebo
al o
Ġstir ring
Ġmanufact urer
ĠDIST ANCE
ri sp
I LL
Ġfoot board
ye red
ut es
ĠC PU
Ġtre at
ĠR ust
lm o
ĠP ale
Ġtuxed o
l ow
at ely
ĠBox es
ĠMagaz ine
Ġbu ild
Ġhand k
Ġdisplay s
Ġla y
il ar
ple ts
Ġy ach
Ġspec ial
Ġpl us
Ġfla v
Ġd ancing
ĠB AN
Ġsp ind
Ġde ter
Ġretain ing
ĠG re
Ġesca lator
Ġvend ors
Ġhe ight
c ar
ĠA ROUND
ĠJ et
Ġpo se
Ġpin ned
Ġbeds he
Ġw it
ail s
Ġdrain age
ĠSte m
ib rant
r ated
ĠL eather
Ġdu vet
Ġhang ed
ĠCA B
Ġt ric
op s
Ġbarri ers
ĠSH EL
p ress
Ġbag gy
Ġpro per
Ġwind ing
Ġfed ora
ĠM er
Ġfurt hest
ĠSm aller
Ġbur n
Ġex erc
ĠTo ddler
ĠSuitc ase
Ġguard rail
ĠFOR K
Ġcre me
ĠFam ily
ĠCar rot
ĠIn side
ĠW ilson
2 0
Ġgro ceries
mb and
ĠBalc ony
pper ware
ran ts
Ġthermo stat
Ġcon cent
Ġsat in
if ying
ĠJ ar
ĠNE XT
ĠL id
ĠDri ver
Ġtru mp
u sting
ĠY ork
Ġthe med
Ġwhe n
ĠL INE
ĠNew spaper
ro lling
Ġwal nuts
ĠT attoo
Ġar mband
Ġbun d
ĠFire place
ĠB M
ĠC AP
Ġpu p
ĠF ro
Ġint ric
ĠTOW EL
Ġsim ilar
w s
ĠC art
ĠCabin ets
ĠFl uffy
Ġcon ference
Ġpa vers
Ġbik ers
ĠClo se
Ġ2 1
Ġgu ide
Ġcourt s
Ġpe ri
Ġrec or
Ġf ill
ĠRail road
Ġi phone
Ġembro idered
ĠPedest rian
Ġab stract
n i
Ġinformation al
Ġshell s
ES T
ĠJ u
Ġpriv acy
Ġc ray
Ġu sb
zz ly
Ġju nk
g ly
ĠN EAR
ĠC la
Ġkit tens
Ġh ous
ĠLe mon
Ġattach ment
m us
ac ent
RE SS
ic an
Ġdi agonal
ĠCHI LD
Ġg ap
Ġwinds urf
ect ive
ur dy
Ġsl ow
Ġb oun
v is
Ġsc ar
i lation
Ġwater way
Ġco t
Ġmotorb ikes
Ġripp ling
ĠStand ing
il ant
Ġne eds
Ġcap ris
Ġup on
Ġvac ant
AY ING
Ġbe gin
fa ri
Ġ2 4
ĠFri ed
ĠC ol
Ġfoot print
ilant ro
Ġeye lashes
Ġhang ers
Ġlat t
E AK
Ġlu mp
RE D
ect or
or ary
Ġ2 00
if ier
ĠUS A
ĠR ID
Ġli ly
Ġmo sa
Ġu ses
Ġmosa ic
op les
Ġwhisk er
ĠFla gs
Ġan t
ĠCur ved
ĠBo ys
Ġanten nas
com ing
om et
Ġsho vel
Ġper ked
Ġscratch ing
Ġplay ed
yy yy
RA W
Ġf isher
Ġwhite board
chi t
ĠS ail
Ġsiz es
Ġam id
Ġbow el
Ġc inder
Ġpajam a
Ġbrush es
V EN
Ġle ast
d ress
and y
Ġlatt ice
Ġpro p
ĠAss orted
ĠG U
ript ion
Ġswoo sh
Ġh y
Ġsnow fla
ĠKey s
Ġside lines
ĠSand y
s ized
Ġstar bucks
Ġhatch back
ĠG as
Ġsand les
ĠDin ner
Ġhandk erchief
om y
Ġlens es
d der
Ġneck s
ĠSa fety
ĠP ri
ER Y
Ġsweat pants
Ġn ur
Ġpu g
Q U
Ġm ort
Ġf ist
Ġadj acent
Ġorchi d
ĠW ing
ign ia
ain ted
ĠL ondon
Ġmet tal
Ġmo ld
Ġeng lish
Ġp ric
st ory
ĠH ole
Ġposs ibly
Ġuni que
Ġmel ting
Ġpro pe
Ġcl asp
Ġ que
Ġadj usting
ĠIndi an
ĠCl ump
Ġbarbec ue
ĠH ar
ĠSp in
Ġw ar
Ġle ads
Ġde ll
Ġchar red
Ġaer op
i k
ĠBM W
Ġmas on
Ġc reek
ĠMen u
Ġtrump et
Ġpaper back
Ġmettal ic
uro pe
LASS ES
" .
le x
Ġco iled
ES E
ĠDo ors
Ġla va
Ġmode m
Ġa llow
Ġlad les
Ġs en
Ġc ant
Ġf ir
Ġkn ack
Ġcre ated
Ġjalapen o
n ie
ĠSte am
men ted
Ġyach t
u x
Ġex c
ra in
ag ue
ĠM e
Ġwait s
ch ment
Ġt ed
c am
ti ble
Ġdro plets
chit ect
Ġra z
IC H
pa que
Ġgroom ed
Ġkhak is
1 0
K IN
ĠB AR
Ġthat s
Ġpotato e
Ġcas ing
Ġwi lder
le ene
ye llow
Ġst urdy
ĠW INE
Ġmu ch
Ġgaz elle
b re
Ġfi xing
Ġfeat hered
Ġpull over
Ġsli pper
leene x
Ġsign post
Ġho liday
ĠMagaz ines
ĠMa gnet
wri tten
Ġd andel
ĠC AN
Ġpark a
ĠHot dog
Ġsw ings
Ġat temp
Ġtra d
ĠPart ially
Ġteen age
Ġ ranch
Ġneighbor hood
Ġsw itched
ĠBl ond
Ġobsc ured
ĠCAB IN
ai lable
Ġtit le
Ġevery thing
Ġsm elling
ĠSa us
Ġtarm acked
Ġmit ten
me ter
Ġdri zzled
Ġcook book
Ġx box
Ġpar chment
ĠW ave
ĠBAS KET
Ġsid ecar
ĠBATH ROOM
Ġphotogra p
ĠSe ven
Ġheads et
ON D
ĠNE CK
ĠB IR
Ġfin ished
Ġco de
Ġmatch es
ran k
Ġsmall est
ĠH AVE
O ON
ĠT w
ĠW rink
Ġc ilantro
ĠR est
it ting
Ġfor med
Ġm ight
Ġbread s
Ġwo lf
Ġmoun t
Ġbis on
Ġcor al
Ġpack aged
ĠSH EEP
ĠPur se
Ġgu iding
ĠH ea
en ter
Ġgrand father
ĠCLOU DS
omet ric
Ġla yered
ĠMON IT
Ġcarton s
Ġbarrel s
ĠB lender
Ġflat bread
Ġcla im
Ġancho red
Ġb on
us her
me rica
ĠH appy
ff les
D onald
Ġv ans
Ġhi king
Ġmultic olor
ĠPain t
Ġhut ch
Ġraz or
Ġde f
ĠCanad ian
rem ely
Ġconver tible
Ġco tta
ĠC OR
Ġpu pp
Ġorgan izer
Ġquar ter
Ġto en
Ġshadow ed
Ġpin s
AL K
re me
Ġback g
Ġinf ront
p art
Ġt at
ĠB ell
ĠCo llar
ĠKEY BOARD
Ġretrie ver
Ġv ibrant
Ġbas eline
Ġth rew
Ġro de
ri t
ĠL AYING
Ġli zard
Ġbut cher
ĠDog s
ĠP ants
t able
ĠCru mb
ĠLeaf y
ĠP U
IN ES
Ġun used
ĠW icker
Ġclip board
Ġbroco li
Ġcre w
ck er
Ġsa fari
Ġbri d
Ġaccess ory
Ġf est
ĠCABIN ET
Ġmat s
ĠFoot prints
Ġgo b
ĠM ickey
Ġret urn
ĠR ad
Ġfight ing
Ġatt aching
Ġch ess
D Y
er kraut
ĠP in
ĠH ay
Ġoverh anging
ĠSpin ach
Ġback ed
ĠV iew
Ġblu ish
whe re
Ġtric ycle
nis ter
ĠTiss ue
ig her
ĠP re
ĠL U
ĠDis play
Ġcurrent ly
Ġp our
Ġn ature
ĠV er
Ġcl as
Ġpi ping
Ġwor ding
ĠSh orts
OO KING
iz ers
est ic
ĠT iled
ĠAr row
Ġmul t
ĠV ASE
Ġspin ning
Ġsleep y
ĠL ow
Ġtomato s
Ġins ignia
u sh
ĠDe ep
ĠMONIT OR
ĠMc Donald
Ġin tern
Ġch ubby
ĠL OG
Ġ1 6
ĠV ideo
ĠAR M
st ation
ĠC ro
Ġtas ting
Ġsh ack
ĠWINDOW S
Ġb len
ĠBU N
Ġm ag
Ġg ates
Ġf uel
fa ce
Ġmet ro
Ġclump s
v in
Ġmetal ic
Ġcent ral
ĠM ug
ĠBR ICK
ĠW OR
Ġnot ice
Ġscratch es
ĠLar gest
ĠR ACKET
ĠChi mney
Ġvent ilation
Ġconvers ation
w ater
ĠF ur
Ġcolou red
ĠS EAT
ĠBAN AN
t ick
ri er
Ġhis to
b ur
Ġs ou
ĠEx terior
ĠCLE AR
Ġpl iers
Ġpla ins
Ġgl ow
Ġrais ing
Ġdash board
Ġmuff ler
Ġpelic an
Ġhous ing
ol in
ĠDra in
ĠNUMB ER
g ated
Ġgroup ing
Ġhair brush
Ġsea led
Ġav ailable
ĠMost ly
ten ed
Ġfr es
Ġglo omy
Ġornament al
Ġcas ted
ĠNO SE
is m
Ġski i
Ġfil ter
ĠQ u
g andy
Ġtank top
Ġcl own
Ġbell s
ĠMotorc ycles
est ry
ĠB un
Ġsupp ly
Ġo paque
Ġri nk
Ġp y
is ting
Ġge ometric
ute d
ĠF O
Ġlink s
Ġfound ation
Ġlean ed
Ġh igher
ri se
Ġcha ise
f ully
Ġp uff
Ġsilver tone
Ġsk aters
Ġco al
ĠG ran
ĠElect ronic
ĠF ish
Ġon top
Ġun us
Ġware house
ĠBre ak
Ġflower y
Ġdri ves
Ġtrail s
Ġaerop lane
Ġoffic ial
ĠStar bucks
ĠB aked
l in
Ġmed ia
Ġ5 0
p ainted
and om
Ġpo ll
Ġprotect ing
ĠDraw ers
Ġdet ector
ĠF RE
Ġseason ings
Ġpeak s
Ġju dge
Ġmake up
ri o
ĠM OUSE
Ġhit ter
te ring
Ġdra gging
Ġch ange
Ġcon ten
AS H
Ġloc ation
Ġfisher man
Ġpro v
Ġha w
Ġhum mus
Ġcla pping
Ġar chitect
ĠSHEL F
ĠBic ycles
re r
ĠM other
Ġfold ers
Ġsaute ed
h aw
Ġm or
G H
Ġstru ng
Ġn ow
ĠR ice
u d
Ġ3 0
Ġpier cing
Ġp ir
Ġgri zzly
Ġliving room
re g
ĠP aw
u lated
Ġwa ffles
ĠPo in
Ġpresent ation
ĠRu sty
Ġgob let
f ashioned
o ries
ch o
ĠC enter
le g
Ġste er
Ġfli pped
Ġmar bled
Ġtu lips
ed e
Ġattent ion
Ġhu mp
Ġdetail s
Ġcr out
Ġpamph let
lo pes
sp apers
ĠD RESS
Ġtri angles
ĠB a
Ġpest o
Ġbuff alo
ĠSHO E
Ġu gly
ĠG erman
ĠD OU
ĠReflection s
Ġle ague
Ġy et
ent y
Ġgraphic s
ĠCU RT
Ġsh aring
Ġgra ins
Ġhigh li
en ding
Ġn ylon
Ġveget arian
RO SS
ĠCURT AIN
co la
Ġc rink
Ġtoss ing
Ġk ale
Ġgum my
Ġle d
LE E
Ġpract icing
Ġmed ical
Ġbind ing
Ġv ast
Ġz one
ĠNumer ous
W ALK
board s
Ġmach ines
ĠSaus age
Ġf ashion
Ġal ph
ĠV ol
tic al
IF E
ĠS i
Ġcounter s
op ed
ĠL I
Ġramp s
ĠI m
ĠCand les
Ġintric ate
ver age
Ġcru shed
ĠSU NG
ĠTRA FF
ĠEgg s
ĠSUNG LASSES
or th
Ġst range
am an
mark et
Ġ2 2
Ġfil ming
ĠTRAFF IC
la p
Ġmen us
Ġv io
OO T
Ġsha wl
c ription
ĠSAND W
ĠSo da
c ases
Ġpan ed
ĠA B
Ġhead phone
ĠN OT
Ġsty led
ĠTI E
Ġbuid ling
C D
Ġm es
Ġshi ps
ĠZ i
ĠSANDW ICH
ĠH olding
Ġaw a
ĠP rot
ĠBur gundy
as k
Ġpu ddles
Ġnam es
n eck
Ġsa fe
ĠCir cle
Ġsuper market
T Y
Ġdu al
ĠOff ice
Ġsa u
uc c
ĠKit ty
t ch
Ġkn ow
ĠD igital
Ġbit ten
ĠSA U
ĠBU T
ĠKn ives
ĠSC REEN
u de
b in
u ally
Ġj aw
ot a
Ġconnect or
Ġg est
ĠC ords
ut y
re tte
co ver
ĠN ot
ĠS LEE
cre am
es tern
ĠPLAY ING
Ġmon iter
Ġent ree
ĠSHOR T
Ġ3 3
w all
ĠOn ly
ĠN AP
Ġaf rican
b a
p or
gn ant
Ġunc ut
ĠSW EAT
Ġsub mer
Ġtrad itional
ab et
Ġsm iles
Ġflag pole
in ter
ĠI ron
Ġstar ting
Ġhandicap ped
res ts
Ġin color
ĠD OWN
laz ed
ĠHo tel
Ġmar quee
Ġfree way
k ely
ĠC er
ĠVer tical
OO L
ĠL ED
Ġwine glass
eta h
ĠCer amic
Y ING
Ġperf ect
Ġ1 7
ĠCHE ESE
Ġru ral
Ġsep er
w ash
ĠLOG O
ĠWh ole
RE AD
Ġlow ered
f ish
Ġse as
Ġenclo sing
Ġb ec
ĠSIDE WALK
Ġf as
ĠV E
Ġflav or
Ġback rest
ĠF OUR
ĠGlo ve
P S
ĠD ist
N ING
Ġto bo
ĠC ELL
LE D
Ġbrown s
Ġanch or
ag ging
Ġmus ical
yd rant
Ġwe re
ck ered
ĠPIE CE
ĠW ed
Ġext remely
ve led
ĠV ent
st on
Ġhill top
Ġill ust
f le
Ġtow ing
Ġcur ves
Ġgoal ie
Ġadjust able
Ġhun ched
Ġfor ested
Ġso y
ĠD uck
Ġclo ser
ĠB ull
h or
n c
et ian
Ġcas ual
ĠAr ched
Ġsw ans
Ġpeak ing
ĠMic ro
Ġch art
Ġhoof s
ĠCU T
ĠPat tern
ĠK ITE
Ġalph abet
Ġd anger
Ġcray on
it am
Ġmit tens
Ġsa w
Ġen c
OT H
ĠO VEN
Ġra f
Ġcountertop s
Ġfer n
Ġkneep ads
Ġe la
ĠP AIN
ĠUtensil s
Ġfl usher
Ġg ren
Ġ $
Ġwilder ness
ĠD ried
ĠR acket
ĠDoor way
Ġground s
ĠDesk top
st icks
g a
o ff
Ġdoll y
ĠNAP KIN
Ġarm or
Ġsk ing
AM E
ĠDel icious
ĠMer cedes
Ġsubmer ged
Ġf ont
Ġsun b
IS B
Ġdisc s
ĠTooth brush
be lly
w is
Ġhand ed
Ġqu ite
Ġroad s
Ġbu st
ĠO val
ĠE lderly
ard ed
Ġsp he
Ġgall oping
Ġu mp
R OT
d ri
ĠO ther
Ġexerc ise
Ġbu ried
ed ded
N K
1 1
Ġbro cco
Ġadvert is
ĠI ll
ĠHead phones
Ġconten ts
Ġtu pperware
U L
Ġg or
Ġstand ard
ĠL CD
ĠRain bow
Ġpocket book
urope an
U TS
Ġgroo ves
Ġd ig
Ġaut umn
Ġpac ifier
ĠCh unk
Ġprep ares
ĠFruit s
Ġattemp ting
Ġst ub
ot ic
Ġmain tain
pher d
Ġstrand s
ag ie
Ġpl ow
Ġra ys
Ġlight ly
Ġun f
teri a
Ġplat ed
en ted
Ġha ul
mb ers
mo st
ĠFR ISB
Ġgro ve
ĠA L
ill as
ĠU tility
ĠF en
Ġcroche ted
ĠPE PP
Ġw ok
Ġhand made
Ġstre wn
stru cted
ĠIt alian
Ġci eling
ĠR ub
ĠLEA VES
an ced
ĠA C
Ġcandles tick
Ġchi pping
Ġflu shing
ĠAirp ort
E CT
z ed
ĠA PP
tern al
ĠC ock
Ġlong er
ĠLu sh
t ower
Ġve il
Ġcap ri
Ġchef s
Ġar ri
Ġsnow pants
Ġsome ones
Ġgu ests
Ġ2 3
Ġindic ate
Ġtap estry
as co
la m
ĠW ork
ĠT ab
Ġgra ze
Ġlo cks
Ġto pper
Ġr andom
Ġvi olin
g ate
Ġri fle
Ġpo ly
Ġsit ing
Ġped als
Ġce mented
Ġa st
Ġrest u
ĠW hisk
ĠTh row
n own
Ġfro thy
opp ing
Ġpo op
en d
Ġwhe e
Ġski iers
ĠM AR
tern oon
ban k
Ġappet izer
Ġindi an
Ġque en
o id
Ġbu ying
Ġcomm un
ĠPa ved
G ER
ĠGri lled
Ġinclu ding
im ote
Ġru ng
Ġemb edded
Ġfou l
Ġprope ll
ĠFRISB EE
r ating
Ġwas hed
Ġmay o
ĠJ apanese
ĠBIR D
Ġf elt
Ġback ward
he ll
ĠP ots
Ġcol ander
Ġtri o
Ġtw enty
I A
an se
Ġri pped
Ġve ins
ĠN ice
Ġv a
pen ing
Ġsat che
ĠMushroom s
t es
Ġche etah
Ġhum ming
Ġrec ycling
Ġbul ky
ic s
ĠB IG
ĠOn ion
ĠV ERY
m ill
Ġma j
Ġeach other
ĠRID ING
k ia
Ġhand written
Ġweb cam
Ġle aping
ĠL OOKING
ĠW ord
ĠSo lid
Ġgu ll
um es
ĠOF F
ĠBU SH
Ġexp anse
Ġinflat ed
Ġd ad
ri sed
ĠS OME
Ġpa is
ĠW ell
Ġho agie
Ġcre ase
cu ment
Ġart icle
Ġstu cco
is on
ĠMu d
Ġtax is
Ġsau erkraut
Ġcross es
Ġfeat ures
Ġcran berries
s ion
Ġcor por
ĠO LD
ĠDish es
ĠW ith
Ġshi pping
Ġbrim med
ĠLad der
c ycle
Ġt umb
ĠE ver
ĠPo les
Ġador able
ĠW ay
Ġdi et
Ġunus ual
Ġreg ular
ĠS oup
ĠD u
Ġbegin ning
Ġbon net
Ġg ot
Ġeng ra
b ul
ĠC AM
ĠSTRIP ED
j e
ĠS ub
Ġm ill
Ġblack berry
Ġwi ring
ĠFA CE
ĠM OUN
Ġtass els
Ġtur ban
Ġchecker board
Ġnew spapers
ic er
ten ding
ĠNo te
Ġmed al
oo ting
clo ck
W AY
n ts
at ting
ĠWR IST
ĠREF LE
Ġe lmo
Ġpar a
G ET
Ġdo llar
Ġcu bed
ĠEnt rance
Ġrecor ding
g ant
r ass
Ġg ree
en gers
nk nown
igh ted
ĠCra cks
Ġtank er
Ġm ist
ic he
nch y
ĠGi ant
Ġhyd rants
Ġme ets
Ġn i
Ġhe llo
Ġbur gandy
Ġcafe teria
Ġch arm
Ġcap p
ĠCONT AIN
Ġhouse plant
ĠSe ason
Ġbracket s
ea red
Ġfo x
Ġbedshe et
Ġsto red
Ġhe av
Ġbi d
ĠIm age
Ġtort illas
Ġdep ot
Ġres id
6 0
Ġsa ver
Ġinstruction s
ĠW a
Ġon look
Ġspri g
Ġw his
Ġl on
ĠC risp
Ġfla vo
Ġcom es
Ġme mber
Ġcou p
ĠW A
ĠB ru
Ġal b
Ġla ble
ĠHEAD L
ĠEver green
Ġair liner
Ġfan ny
Ġtrack pad
AS T
ĠTo aster
gg ly
ram id
ĠN ood
Ġparas ailing
ĠAl uminum
ĠGlo ves
Ġo pt
Ġgiraffe e
Ġhood y
Ġvertic ally
ĠS we
Ġspi ked
ĠProt ective
p lane
Ġrug s
ĠClou d
Ġproject ion
ĠPass engers
ĠFI RE
Ġrain ing
f rame
Ġlo bby
Ġsli p
Ġseg ment
oo ted
AT ING
Ġspi kes
ĠBreak fast
Ġmattress es
Ġfocus ed
ĠLi ving
Ġcap t
or ange
ĠT OM
ĠA ng
Ġknot ted
ĠSu pp
ĠHo riz
ĠSm ooth
Ġneed le
t ra
ly mp
ĠL ET
Ġcant al
ĠL ime
Ġfla ps
Ġli kely
Ġte mp
Ġunder belly
ĠF OOT
Ġpre gnant
Ġaccess ories
ĠARE A
Ġpais ley
ĠT ong
Ġsp illed
nis hed
ĠJ o
b ra
Ġm iss
Ġlit tered
Ġear ly
ĠR un
Ġdi ving
ve ring
i et
Ġt et
Ġra v
Ġdire cting
Ġv itam
Ġposition ed
Ġhe x
ĠL IGHTS
ri mmed
Ġdo cument
a iled
Ġtub es
p ted
ĠCat s
ĠSp ots
Ġshine y
Ġappet izers
ĠGO LD
c ago
RAN T
Ġgra ff
Ġmat ress
ĠON E
ĠSo fa
ĠRO OM
ĠZi pper
Ġsu ede
t in
Ġsa la
ic to
st op
Ġbra ids
Ġcoll age
ĠOb ject
Ġs lit
Ġw id
Ġtrans form
ai ian
Ġfres he
ĠComp any
Ġfu dge
Ġstreet lights
U M
ĠB RA
ĠH am
Ġpro vid
Ġpou red
Ġdeter g
Ġt al
ĠM ane
Ġmort ar
Ġgra du
ĠP ow
Ġen er
Ġvio let
Ġmat ure
ster y
Ġpric es
T AIN
Ġfra ming
Ġelbow s
ĠTRU NK
Ġpo ses
Ġy ield
ti es
Ġpack aging
Ġgrin ding
ĠM A
ĠR V
Ġdu ct
Ġfit ting
Ġk er
Ġta le
ĠTra ck
Ġk leenex
eb e
ĠMo dern
Ġaf ternoon
OL I
ĠH onda
ĠAn tique
ĠST OVE
st ool
Ġru mpled
rt h
Ġsi ght
Ġtro phy
Ġact i
Ġfoots te
ĠWhisk ers
re ct
Ġd usk
ĠSP OON
ĠOrn ate
ĠHea vy
u ral
Ġover fl
Ġbutton ed
ĠBus iness
Ġgoo ey
V ED
ĠK ing
AT ION
Ġsavanna h
Ġsp aces
Ġr om
Ġchee ks
ĠWR IT
Ġhe ap
ap ple
Ġpa vil
Ġfu se
Ġhaul ing
Ġpink ish
Ġme et
Ġcorpor ate
ĠFLA G
Ġmechan ism
ĠB and
ĠUmbrell as
Ġcomf y
Ġtoss ed
Ġta u
Ġcle aring
ĠRo om
Ġju icer
Ġcomb ination
Ġlinen s
Ġprog ram
Ġalb um
it ter
ari ly
Ġleaf ed
c ient
Ġele gant
Ġse wn
Ġsec uring
ĠTOM ATO
Ġre ced
ĠT u
st ic
Ġtan ned
ĠR ack
ĠM IC
pe as
Ġlett ing
ĠWi ld
ĠNe on
ad o
Ġco bble
ĠTe en
Ġli ve
Ġbase man
ĠO uts
Ġsoap s
Y D
Ġco ins
Ġbroch ure
ĠT v
ĠS amsung
ĠF ries
ĠMAN Y
ĠPu ppy
ĠUp side
Ġse rious
ran g
ĠHe art
Ġrep air
Ġuphol stery
Ġbo om
Ġinter esting
Ġmic row
I P
Ġsp icy
Ġclas ped
ator ade
ĠChe ckered
Ġbal anced
Ġpoo h
Ġ ec
ten ded
ĠPro peller
Ġswir ls
Ġb ring
Ġwind mill
ĠC ond
Ġcor ral
s ts
ĠH eat
Ġstat ute
Ġple ated
Ġpy ramid
Ġhigh chair
Ġst able
Ġthin ly
ing ers
ot ive
Ġki wis
Ġg li
f ly
as er
lou r
S IDE
umb er
Ġwi imote
Ġto day
ĠFLOW ER
ĠF ord
we ll
ĠDo ll
ĠG lazed
Ġr ather
Ġsqu in
Ġdin ning
Ġs ash
Ġpar rots
Ġwash cloth
ĠDough nut
ucc ino
ĠCock pit
d ry
Ġsh ake
Ġfa ux
oo ter
Ġste al
ĠSU N
ĠCH AIN
ĠRi ver
ĠG LO
Ġpear ls
on a
Ġri vet
Ġbe e
Ġcomp lex
Ġcro s
Ġmaintain ed
Ġd yed
Ġun b
c s
Ġpla card
IE W
Ġra p
li fe
ĠH az
Ġt acked
ĠSt ones
P LA
Ġch o
Ġbe at
Ġdi ps
he ld
Ġconn ection
ĠAdvert ising
Ġdeterg ent
Ġear bu
ĠA w
Ġu mb
Ġrh in
ĠGra b
Ġpavil ion
ĠB ou
Ġed ible
Ġcom e
Ġmit ts
Ġdark ness
Ġsilhou et
d or
U FF
Ġme an
ĠHer d
long ated
Ġarm rests
Ġwalk er
Ġhumming bird
Ġro tten
ĠP avement
Ġgri l
Ġchick peas
Ġfr onds
i pe
Ġsour ce
Ġblack board
Ġu nknown
v ets
Ġele ment
flo ps
Ġin stal
LD ER
Ġin tent
art ments
gg an
ĠĠ Ġ
Ġpack s
AT E
Ġsm u
Ġfl eck
Ġmar vin
he l
om in
elt a
Ġspec ies
Ġreced ing
Ġwind screen
orm al
Ġconve yer
ĠPH OT
Ġhalf way
OO F
i lage
le ge
Ġm ales
Ġchi ves
ĠSer ving
Ġins et
ĠStraw berries
d ent
ĠCL OTH
i pped
Ġwri tting
Ġhe eled
Ġmar ried
ĠIn terior
Ġcapp uccino
Ġd read
ĠW ET
Ġopen ings
Ġwetsuit s
b ike
ru gated
Ġside line
ĠC her
Ġme mbers
CT ION
Ġ ,
ng e
Ġgrass land
Ġpart ic
Ġsauce pan
Ġcu ts
Ġlight bul
ĠKN IFE
ĠPatch es
w hat
Ġo ss
Ġtuft s
ĠWed ding
au se
Ġa x
Ġm y
ĠTI LE
Ġsol ar
Ġsk ates
Ġboard ed
Ġbull dog
is er
ĠH YD
Ġdru ms
Ġnam ed
ĠOli ves
Ġfreshe ner
Ġp ers
Ġex ternal
io li
umin ated
Ġmou tain
Ġsid walk
Ġwe ird
ĠST ICK
ĠFo am
ĠSWEAT ER
ĠR ider
Ġru ler
Ġp ylon
ĠCur b
OUN G
Ġcan ad
Ġstop ping
Ġsquee ze
Ġcomp ound
Ġphotograph y
Ġbru s
ĠLi qu
pa ved
ĠTooth p
Ġcomp artments
if orn
Ġfe ll
Ġprin ting
Ġgir ra
Ġrefrigerator s
en s
Ġsur p
Ġw hie
Ġflat bed
ĠWall s
Ġ4 0
Ġtass el
len eck
ĠT EE
ĠE ight
Ġmot if
Ġlo aves
bu tton
C R
ĠP lain
ĠP AD
ĠF ake
Ġcenter piece
Ġsauc es
Ġphotograph ing
ĠCrumb s
Ġwi pes
ĠD elta
Ġmis ty
3 0
Ġcri ss
Ġstream er
ute lla
Ġroom s
Ġcu rt
Ġbook let
Ġclock tower
Ġimp rin
Ġprog ress
T ON
Ġe longated
ĠDra wer
n cil
Ġthat ched
Ġcon c
ĠMet allic
e en
Ġbat ch
LO RED
Ġfurt her
Ġsatche l
ĠHYD RANT
ĠSk ater
Ġve ges
Ġsepar ated
Ġ est
ĠPl ug
Ġillumin ating
ra pped
ĠG ate
ĠBooks he
ĠPen cil
Ġst art
ĠA v
ur y
ĠTh umb
Ġz ig
Ġcock tail
Ġhorizont ally
Ġgra ve
ĠM ans
ash es
Ġmo le
SH IRT
. "
on o
at i
Ġle t
Ġf eline
Ġzi ppers
ĠTRA CKS
ath ing
ĠCross walk
co tta
Ġlo st
E ET
er o
ĠTo asted
ĠA qu
Ġe m
Ġsu gg
Ġju tting
Ġk im
ĠH oo
Ġtau pe
ĠM ain
Ġela bor
ĠR ol
ogg ing
di o
ĠT eal
Ġpo ppy
ĠCu tting
Ġspark ling
Ġcre ating
Ġscall oped
in et
ĠSo ft
ĠStack ed
air y
ĠStra p
Ġa id
ĠT ou
Ġfold able
Ġli lies
Ġremo ved
Ġturt leneck
ĠShru bs
ĠV IEW
Ġsnowfla ke
Ġco le
Ġsp ell
um bo
ĠT ran
ĠT ub
m ers
Ġcamer aman
be ar
Ġheav ily
iforn ia
Ġsan iti
Ġn unch
Ġfli pping
c um
ĠB ikes
ĠS liding
Ġcuff s
Ġc y
ĠW inter
ĠS li
ĠA merica
ĠC able
ĠAB OVE
R IC
Ġcan ned
OW ER
ĠStick ers
OR M
ĠCOU CH
Ġstuff ing
ĠMOUN TAIN
Ġhigh lights
Ġphotograp hers
dry er
Ġpo tty
Ġfr yer
Ġca lender
ĠSu gar
Ġbec ause
Ġcu bs
ĠM EN
Ġlab eled
N ER
Ġsh ingle
Ġf ine
ĠF ans
Ġspind le
ĠRest aurant
we ight
Ġdisc arded
Ġglob es
Ġproper ty
T EN
hi o
Ġfre ckles
ĠPri ce
Ġfarm ers
ĠAw ning
ow el
Ġcli pped
Ġsign ature
ĠC uc
Ġpri m
Ġg one
Ġpe oples
Ġsome what
Ġbid et
Ġener gy
m aker
Ġch anging
ĠSM ILING
Ġd orm
Ġdo ve
am ing
ĠVeget able
ĠSN EAK
Ġcroche t
B ER
Ġt each
ĠL INES
Ġtag ged
Ġfou rth
Ġbrocco lli
Ġmas ts
Ġhigh est
Ġbrid al
Ġintern et
S ES
ĠS itting
Ġsauc ers
Ġtravel s
ĠL ighted
ĠF ingers
Ġatt ic
ĠPo cket
Ġmou lding
ĠB AND
ĠF lip
Ġcur ling
ĠPAR KING
are nts
Ġm art
Ġg ather
ĠCu ps
Ġlandsc aping
Ġcan n
Ġback ing
Ġbaseball s
ĠE X
ĠFri dge
c akes
ad dle
ĠP ill
Ġcell phones
Ġdis colored
ĠS ony
ĠEx haust
Ġloo ps
ĠBe verage
Ġre cre
Ġfo ilage
ĠSh redded
Ġswim mer
ĠSail boat
Ġmask s
Ġven etian
th est
ks w
AY S
Ġillust ration
Ġj ob
4 0
ay ing
AT OR
Ġpe g
Ġst ance
Ġcu bby
Ġcas ts
Ġfit ted
ri a
Ġl ou
ree ze
ĠCo lored
Ġhung ry
ĠBR OC
Ġscen ery
