{
	"version": "1.0",
	"truncation": null,
	"padding": null,
	"added_tokens": [
		{
			"id": 0,
			"special": true,
			"content": "<s>",
			"single_word": false,
			"lstrip": false,
			"rstrip": false,
			"normalized": true
		},
		{
			"id": 1,
			"special": true,
			"content": "<pad>",
			"single_word": false,
			"lstrip": false,
			"rstrip": false,
			"normalized": true
		},
		{
			"id": 2,
			"special": true,
			"content": "</s>",
			"single_word": false,
			"lstrip": false,
			"rstrip": false,
			"normalized": true
		},
		{
			"id": 3,
			"special": true,
			"content": "<unk>",
			"single_word": false,
			"lstrip": false,
			"rstrip": false,
			"normalized": true
		},
		{
			"id": 4,
			"special": true,
			"content": "<mask>",
			"single_word": false,
			"lstrip": true,
			"rstrip": false,
			"normalized": true
		},
		{
			"id": 5,
			"special": true,
			"content": "<vis_token_1>",
			"single_word": false,
			"lstrip": false,
			"rstrip": false,
			"normalized": false
		},
		{
			"id": 6,
			"special": true,
			"content": "<vis_token_2>",
			"single_word": false,
			"lstrip": false,
			"rstrip": false,
			"normalized": false
		},
		{
			"id": 7,
			"special": true,
			"content": "<vis_token_3>",
			"single_word": false,
			"lstrip": false,
			"rstrip": false,
			"normalized": false
		},
		{
			"id": 8,
			"special": true,
			"content": "<vis_token_4>",
			"single_word": false,
			"lstrip": false,
			"rstrip": false,
			"normalized": false
		},
		{
			"id": 9,
			"special": true,
			"content": "<vis_token_5>",
			"single_word": false,
			"lstrip": false,
			"rstrip": false,
			"normalized": false
		},
		{
			"id": 10,
			"special": true,
			"content": "<vis_token_6>",
			"single_word": false,
			"lstrip": false,
			"rstrip": false,
			"normalized": false
		},
		{
			"id": 11,
			"special": true,
			"content": "<vis_token_7>",
			"single_word": false,
			"lstrip": false,
			"rstrip": false,
			"normalized": false
		},
		{
			"id": 12,
			"special": true,
			"content": "<vis_token_8>",
			"single_word": false,
			"lstrip": false,
			"rstrip": false,
			"normalized": false
		},
		{
			"id": 13,
			"special": true,
			"content": "<vis_token_9>",
			"single_word": false,
			"lstrip": false,
			"rstrip": false,
			"normalized": false
		},
		{
			"id": 14,
			"special": true,
			"content": "<vis_token_10>",
			"single_word": false,
			"lstrip": false,
			"rstrip": false,
			"normalized": false
		},
		{
			"id": 15,
			"special": true,
			"content": "<vis_token_11>",
			"single_word": false,
			"lstrip": false,
			"rstrip": false,
			"normalized": false
		},
		{
			"id": 16,
			"special": true,
			"content": "<vis_token_12>",
			"single_word": false,
			"lstrip": false,
			"rstrip": false,
			"normalized": false
		},
		{
			"id": 17,
			"special": true,
			"content": "<vis_token_13>",
			"single_word": false,
			"lstrip": false,
			"rstrip": false,
			"normalized": false
		},
		{
			"id": 18,
			"special": true,
			"content": "<vis_token_14>",
			"single_word": false,
			"lstrip": false,
			"rstrip": false,
			"normalized": false
		},
		{
			"id": 19,
			"special": true,
			"content": "<vis_token_15>",
			"single_word": false,
			"lstrip": false,
			"rstrip": false,
			"normalized": false
		},
		{
			"id": 20,
			"special": true,
			"content": "<vis_token_16>",
			"single_word": false,
			"lstrip": false,
			"rstrip": false,
			"normalized": false
		},
		{
			"id": 21,
			"special": true,
			"content": "<vis_token_17>",
			"single_word": false,
			"lstrip": false,
			"rstrip": false,
			"normalized": false
		},
		{
			"id": 22,
			"special": true,
			"content": "<vis_token_18>",
			"single_word": false,
			"lstrip": false,
			"rstrip": false,
			"normalized": false
		},
		{
			"id": 23,
			"special": true,
			"content": "<vis_token_19>",
			"single_word": false,
			"lstrip": false,
			"rstrip": false,
			"normalized": false
		},
		{
			"id": 24,
			"special": true,
			"content": "<vis_token_20>",
			"single_word": false,
			"lstrip": false,
			"rstrip": false,
			"normalized": false
		},
		{
			"id": 25,
			"special": true,
			"content": "<vis_token_21>",
			"single_word": false,
			"lstrip": false,
			"rstrip": false,
			"normalized": false
		},
		{
			"id": 26,
			"special": true,
			"content": "<vis_token_22>",
			"single_word": false,
			"lstrip": false,
			"rstrip": false,
			"normalized": false
		},
		{
			"id": 27,
			"special": true,
			"content": "<vis_token_23>",
			"single_word": false,
			"lstrip": false,
			"rstrip": false,
			"normalized": false
		},
		{
			"id": 28,
			"special": true,
			"content": "<vis_token_24>",
			"single_word": false,
			"lstrip": false,
			"rstrip": false,
			"normalized": false
		},
		{
			"id": 29,
			"special": true,
			"content": "<vis_token_25>",
			"single_word": false,
			"lstrip": false,
			"rstrip": false,
			"normalized": false
		},
		{
			"id": 30,
			"special": true,
			"content": "<vis_token_26>",
			"single_word": false,
			"lstrip": false,
			"rstrip": false,
			"normalized": false
		},
		{
			"id": 31,
			"special": true,
			"content": "<vis_token_27>",
			"single_word": false,
			"lstrip": false,
			"rstrip": false,
			"normalized": false
		},
		{
			"id": 32,
			"special": true,
			"content": "<vis_token_28>",
			"single_word": false,
			"lstrip": false,
			"rstrip": false,
			"normalized": false
		},
		{
			"id": 33,
			"special": true,
			"content": "<vis_token_29>",
			"single_word": false,
			"lstrip": false,
			"rstrip": false,
			"normalized": false
		},
		{
			"id": 34,
			"special": true,
			"content": "<vis_token_30>",
			"single_word": false,
			"lstrip": false,
			"rstrip": false,
			"normalized": false
		},
		{
			"id": 35,
			"special": true,
			"content": "<vis_token_31>",
			"single_word": false,
			"lstrip": false,
			"rstrip": false,
			"normalized": false
		},
		{
			"id": 36,
			"special": true,
			"content": "<vis_token_32>",
			"single_word": false,
			"lstrip": false,
			"rstrip": false,
			"normalized": false
		},
		{
			"id": 37,
			"special": true,
			"content": "<vis_token_33>",
			"single_word": false,
			"lstrip": false,
			"rstrip": false,
			"normalized": false
		},
		{
			"id": 38,
			"special": true,
			"content": "<vis_token_34>",
			"single_word": false,
			"lstrip": false,
			"rstrip": false,
			"normalized": false
		},
		{
			"id": 39,
			"special": true,
			"content": "<vis_token_35>",
			"single_word": false,
			"lstrip": false,
			"rstrip": false,
			"normalized": false
		},
		{
			"id": 40,
			"special": true,
			"content": "<vis_token_36>",
			"single_word": false,
			"lstrip": false,
			"rstrip": false,
			"normalized": false
		},
		{
			"id": 41,
			"special": true,
			"content": "<vis_token_37>",
			"single_word": false,
			"lstrip": false,
			"rstrip": false,
			"normalized": false
		},
		{
			"id": 42,
			"special": true,
			"content": "<vis_token_38>",
			"single_word": false,
			"lstrip": false,
			"rstrip": false,
			"normalized": false
		},
		{
			"id": 43,
			"special": true,
			"content": "<vis_token_39>",
			"single_word": false,
			"lstrip": false,
			"rstrip": false,
			"normalized": false
		},
		{
			"id": 44,
			"special": true,
			"content": "<vis_token_40>",
			"single_word": false,
			"lstrip": false,
			"rstrip": false,
			"normalized": false
		},
		{
			"id": 45,
			"special": true,
			"content": "<vis_token_41>",
			"single_word": false,
			"lstrip": false,
			"rstrip": false,
			"normalized": false
		},
		{
			"id": 46,
			"special": true,
			"content": "<vis_token_42>",
			"single_word": false,
			"lstrip": false,
			"rstrip": false,
			"normalized": false
		},
		{
			"id": 47,
			"special": true,
			"content": "<vis_token_43>",
			"single_word": false,
			"lstrip": false,
			"rstrip": false,
			"normalized": false
		},
		{
			"id": 48,
			"special": true,
			"content": "<vis_token_44>",
			"single_word": false,
			"lstrip": false,
			"rstrip": false,
			"normalized": false
		},
		{
			"id": 49,
			"special": true,
			"content": "<vis_token_45>",
			"single_word": false,
			"lstrip": false,
			"rstrip": false,
			"normalized": false
		},
		{
			"id": 50,
			"special": true,
			"content": "<vis_token_46>",
			"single_word": false,
			"lstrip": false,
			"rstrip": false,
			"normalized": false
		},
		{
			"id": 51,
			"special": true,
			"content": "<vis_token_47>",
			"single_word": false,
			"lstrip": false,
			"rstrip": false,
			"normalized": false
		},
		{
			"id": 52,
			"special": true,
			"content": "<vis_token_48>",
			"single_word": false,
			"lstrip": false,
			"rstrip": false,
			"normalized": false
		},
		{
			"id": 53,
			"special": true,
			"content": "<vis_token_49>",
			"single_word": false,
			"lstrip": false,
			"rstrip": false,
			"normalized": false
		},
		{
			"id": 54,
			"special": true,
			"content": "<vis_token_50>",
			"single_word": false,
			"lstrip": false,
			"rstrip": false,
			"normalized": false
		},
		{
			"id": 55,
			"special": true,
			"content": "<vis_token_51>",
			"single_word": false,
			"lstrip": false,
			"rstrip": false,
			"normalized": false
		},
		{
			"id": 56,
			"special": true,
			"content": "<vis_token_52>",
			"single_word": false,
			"lstrip": false,
			"rstrip": false,
			"normalized": false
		},
		{
			"id": 57,
			"special": true,
			"content": "<vis_token_53>",
			"single_word": false,
			"lstrip": false,
			"rstrip": false,
			"normalized": false
		},
		{
			"id": 58,
			"special": true,
			"content": "<vis_token_54>",
			"single_word": false,
			"lstrip": false,
			"rstrip": false,
			"normalized": false
		},
		{
			"id": 59,
			"special": true,
			"content": "<vis_token_55>",
			"single_word": false,
			"lstrip": false,
			"rstrip": false,
			"normalized": false
		},
		{
			"id": 60,
			"special": true,
			"content": "<vis_token_56>",
			"single_word": false,
			"lstrip": false,
			"rstrip": false,
			"normalized": false
		},
		{
			"id": 61,
			"special": true,
			"content": "<vis_token_57>",
			"single_word": false,
			"lstrip": false,
			"rstrip": false,
			"normalized": false
		},
		{
			"id": 62,
			"special": true,
			"content": "<vis_token_58>",
			"single_word": false,
			"lstrip": false,
			"rstrip": false,
			"normalized": false
		},
		{
			"id": 63,
			"special": true,
			"content": "<vis_token_59>",
			"single_word": false,
			"lstrip": false,
			"rstrip": false,
			"normalized": false
		},
		{
			"id": 64,
			"special": true,
			"content": "<vis_token_60>",
			"single_word": false,
			"lstrip": false,
			"rstrip": false,
			"normalized": false
		},
		{
			"id": 65,
			"special": true,
			"content": "<vis_token_61>",
			"single_word": false,
			"lstrip": false,
			"rstrip": false,
			"normalized": false
		},
		{
			"id": 66,
			"special": true,
			"content": "<vis_token_62>",
			"single_word": false,
			"lstrip": false,
			"rstrip": false,
			"normalized": false
		},
		{
			"id": 67,
			"special": true,
			"content": "<vis_token_63>",
			"single_word": false,
			"lstrip": false,
			"rstrip": false,
			"normalized": false
		},
		{
			"id": 68,
			"special": true,
			"content": "<vis_token_64>",
			"single_word": false,
			"lstrip": false,
			"rstrip": false,
			"normalized": false
		},
		{
			"id": 69,
			"special": true,
			"content": "<vis_token_65>",
			"single_word": false,
			"lstrip": false,
			"rstrip": false,
			"normalized": false
		},
		{
			"id": 70,
			"special": true,
			"content": "<vis_token_66>",
			"single_word": false,
			"lstrip": false,
			"rstrip": false,
			"normalized": false
		},
		{
			"id": 71,
			"special": true,
			"content": "<vis_token_67>",
			"single_word": false,
			"lstrip": false,
			"rstrip": false,
			"normalized": false
		},
		{
			"id": 72,
			"special": true,
			"content": "<vis_token_68>",
			"single_word": false,
			"lstrip": false,
			"rstrip": false,
			"normalized": false
		},
		{
			"id": 73,
			"special": true,
			"content": "<vis_token_69>",
			"single_word": false,
			"lstrip": false,
			"rstrip": false,
			"normalized": false
		},
		{
			"id": 74,
			"special": true,
			"content": "<vis_token_70>",
			"single_word": false,
			"lstrip": false,
			"rstrip": false,
			"normalized": false
		},
		{
			"id": 75,
			"special": true,
			"content": "<vis_token_71>",
			"single_word": false,
			"lstrip": false,
			"rstrip": false,
			"normalized": false
		},
		{
			"id": 76,
			"special": true,
			"content": "<vis_token_72>",
			"single_word": false,
			"lstrip": false,
			"rstrip": false,
			"normalized": false
		},
		{
			"id": 77,
			"special": true,
			"content": "<vis_token_73>",
			"single_word": false,
			"lstrip": false,
			"rstrip": false,
			"normalized": false
		},
		{
			"id": 78,
			"special": true,
			"content": "<vis_token_74>",
			"single_word": false,
			"lstrip": false,
			"rstrip": false,
			"normalized": false
		},
		{
			"id": 79,
			"special": true,
			"content": "<vis_token_75>",
			"single_word": false,
			"lstrip": false,
			"rstrip": false,
			"normalized": false
		},
		{
			"id": 80,
			"special": true,
			"content": "<vis_token_76>",
			"single_word": false,
			"lstrip": false,
			"rstrip": false,
			"normalized": false
		},
		{
			"id": 81,
			"special": true,
			"content": "<vis_token_77>",
			"single_word": false,
			"lstrip": false,
			"rstrip": false,
			"normalized": false
		},
		{
			"id": 82,
			"special": true,
			"content": "<vis_token_78>",
			"single_word": false,
			"lstrip": false,
			"rstrip": false,
			"normalized": false
		},
		{
			"id": 83,
			"special": true,
			"content": "<vis_token_79>",
			"single_word": false,
			"lstrip": false,
			"rstrip": false,
			"normalized": false
		},
		{
			"id": 84,
			"special": true,
			"content": "<vis_token_80>",
			"single_word": false,
			"lstrip": false,
			"rstrip": false,
			"normalized": false
		},
		{
			"id": 85,
			"special": true,
			"content": "<vis_token_81>",
			"single_word": false,
			"lstrip": false,
			"rstrip": false,
			"normalized": false
		},
		{
			"id": 86,
			"special": true,
			"content": "<vis_token_82>",
			"single_word": false,
			"lstrip": false,
			"rstrip": false,
			"normalized": false
		},
		{
			"id": 87,
			"special": true,
			"content": "<vis_token_83>",
			"single_word": false,
			"lstrip": false,
			"rstrip": false,
			"normalized": false
		},
		{
			"id": 88,
			"special": true,
			"content": "<vis_token_84>",
			"single_word": false,
			"lstrip": false,
			"rstrip": false,
			"normalized": false
		},
		{
			"id": 89,
			"special": true,
			"content": "<vis_token_85>",
			"single_word": false,
			"lstrip": false,
			"rstrip": false,
			"normalized": false
		},
		{
			"id": 90,
			"special": true,
			"content": "<vis_token_86>",
			"single_word": false,
			"lstrip": false,
			"rstrip": false,
			"normalized": false
		},
		{
			"id": 91,
			"special": true,
			"content": "<vis_token_87>",
			"single_word": false,
			"lstrip": false,
			"rstrip": false,
			"normalized": false
		},
		{
			"id": 92,
			"special": true,
			"content": "<vis_token_88>",
			"single_word": false,
			"lstrip": false,
			"rstrip": false,
			"normalized": false
		},
		{
			"id": 93,
			"special": true,
			"content": "<vis_token_89>",
			"single_word": false,
			"lstrip": false,
			"rstrip": false,
			"normalized": false
		},
		{
			"id": 94,
			"special": true,
			"content": "<vis_token_90>",
			"single_word": false,
			"lstrip": false,
			"rstrip": false,
			"normalized": false
		},
		{
			"id": 95,
			"special": true,
			"content": "<vis_token_91>",
			"single_word": false,
			"lstrip": false,
			"rstrip": false,
			"normalized": false
		},
		{
			"id": 96,
			"special": true,
			"content": "<vis_token_92>",
			"single_word": false,
			"lstrip": false,
			"rstrip": false,
			"normalized": false
		},
		{
			"id": 97,
			"special": true,
			"content": "<vis_token_93>",
			"single_word": false,
			"lstrip": false,
			"rstrip": false,
			"normalized": false
		},
		{
			"id": 98,
			"special": true,
			"content": "<vis_token_94>",
			"single_word": false,
			"lstrip": false,
			"rstrip": false,
			"normalized": false
		},
		{
			"id": 99,
			"special": true,
			"content": "<vis_token_95>",
			"single_word": false,
			"lstrip": false,
			"rstrip": false,
			"normalized": false
		},
		{
			"id": 100,
			"special": true,
			"content": "<vis_token_96>",
			"single_word": false,
			"lstrip": false,
			"rstrip": false,
			"normalized": false
		},
		{
			"id": 101,
			"special": true,
			"content": "<vis_token_97>",
			"single_word": false,
			"lstrip": false,
			"rstrip": false,
			"normalized": false
		},
		{
			"id": 102,
			"special": true,
			"content": "<vis_token_98>",
			"single_word": false,
			"lstrip": false,
			"rstrip": false,
			"normalized": false
		},
		{
			"id": 103,
			"special": true,
			"content": "<vis_token_99>",
			"single_word": false,
			"lstrip": false,
			"rstrip": false,
			"normalized": false
		},
		{
			"id": 104,
			"special": true,
			"content": "<vis_token_100>",
			"single_word": false,
			"lstrip": false,
			"rstrip": false,
			"normalized": false
		}
	],
	"normalizer": null,
	"pre_tokenizer": {
		"type": "ByteLevel",
		"add_prefix_space": false,
		"trim_offsets": true
	},
	"post_processor": {
		"type": "RobertaProcessing",
		"sep": ["</s>", 2],
		"cls": ["<s>", 0],
		"trim_offsets": true,
		"add_prefix_space": false
	},
	"decoder": {
		"type": "ByteLevel",
		"add_prefix_space": true,
		"trim_offsets": true
	},
	"model": {
		"type": "BPE",
		"dropout": null,
		"unk_token": null,
		"continuing_subword_prefix": "",
		"end_of_word_suffix": "",
		"fuse_unk": false,
		"vocab": {
			"<s>": 0,
			"<pad>": 1,
			"</s>": 2,
			"<unk>": 3,
			"<mask>": 4,
			"<vis_token_1>": 5,
			"<vis_token_2>": 6,
			"<vis_token_3>": 7,
			"<vis_token_4>": 8,
			"<vis_token_5>": 9,
			"<vis_token_6>": 10,
			"<vis_token_7>": 11,
			"<vis_token_8>": 12,
			"<vis_token_9>": 13,
			"<vis_token_10>": 14,
			"<vis_token_11>": 15,
			"<vis_token_12>": 16,
			"<vis_token_13>": 17,
			"<vis_token_14>": 18,
			"<vis_token_15>": 19,
			"<vis_token_16>": 20,
			"<vis_token_17>": 21,
			"<vis_token_18>": 22,
			"<vis_token_19>": 23,
			"<vis_token_20>": 24,
			"<vis_token_21>": 25,
			"<vis_token_22>": 26,
			"<vis_token_23>": 27,
			"<vis_token_24>": 28,
			"<vis_token_25>": 29,
			"<vis_token_26>": 30,
			"<vis_token_27>": 31,
			"<vis_token_28>": 32,
			"<vis_token_29>": 33,
			"<vis_token_30>": 34,
			"<vis_token_31>": 35,
			"<vis_token_32>": 36,
			"<vis_token_33>": 37,
			"<vis_token_34>": 38,
			"<vis_token_35>": 39,
			"<vis_token_36>": 40,
			"<vis_token_37>": 41,
			"<vis_token_38>": 42,
			"<vis_token_39>": 43,
			"<vis_token_40>": 44,
			"<vis_token_41>": 45,
			"<vis_token_42>": 46,
			"<vis_token_43>": 47,
			"<vis_token_44>": 48,
			"<vis_token_45>": 49,
			"<vis_token_46>": 50,
			"<vis_token_47>": 51,
			"<vis_token_48>": 52,
			"<vis_token_49>": 53,
			"<vis_token_50>": 54,
			"<vis_token_51>": 55,
			"<vis_token_52>": 56,
			"<vis_token_53>": 57,
			"<vis_token_54>": 58,
			"<vis_token_55>": 59,
			"<vis_token_56>": 60,
			"<vis_token_57>": 61,
			"<vis_token_58>": 62,
			"<vis_token_59>": 63,
			"<vis_token_60>": 64,
			"<vis_token_61>": 65,
			"<vis_token_62>": 66,
			"<vis_token_63>": 67,
			"<vis_token_64>": 68,
			"<vis_token_65>": 69,
			"<vis_token_66>": 70,
			"<vis_token_67>": 71,
			"<vis_token_68>": 72,
			"<vis_token_69>": 73,
			"<vis_token_70>": 74,
			"<vis_token_71>": 75,
			"<vis_token_72>": 76,
			"<vis_token_73>": 77,
			"<vis_token_74>": 78,
			"<vis_token_75>": 79,
			"<vis_token_76>": 80,
			"<vis_token_77>": 81,
			"<vis_token_78>": 82,
			"<vis_token_79>": 83,
			"<vis_token_80>": 84,
			"<vis_token_81>": 85,
			"<vis_token_82>": 86,
			"<vis_token_83>": 87,
			"<vis_token_84>": 88,
			"<vis_token_85>": 89,
			"<vis_token_86>": 90,
			"<vis_token_87>": 91,
			"<vis_token_88>": 92,
			"<vis_token_89>": 93,
			"<vis_token_90>": 94,
			"<vis_token_91>": 95,
			"<vis_token_92>": 96,
			"<vis_token_93>": 97,
			"<vis_token_94>": 98,
			"<vis_token_95>": 99,
			"<vis_token_96>": 100,
			"<vis_token_97>": 101,
			"<vis_token_98>": 102,
			"<vis_token_99>": 103,
			"<vis_token_100>": 104,
			"!": 105,
			"\"": 106,
			"#": 107,
			"$": 108,
			"%": 109,
			"&": 110,
			"'": 111,
			"(": 112,
			")": 113,
			"*": 114,
			"+": 115,
			",": 116,
			"-": 117,
			".": 118,
			"/": 119,
			"0": 120,
			"1": 121,
			"2": 122,
			"3": 123,
			"4": 124,
			"5": 125,
			"6": 126,
			"7": 127,
			"8": 128,
			"9": 129,
			":": 130,
			";": 131,
			"<": 132,
			"=": 133,
			">": 134,
			"?": 135,
			"@": 136,
			"A": 137,
			"B": 138,
			"C": 139,
			"D": 140,
			"E": 141,
			"F": 142,
			"G": 143,
			"H": 144,
			"I": 145,
			"J": 146,
			"K": 147,
			"L": 148,
			"M": 149,
			"N": 150,
			"O": 151,
			"P": 152,
			"Q": 153,
			"R": 154,
			"S": 155,
			"T": 156,
			"U": 157,
			"V": 158,
			"W": 159,
			"X": 160,
			"Y": 161,
			"Z": 162,
			"[": 163,
			"\\": 164,
			"]": 165,
			"^": 166,
			"_": 167,
			"`": 168,
			"a": 169,
			"b": 170,
			"c": 171,
			"d": 172,
			"e": 173,
			"f": 174,
			"g": 175,
			"h": 176,
			"i": 177,
			"j": 178,
			"k": 179,
			"l": 180,
			"m": 181,
			"n": 182,
			"o": 183,
			"p": 184,
			"q": 185,
			"r": 186,
			"s": 187,
			"t": 188,
			"u": 189,
			"v": 190,
			"w": 191,
			"x": 192,
			"y": 193,
			"z": 194,
			"|": 195,
			"}": 196,
			"~": 197,
			"¢": 198,
			"¦": 199,
			"§": 200,
			"¨": 201,
			"©": 202,
			"°": 203,
			"±": 204,
			"´": 205,
			"»": 206,
			"½": 207,
			"Â": 208,
			"Ã": 209,
			"â": 210,
			"ĉ": 211,
			"Ċ": 212,
			"Ġ": 213,
			"Ģ": 214,
			"Ħ": 215,
			"Ķ": 216,
			"Ļ": 217,
			"ri": 218,
			"Ġo": 219,
			"Ġt": 220,
			"rib": 221,
			"es": 222,
			"re": 223,
			"on": 224,
			"des": 225,
			"crib": 226,
			"describ": 227,
			"describe": 228,
			"Ġre": 229,
			"ion": 230,
			"at": 231,
			"he": 232,
			"ec": 233,
			"Ġthe": 234,
			"ect": 235,
			"Ġob": 236,
			"ject": 237,
			"Ġobject": 238,
			"Ġof": 239,
			"lat": 240,
			"lation": 241,
			"Ġrelation": 242,
			"Ġto": 243,
			"Ġreg": 244,
			"Ġregion": 245,
			"le": 246,
			"Ġb": 247,
			"Ġs": 248,
			"an": 249,
			"in": 250,
			"Ġw": 251,
			"te": 252,
			"Ġle": 253,
			"gh": 254,
			"Ġp": 255,
			"ght": 256,
			"Ġc": 257,
			"Ġri": 258,
			"ft": 259,
			"Ġleft": 260,
			"Ġright": 261,
			"Ġa": 262,
			"Ġh": 263,
			"ute": 264,
			"Ġat": 265,
			"Ġatt": 266,
			"er": 267,
			"ribute": 268,
			"Ġattribute": 269,
			"as": 270,
			"Ġm": 271,
			"hi": 272,
			"Ġon": 273,
			"ow": 274,
			"ar": 275,
			"Ġg": 276,
			"ing": 277,
			"Ġf": 278,
			"ck": 279,
			"or": 280,
			"ll": 281,
			"is": 282,
			"Ġhas": 283,
			"en": 284,
			"la": 285,
			"ir": 286,
			"Ġman": 287,
			"Ġd": 288,
			"et": 289,
			"and": 290,
			"Ġis": 291,
			"it": 292,
			"Ġin": 293,
			"ou": 294,
			"om": 295,
			"hite": 296,
			"Ġwhite": 297,
			"ra": 298,
			"rt": 299,
			"all": 300,
			"Ġbo": 301,
			"ers": 302,
			"Ġl": 303,
			"ld": 304,
			"ind": 305,
			"hirt": 306,
			"Ġst": 307,
			"Ġbu": 308,
			"Ġshirt": 309,
			"ab": 310,
			"air": 311,
			"oman": 312,
			"ro": 313,
			"lack": 314,
			"ed": 315,
			"ĠT": 316,
			"ad": 317,
			"Ġsi": 318,
			"Ġtre": 319,
			"Ġwoman": 320,
			"erson": 321,
			"Ġwind": 322,
			"Ġn": 323,
			"ea": 324,
			"Ġblack": 325,
			"Ġperson": 326,
			"ĠA": 327,
			"ng": 328,
			"Ġwindow": 329,
			"ce": 330,
			"ass": 331,
			"Ġpo": 332,
			"Ġe": 333,
			"al": 334,
			"oo": 335,
			"ch": 336,
			"Ġwall": 337,
			"Ġbl": 338,
			"lding": 339,
			"Ġdo": 340,
			"ge": 341,
			"ring": 342,
			"Ġpi": 343,
			"oun": 344,
			"ts": 345,
			"lo": 346,
			"ue": 347,
			"ack": 348,
			"Ġand": 349,
			"able": 350,
			"Ġhe": 351,
			"Ġsh": 352,
			"op": 353,
			"ith": 354,
			"Ġwith": 355,
			"Ġtree": 356,
			"Ġcar": 357,
			"earing": 358,
			"Ġwearing": 359,
			"Ġtable": 360,
			"row": 361,
			"ĠThe": 362,
			"reen": 363,
			"ve": 364,
			"Ġch": 365,
			"Ġblue": 366,
			"Ġco": 367,
			"Ġsk": 368,
			"se": 369,
			"ter": 370,
			"Ġj": 371,
			"Ġgr": 372,
			"Ġla": 373,
			"ilding": 374,
			"Ġbuilding": 375,
			"Ġbe": 376,
			"ard": 377,
			"ru": 378,
			"Ġu": 379,
			"Ġplat": 380,
			"lass": 381,
			"Ġli": 382,
			"Ġgreen": 383,
			"Ġred": 384,
			"gn": 385,
			"Ġpe": 386,
			"rown": 387,
			"Ġchair": 388,
			"ood": 389,
			"llow": 390,
			"de": 391,
			"ound": 392,
			"Ġro": 393,
			"bo": 394,
			"Ġhand": 395,
			"Ġgir": 396,
			"ain": 397,
			"Ġcu": 398,
			"Ġglass": 399,
			"Ġk": 400,
			"ap": 401,
			"Ġbrown": 402,
			"Ġtra": 403,
			"Ġdoor": 404,
			"Ġplate": 405,
			"Ġsign": 406,
			"ye": 407,
			"Ġhead": 408,
			"ont": 409,
			"tt": 410,
			"il": 411,
			"Ġpole": 412,
			"Ġhair": 413,
			"ic": 414,
			"el": 415,
			"ff": 416,
			"ot": 417,
			"ople": 418,
			"st": 419,
			"ran": 420,
			"mb": 421,
			"ater": 422,
			"Ġpeople": 423,
			"board": 424,
			"ur": 425,
			"Ġleg": 426,
			"ver": 427,
			"Ġpan": 428,
			"ag": 429,
			"Ġbus": 430,
			"Ġboy": 431,
			"ĠW": 432,
			"ans": 433,
			"Ġare": 434,
			"Ġne": 435,
			"Ġlight": 436,
			"Ġgirl": 437,
			"Ġbott": 438,
			"mp": 439,
			"ting": 440,
			"ves": 441,
			"ĠB": 442,
			"Ġshe": 443,
			"acket": 444,
			"Ġsc": 445,
			"Ġside": 446,
			"ark": 447,
			"Ġjacket": 448,
			"'s": 449,
			"Ġgrass": 450,
			"Ġpants": 451,
			"Ġfr": 452,
			"Ġfl": 453,
			"ase": 454,
			"pp": 455,
			"ke": 456,
			"Ġar": 457,
			"Ġwater": 458,
			"Ġpl": 459,
			"Ġsp": 460,
			"one": 461,
			"Ġsky": 462,
			"alk": 463,
			"les": 464,
			"Ġlea": 465,
			"Ġan": 466,
			"Ġwood": 467,
			"Ġtru": 468,
			"wer": 469,
			"ant": 470,
			"Ġye": 471,
			"Ġyellow": 472,
			"Ġstre": 473,
			"Ġback": 474,
			"Ġbag": 475,
			"Ġbottle": 476,
			"cle": 477,
			"Ġstreet": 478,
			"Ġboo": 479,
			"Ġdog": 480,
			"Ġflo": 481,
			"qu": 482,
			"Ġhor": 483,
			"his": 484,
			"Ġpla": 485,
			"Ġground": 486,
			"ĠS": 487,
			"Ġtrees": 488,
			"ire": 489,
			"Ġtop": 490,
			"Ġho": 491,
			"Ġfen": 492,
			"Ġtrain": 493,
			"Ġgra": 494,
			"ph": 495,
			"Ġsm": 496,
			"Ġsho": 497,
			"ffe": 498,
			"Ġfloor": 499,
			"Ġfence": 500,
			"ink": 501,
			"Ġcat": 502,
			"Ġear": 503,
			"ine": 504,
			"Ġhat": 505,
			"Ġsn": 506,
			"arge": 507,
			"Ġsit": 508,
			"ie": 509,
			"Ġclo": 510,
			"Ġbook": 511,
			"Ġv": 512,
			"Ġsu": 513,
			"Ġbow": 514,
			"Ġflow": 515,
			"Ġfa": 516,
			"Ġshor": 517,
			"Ġcup": 518,
			"ure": 519,
			"Ġfront": 520,
			"dy": 521,
			"ut": 522,
			"li": 523,
			"zz": 524,
			"Ġbowl": 525,
			"am": 526,
			"Ġsitting": 527,
			"range": 528,
			"Ġstand": 529,
			"Ġcont": 530,
			"tter": 531,
			"ĠP": 532,
			"est": 533,
			"Ġcom": 534,
			"wo": 535,
			"zza": 536,
			"Ġcab": 537,
			"Ġplay": 538,
			"her": 539,
			"Ġlarge": 540,
			"Ġarm": 541,
			"ct": 542,
			"Ġchi": 543,
			"rell": 544,
			"Ġpillow": 545,
			"leph": 546,
			"lou": 547,
			"Ġhorse": 548,
			"mbrell": 549,
			"Ġth": 550,
			"Ġumbrell": 551,
			"Ġpizza": 552,
			"Ġra": 553,
			"Ġph": 554,
			"ds": 555,
			"Ġbeh": 556,
			"Ġbehind": 557,
			"Ġorange": 558,
			"th": 559,
			"Ġsmall": 560,
			"Ġthis": 561,
			"eat": 562,
			"Ġsnow": 563,
			"Ġclou": 564,
			"Ġcabin": 565,
			"ycle": 566,
			"lf": 567,
			"Ġdes": 568,
			"Ġbed": 569,
			"Ġletter": 570,
			"Ġholding": 571,
			"nk": 572,
			"Ġcabinet": 573,
			"Ġfor": 574,
			"ate": 575,
			"Ġwhe": 576,
			"Ġso": 577,
			"Ġun": 578,
			"Ġumbrella": 579,
			"Ġlamp": 580,
			"Ġeye": 581,
			"Ġbox": 582,
			"let": 583,
			"Ġbat": 584,
			"Ġleaves": 585,
			"Ġeleph": 586,
			"Ġnear": 587,
			"Ġwheel": 588,
			"Ġben": 589,
			"ĠM": 590,
			"round": 591,
			"Ġfood": 592,
			"Ġcomp": 593,
			"uter": 594,
			"if": 595,
			"Ġgray": 596,
			"Ġcou": 597,
			"Ġstanding": 598,
			"Ġdis": 599,
			"ouse": 600,
			"cks": 601,
			"Ġta": 602,
			"age": 603,
			"Ġcoun": 604,
			"Ġban": 605,
			"Ġcol": 606,
			"Ġcomputer": 607,
			"Ġshorts": 608,
			"pt": 609,
			"Ġqu": 610,
			"Ġpap": 611,
			"Ġje": 612,
			"Ġsil": 613,
			"Ġno": 614,
			"art": 615,
			"Ġbi": 616,
			"red": 617,
			"Ġsilver": 618,
			"ket": 619,
			"Ġchild": 620,
			"Ġcolor": 621,
			"estion": 622,
			"Ġquestion": 623,
			"answer": 624,
			"lm": 625,
			"Ġglasses": 626,
			"ey": 627,
			"xt": 628,
			"Ġshelf": 629,
			"Ġbear": 630,
			"Ġbench": 631,
			"og": 632,
			"Ġgira": 633,
			"ong": 634,
			"Ġroad": 635,
			"Ġpict": 636,
			"res": 637,
			"Ġelephant": 638,
			"Ġface": 639,
			"Ġhelm": 640,
			"im": 641,
			"Ġhelmet": 642,
			"Ġmot": 643,
			"umb": 644,
			"Ġjeans": 645,
			"Ġbanan": 646,
			"Ġsand": 647,
			"Ġsa": 648,
			"etal": 649,
			"Ġlapt": 650,
			"Ġlaptop": 651,
			"Ġsw": 652,
			"ĠC": 653,
			"der": 654,
			"Ġpicture": 655,
			"ide": 656,
			"Ġve": 657,
			"Ġdesk": 658,
			"Ġtruck": 659,
			"Ġtwo": 660,
			"Ġten": 661,
			"Ġpaper": 662,
			"ast": 663,
			"Ġce": 664,
			"Ġmotor": 665,
			"walk": 666,
			"Ġcounter": 667,
			"ook": 668,
			"Ġphone": 669,
			"Ġwooden": 670,
			"rtain": 671,
			"ene": 672,
			"Ġscene": 673,
			"Ġmetal": 674,
			"itc": 675,
			"Ġnext": 676,
			"Ġpark": 677,
			"Ġplayer": 678,
			"Ġgiraffe": 679,
			"Ġsur": 680,
			"cket": 681,
			"Ġpost": 682,
			"Ġpot": 683,
			"ress": 684,
			"Ġref": 685,
			"ator": 686,
			"Ġkn": 687,
			"ay": 688,
			"Ġmotorc": 689,
			"Ġbri": 690,
			"Ġsidewalk": 691,
			"ger": 692,
			"Ġcurtain": 693,
			"Ġcan": 694,
			"Ġz": 695,
			"ang": 696,
			"Ġcow": 697,
			"ying": 698,
			"Ġshoe": 699,
			"Ġte": 700,
			"Ġpart": 701,
			"Ġboat": 702,
			"Ġsurf": 703,
			"eb": 704,
			"eck": 705,
			"ĠG": 706,
			"ato": 707,
			"Ġdark": 708,
			"Ġcoat": 709,
			"Ġclock": 710,
			"ake": 711,
			"Ġlady": 712,
			"Ġclouds": 713,
			"pe": 714,
			"nis": 715,
			"Ġair": 716,
			"Ġdress": 717,
			"Ġnose": 718,
			"ep": 719,
			"ror": 720,
			"irror": 721,
			"Ġmotorcycle": 722,
			"me": 723,
			"Ġcap": 724,
			"Ġtrunk": 725,
			"Ġskate": 726,
			"Ġwalk": 727,
			"Ġmirror": 728,
			"irt": 729,
			"Ġcontain": 730,
			"Ġtail": 731,
			"Ġtow": 732,
			"atch": 733,
			"Ġflower": 734,
			"Ġball": 735,
			"Ġgu": 736,
			"Ġnumb": 737,
			"Ġzeb": 738,
			"ler": 739,
			"Ġdra": 740,
			"Ġbase": 741,
			"Ġwindows": 742,
			"Ġski": 743,
			"Ġbush": 744,
			"Ġmu": 745,
			"Ġby": 746,
			"ĠL": 747,
			"Ġtennis": 748,
			"ent": 749,
			"Ġcouch": 750,
			"ane": 751,
			"Ġout": 752,
			"ball": 753,
			"Ġpink": 754,
			"ield": 755,
			"ilet": 756,
			"Ġbir": 757,
			"Ġskateboard": 758,
			"Ġwri": 759,
			"Ġfra": 760,
			"ese": 761,
			"ĠWhite": 762,
			"Ġtoilet": 763,
			"Ġfield": 764,
			"co": 765,
			"ash": 766,
			"ted": 767,
			"Ġneck": 768,
			"Ġtowel": 769,
			"ĠMan": 770,
			"Ġkey": 771,
			"Ġlong": 772,
			"Ġsink": 773,
			"Ġwine": 774,
			"orm": 775,
			"ĠR": 776,
			"rol": 777,
			"Ġit": 778,
			"Ġbike": 779,
			"Ġhang": 780,
			"ave": 781,
			"Ġapp": 782,
			"Ġflowers": 783,
			"Ġcontainer": 784,
			"rey": 785,
			"Ġfri": 786,
			"Ġche": 787,
			"pen": 788,
			"id": 789,
			"Ġzebra": 790,
			"Ġcake": 791,
			"Ġbaseball": 792,
			"Ġsto": 793,
			"Ġpur": 794,
			"Ġguy": 795,
			"Ġleaf": 796,
			"Ġlog": 797,
			"ick": 798,
			"Ġbas": 799,
			"Ġshoes": 800,
			"Ġhanging": 801,
			"ground": 802,
			"Ġcor": 803,
			"Ġfla": 804,
			"Ġglo": 805,
			"Ġgrey": 806,
			"Ġlegs": 807,
			"Ġbanana": 808,
			"eak": 809,
			"read": 810,
			"Ġplant": 811,
			"oon": 812,
			"Ġnumber": 813,
			"ite": 814,
			"gerator": 815,
			"Ġstri": 816,
			"kin": 817,
			"Ġrefri": 818,
			"ĠI": 819,
			"ul": 820,
			"ffee": 821,
			"Ġunder": 822,
			"Ġwalking": 823,
			"ry": 824,
			"Ġru": 825,
			"uce": 826,
			"Ġsheep": 827,
			"Ġrefrigerator": 828,
			"Ġcontrol": 829,
			"Ġbasket": 830,
			"Ġbird": 831,
			"get": 832,
			"Ġtan": 833,
			"Ġflag": 834,
			"Ġbackground": 835,
			"ĠO": 836,
			"Ġcoffee": 837,
			"Ġkeyboard": 838,
			"ple": 839,
			"sh": 840,
			"iling": 841,
			"Ġseat": 842,
			"Ġtall": 843,
			"Ġframe": 844,
			"Ġcle": 845,
			"room": 846,
			"Ġpepp": 847,
			"ee": 848,
			"Ġbooks": 849,
			"ife": 850,
			"Ġvase": 851,
			"imal": 852,
			"oot": 853,
			"Ġtire": 854,
			"Ġfork": 855,
			"shirt": 856,
			"Ġtom": 857,
			"Ġtomato": 858,
			"way": 859,
			"Ġup": 860,
			"each": 861,
			"ĠF": 862,
			"Ġknife": 863,
			"Ġanimal": 864,
			"gg": 865,
			"Ġpain": 866,
			"Ġwor": 867,
			"Ġracket": 868,
			"Ġscreen": 869,
			"wi": 870,
			"Ġlogo": 871,
			"Ġhouse": 872,
			"ĠD": 873,
			"led": 874,
			"lev": 875,
			"apkin": 876,
			"Ġfoot": 877,
			"own": 878,
			"ade": 879,
			"ome": 880,
			"astic": 881,
			"Ġcarro": 882,
			"Ġabo": 883,
			"Ġabove": 884,
			"Ġnapkin": 885,
			"Ġdish": 886,
			"Ġfire": 887,
			"ruit": 888,
			"pack": 889,
			"ision": 890,
			"Ġy": 891,
			"levision": 892,
			"Ġdirt": 893,
			"Ġmon": 894,
			"Ġste": 895,
			"Ġbackpack": 896,
			"Ġbread": 897,
			"Ġdon": 898,
			"Ġwatch": 899,
			"Ġboard": 900,
			"Ġdri": 901,
			"Ġtr": 902,
			"ven": 903,
			"Ġopen": 904,
			"ĠH": 905,
			"Ġtelevision": 906,
			"Ġcheese": 907,
			"Ġswe": 908,
			"Ġrock": 909,
			"ak": 910,
			"Ġplastic": 911,
			"Ġfruit": 912,
			"Ġbath": 913,
			"Ġveget": 914,
			"Ġstick": 915,
			"Ġbro": 916,
			"Ġtray": 917,
			"Ġparked": 918,
			"Ġover": 919,
			"itor": 920,
			"Ġroo": 921,
			"wich": 922,
			"Ġsweater": 923,
			"lect": 924,
			"lored": 925,
			"ding": 926,
			"ĠBlack": 927,
			"Ġtie": 928,
			"Ġdown": 929,
			"Ġthat": 930,
			"outh": 931,
			"Ġmonitor": 932,
			"Ġcell": 933,
			"ill": 934,
			"are": 935,
			"ranch": 936,
			"iform": 937,
			"Ġuniform": 938,
			"Ġgo": 939,
			"Ġstove": 940,
			"Ġroof": 941,
			"Ġsandwich": 942,
			"Ġpepper": 943,
			"ice": 944,
			"Ġstrip": 945,
			"Ġbel": 946,
			"Ġmouth": 947,
			"Ġbranch": 948,
			"Ġclear": 949,
			"Ġcand": 950,
			"Ġblan": 951,
			"Ġsuit": 952,
			"Ġwrist": 953,
			"ac": 954,
			"Ġsurfboard": 955,
			"Ġtrash": 956,
			"Ġvehi": 957,
			"Ġbic": 958,
			"Ġblanket": 959,
			"Ġkite": 960,
			"Ġstra": 961,
			"Ġoven": 962,
			"cco": 963,
			"Ġround": 964,
			"Ġen": 965,
			"Ġmouse": 966,
			"uc": 967,
			"ccoli": 968,
			"ment": 969,
			"Ġapple": 970,
			"Ġlook": 971,
			"Ġspoon": 972,
			"ree": 973,
			"itche": 974,
			"Ġbeach": 975,
			"Ġfrom": 976,
			"ight": 977,
			"ĠY": 978,
			"Ġbroccoli": 979,
			"itchen": 980,
			"ffic": 981,
			"Ġcolored": 982,
			"tain": 983,
			"Ġkitchen": 984,
			"Ġpiec": 985,
			"Ġthere": 986,
			"Ġcloth": 987,
			"Ġmen": 988,
			"side": 989,
			"Ġairp": 990,
			"ner": 991,
			"sb": 992,
			"ame": 993,
			"Ġcove": 994,
			"Ġmoun": 995,
			"Ġglove": 996,
			"Ġyou": 997,
			"Ġtraffic": 998,
			"Ġfing": 999,
			"Ġbicycle": 1000,
			"ss": 1001,
			"Ġcon": 1002,
			"ĠWh": 1003,
			"ns": 1004,
			"sbee": 1005,
			"ĠTwo": 1006,
			"Ġroom": 1007,
			"Ġfe": 1008,
			"ower": 1009,
			"tle": 1010,
			"Ġlid": 1011,
			"Ġbananas": 1012,
			"Ġvehicle": 1013,
			"Ġshort": 1014,
			"Ġcam": 1015,
			"Ġdrawer": 1016,
			"Ġti": 1017,
			"uts": 1018,
			"dge": 1019,
			"Ġhands": 1020,
			"Ġbun": 1021,
			"Ġvan": 1022,
			"alm": 1023,
			"Ġletters": 1024,
			"Ġpa": 1025,
			"ars": 1026,
			"Ġhandle": 1027,
			"uff": 1028,
			"pla": 1029,
			"yes": 1030,
			"mo": 1031,
			"ants": 1032,
			"ation": 1033,
			"rant": 1034,
			"ĠN": 1035,
			"Ġhot": 1036,
			"Ġeyes": 1037,
			"Ġfrisbee": 1038,
			"Ġcamer": 1039,
			"lane": 1040,
			"Ġdonut": 1041,
			"Ġplane": 1042,
			"ving": 1043,
			"ĠThis": 1044,
			"Ġcamera": 1045,
			"Ġor": 1046,
			"Ġhill": 1047,
			"Ġtower": 1048,
			"aby": 1049,
			"hie": 1050,
			"Ġmountain": 1051,
			"Ġaround": 1052,
			"Ġpurple": 1053,
			"Ġmic": 1054,
			"Ġpiece": 1055,
			"Ġfur": 1056,
			"ĠWoman": 1057,
			"Ġairplane": 1058,
			"Ġphot": 1059,
			"ĠWhat": 1060,
			"mote": 1061,
			"ating": 1062,
			"ines": 1063,
			"Ġfo": 1064,
			"hield": 1065,
			"adow": 1066,
			"Ġcarrot": 1067,
			"ber": 1068,
			"Ġremote": 1069,
			"Ġsuitc": 1070,
			"Ġbaby": 1071,
			"Ġcars": 1072,
			"Ġriding": 1073,
			"Ġstraw": 1074,
			"Ġlooking": 1075,
			"eddy": 1076,
			"Ġyoung": 1077,
			"lice": 1078,
			"Ġbrick": 1079,
			"ric": 1080,
			"ty": 1081,
			"Ġmade": 1082,
			"ĠTH": 1083,
			"Ġsauce": 1084,
			"Ġcandle": 1085,
			"ull": 1086,
			"Ġonion": 1087,
			"llar": 1088,
			"Ġlit": 1089,
			"Ġplaying": 1090,
			"ross": 1091,
			"rin": 1092,
			"Ġteddy": 1093,
			"shield": 1094,
			"Ġmeat": 1095,
			"ance": 1096,
			"Ġhis": 1097,
			"Ġline": 1098,
			"Ġed": 1099,
			"ables": 1100,
			"cher": 1101,
			"ĠRed": 1102,
			"Ġcloud": 1103,
			"Ġcook": 1104,
			"Ġoff": 1105,
			"Ġbathroom": 1106,
			"us": 1107,
			"Ġwindshield": 1108,
			"Ġsuitcase": 1109,
			"Ġcord": 1110,
			"oup": 1111,
			"hed": 1112,
			"Ġceiling": 1113,
			"Ġfinger": 1114,
			"Ġcontroller": 1115,
			"ly": 1116,
			"um": 1117,
			"ucet": 1118,
			"Ġpat": 1119,
			"Ġpurse": 1120,
			"Ġtracks": 1121,
			"Ġfaucet": 1122,
			"Ġcovered": 1123,
			"Ġchairs": 1124,
			"Ġrug": 1125,
			"rowave": 1126,
			"yd": 1127,
			"Ġma": 1128,
			"Ġcatcher": 1129,
			"fa": 1130,
			"Ġhyd": 1131,
			"Ġedge": 1132,
			"Ġves": 1133,
			"Ġse": 1134,
			"Ġpalm": 1135,
			"ps": 1136,
			"Ġmicrowave": 1137,
			"Ġhydrant": 1138,
			"Ġcollar": 1139,
			"ren": 1140,
			"Ġwa": 1141,
			"Ġlu": 1142,
			"Ġlights": 1143,
			"Ġsofa": 1144,
			"Ġshadow": 1145,
			"Ġphoto": 1146,
			"Ġspeak": 1147,
			"dle": 1148,
			"ig": 1149,
			"Ġgame": 1150,
			"Ġvest": 1151,
			"ĠBl": 1152,
			"Ġstriped": 1153,
			"Ġreflect": 1154,
			"Ġwheels": 1155,
			"Ġsle": 1156,
			"Ġstone": 1157,
			"Ġinside": 1158,
			"ub": 1159,
			"Ġwire": 1160,
			"Ġwe": 1161,
			"ĠTHE": 1162,
			"Ġcurtains": 1163,
			"Ġdoors": 1164,
			"Ġcone": 1165,
			"Ġtag": 1166,
			"Ġpen": 1167,
			"lder": 1168,
			"ĠGreen": 1169,
			"ses": 1170,
			"Ġfeet": 1171,
			"Ġstuff": 1172,
			"Ġpotato": 1173,
			"ĠSm": 1174,
			"Ġwet": 1175,
			"Ġher": 1176,
			"Ġbar": 1177,
			"Ġrocks": 1178,
			"Ġdu": 1179,
			"Ġmug": 1180,
			"Ġsqu": 1181,
			"Ġbushes": 1182,
			"Ġpad": 1183,
			"Ġstop": 1184,
			"Ġdrink": 1185,
			"ough": 1186,
			"Ġcart": 1187,
			"Ġbuildings": 1188,
			"Ġpair": 1189,
			"Ġdec": 1190,
			"Ġparking": 1191,
			"ble": 1192,
			"Ġju": 1193,
			"Ġcabinets": 1194,
			"cean": 1195,
			"Ġthree": 1196,
			"Ġal": 1197,
			"Ġdist": 1198,
			"pet": 1199,
			"lic": 1200,
			"ĠSmall": 1201,
			"Ġskirt": 1202,
			"Ġsnowboard": 1203,
			"ĠIs": 1204,
			"Ġsome": 1205,
			"Ġocean": 1206,
			"ive": 1207,
			"Ġpillows": 1208,
			"Ġwing": 1209,
			"Ġstuffed": 1210,
			"Ġcarpet": 1211,
			"ĠBlue": 1212,
			"Ġvegetables": 1213,
			"Ġjar": 1214,
			"Ġblind": 1215,
			"Ġgold": 1216,
			"iss": 1217,
			"Ġbatter": 1218,
			"arf": 1219,
			"sed": 1220,
			"Ġdecor": 1221,
			"mpty": 1222,
			"Ġscarf": 1223,
			"Ġspeaker": 1224,
			"Ġskier": 1225,
			"our": 1226,
			"ved": 1227,
			"ĠPerson": 1228,
			"Ġpaw": 1229,
			"Ġring": 1230,
			"Ġeating": 1231,
			"ten": 1232,
			"Ġdistance": 1233,
			"ign": 1234,
			"Ġbelow": 1235,
			"Ġegg": 1236,
			"Ġwi": 1237,
			"Ġsticker": 1238,
			"Ġbra": 1239,
			"Ġlittle": 1240,
			"ries": 1241,
			"Ġpro": 1242,
			"Ġlett": 1243,
			"ond": 1244,
			"IN": 1245,
			"ggage": 1246,
			"Ġvegetable": 1247,
			"Ġsneak": 1248,
			"ĠAn": 1249,
			"Ġpos": 1250,
			"Ġlettuce": 1251,
			"ires": 1252,
			"Ġbelt": 1253,
			"Ġluggage": 1254,
			"Ġmo": 1255,
			"ort": 1256,
			"Ġcru": 1257,
			"nsil": 1258,
			"Ġbottom": 1259,
			"Ġbes": 1260,
			"Ġsun": 1261,
			"Ġsock": 1262,
			"lasses": 1263,
			"ĠE": 1264,
			"ĠNo": 1265,
			"Ġcross": 1266,
			"Ġtoy": 1267,
			"Ġute": 1268,
			"Ġempty": 1269,
			"Ġchain": 1270,
			"Ġears": 1271,
			"sp": 1272,
			"Ġutensil": 1273,
			"Ġlines": 1274,
			"ersey": 1275,
			"Ġcur": 1276,
			"Ġbeside": 1277,
			"ense": 1278,
			"Ġjersey": 1279,
			"Ġskis": 1280,
			"Ġlab": 1281,
			"Ġclothes": 1282,
			"pes": 1283,
			"ron": 1284,
			"Ġbottles": 1285,
			"Ġbur": 1286,
			"Ġlaying": 1287,
			"form": 1288,
			"tton": 1289,
			"Ġim": 1290,
			"Ġblinds": 1291,
			"Ġdraw": 1292,
			"rush": 1293,
			"uit": 1294,
			"ors": 1295,
			"band": 1296,
			"Ġpast": 1297,
			"cles": 1298,
			"Ġlic": 1299,
			"ser": 1300,
			"Ġtank": 1301,
			"urn": 1302,
			"Ġlabel": 1303,
			"Ġold": 1304,
			"ĠBrown": 1305,
			"Ġsneakers": 1306,
			"Ġimage": 1307,
			"mpire": 1308,
			"Ġspect": 1309,
			"ots": 1310,
			"Ġarea": 1311,
			"Ġr": 1312,
			"Ġsheet": 1313,
			"less": 1314,
			"iles": 1315,
			"Ġpainted": 1316,
			"Ġdoorway": 1317,
			"Ġlicense": 1318,
			"Ġbright": 1319,
			"Ġmane": 1320,
			"Ġslee": 1321,
			"Ġrope": 1322,
			"Ġsocks": 1323,
			"Ġcourt": 1324,
			"rying": 1325,
			"Ġap": 1326,
			"Ġstat": 1327,
			"cre": 1328,
			"light": 1329,
			"Ġcre": 1330,
			"pping": 1331,
			"Ġone": 1332,
			"Ġdispla": 1333,
			"Ġfull": 1334,
			"Ġstair": 1335,
			"Ġgroup": 1336,
			"lace": 1337,
			"Ġgloves": 1338,
			"Ġbranches": 1339,
			"Ġspectator": 1340,
			"Ġslice": 1341,
			"Ġnight": 1342,
			"aker": 1343,
			"Ġcarrots": 1344,
			"Ġshin": 1345,
			"Ġtiles": 1346,
			"lad": 1347,
			"Ġket": 1348,
			"Ġcarrying": 1349,
			"Ġouts": 1350,
			"Ġplants": 1351,
			"crete": 1352,
			"omen": 1353,
			"Ġumpire": 1354,
			"ful": 1355,
			"Ġbookshe": 1356,
			"Ġflying": 1357,
			"Ġdisplay": 1358,
			"suit": 1359,
			"Ġtile": 1360,
			"ĠYes": 1361,
			"Ġbrace": 1362,
			"Ġstatue": 1363,
			"ity": 1364,
			"Ġbeer": 1365,
			"Ġde": 1366,
			"Ġpass": 1367,
			"Ġtri": 1368,
			"Ġsalad": 1369,
			"Ġoutlet": 1370,
			"ish": 1371,
			"Ġoutf": 1372,
			"Ġbig": 1373,
			"Ġboots": 1374,
			"ĠIS": 1375,
			"ning": 1376,
			"Ġshower": 1377,
			"Ġliqu": 1378,
			"Ġfro": 1379,
			"Ġwomen": 1380,
			"ĠLarge": 1381,
			"Ġconcrete": 1382,
			"AN": 1383,
			"Ġcr": 1384,
			"Ġlot": 1385,
			"Ġbutton": 1386,
			"Ġstack": 1387,
			"ection": 1388,
			"Ġoutside": 1389,
			"Ġpainting": 1390,
			"Ġoli": 1391,
			"Ġslic": 1392,
			"Ġoutfit": 1393,
			"Ġbookshelf": 1394,
			"Ġgate": 1395,
			"tting": 1396,
			"Ġcream": 1397,
			"Ġboot": 1398,
			"Ġword": 1399,
			"Ġplates": 1400,
			"late": 1401,
			"Ġstrawber": 1402,
			"Ġcorner": 1403,
			"ges": 1404,
			"ony": 1405,
			"ones": 1406,
			"Ġtent": 1407,
			"to": 1408,
			"Ġtab": 1409,
			"Ġnecklace": 1410,
			"Ġheadboard": 1411,
			"med": 1412,
			"case": 1413,
			"Ġplatform": 1414,
			"Ġliquid": 1415,
			"ol": 1416,
			"Ġsquare": 1417,
			"place": 1418,
			"Ġbucket": 1419,
			"Ġrun": 1420,
			"Ġpu": 1421,
			"oni": 1422,
			"Ġlying": 1423,
			"Ġwatching": 1424,
			"Ġtea": 1425,
			"Ġgar": 1426,
			"Ġfireplace": 1427,
			"Ġcouple": 1428,
			"Ġdesign": 1429,
			"loth": 1430,
			"Ġpassen": 1431,
			"Ġcolorful": 1432,
			"ular": 1433,
			"Ġdi": 1434,
			"Ġbridge": 1435,
			"ĠBo": 1436,
			"Ġpipe": 1437,
			"Ġpaint": 1438,
			"nglasses": 1439,
			"Ġlo": 1440,
			"Ġmark": 1441,
			"itch": 1442,
			"Ġbracelet": 1443,
			"hich": 1444,
			"do": 1445,
			"Ġshel": 1446,
			"Ġhorses": 1447,
			"Ġag": 1448,
			"Ġtak": 1449,
			"Ġend": 1450,
			"Ġpine": 1451,
			"ogg": 1452,
			"ĠTh": 1453,
			"Ġstore": 1454,
			"ĠSt": 1455,
			"ather": 1456,
			"Ġwires": 1457,
			"ĠYe": 1458,
			"Ġnumbers": 1459,
			"up": 1460,
			"Ġcutting": 1461,
			"Ġprin": 1462,
			"ĠYellow": 1463,
			"lec": 1464,
			"Ġarrow": 1465,
			"Ġspots": 1466,
			"Ġapron": 1467,
			"di": 1468,
			"ige": 1469,
			"lecloth": 1470,
			"Ġmat": 1471,
			"Ġelect": 1472,
			"Ġreflection": 1473,
			"cc": 1474,
			"Ġtablecloth": 1475,
			"Ġcrust": 1476,
			"Ġpatch": 1477,
			"Ġmid": 1478,
			"Ġtopping": 1479,
			"Ġagain": 1480,
			"Ġnet": 1481,
			"stand": 1482,
			"Ġad": 1483,
			"out": 1484,
			"Ġpocket": 1485,
			"Ġelephants": 1486,
			"Ġroll": 1487,
			"Ġsunglasses": 1488,
			"Ġwii": 1489,
			"oth": 1490,
			"ING": 1491,
			"Ġsoap": 1492,
			"Ġagainst": 1493,
			"oggles": 1494,
			"ER": 1495,
			"Ġrow": 1496,
			"ach": 1497,
			"shroom": 1498,
			"itcher": 1499,
			"ool": 1500,
			"Ġsmiling": 1501,
			"Ġfan": 1502,
			"avement": 1503,
			"az": 1504,
			"alf": 1505,
			"Ġalong": 1506,
			"Ġtowels": 1507,
			"sting": 1508,
			"Ġme": 1509,
			"pped": 1510,
			"Ġturn": 1511,
			"Ġgoggles": 1512,
			"cken": 1513,
			"oco": 1514,
			"Ġclosed": 1515,
			"ĠPe": 1516,
			"Ġpavement": 1517,
			"ĠThere": 1518,
			"Ġwears": 1519,
			"Ġstripes": 1520,
			"Ġwriting": 1521,
			"Ġmushroom": 1522,
			"ocolate": 1523,
			"Ġbal": 1524,
			"Ġpepperoni": 1525,
			"au": 1526,
			"tert": 1527,
			"ther": 1528,
			"Ġset": 1529,
			"Ġrail": 1530,
			"ace": 1531,
			"vel": 1532,
			"Ġpitcher": 1533,
			"tern": 1534,
			"tertop": 1535,
			"Ġplan": 1536,
			"Ġapples": 1537,
			"Ġplace": 1538,
			"Ġcountertop": 1539,
			"Ġarms": 1540,
			"len": 1541,
			"Ġchicken": 1542,
			"Ġtooth": 1543,
			"Ġmas": 1544,
			"AR": 1545,
			"Ġdin": 1546,
			"Ġshade": 1547,
			"Ġtomatoes": 1548,
			"Ġposter": 1549,
			"ip": 1550,
			"Ġfrosting": 1551,
			"Ġbeige": 1552,
			"Ġwords": 1553,
			"rowing": 1554,
			"da": 1555,
			"eth": 1556,
			"ĠON": 1557,
			"Ġnightstand": 1558,
			"we": 1559,
			"Ġhome": 1560,
			"Ġother": 1561,
			"ached": 1562,
			"Ġver": 1563,
			"tub": 1564,
			"ffes": 1565,
			"ob": 1566,
			"Ġchildren": 1567,
			"Ġbathtub": 1568,
			"Ġfour": 1569,
			"Ġattached": 1570,
			"Ġspot": 1571,
			"Ġleather": 1572,
			"Ġsweat": 1573,
			"Ġbeard": 1574,
			"Ġchocolate": 1575,
			"ranges": 1576,
			"Ġstairs": 1577,
			"Ġband": 1578,
			"Ġsandal": 1579,
			"Ġbunch": 1580,
			"Ġgiraffes": 1581,
			"Ġgri": 1582,
			"Ġswitch": 1583,
			"mon": 1584,
			"ti": 1585,
			"Ġtv": 1586,
			"Ġsurfer": 1587,
			"Ġstripe": 1588,
			"ĠAre": 1589,
			"Ġthese": 1590,
			"Ġbody": 1591,
			"Ġpapers": 1592,
			"Ġcarri": 1593,
			"Ġex": 1594,
			"Ġsoda": 1595,
			"Ġsteel": 1596,
			"Ġcity": 1597,
			"aper": 1598,
			"ĠDo": 1599,
			"RE": 1600,
			"xi": 1601,
			"Ġstation": 1602,
			"un": 1603,
			"Ġdrawers": 1604,
			"Ġfil": 1605,
			"veral": 1606,
			"ĠPeople": 1607,
			"Ġcupboard": 1608,
			"Ġoranges": 1609,
			"IT": 1610,
			"Ġcows": 1611,
			"Ġworn": 1612,
			"Ġanimals": 1613,
			"Ġcard": 1614,
			"Ġbik": 1615,
			"Ġfries": 1616,
			"Ġbricks": 1617,
			"ters": 1618,
			"Ġvis": 1619,
			"Ġshelves": 1620,
			"Ġmust": 1621,
			"Ġtaxi": 1622,
			"lephone": 1623,
			"Ġskin": 1624,
			"opp": 1625,
			"Ġbags": 1626,
			"Ġpassenger": 1627,
			"Ġcuc": 1628,
			"Ġcucumb": 1629,
			"alt": 1630,
			"Ġbare": 1631,
			"rough": 1632,
			"Ġcloudy": 1633,
			"Ġbeing": 1634,
			"Ġelectric": 1635,
			"Ġdresser": 1636,
			"Ġdonuts": 1637,
			"ccer": 1638,
			"ĠSil": 1639,
			"Ġthrough": 1640,
			"Ġcir": 1641,
			"rowd": 1642,
			"Ġlemon": 1643,
			"Ġbalc": 1644,
			"Ġpattern": 1645,
			"ĠSilver": 1646,
			"Ġmiddle": 1647,
			"onde": 1648,
			"iew": 1649,
			"Ġmask": 1650,
			"aning": 1651,
			"igh": 1652,
			"Ġdecoration": 1653,
			"Ġstar": 1654,
			"Ġtelephone": 1655,
			"phone": 1656,
			"ycles": 1657,
			"ras": 1658,
			"ail": 1659,
			"Ġshiny": 1660,
			"Ġfig": 1661,
			"Ġwave": 1662,
			"Ġfilled": 1663,
			"Ġframed": 1664,
			"Ġcovering": 1665,
			"Ġlad": 1666,
			"Ġfridge": 1667,
			"Ġsoccer": 1668,
			"Ġcrowd": 1669,
			"Ġhave": 1670,
			"ĠK": 1671,
			"Ġholder": 1672,
			"asher": 1673,
			"Ġbutter": 1674,
			"ĠLight": 1675,
			"Ġbalcony": 1676,
			"Ġwetsuit": 1677,
			"Ġhorn": 1678,
			"Ġumbrellas": 1679,
			"Ġinto": 1680,
			"Ġearring": 1681,
			"ape": 1682,
			"Ġcupc": 1683,
			"iti": 1684,
			"Ġskateboarder": 1685,
			"Ġsleeve": 1686,
			"eds": 1687,
			"cing": 1688,
			"Ġpath": 1689,
			"Ġpolice": 1690,
			"Ġcarriage": 1691,
			"Ġknob": 1692,
			"Ġvery": 1693,
			"Ġsweatshirt": 1694,
			"Ġread": 1695,
			"ray": 1696,
			"Ġladder": 1697,
			"Ġonions": 1698,
			"agaz": 1699,
			"Ġmountains": 1700,
			"Ġcups": 1701,
			"Ġzebras": 1702,
			"Ġpoin": 1703,
			"Ġstrawberry": 1704,
			"Ġcen": 1705,
			"Ġrack": 1706,
			"Ġcut": 1707,
			"Ġjuice": 1708,
			"Ġsuv": 1709,
			"Ġcover": 1710,
			"Ġblonde": 1711,
			"rican": 1712,
			"ĠSh": 1713,
			"Ġleaning": 1714,
			"Ġdecorat": 1715,
			"Ġburner": 1716,
			"Ġpower": 1717,
			"Ġdishw": 1718,
			"Ġas": 1719,
			"Ġtoas": 1720,
			"Ġstain": 1721,
			"ist": 1722,
			"tte": 1723,
			"Ġgrowing": 1724,
			"gnet": 1725,
			"arm": 1726,
			"CK": 1727,
			"ĠĠ": 1728,
			"dest": 1729,
			"hers": 1730,
			"Ġcenter": 1731,
			"Ġsea": 1732,
			"Ġview": 1733,
			"man": 1734,
			"Ġday": 1735,
			"Ġbet": 1736,
			"Ġsy": 1737,
			"Ġdishwasher": 1738,
			"ffiti": 1739,
			"ween": 1740,
			"be": 1741,
			"Ġthi": 1742,
			"Ġolive": 1743,
			"Ġboxes": 1744,
			"Ġpotatoes": 1745,
			"Ġmagaz": 1746,
			"Ġkit": 1747,
			"ĠThree": 1748,
			"Ġrest": 1749,
			"Ġwristband": 1750,
			"Ġrice": 1751,
			"Ġbetween": 1752,
			"Ġmagnet": 1753,
			"Ġsurface": 1754,
			"ĠWood": 1755,
			"Ġplayers": 1756,
			"Ġpeppers": 1757,
			"Ġdough": 1758,
			"Ġgoat": 1759,
			"LA": 1760,
			"Ġbrush": 1761,
			"Ġoutdo": 1762,
			"Ġcooked": 1763,
			"Ġcomf": 1764,
			"Ġfingers": 1765,
			"Ġflat": 1766,
			"ous": 1767,
			"Ġpedest": 1768,
			"merican": 1769,
			"Ġdispen": 1770,
			"Ġeng": 1771,
			"Ġice": 1772,
			"Ġpoles": 1773,
			"Ġmul": 1774,
			"ĠOn": 1775,
			"Ġsteps": 1776,
			"angular": 1777,
			"Ġtong": 1778,
			"brush": 1779,
			"ĠGir": 1780,
			"Ġgraffiti": 1781,
			"ched": 1782,
			"Ġseveral": 1783,
			"ock": 1784,
			"Ġdry": 1785,
			"Ġblond": 1786,
			"ole": 1787,
			"LE": 1788,
			"Ġdogs": 1789,
			"Ġpile": 1790,
			"Ġshore": 1791,
			"lb": 1792,
			"ible": 1793,
			"Ġsliced": 1794,
			"Ġsauc": 1795,
			"ies": 1796,
			"Ġbeak": 1797,
			"Ġdriving": 1798,
			"Ġwaves": 1799,
			"Ġrunning": 1800,
			"Ġheadlight": 1801,
			"Ġhalf": 1802,
			"Ġpick": 1803,
			"Ġsaus": 1804,
			"Ġnot": 1805,
			"Ġteeth": 1806,
			"Ġwalls": 1807,
			"lender": 1808,
			"Ġ\"": 1809,
			"ms": 1810,
			"Ġrect": 1811,
			"Ġkettle": 1812,
			"Ġkid": 1813,
			"Ġscoo": 1814,
			"Ġcrate": 1815,
			"ĠPi": 1816,
			"Ġsection": 1817,
			"Ġac": 1818,
			"Ġbirds": 1819,
			"Ġmeter": 1820,
			"Ġtrack": 1821,
			"orter": 1822,
			"nit": 1823,
			"Ġdispenser": 1824,
			"Ġsciss": 1825,
			"Ġsail": 1826,
			"Ġdirty": 1827,
			"rink": 1828,
			"Ġmar": 1829,
			"Ġart": 1830,
			"Ġtoothbrush": 1831,
			"Ġutensils": 1832,
			"Ġmany": 1833,
			"ĠV": 1834,
			"Ġsaucer": 1835,
			"Ġfurnit": 1836,
			"Ġhorns": 1837,
			"Ġfurniture": 1838,
			"Ġplaid": 1839,
			"Ġrailing": 1840,
			"Ġcucumber": 1841,
			"Ġthin": 1842,
			"Ġcomforter": 1843,
			"Ġshaker": 1844,
			"Ġhigh": 1845,
			"Ġite": 1846,
			"chup": 1847,
			"Ġdeck": 1848,
			"Ġblender": 1849,
			"Ġduck": 1850,
			"ĠPart": 1851,
			"Ġwork": 1852,
			"Ġbears": 1853,
			"ĠOF": 1854,
			"Ġfi": 1855,
			"Ġliving": 1856,
			"bage": 1857,
			"ouble": 1858,
			"Ġbookcase": 1859,
			"ys": 1860,
			"Ġres": 1861,
			"Ġpedestri": 1862,
			"Ġboth": 1863,
			"Ġriver": 1864,
			"Ġmach": 1865,
			"ef": 1866,
			"Ġtrim": 1867,
			"Ġic": 1868,
			"Ġtiss": 1869,
			"vy": 1870,
			"ĠWind": 1871,
			"Ġpack": 1872,
			"vice": 1873,
			"Ġscissors": 1874,
			"ĠCh": 1875,
			"Ġgrape": 1876,
			"Ġboys": 1877,
			"Ġjump": 1878,
			"Ġha": 1879,
			"Ġwalkway": 1880,
			"Ġketchup": 1881,
			"Ġvisible": 1882,
			"aped": 1883,
			"Ġdock": 1884,
			"Ġacross": 1885,
			"Ġsausage": 1886,
			"iting": 1887,
			"eath": 1888,
			"Ġballoon": 1889,
			"ĠOrange": 1890,
			"Ġboats": 1891,
			"Ġknee": 1892,
			"sing": 1893,
			"Ġser": 1894,
			"Ġplanter": 1895,
			"Ġmil": 1896,
			"Ġgrill": 1897,
			"Ġhood": 1898,
			"Ġtaken": 1899,
			"Ġmachine": 1900,
			"Ġname": 1901,
			"ĠWhich": 1902,
			"Ġwra": 1903,
			"Ġfeat": 1904,
			"Ġradi": 1905,
			"ings": 1906,
			"ny": 1907,
			"Ġengine": 1908,
			"OW": 1909,
			"Ġdoll": 1910,
			"ĠU": 1911,
			"Ġthick": 1912,
			"ideo": 1913,
			"Ġpor": 1914,
			"Ġsigns": 1915,
			"ching": 1916,
			"Ġcase": 1917,
			"Ġheadband": 1918,
			"Ġcupcake": 1919,
			"ĠHe": 1920,
			"Ġhard": 1921,
			"Ġskiing": 1922,
			"Ġpin": 1923,
			"Ġgirls": 1924,
			"Ġnew": 1925,
			"Ġthumb": 1926,
			"ise": 1927,
			"Ġflags": 1928,
			"AT": 1929,
			"Ġpol": 1930,
			"Ġsalt": 1931,
			"Ġscooter": 1932,
			"oke": 1933,
			"Ġbea": 1934,
			"ess": 1935,
			"Ġstu": 1936,
			"iler": 1937,
			"Ġsprink": 1938,
			"Ġvideo": 1939,
			"Ġgravel": 1940,
			"EN": 1941,
			"Ġdouble": 1942,
			"ety": 1943,
			"ini": 1944,
			"phones": 1945,
			"opy": 1946,
			"acon": 1947,
			"ware": 1948,
			"Ġgrassy": 1949,
			"Ġjet": 1950,
			"Ġdevice": 1951,
			"Ġtoaster": 1952,
			"Ġwh": 1953,
			"ime": 1954,
			"Ġsoup": 1955,
			"ney": 1956,
			"fe": 1957,
			"Ġkind": 1958,
			"Ġtoget": 1959,
			"Ġtogether": 1960,
			"Ġswim": 1961,
			"ered": 1962,
			"ĠSk": 1963,
			"Ġdriver": 1964,
			"ĠWindow": 1965,
			"Ġbacon": 1966,
			"Ġent": 1967,
			"Ġtub": 1968,
			"Ġblouse": 1969,
			"ix": 1970,
			"pple": 1971,
			"ike": 1972,
			"roller": 1973,
			"Ġtrailer": 1974,
			"icks": 1975,
			"Ġdecorative": 1976,
			"Ġrear": 1977,
			"mney": 1978,
			"Ġrain": 1979,
			"IR": 1980,
			"ĠBoy": 1981,
			"Ġgrapes": 1982,
			"Ġstroller": 1983,
			"geon": 1984,
			"Ġits": 1985,
			"ĠTV": 1986,
			"Ġmaker": 1987,
			"pper": 1988,
			"Ġpigeon": 1989,
			"xture": 1990,
			"Ġrectangular": 1991,
			"Ġdesser": 1992,
			"ork": 1993,
			"Ġcoo": 1994,
			"ier": 1995,
			"mat": 1996,
			"Ġturned": 1997,
			"Ġfish": 1998,
			"owing": 1999,
			"oung": 2000,
			"uffy": 2001,
			"Ġtalk": 2002,
			"rees": 2003,
			"Ġchimney": 2004,
			"ated": 2005,
			"Ġwaiting": 2006,
			"oulder": 2007,
			"Ġswing": 2008,
			"Ġstainless": 2009,
			"Ġcooler": 2010,
			"elon": 2011,
			"Ġtin": 2012,
			"Ġshaped": 2013,
			"Ġhold": 2014,
			"Ġlette": 2015,
			"ED": 2016,
			"tten": 2017,
			"Ġcanopy": 2018,
			"lope": 2019,
			"top": 2020,
			"ures": 2021,
			"Ġmagazine": 2022,
			"zing": 2023,
			"Ġcable": 2024,
			"Ġcandles": 2025,
			"Ġpastry": 2026,
			"ear": 2027,
			"Ġdining": 2028,
			"Ġmilk": 2029,
			"Ġany": 2030,
			"Ġcement": 2031,
			"Ġsandals": 2032,
			"Ġcheck": 2033,
			"ĠWH": 2034,
			"Ġlettering": 2035,
			"Ġnote": 2036,
			"Ġicing": 2037,
			"Ġeggs": 2038,
			"gar": 2039,
			"Ġpieces": 2040,
			"ĠWooden": 2041,
			"Ġtalking": 2042,
			"Ġtoppings": 2043,
			"fety": 2044,
			"Ġplacemat": 2045,
			"mbo": 2046,
			"Ġamerican": 2047,
			"Ġmustard": 2048,
			"py": 2049,
			"Ġusing": 2050,
			"Ġchar": 2051,
			"Ġall": 2052,
			"Ġfore": 2053,
			"Ġpar": 2054,
			"Ġdoughn": 2055,
			"ded": 2056,
			"amic": 2057,
			"Ġslices": 2058,
			"ale": 2059,
			"ĠTrees": 2060,
			"atu": 2061,
			"mbol": 2062,
			"Ġdrinking": 2063,
			"Ġfruits": 2064,
			"esh": 2065,
			"Ġcer": 2066,
			"Ġ2": 2067,
			"Ġstacked": 2068,
			"Ġfold": 2069,
			"laz": 2070,
			"Ġsymbol": 2071,
			"os": 2072,
			"Ġclean": 2073,
			"aurant": 2074,
			"ces": 2075,
			"Ġpanel": 2076,
			"Ġvehicles": 2077,
			"Ġwritten": 2078,
			"Ġgrazing": 2079,
			"Ġki": 2080,
			"Ġsafety": 2081,
			"Ġspectators": 2082,
			"Ġhu": 2083,
			"amp": 2084,
			"Ġmulti": 2085,
			"ITE": 2086,
			"Ġcra": 2087,
			"Ġoffice": 2088,
			"Ġcords": 2089,
			"Ġtou": 2090,
			"Ġbarri": 2091,
			"Ġstep": 2092,
			"Ġdessert": 2093,
			"OR": 2094,
			"Ġwhi": 2095,
			"ĠCat": 2096,
			"eal": 2097,
			"Ġolives": 2098,
			"Ġtiled": 2099,
			"Ġrestaurant": 2100,
			"Ġweeds": 2101,
			"Ġceramic": 2102,
			"ĠGirl": 2103,
			"oral": 2104,
			"Ġsprinkles": 2105,
			"Ġmenu": 2106,
			"Ġmans": 2107,
			"itar": 2108,
			"Ġtissue": 2109,
			"Ġfeathers": 2110,
			"Ġforest": 2111,
			"quet": 2112,
			"Ġsugar": 2113,
			"rine": 2114,
			"ogra": 2115,
			"Ġcurb": 2116,
			"Ġsmoke": 2117,
			"eping": 2118,
			"Ġshop": 2119,
			"Ġbikes": 2120,
			"Ġsurfing": 2121,
			"ĠWHITE": 2122,
			"Ġheadphones": 2123,
			"akes": 2124,
			"Ġbarrier": 2125,
			"Ġland": 2126,
			"Ġhay": 2127,
			"agon": 2128,
			"Ġport": 2129,
			"spaper": 2130,
			"ian": 2131,
			"ĠGr": 2132,
			"Ġlin": 2133,
			"Ġbever": 2134,
			"ĠDark": 2135,
			"ON": 2136,
			"shion": 2137,
			"Ġmotorcycles": 2138,
			"Ġresting": 2139,
			"Ġpoliceman": 2140,
			"rance": 2141,
			"Ġbull": 2142,
			"ming": 2143,
			"Ġflip": 2144,
			"ĠIN": 2145,
			"Ġsilverware": 2146,
			"Ġpull": 2147,
			"rent": 2148,
			"vert": 2149,
			"Ġoffic": 2150,
			"Ġdishes": 2151,
			"Ġsleeved": 2152,
			"Ġoutdoors": 2153,
			"ases": 2154,
			"cl": 2155,
			"Ġwas": 2156,
			"Ġbell": 2157,
			"ents": 2158,
			"Ġstem": 2159,
			"Ġramp": 2160,
			"Ġshoulder": 2161,
			"Ġhit": 2162,
			"Ġcushion": 2163,
			"Ġtaking": 2164,
			"ashing": 2165,
			"IS": 2166,
			"Ġmix": 2167,
			"Ġcooking": 2168,
			"land": 2169,
			"LL": 2170,
			"ruct": 2171,
			"Ġnewspaper": 2172,
			"Ġcalm": 2173,
			"Ġfloral": 2174,
			"Ġheart": 2175,
			"ĠBu": 2176,
			"Ġplu": 2177,
			"utif": 2178,
			"Ġtape": 2179,
			"dd": 2180,
			"Ġnapkins": 2181,
			"other": 2182,
			"Ġleafy": 2183,
			"ition": 2184,
			"Ġentrance": 2185,
			"pel": 2186,
			"Ġtongue": 2187,
			"Ġeach": 2188,
			"Ġcoming": 2189,
			"Ġcookie": 2190,
			"Ġstrawberries": 2191,
			"bag": 2192,
			"Ġcontainers": 2193,
			"Ġsnowboarder": 2194,
			"Ġsays": 2195,
			"utiful": 2196,
			"Ġfixture": 2197,
			"Ġphotogra": 2198,
			"Ġlake": 2199,
			"Ġfigu": 2200,
			"fferent": 2201,
			"Ġbeans": 2202,
			"atula": 2203,
			"Ġcircle": 2204,
			"appy": 2205,
			"Ġstrap": 2206,
			"Ġcorn": 2207,
			"Ġswinging": 2208,
			"ND": 2209,
			"Ġsleeping": 2210,
			"Ġsupp": 2211,
			"Ġspatula": 2212,
			"Ġwhich": 2213,
			"Ġfolded": 2214,
			"ront": 2215,
			"ped": 2216,
			"Ġcrossing": 2217,
			"book": 2218,
			"fl": 2219,
			"ES": 2220,
			"aking": 2221,
			"Ġbeverage": 2222,
			"head": 2223,
			"wn": 2224,
			"Ġdrain": 2225,
			"Ġprint": 2226,
			"ĠHand": 2227,
			"Ġstool": 2228,
			"ĠYoung": 2229,
			"Ġ1": 2230,
			"Ġham": 2231,
			"Ġsee": 2232,
			"Ġcardboard": 2233,
			"sc": 2234,
			"Ġente": 2235,
			"Ġber": 2236,
			"ile": 2237,
			"per": 2238,
			"ĠWho": 2239,
			"Ġlooks": 2240,
			"Ġpre": 2241,
			"Ġbowls": 2242,
			"ward": 2243,
			"Ġdressed": 2244,
			"Ġmounted": 2245,
			"Ġsurround": 2246,
			"Ġdifferent": 2247,
			"Ġdrapes": 2248,
			"Ġsty": 2249,
			"AS": 2250,
			"ĠTra": 2251,
			"nic": 2252,
			"ĠTall": 2253,
			"rist": 2254,
			"ĠGray": 2255,
			"peller": 2256,
			"Ġpaddle": 2257,
			"Ġpump": 2258,
			"Ġadvert": 2259,
			"na": 2260,
			"Ġblock": 2261,
			"Ġused": 2262,
			"Ġspin": 2263,
			"spread": 2264,
			"Ġpic": 2265,
			"Ġtheir": 2266,
			"Ġstring": 2267,
			"Ġpaved": 2268,
			"Ġhappy": 2269,
			"Ġtables": 2270,
			"Ġpots": 2271,
			"Ġca": 2272,
			"dog": 2273,
			"rench": 2274,
			"Ġba": 2275,
			"Ġbedspread": 2276,
			"Ġpinea": 2277,
			"key": 2278,
			"ari": 2279,
			"Ġheld": 2280,
			"Ġhook": 2281,
			"ĠBig": 2282,
			"Ġgas": 2283,
			"Ġbeautiful": 2284,
			"Ġfacing": 2285,
			"ult": 2286,
			"Ġblur": 2287,
			"ices": 2288,
			"Ġsits": 2289,
			"Ġcher": 2290,
			"Ġpropeller": 2291,
			"Ġshi": 2292,
			"Ġcond": 2293,
			"ĠMAN": 2294,
			"Ġbulb": 2295,
			"ĠLe": 2296,
			"Ġjumping": 2297,
			"Ġclothing": 2298,
			"Ġshining": 2299,
			"Ġmeal": 2300,
			"Ġsheets": 2301,
			"Ġpicnic": 2302,
			"Ġofficer": 2303,
			"iron": 2304,
			"ley": 2305,
			"Ġcrosswalk": 2306,
			"Ġlink": 2307,
			"Ġelectrical": 2308,
			"Ġbut": 2309,
			"bb": 2310,
			"rtainment": 2311,
			"Ġshopp": 2312,
			"Ġhose": 2313,
			"EAR": 2314,
			"ĠJ": 2315,
			"Ġplatter": 2316,
			"Ġkites": 2317,
			"Ġlamb": 2318,
			"ial": 2319,
			"Ġcurved": 2320,
			"ĠSn": 2321,
			"Ġsignal": 2322,
			"Ġhandles": 2323,
			"Ġbre": 2324,
			"Ġtires": 2325,
			"ĠHead": 2326,
			"ins": 2327,
			"Ġspinach": 2328,
			"Ġmini": 2329,
			"Ġshirts": 2330,
			"ĠMetal": 2331,
			"Ġbedroom": 2332,
			"Ġcandy": 2333,
			"Ġentertainment": 2334,
			"Ġlike": 2335,
			"ET": 2336,
			"ache": 2337,
			"Ġfluffy": 2338,
			"Ġpedestrian": 2339,
			"ouses": 2340,
			"Ġorn": 2341,
			"OU": 2342,
			"Ġpie": 2343,
			"Ġiron": 2344,
			"Ġstands": 2345,
			"bs": 2346,
			"Ġmicro": 2347,
			"Ġdoughnut": 2348,
			"Ġhandbag": 2349,
			"Ġairport": 2350,
			"Ġbuttons": 2351,
			"Ġlife": 2352,
			"Ġrunway": 2353,
			"Ġbiker": 2354,
			"work": 2355,
			"Ġwaterm": 2356,
			"pples": 2357,
			"Ġguitar": 2358,
			"oc": 2359,
			"Ġcage": 2360,
			"tic": 2361,
			"bber": 2362,
			"Ġcl": 2363,
			"ppy": 2364,
			"Ġfresh": 2365,
			"Ġserving": 2366,
			"ict": 2367,
			"Ġradiator": 2368,
			"io": 2369,
			"tel": 2370,
			"ily": 2371,
			"ĠBri": 2372,
			"Ġpasta": 2373,
			"ĠDog": 2374,
			"Ġpaws": 2375,
			"Ġseen": 2376,
			"ĠWi": 2377,
			"Ġclos": 2378,
			"Ġfolding": 2379,
			"Ġcats": 2380,
			"Ġblueber": 2381,
			"nt": 2382,
			"Ġhotdog": 2383,
			"Ġrose": 2384,
			"ĠPink": 2385,
			"Ġty": 2386,
			"ĠSnow": 2387,
			"ĠST": 2388,
			"Ġanother": 2389,
			"Ġitems": 2390,
			"ence": 2391,
			"ĠSH": 2392,
			"Ġappli": 2393,
			"Ġcheckered": 2394,
			"Ġmit": 2395,
			"Ġwagon": 2396,
			"Ġloc": 2397,
			"Ġmicrophone": 2398,
			"Ġsticking": 2399,
			"Ġstones": 2400,
			"Ġfigurine": 2401,
			"Ġbanner": 2402,
			"Ġbenches": 2403,
			"Ġcellphone": 2404,
			"Ġcock": 2405,
			"Ġpolar": 2406,
			"ountain": 2407,
			"Ġmale": 2408,
			"ttoman": 2409,
			"Ġfigure": 2410,
			"Ġhouses": 2411,
			"Ġgarage": 2412,
			"Ġgoing": 2413,
			"Ġnood": 2414,
			"ĠPict": 2415,
			"Ġottoman": 2416,
			"OM": 2417,
			"ĠSp": 2418,
			"Ġlawn": 2419,
			"Ġholds": 2420,
			"Ġmustache": 2421,
			"ĠOne": 2422,
			"Ġhoo": 2423,
			"ally": 2424,
			"Ġpony": 2425,
			"Ġwrapped": 2426,
			"cil": 2427,
			"Ġprod": 2428,
			"ĠWii": 2429,
			"ced": 2430,
			"umin": 2431,
			"Ġwatermelon": 2432,
			"Ġcanis": 2433,
			"Ġhole": 2434,
			"cular": 2435,
			"clo": 2436,
			"lled": 2437,
			"Ġspices": 2438,
			"chair": 2439,
			"Ġreading": 2440,
			"Ġlap": 2441,
			"pit": 2442,
			"Ġundern": 2443,
			"Ġstor": 2444,
			"Ġcla": 2445,
			"Ġship": 2446,
			"ĠShadow": 2447,
			"Ġsticks": 2448,
			"Ġunderneath": 2449,
			"boy": 2450,
			"Ġmud": 2451,
			"Ġripe": 2452,
			"Ġnotebook": 2453,
			"ĠLong": 2454,
			"Ġclose": 2455,
			"ycl": 2456,
			"Ġskateboarding": 2457,
			"icker": 2458,
			"Ġcolou": 2459,
			"real": 2460,
			"Ġdug": 2461,
			"Ġpatterned": 2462,
			"Ġshopping": 2463,
			"Ġpulling": 2464,
			"wood": 2465,
			"Ġwide": 2466,
			"Ġlift": 2467,
			"Ġadult": 2468,
			"Ġeat": 2469,
			"Ġper": 2470,
			"ives": 2471,
			"Ġrais": 2472,
			"riz": 2473,
			"ana": 2474,
			"LACK": 2475,
			"que": 2476,
			"Ġfeed": 2477,
			"ired": 2478,
			"ĠBLACK": 2479,
			"Ġcli": 2480,
			"Ġway": 2481,
			"boat": 2482,
			"Ġcrack": 2483,
			"Ġcereal": 2484,
			"Ġtrunks": 2485,
			"urch": 2486,
			"gers": 2487,
			"Ġdinner": 2488,
			"Ġtee": 2489,
			"Ġcockpit": 2490,
			"Ġaw": 2491,
			"ium": 2492,
			"flower": 2493,
			"Ġi": 2494,
			"Ġcowboy": 2495,
			"ering": 2496,
			"Ġsquash": 2497,
			"Ġfrench": 2498,
			"Ġtoward": 2499,
			"Ġappliance": 2500,
			"Ġbin": 2501,
			"Ġbr": 2502,
			"od": 2503,
			"Ġshowing": 2504,
			"gs": 2505,
			"Ġlips": 2506,
			"Ġchurch": 2507,
			"Ġpictures": 2508,
			"ĠPl": 2509,
			"Ġnoodles": 2510,
			"Ġenclo": 2511,
			"ĠChi": 2512,
			"ĠGlass": 2513,
			"Ġblurry": 2514,
			"ĠDoes": 2515,
			"Ġgolden": 2516,
			"Ġcolour": 2517,
			"aring": 2518,
			"Ġyard": 2519,
			"ading": 2520,
			"Ġcans": 2521,
			"Ġsli": 2522,
			"Ġchef": 2523,
			"Ġfoil": 2524,
			"Ġprinter": 2525,
			"Ġslope": 2526,
			"Ġprot": 2527,
			"Ġrubber": 2528,
			"Ġpineapple": 2529,
			"hisk": 2530,
			"ĠZ": 2531,
			"Ġcabbage": 2532,
			"Ġtoast": 2533,
			"Ġmound": 2534,
			"Ġspl": 2535,
			"Ġbou": 2536,
			"Ġbicycles": 2537,
			"als": 2538,
			"Ġhillside": 2539,
			"Ġartwork": 2540,
			"Ġpatio": 2541,
			"Ġportion": 2542,
			"male": 2543,
			"Ġwings": 2544,
			"Ġpencil": 2545,
			"Ġdugout": 2546,
			"Ġget": 2547,
			"ĠBase": 2548,
			"Ġgarbage": 2549,
			"ction": 2550,
			"Ġbent": 2551,
			"Ġcones": 2552,
			"road": 2553,
			"Ġsiz": 2554,
			"Ġsandy": 2555,
			"Ġcircular": 2556,
			"Ġdoing": 2557,
			"Ġready": 2558,
			"usk": 2559,
			"ĠFour": 2560,
			"Ġpow": 2561,
			"pad": 2562,
			"sty": 2563,
			"ĠPicture": 2564,
			"lery": 2565,
			"Ġcherry": 2566,
			"Ġchopp": 2567,
			"Ġmatch": 2568,
			"Ġlock": 2569,
			"avy": 2570,
			"Ġab": 2571,
			"Ġwaist": 2572,
			"Ġpolo": 2573,
			"ĠTurn": 2574,
			"Ġknives": 2575,
			"ĠWater": 2576,
			"ders": 2577,
			"Ġmuff": 2578,
			"rome": 2579,
			"ddler": 2580,
			"Ġcast": 2581,
			"Ġtool": 2582,
			"Ġsec": 2583,
			"Ġtip": 2584,
			"Ġinters": 2585,
			"Ġtur": 2586,
			"abric": 2587,
			"Ġwhisk": 2588,
			"Ġstruct": 2589,
			"Ġreflected": 2590,
			"ne": 2591,
			"Ġmother": 2592,
			"Ġmed": 2593,
			"Ġ3": 2594,
			"Ġfam": 2595,
			"Ġcro": 2596,
			"ĠSign": 2597,
			"Ġitem": 2598,
			"Ġcrumb": 2599,
			"Ġdv": 2600,
			"day": 2601,
			"Ġscul": 2602,
			"Ġfabric": 2603,
			"ĠWEAR": 2604,
			"Ġrib": 2605,
			"Ġintersection": 2606,
			"Ġtied": 2607,
			"tered": 2608,
			"Ġmushrooms": 2609,
			"ĠFront": 2610,
			"ĠSome": 2611,
			"ĠWEARING": 2612,
			"Ġhills": 2613,
			"ĠShe": 2614,
			"line": 2615,
			"lbow": 2616,
			"Ġdrawing": 2617,
			"Ġav": 2618,
			"lain": 2619,
			"Ġfamily": 2620,
			"Ġthrow": 2621,
			"Ġreflecting": 2622,
			"ĠFri": 2623,
			"ĠGrey": 2624,
			"Ġmaroon": 2625,
			"Ġcloset": 2626,
			"Ġswimming": 2627,
			"omot": 2628,
			"Ġstyle": 2629,
			"Ġwicker": 2630,
			"Ġcal": 2631,
			"Ġballs": 2632,
			"Ġgi": 2633,
			"Ġsnowy": 2634,
			"Ġpool": 2635,
			"ano": 2636,
			"vers": 2637,
			"Ġcube": 2638,
			"Ġpassengers": 2639,
			"Ġbuses": 2640,
			"Ġsculpt": 2641,
			"Ġawning": 2642,
			"Ġbeneath": 2643,
			"ates": 2644,
			"aked": 2645,
			"elted": 2646,
			"Ġcurly": 2647,
			"ital": 2648,
			"Ġstaircase": 2649,
			"ok": 2650,
			"Ġbarn": 2651,
			"Ġtoddler": 2652,
			"Ġpeach": 2653,
			"Ġdecker": 2654,
			"Ġisland": 2655,
			"mas": 2656,
			"ĠSU": 2657,
			"ĠBott": 2658,
			"Ġelbow": 2659,
			"ages": 2660,
			"Ġanten": 2661,
			"Ġpointing": 2662,
			"ĠCar": 2663,
			"Ġcelery": 2664,
			"ĠBack": 2665,
			"inder": 2666,
			"Ġchin": 2667,
			"ĠBaseball": 2668,
			"Ġrim": 2669,
			"Ġspice": 2670,
			"isement": 2671,
			"Ġsailboat": 2672,
			"Ġporce": 2673,
			"OO": 2674,
			"ling": 2675,
			"Ġrailroad": 2676,
			"Ġskater": 2677,
			"agel": 2678,
			"Ġforeground": 2679,
			"yclist": 2680,
			"ĠFl": 2681,
			"watch": 2682,
			"Ġkne": 2683,
			"Ġrider": 2684,
			"Ġfemale": 2685,
			"umer": 2686,
			"ume": 2687,
			"Ġtime": 2688,
			"Ġsculpture": 2689,
			"Ġhoriz": 2690,
			"Ġstickers": 2691,
			"Ġproduce": 2692,
			"Ġbagel": 2693,
			"Ġdot": 2694,
			"Ġmitt": 2695,
			"Ġstructure": 2696,
			"Ġtusk": 2697,
			"sure": 2698,
			"Ġchrome": 2699,
			"Ġporcelain": 2700,
			"Ġhaired": 2701,
			"Ġglaz": 2702,
			"Ġwristwatch": 2703,
			"Ġduring": 2704,
			"ristmas": 2705,
			"Ġporch": 2706,
			"Ġdel": 2707,
			"Ġhardwood": 2708,
			"Ġcost": 2709,
			"Ġhum": 2710,
			"Ġcookies": 2711,
			"Ġbandana": 2712,
			"angle": 2713,
			"Ġath": 2714,
			"Ġpanc": 2715,
			"Ġcau": 2716,
			"time": 2717,
			"Ġzoo": 2718,
			"Ġenclosure": 2719,
			"Ġwin": 2720,
			"lets": 2721,
			"Ġcran": 2722,
			"glasses": 2723,
			"ĠLit": 2724,
			"Ġconn": 2725,
			"Ġbor": 2726,
			"mer": 2727,
			"ĠRef": 2728,
			"Ġtiny": 2729,
			"rimp": 2730,
			"Ġprinted": 2731,
			"Ġpedestrians": 2732,
			"Ġlime": 2733,
			"Ġpacket": 2734,
			"Ġble": 2735,
			"Ġhere": 2736,
			"Ġwool": 2737,
			"Ġpul": 2738,
			"Ġknobs": 2739,
			"ĠTen": 2740,
			"paper": 2741,
			"oe": 2742,
			"IG": 2743,
			"Ġpumpkin": 2744,
			"Ġchest": 2745,
			"ĠGrass": 2746,
			"Ġsom": 2747,
			"Ġpointy": 2748,
			"Ġhotel": 2749,
			"Ġcharac": 2750,
			"Ġmelted": 2751,
			"Ġantenna": 2752,
			"ocad": 2753,
			"Ġmagnets": 2754,
			"Ġpads": 2755,
			"Ġtouching": 2756,
			"ething": 2757,
			"Ġhall": 2758,
			"omotive": 2759,
			"sted": 2760,
			"Ġwed": 2761,
			"Ġdrinks": 2762,
			"Ġdead": 2763,
			"Ġwal": 2764,
			"Ġolder": 2765,
			"Ġoutdoor": 2766,
			"Ġchop": 2767,
			"ĠIt": 2768,
			"Ġheadlights": 2769,
			"thday": 2770,
			"Ġtongs": 2771,
			"go": 2772,
			"Ġcig": 2773,
			"ĠTennis": 2774,
			"andel": 2775,
			"Ġabout": 2776,
			"hak": 2777,
			"Ġcostume": 2778,
			"Ġlocomotive": 2779,
			"Ġshrimp": 2780,
			"Ġhedge": 2781,
			"ĠBuilding": 2782,
			"arp": 2783,
			"Ġribb": 2784,
			"Ġsandwiches": 2785,
			"Ġavocad": 2786,
			"Ġbasil": 2787,
			"Ġconnect": 2788,
			"Ġthem": 2789,
			"ĠTree": 2790,
			"Ġpulled": 2791,
			"Ġmarket": 2792,
			"ĠCo": 2793,
			"box": 2794,
			"Ġlamps": 2795,
			"Ġfried": 2796,
			"oose": 2797,
			"Ġnumer": 2798,
			"stri": 2799,
			"Ġmarker": 2800,
			"Ġspeakers": 2801,
			"Ġcables": 2802,
			"ĠPizza": 2803,
			"Ġkids": 2804,
			"Ġsomething": 2805,
			"Ġcalf": 2806,
			"Ġwallpaper": 2807,
			"Ġtrains": 2808,
			"ĠCle": 2809,
			"Ġwrink": 2810,
			"RA": 2811,
			"Ġlow": 2812,
			"nch": 2813,
			"ĠFrisbee": 2814,
			"ĠSe": 2815,
			"Ġadvertisement": 2816,
			"Ġpill": 2817,
			"ĠRo": 2818,
			"Ġphotograph": 2819,
			"Ġfew": 2820,
			"Ġhitting": 2821,
			"Ġmatt": 2822,
			"AD": 2823,
			"Ġbreak": 2824,
			"Ġpackage": 2825,
			"jo": 2826,
			"Ġspray": 2827,
			"Ġvent": 2828,
			"Ġbleac": 2829,
			"Ġrac": 2830,
			"Ġindo": 2831,
			"ĠPh": 2832,
			"Ġpens": 2833,
			"Ġkhak": 2834,
			"Ġshadows": 2835,
			"Ġdaytime": 2836,
			"Ġribbon": 2837,
			"ĠHor": 2838,
			"urt": 2839,
			"Ġkitten": 2840,
			"ĠWhe": 2841,
			"els": 2842,
			"Ġstud": 2843,
			"Ġopened": 2844,
			"ĠAND": 2845,
			"liflower": 2846,
			"Ġtran": 2847,
			"aded": 2848,
			"Ġshru": 2849,
			"Ġmap": 2850,
			"Ġbald": 2851,
			"ilt": 2852,
			"Ġoil": 2853,
			"Ġtwi": 2854,
			"Ġeyeglasses": 2855,
			"Ġmattress": 2856,
			"Ġdecorations": 2857,
			"zer": 2858,
			"ious": 2859,
			"IC": 2860,
			"ĠFood": 2861,
			"Ġmotorb": 2862,
			"Ġcontrollers": 2863,
			"Ġcanister": 2864,
			"Ġpiano": 2865,
			"Ġradio": 2866,
			"Ġwinter": 2867,
			"ĠTHIS": 2868,
			"Ġcauliflower": 2869,
			"lan": 2870,
			"Ġwhile": 2871,
			"Ġenjo": 2872,
			"ĠClo": 2873,
			"Ġfoam": 2874,
			"ooth": 2875,
			"Ġpasture": 2876,
			"Ġcondition": 2877,
			"Ġdire": 2878,
			"Ġhuge": 2879,
			"Ġsteering": 2880,
			"ned": 2881,
			"Ġkeys": 2882,
			"Ġupside": 2883,
			"Ġwhiskers": 2884,
			"ingle": 2885,
			"ronic": 2886,
			"Ġbleachers": 2887,
			"OT": 2888,
			"old": 2889,
			"Ġmet": 2890,
			"kini": 2891,
			"Ġbirthday": 2892,
			"Ġposing": 2893,
			"ĠTo": 2894,
			"Ġhats": 2895,
			"Ġbikini": 2896,
			"andelier": 2897,
			"Ġskies": 2898,
			"Ġsha": 2899,
			"ĠLittle": 2900,
			"Ġhoodie": 2901,
			"Ġwild": 2902,
			"ĠBL": 2903,
			"ĠZeb": 2904,
			"OP": 2905,
			"ster": 2906,
			"Ġtoys": 2907,
			"ĠChild": 2908,
			"Ġornam": 2909,
			"urger": 2910,
			"Ġapart": 2911,
			"ĠWindows": 2912,
			"Ġhuman": 2913,
			"Ġguard": 2914,
			"Ġhallway": 2915,
			"ues": 2916,
			"stom": 2917,
			"Ġoverhead": 2918,
			"Ġarmchair": 2919,
			"Ġtoothp": 2920,
			"ctor": 2921,
			"ĠReflect": 2922,
			"Ġmixer": 2923,
			"Ġseeds": 2924,
			"Ġtrick": 2925,
			"Ġcrou": 2926,
			"Ġtablet": 2927,
			"Ġtype": 2928,
			"green": 2929,
			"Ġkhaki": 2930,
			"ither": 2931,
			"Ġenjoying": 2932,
			"LD": 2933,
			"ially": 2934,
			"cast": 2935,
			"Ġavocado": 2936,
			"Ġmoss": 2937,
			"Ġtext": 2938,
			"Ġfar": 2939,
			"ĠTA": 2940,
			"Ġbinder": 2941,
			"Ġbouquet": 2942,
			"Ġguys": 2943,
			"Ġarched": 2944,
			"Ġseated": 2945,
			"Ġsunny": 2946,
			"Ġcolum": 2947,
			"Ġrobe": 2948,
			"Ġeither": 2949,
			"Ġfountain": 2950,
			"nel": 2951,
			"reet": 2952,
			"Ġpastries": 2953,
			"Ġbaked": 2954,
			"Ġgetting": 2955,
			"Ġraised": 2956,
			"yer": 2957,
			"ost": 2958,
			"Ġchandelier": 2959,
			"Ġcustom": 2960,
			"ken": 2961,
			"Ġsteam": 2962,
			"Ġmuffin": 2963,
			"Ġcigare": 2964,
			"ged": 2965,
			"eling": 2966,
			"Ġprotect": 2967,
			"Ġsub": 2968,
			"ĠĠĠĠ": 2969,
			"ĠGira": 2970,
			"Ġchips": 2971,
			"Ġfurry": 2972,
			"Ġind": 2973,
			"Ġmotorbike": 2974,
			"Ġchopst": 2975,
			"Ġpillars": 2976,
			"ooring": 2977,
			"owers": 2978,
			"ĠARE": 2979,
			"phalt": 2980,
			"Ġpuppy": 2981,
			"Ġrocky": 2982,
			"att": 2983,
			"Ġke": 2984,
			"Ġlots": 2985,
			"Ġmoving": 2986,
			"Ġalarm": 2987,
			"Ġgam": 2988,
			"Ġpear": 2989,
			"Ġelectronic": 2990,
			"Ġmarble": 2991,
			"Ġden": 2992,
			"Ġcrumbs": 2993,
			"Ġau": 2994,
			"Ġsad": 2995,
			"Ġfive": 2996,
			"tail": 2997,
			"Ġberries": 2998,
			"Ġip": 2999,
			"Ġpipes": 3000,
			"ece": 3001,
			"Ġsnowsuit": 3002,
			"Ġurin": 3003,
			"Ġcolors": 3004,
			"van": 3005,
			"Ġcons": 3006,
			"Ġflooring": 3007,
			"asp": 3008,
			"Ġsame": 3009,
			"Ġvari": 3010,
			"eled": 3011,
			"Ġbeef": 3012,
			"Ġteam": 3013,
			"ell": 3014,
			"Ġburger": 3015,
			"Ġaway": 3016,
			"ord": 3017,
			"Ġmagazines": 3018,
			"Ġwhere": 3019,
			"Ġracquet": 3020,
			"Ġsupport": 3021,
			"Ġplain": 3022,
			"Ġovercast": 3023,
			"ĠClear": 3024,
			"Ġbutterf": 3025,
			"Ġever": 3026,
			"Ġstraight": 3027,
			"Ġshape": 3028,
			"ĠTrain": 3029,
			"any": 3030,
			"Ġfloating": 3031,
			"Ġroman": 3032,
			"Ġpud": 3033,
			"fast": 3034,
			"AND": 3035,
			"Ġripples": 3036,
			"iness": 3037,
			"Ġonto": 3038,
			"ACK": 3039,
			"chool": 3040,
			"Ġspotted": 3041,
			"Ġ4": 3042,
			"Ġblaz": 3043,
			"Ġhar": 3044,
			"ĠReflection": 3045,
			"Ġasphalt": 3046,
			"ĠThese": 3047,
			"Ġgear": 3048,
			"Ġsecond": 3049,
			"Ġrange": 3050,
			"Ġrolling": 3051,
			"ĠBook": 3052,
			"Ġtarm": 3053,
			"Ġsoft": 3054,
			"Ġbla": 3055,
			"UE": 3056,
			"nequ": 3057,
			"Ġpond": 3058,
			"Ġcrane": 3059,
			"Ġthrowing": 3060,
			"Ġbars": 3061,
			"Ġmail": 3062,
			"Ġlined": 3063,
			"jam": 3064,
			"ĠCom": 3065,
			"Ġdump": 3066,
			"Ġtowards": 3067,
			"CH": 3068,
			"Ġleash": 3069,
			"Ġcanoe": 3070,
			"icious": 3071,
			"Ġcucumbers": 3072,
			"Ġmost": 3073,
			"ery": 3074,
			"ĠStreet": 3075,
			"val": 3076,
			"Ġpartially": 3077,
			"pher": 3078,
			"ĠRight": 3079,
			"Ġblueberry": 3080,
			"letic": 3081,
			"Ġvases": 3082,
			"Ġflops": 3083,
			"Ġspread": 3084,
			"Ġdesktop": 3085,
			"gull": 3086,
			"Ġcoll": 3087,
			"Ġworker": 3088,
			"Ġherd": 3089,
			"ĠLeft": 3090,
			"Ġlaptops": 3091,
			"Ġipod": 3092,
			"anda": 3093,
			"Ġslat": 3094,
			"Ġpajam": 3095,
			"Ġrusty": 3096,
			"Ġmannequ": 3097,
			"ĠAmerican": 3098,
			"Ġblazer": 3099,
			"Ġpotted": 3100,
			"Ġdenim": 3101,
			"Ġter": 3102,
			"ĠRED": 3103,
			"Ġlip": 3104,
			"Ġberry": 3105,
			"arden": 3106,
			"Ġcyclist": 3107,
			"Ġschool": 3108,
			"AL": 3109,
			"ALL": 3110,
			"Ġborder": 3111,
			"ĠGroup": 3112,
			"Ġexten": 3113,
			"Ġdecorated": 3114,
			"Ġblo": 3115,
			"Ġposts": 3116,
			"Ġworking": 3117,
			"Ġathletic": 3118,
			"Ġprep": 3119,
			"ĠBR": 3120,
			"allic": 3121,
			"teri": 3122,
			"aching": 3123,
			"orts": 3124,
			"Ġcomputers": 3125,
			"ĠBLUE": 3126,
			"Ġsomeone": 3127,
			"Ġbreakfast": 3128,
			"ĠEleph": 3129,
			"Ġwithout": 3130,
			"ĠRound": 3131,
			"ĠBir": 3132,
			"Ġcupcakes": 3133,
			"by": 3134,
			"Ġlunch": 3135,
			"fo": 3136,
			"Ġnail": 3137,
			"Ġleading": 3138,
			"Ġforward": 3139,
			"Ġbending": 3140,
			"Ġgl": 3141,
			"colored": 3142,
			"Ġbeen": 3143,
			"ERS": 3144,
			"ĠPur": 3145,
			"ĠIn": 3146,
			"Ġdiam": 3147,
			"ĠBe": 3148,
			"attoo": 3149,
			"ary": 3150,
			"Ġfall": 3151,
			"Ġtun": 3152,
			"Ġgarden": 3153,
			"Ġjeep": 3154,
			"Ġseats": 3155,
			"ats": 3156,
			"Ġseagull": 3157,
			"Ġconditioner": 3158,
			"ĠSUV": 3159,
			"Ġtravel": 3160,
			"ĠPhot": 3161,
			"Ġheater": 3162,
			"ĠZebra": 3163,
			"mes": 3164,
			"mburger": 3165,
			"spar": 3166,
			"Ġdryer": 3167,
			"Ġpickles": 3168,
			"Ġlemons": 3169,
			"ĠGiraffe": 3170,
			"Ġbusiness": 3171,
			"ĠTan": 3172,
			"gged": 3173,
			"Ġdeep": 3174,
			"Ġfree": 3175,
			"aller": 3176,
			"Ġearrings": 3177,
			"cial": 3178,
			"cra": 3179,
			"ĠBU": 3180,
			"arrow": 3181,
			"cy": 3182,
			"agus": 3183,
			"Ġdelicious": 3184,
			"ral": 3185,
			"ĠOpen": 3186,
			"Ġconsole": 3187,
			"Ġbroken": 3188,
			"Ġnuts": 3189,
			"Ġaudi": 3190,
			"Ġpillar": 3191,
			"Ġmaking": 3192,
			"Ġwallet": 3193,
			"Ġpuddle": 3194,
			"sparagus": 3195,
			"Ġchopped": 3196,
			"Ġcigarette": 3197,
			"Ġsurrounding": 3198,
			"Ġspon": 3199,
			"Ġpersons": 3200,
			"ID": 3201,
			"Ġpanda": 3202,
			"Ġsingle": 3203,
			"ĠGRE": 3204,
			"Ġfencing": 3205,
			"bbles": 3206,
			"Ġtarmac": 3207,
			"AIR": 3208,
			"Ġhelmets": 3209,
			"Ġcharacter": 3210,
			"rella": 3211,
			"ĠTop": 3212,
			"Ġasparagus": 3213,
			"Ġurinal": 3214,
			"ĠSeveral": 3215,
			"Ġornament": 3216,
			"mper": 3217,
			"Ġdrive": 3218,
			"Ġput": 3219,
			"Ġspoons": 3220,
			"Ġplaced": 3221,
			"ĠSand": 3222,
			"Ġledge": 3223,
			"Ġsnack": 3224,
			"ping": 3225,
			"ĠApple": 3226,
			"Ġcarton": 3227,
			"Ġhamburger": 3228,
			"Ġemb": 3229,
			"igital": 3230,
			"Ġpajamas": 3231,
			"Ġjars": 3232,
			"Ġhoof": 3233,
			"Ġbrand": 3234,
			"int": 3235,
			"oney": 3236,
			"Ġskating": 3237,
			"Ġmetallic": 3238,
			"Ġdiamond": 3239,
			"Ġsmooth": 3240,
			"Ġbutterfly": 3241,
			"Ġmannequin": 3242,
			"IRT": 3243,
			"irst": 3244,
			"BLE": 3245,
			"Ġmelon": 3246,
			"Ġroses": 3247,
			"Ġpizz": 3248,
			"Ġwedding": 3249,
			"Ġdome": 3250,
			"Ġgames": 3251,
			"Ġdirection": 3252,
			"ĠPLA": 3253,
			"ĠLamp": 3254,
			"aste": 3255,
			"uminum": 3256,
			"Ġneon": 3257,
			"Ġphones": 3258,
			"Ġponytail": 3259,
			"Ġwoods": 3260,
			"isher": 3261,
			"dered": 3262,
			"Ġminivan": 3263,
			"Ġcrossed": 3264,
			"Ġphotographer": 3265,
			"ĠHorse": 3266,
			"ears": 3267,
			"Ġsale": 3268,
			"ĠWall": 3269,
			"Ġswimsuit": 3270,
			"Ġdrape": 3271,
			"Ġsurrounded": 3272,
			"Ġsus": 3273,
			"Ġswan": 3274,
			"ĠMany": 3275,
			"Ġstars": 3276,
			"ĠPla": 3277,
			"Ġaudience": 3278,
			"Ġskinny": 3279,
			"Ġconnected": 3280,
			"Ġarch": 3281,
			"Ġindoors": 3282,
			"Ġtu": 3283,
			"Ġvisor": 3284,
			"Ġchalk": 3285,
			"terior": 3286,
			"Ġtattoo": 3287,
			"ĠPurple": 3288,
			"Ġpea": 3289,
			"ockey": 3290,
			"Ġseed": 3291,
			"house": 3292,
			"Ġpri": 3293,
			"Ġclocks": 3294,
			"ĠPick": 3295,
			"ĠKn": 3296,
			"Ġwhat": 3297,
			"Ġsaddle": 3298,
			"Ġpans": 3299,
			"Ġkick": 3300,
			"Ġtrucks": 3301,
			"Ġnavy": 3302,
			"Ġcrown": 3303,
			"Ġnice": 3304,
			"Ġknit": 3305,
			"Ġvertic": 3306,
			"shing": 3307,
			"ĠWOM": 3308,
			"olored": 3309,
			"Ġill": 3310,
			"ĠBright": 3311,
			"ads": 3312,
			"Ġlogs": 3313,
			"Ġeaten": 3314,
			"Ġven": 3315,
			"craft": 3316,
			"Ġrolled": 3317,
			"ĠHAS": 3318,
			"ĠCH": 3319,
			"Ġskysc": 3320,
			"Ġpizzas": 3321,
			"Ġhaz": 3322,
			"Ġstorage": 3323,
			"Ġsold": 3324,
			"Ġskyscra": 3325,
			"Ġhung": 3326,
			"Ġcharger": 3327,
			"Ġpale": 3328,
			"ka": 3329,
			"Ġmultic": 3330,
			"ret": 3331,
			"ĠComp": 3332,
			"Ġshelter": 3333,
			"bow": 3334,
			"Ġwho": 3335,
			"Ġtoasted": 3336,
			"ĠTable": 3337,
			"Ġwomans": 3338,
			"Ġnarrow": 3339,
			"Ġbuo": 3340,
			"Ġevergreen": 3341,
			"Ġlush": 3342,
			"Ġam": 3343,
			"Ġdigital": 3344,
			"Ġunders": 3345,
			"nish": 3346,
			"Ġpant": 3347,
			"Ġcd": 3348,
			"Ġfeeding": 3349,
			"Ġwashing": 3350,
			"Ġchopsticks": 3351,
			"ĠGold": 3352,
			"ĠWOMAN": 3353,
			"illa": 3354,
			"Ġmailbox": 3355,
			"Ġdressing": 3356,
			"ason": 3357,
			"Ġfans": 3358,
			"Ġaluminum": 3359,
			"Ġpane": 3360,
			"rup": 3361,
			"zzarella": 3362,
			"Ġcooker": 3363,
			"Ġblueberries": 3364,
			"Ġapartment": 3365,
			"Ġpeas": 3366,
			"Ġjockey": 3367,
			"ared": 3368,
			"urf": 3369,
			"ĠBat": 3370,
			"Ġbaskets": 3371,
			"Ġmultiple": 3372,
			"Ġsize": 3373,
			"Ġyog": 3374,
			"Ġsneaker": 3375,
			"Ġdots": 3376,
			"Ġcas": 3377,
			"Ġbol": 3378,
			"ĠPlastic": 3379,
			"tingu": 3380,
			"ky": 3381,
			"arsley": 3382,
			"Ġshut": 3383,
			"ĠPhoto": 3384,
			"Ġbean": 3385,
			"Ġsack": 3386,
			"Ġshow": 3387,
			"Ġsunlight": 3388,
			"ĠAir": 3389,
			"EL": 3390,
			"ĠBus": 3391,
			"Ġcupboards": 3392,
			"ĠClock": 3393,
			"Ġforks": 3394,
			"rial": 3395,
			"Ġbeds": 3396,
			"Ġtops": 3397,
			"Ġstump": 3398,
			"Ġtissues": 3399,
			"Ġextingu": 3400,
			"Ġsurfboards": 3401,
			"Ġkiwi": 3402,
			"Ġfu": 3403,
			"Ġlower": 3404,
			"Ġrod": 3405,
			"Ġmozzarella": 3406,
			"Ġbrief": 3407,
			"ĠSky": 3408,
			"Ġweat": 3409,
			"ady": 3410,
			"Ġmonkey": 3411,
			"lot": 3412,
			"rot": 3413,
			"Ġgarnish": 3414,
			"Ġcroiss": 3415,
			"Ġmess": 3416,
			"ĠTe": 3417,
			"Ġglazed": 3418,
			"Ġtw": 3419,
			"Ġacc": 3420,
			"Ġcurled": 3421,
			"Ġsuitcases": 3422,
			"berry": 3423,
			"Ġskiers": 3424,
			"Ġdrawn": 3425,
			"adium": 3426,
			"Ġupper": 3427,
			"ĠElephant": 3428,
			"Ġwell": 3429,
			"Ġcoc": 3430,
			"ette": 3431,
			"Ġtrail": 3432,
			"ical": 3433,
			"Ġmate": 3434,
			"ĠPiece": 3435,
			"ITH": 3436,
			"Ġpowdered": 3437,
			"Ġfirst": 3438,
			"Ġoval": 3439,
			"CE": 3440,
			"Ġextinguisher": 3441,
			"Ġzi": 3442,
			"Ġpres": 3443,
			"bor": 3444,
			"ĠWITH": 3445,
			"Ġhorizon": 3446,
			"ĠDirt": 3447,
			"hered": 3448,
			"Ġtunnel": 3449,
			"Ġplugged": 3450,
			"Ġyogurt": 3451,
			"SS": 3452,
			"Ġrasp": 3453,
			"ĠAs": 3454,
			"ness": 3455,
			"Ġ&": 3456,
			"Ġparsley": 3457,
			"Ġtopped": 3458,
			"Ġvertical": 3459,
			"Ġappears": 3460,
			"til": 3461,
			"Ġalm": 3462,
			"Ġspace": 3463,
			"Ġcoach": 3464,
			"Ġsill": 3465,
			"OUND": 3466,
			"Ġsides": 3467,
			"Ġpiled": 3468,
			"yl": 3469,
			"Ġmac": 3470,
			"ĠSkate": 3471,
			"ĠLap": 3472,
			"Ġstadium": 3473,
			"Ġmirrors": 3474,
			"OWN": 3475,
			"Ġlace": 3476,
			"Ġjean": 3477,
			"Ġtractor": 3478,
			"Ġmostly": 3479,
			"dern": 3480,
			"Ġillumin": 3481,
			"Ġbit": 3482,
			"Ġclay": 3483,
			"Ġcolumn": 3484,
			"Ġplanes": 3485,
			"Ġherbs": 3486,
			"ĠLights": 3487,
			"Ġflop": 3488,
			"Ġwhole": 3489,
			"rel": 3490,
			"Ġcrates": 3491,
			"Ġlanding": 3492,
			"arent": 3493,
			"Ġrece": 3494,
			"Ġcoke": 3495,
			"Ġlining": 3496,
			"Ġhazy": 3497,
			"Ġ5": 3498,
			"Ġcatching": 3499,
			"ris": 3500,
			"Ġfrosted": 3501,
			"Ġindic": 3502,
			"ĠLaptop": 3503,
			"ĠTABLE": 3504,
			"ĠSide": 3505,
			"Ġjackets": 3506,
			"Ġenve": 3507,
			"Ġdvd": 3508,
			"struct": 3509,
			"Ġ'": 3510,
			"Ġsponge": 3511,
			"Ġgoal": 3512,
			"Ġpancake": 3513,
			"allow": 3514,
			"Ġhighway": 3515,
			"Ġleafless": 3516,
			"Ġreflective": 3517,
			"tique": 3518,
			"ĠComputer": 3519,
			"Ġdvds": 3520,
			"Ġgrilled": 3521,
			"Ġgood": 3522,
			"ĠEmpty": 3523,
			"Ġpean": 3524,
			"Ġsmile": 3525,
			"Ġtrays": 3526,
			"Ġdisplayed": 3527,
			"gu": 3528,
			"Ġmarks": 3529,
			"Ġmulticolored": 3530,
			"ets": 3531,
			"ĠNumb": 3532,
			"Ġburnt": 3533,
			"ĠSo": 3534,
			"ĠGra": 3535,
			"Ġfreezer": 3536,
			"ĠPlate": 3537,
			"Ġthen": 3538,
			"Ġgravy": 3539,
			"ĠBO": 3540,
			"Ġextended": 3541,
			"Ġpou": 3542,
			"Ġbriefcase": 3543,
			"ĠBottle": 3544,
			"ĠDoor": 3545,
			"TS": 3546,
			"ident": 3547,
			"ĠGREEN": 3548,
			"dges": 3549,
			"Ġcotton": 3550,
			"IL": 3551,
			"ising": 3552,
			"Ġornate": 3553,
			"Ġbaking": 3554,
			"Ġstuck": 3555,
			"ĠSu": 3556,
			"unch": 3557,
			"lanes": 3558,
			"Ġpier": 3559,
			"Ġequ": 3560,
			"Ġunit": 3561,
			"ĠSkateboard": 3562,
			"Ġsix": 3563,
			"Ġskyscraper": 3564,
			"Ġsteak": 3565,
			"Ġsetting": 3566,
			"Ġthan": 3567,
			"Ġpolka": 3568,
			"Ġdesigns": 3569,
			"SE": 3570,
			"Ġbumper": 3571,
			"pers": 3572,
			"pl": 3573,
			"tility": 3574,
			"ĠOld": 3575,
			"ider": 3576,
			"ĠChair": 3577,
			"ĠAsian": 3578,
			"Ġdried": 3579,
			"OOD": 3580,
			"Ġrainbow": 3581,
			"min": 3582,
			"unk": 3583,
			"Ġligh": 3584,
			"struction": 3585,
			"Ġtake": 3586,
			"Ġbill": 3587,
			"Ġballoons": 3588,
			"Ġcatch": 3589,
			"Ġenvelope": 3590,
			"thy": 3591,
			"Ġcalled": 3592,
			"Ġaircraft": 3593,
			"ze": 3594,
			"Ġpub": 3595,
			"Ġpushing": 3596,
			"Ġcliff": 3597,
			"ĠLea": 3598,
			"Ġmaterial": 3599,
			"Ġgarlic": 3600,
			"tie": 3601,
			"Ġaqu": 3602,
			"ĠSc": 3603,
			"link": 3604,
			"Ġreaching": 3605,
			"lders": 3606,
			"onut": 3607,
			"Ġtransp": 3608,
			"Ġsplashing": 3609,
			"Ġcloudless": 3610,
			"Ġinf": 3611,
			"Ġthey": 3612,
			"Ġdru": 3613,
			"Ġholes": 3614,
			"Ġkneeling": 3615,
			"GE": 3616,
			"ĠChe": 3617,
			"berries": 3618,
			"Ġpreparing": 3619,
			"Ġgoose": 3620,
			"rop": 3621,
			"Ġairplanes": 3622,
			"Ġmodern": 3623,
			"Ġseason": 3624,
			"IGH": 3625,
			"Ġsyrup": 3626,
			"Ġvarious": 3627,
			"Ġwhipped": 3628,
			"Ġtoothpaste": 3629,
			"Ġroadway": 3630,
			"ucch": 3631,
			"ĠChristmas": 3632,
			"ĠLady": 3633,
			"Ġchristmas": 3634,
			"Ġwaste": 3635,
			"ĠDO": 3636,
			"Ġgran": 3637,
			"lem": 3638,
			"Ġpockets": 3639,
			"Ġpointed": 3640,
			"rew": 3641,
			"Ġbracelets": 3642,
			"Ġantique": 3643,
			"Ġnut": 3644,
			"Ġass": 3645,
			"Ġdoes": 3646,
			"ĠSte": 3647,
			"ĠBird": 3648,
			"Ġfry": 3649,
			"king": 3650,
			"Ġvegg": 3651,
			"Ġcri": 3652,
			"Ġprotective": 3653,
			"ashion": 3654,
			"Ġstraps": 3655,
			"Ġzucch": 3656,
			"Ġlion": 3657,
			"ĠCO": 3658,
			"Ġpuffy": 3659,
			"Ġcroissant": 3660,
			"ELL": 3661,
			"ĠMot": 3662,
			"Ġlaces": 3663,
			"Ġmarkings": 3664,
			"Ġskil": 3665,
			"Ġsmaller": 3666,
			"ĠSHIRT": 3667,
			"Ġcontaining": 3668,
			"ĠBROWN": 3669,
			"Ġtrimmed": 3670,
			"Ġtap": 3671,
			"Ġilluminated": 3672,
			"Ġfeeder": 3673,
			"tty": 3674,
			"ROUND": 3675,
			"ĠSK": 3676,
			"Ġdoughnuts": 3677,
			"ĠClou": 3678,
			"Ġwrapper": 3679,
			"ĠBan": 3680,
			"Ġlighting": 3681,
			"wards": 3682,
			"TER": 3683,
			"Ġzucchini": 3684,
			"Ġform": 3685,
			"ĠCow": 3686,
			"Ġbis": 3687,
			"Ġsliding": 3688,
			"iled": 3689,
			"ĠHandle": 3690,
			"vid": 3691,
			"Ġbuoy": 3692,
			"Ġslight": 3693,
			"Ġwo": 3694,
			"Ġstudent": 3695,
			"Ġbusy": 3696,
			"bed": 3697,
			"Ġgoats": 3698,
			"ĠSurf": 3699,
			"ks": 3700,
			"ĠMountain": 3701,
			"Ġvegetation": 3702,
			"ĠElect": 3703,
			"Ġskinned": 3704,
			"Ġskillet": 3705,
			"Ġcutter": 3706,
			"ĠCars": 3707,
			"Ġbuilt": 3708,
			"Ġflour": 3709,
			"Ġopening": 3710,
			"ĠMotor": 3711,
			"Ġsweet": 3712,
			"ĠBooks": 3713,
			"Ġbru": 3714,
			"Ġthink": 3715,
			"lling": 3716,
			"brow": 3717,
			"Ġutility": 3718,
			"cu": 3719,
			"ĠHow": 3720,
			"Ġrails": 3721,
			"Ġundershirt": 3722,
			"Ġsized": 3723,
			"Ġbeads": 3724,
			"Ġshield": 3725,
			"zzy": 3726,
			"Ġsnowboarding": 3727,
			"Ġdumpster": 3728,
			"ĠFlowers": 3729,
			"ory": 3730,
			"ĠVe": 3731,
			"orting": 3732,
			"shade": 3733,
			"Ġboards": 3734,
			"Ġexp": 3735,
			"cent": 3736,
			"ARD": 3737,
			"ĠGlasses": 3738,
			"rical": 3739,
			"Ġgranite": 3740,
			"Ġlar": 3741,
			"Ġang": 3742,
			"Ġoct": 3743,
			"Ġsoldier": 3744,
			"ature": 3745,
			"Ġtwig": 3746,
			"Ġpet": 3747,
			"Ġbrass": 3748,
			"Ġblade": 3749,
			"IND": 3750,
			"ific": 3751,
			"Ġcustomer": 3752,
			"lly": 3753,
			"Ġcargo": 3754,
			"Ġnike": 3755,
			"Ġpublic": 3756,
			"Ġpitch": 3757,
			"AP": 3758,
			"Ġtube": 3759,
			"gy": 3760,
			"Ġtarp": 3761,
			"Ġlegg": 3762,
			"Ġsplash": 3763,
			"vet": 3764,
			"ĠNike": 3765,
			"Ġglowing": 3766,
			"ipment": 3767,
			"Ġcrouching": 3768,
			"ĠAd": 3769,
			"can": 3770,
			"ĠFence": 3771,
			"foam": 3772,
			"Ġeyebrow": 3773,
			"ĠSun": 3774,
			"Ġzipper": 3775,
			"Ġcontrols": 3776,
			"Ġmay": 3777,
			"dish": 3778,
			"Ġtents": 3779,
			"Ġblankets": 3780,
			"orted": 3781,
			"olor": 3782,
			"Ġfloors": 3783,
			"Ġbroom": 3784,
			"Ġmedium": 3785,
			"Ġfake": 3786,
			"Ġtriangular": 3787,
			"ĠSa": 3788,
			"Ġatop": 3789,
			"ĠPo": 3790,
			"ĠPillow": 3791,
			"Ġstaring": 3792,
			"Ġspeck": 3793,
			"Ġaf": 3794,
			"Ġshades": 3795,
			"Ġmixed": 3796,
			"Ġgarland": 3797,
			"Ġhoney": 3798,
			"issing": 3799,
			"Ġcrashing": 3800,
			"Ġrectangle": 3801,
			"Ġequipment": 3802,
			"Ġlampshade": 3803,
			"Ġtshirt": 3804,
			"ĠBro": 3805,
			"Ġleggings": 3806,
			"Ġpatches": 3807,
			"ls": 3808,
			"liage": 3809,
			"Ġow": 3810,
			"TE": 3811,
			"ĠBaby": 3812,
			"Ġsleeves": 3813,
			"ĠPatch": 3814,
			"Ġpancakes": 3815,
			"gon": 3816,
			"Ġkept": 3817,
			"Ġstory": 3818,
			"Ġstage": 3819,
			"ump": 3820,
			"ĠTraffic": 3821,
			"front": 3822,
			"Ġtags": 3823,
			"Ġsports": 3824,
			"Ġfarm": 3825,
			"Ġtriangle": 3826,
			"Ġtraveling": 3827,
			"Ġteal": 3828,
			"Ġpears": 3829,
			"redded": 3830,
			"Ġstopped": 3831,
			"Ġdrum": 3832,
			"Ġhorizont": 3833,
			"Ġbatting": 3834,
			"Ġmin": 3835,
			"Ġmode": 3836,
			"LDING": 3837,
			"Ġflu": 3838,
			"Ġfalling": 3839,
			"Ġpickup": 3840,
			"Ġhing": 3841,
			"Ġshown": 3842,
			"Ġchains": 3843,
			"Ġsleeveless": 3844,
			"LO": 3845,
			"Ġstill": 3846,
			"rou": 3847,
			"Ġbushy": 3848,
			"Ġobjects": 3849,
			"Ġnumeral": 3850,
			"Ġrings": 3851,
			"Ġplug": 3852,
			"Ġturkey": 3853,
			"ĠCAR": 3854,
			"ore": 3855,
			"ste": 3856,
			"ĠUn": 3857,
			"ĠBunch": 3858,
			"Ġhaving": 3859,
			"ĠPaper": 3860,
			"Ġgiant": 3861,
			"Ġclut": 3862,
			"Ġprice": 3863,
			"ĠPair": 3864,
			"Ġcompany": 3865,
			"ĠTru": 3866,
			"hic": 3867,
			"Ġvine": 3868,
			"Ġasian": 3869,
			"ashioned": 3870,
			"ĠMirror": 3871,
			"rofoam": 3872,
			"lid": 3873,
			"ĠCup": 3874,
			"intage": 3875,
			"Ġperform": 3876,
			"Ġbank": 3877,
			"Ġlighthouse": 3878,
			"Ġslightly": 3879,
			"foot": 3880,
			"lves": 3881,
			"Ġstret": 3882,
			"Ġmotion": 3883,
			"Ġheads": 3884,
			"kes": 3885,
			"ĠBear": 3886,
			"ĠStri": 3887,
			"ust": 3888,
			"gun": 3889,
			"Ġfoliage": 3890,
			"Ġmonitors": 3891,
			"Ġroadside": 3892,
			"Ġmesh": 3893,
			"Ġrounded": 3894,
			"ia": 3895,
			"Ġtrying": 3896,
			"prin": 3897,
			"Ġcane": 3898,
			"Ġcondim": 3899,
			"Ġmantle": 3900,
			"ĠSki": 3901,
			"Ġclaw": 3902,
			"plant": 3903,
			"right": 3904,
			"ĠToilet": 3905,
			"lator": 3906,
			"Ġtusks": 3907,
			"ĠTail": 3908,
			"Ġglaze": 3909,
			"cuit": 3910,
			"ĠNumber": 3911,
			"Ġamb": 3912,
			"Ġhi": 3913,
			"Ġhangs": 3914,
			"gundy": 3915,
			"ners": 3916,
			"Ġstir": 3917,
			"Ġemblem": 3918,
			"Ġadvertising": 3919,
			"hole": 3920,
			"Ġfuzzy": 3921,
			"Ġsep": 3922,
			"Ġscrew": 3923,
			"Ġwavy": 3924,
			"Ġgre": 3925,
			"dies": 3926,
			"okes": 3927,
			"Ġwrinkled": 3928,
			"Ġpickle": 3929,
			"af": 3930,
			"aster": 3931,
			"Ġsharp": 3932,
			"Ġcards": 3933,
			"iz": 3934,
			"Ġchunk": 3935,
			"ĠAr": 3936,
			"ert": 3937,
			"Ġgown": 3938,
			"Ġtrashcan": 3939,
			"ĠFR": 3940,
			"Ġbolt": 3941,
			"ging": 3942,
			"Ġgent": 3943,
			"Ġ6": 3944,
			"Ġbarrel": 3945,
			"Ġplush": 3946,
			"made": 3947,
			"lete": 3948,
			"Ġtwigs": 3949,
			"Ġropes": 3950,
			"ooked": 3951,
			"Ġweather": 3952,
			"Ġhairy": 3953,
			"ĠMul": 3954,
			"Ġchees": 3955,
			"itary": 3956,
			"Ġbagels": 3957,
			"Ġnumerals": 3958,
			"Ġloung": 3959,
			"Ġstream": 3960,
			"Ġwireless": 3961,
			"Ġrough": 3962,
			"Ġlevel": 3963,
			"IGHT": 3964,
			"Ġelev": 3965,
			"aters": 3966,
			"Ġparrot": 3967,
			"Ġsteep": 3968,
			"ĠWhere": 3969,
			"Ġchinese": 3970,
			"ĠTO": 3971,
			"allen": 3972,
			"Ġhooves": 3973,
			"Ġpetal": 3974,
			"Ġproject": 3975,
			"Ġducks": 3976,
			"ĠCu": 3977,
			"ĠGu": 3978,
			"ĠMotorc": 3979,
			"so": 3980,
			"Ġmuddy": 3981,
			"ĠLet": 3982,
			"Ġheal": 3983,
			"Ġdisc": 3984,
			"ĠGIR": 3985,
			"Ġknees": 3986,
			"Ġsuits": 3987,
			"Ġcoats": 3988,
			"VER": 3989,
			"Ġshredded": 3990,
			"ĠPI": 3991,
			"Ġ7": 3992,
			"Ġhind": 3993,
			"Ġhandleb": 3994,
			"Ġfancy": 3995,
			"Ġcloths": 3996,
			"phic": 3997,
			"Ġfather": 3998,
			"acle": 3999,
			"ĠNose": 4000,
			"lli": 4001,
			"Ġhorizontal": 4002,
			"ĠMulti": 4003,
			"Ġsubway": 4004,
			"Ġcrisp": 4005,
			"stick": 4006,
			"Ġhour": 4007,
			"ĠTRA": 4008,
			"ĠBACK": 4009,
			"Ġcovers": 4010,
			"Ġcub": 4011,
			"Ġvintage": 4012,
			"AM": 4013,
			"Ġbarefoot": 4014,
			"Ġcanisters": 4015,
			"Ġheavy": 4016,
			"Ġtort": 4017,
			"Ġrecei": 4018,
			"yard": 4019,
			"Ġshirtless": 4020,
			"Ġgro": 4021,
			"Ġconstruction": 4022,
			"Ġstap": 4023,
			"ĠĠĠĠĠĠĠĠ": 4024,
			"Ġvines": 4025,
			"Ġcakes": 4026,
			"Ġcleats": 4027,
			"ĠCoffee": 4028,
			"ĠPark": 4029,
			"bble": 4030,
			"Ġsquat": 4031,
			"Ġwipers": 4032,
			"uring": 4033,
			"ĠPAR": 4034,
			"Ġharness": 4035,
			"formation": 4036,
			"Ġtange": 4037,
			"Ġdonkey": 4038,
			"Ġpowder": 4039,
			"Ġbiscuit": 4040,
			"ĠWOOD": 4041,
			"mpled": 4042,
			"Ġfat": 4043,
			"Ġgrain": 4044,
			"hau": 4045,
			"Ġframes": 4046,
			"mi": 4047,
			"Ġrust": 4048,
			"Ġdraped": 4049,
			"Ġhealthy": 4050,
			"ĠHot": 4051,
			"ĠEye": 4052,
			"ĠStack": 4053,
			"Ġgentle": 4054,
			"Ġsupporting": 4055,
			"cus": 4056,
			"iner": 4057,
			"Ġboarding": 4058,
			"haust": 4059,
			"ĠColor": 4060,
			"Ġshrubs": 4061,
			"ĠFlo": 4062,
			"Ġladies": 4063,
			"Ġwiper": 4064,
			"inn": 4065,
			"ĠCon": 4066,
			"ĠYELL": 4067,
			"ĠYELLOW": 4068,
			"ĠFork": 4069,
			"Ġhedges": 4070,
			"ution": 4071,
			"Ġtourist": 4072,
			"attered": 4073,
			"LASS": 4074,
			"ĠBow": 4075,
			"Ġboarder": 4076,
			"Ġwoven": 4077,
			"Ġpigeons": 4078,
			"ĠHis": 4079,
			"ĠPlayer": 4080,
			"men": 4081,
			"Ġbeam": 4082,
			"aw": 4083,
			"ĠBen": 4084,
			"ons": 4085,
			"Ġhim": 4086,
			"Ġgift": 4087,
			"ushed": 4088,
			"opper": 4089,
			"rest": 4090,
			"Ġalongside": 4091,
			"ĠBeige": 4092,
			"try": 4093,
			"Ġcoconut": 4094,
			"Ġfashioned": 4095,
			"ares": 4096,
			"Ġsla": 4097,
			"Ġsuspen": 4098,
			"VE": 4099,
			"Ġcycle": 4100,
			"lish": 4101,
			"Ġbunny": 4102,
			"Ġsyste": 4103,
			"Ġmessy": 4104,
			"Ġpillowcase": 4105,
			"Ġdeer": 4106,
			"Ġwear": 4107,
			"Ġdragon": 4108,
			"Ġmake": 4109,
			"Ġvanity": 4110,
			"Ġgrate": 4111,
			"Ġfallen": 4112,
			"Ġgraphic": 4113,
			"Ġbuns": 4114,
			"ual": 4115,
			"rines": 4116,
			"ĠShort": 4117,
			"agn": 4118,
			"Ġalco": 4119,
			"Ġflowered": 4120,
			"ngth": 4121,
			"ĠMen": 4122,
			"ĠWine": 4123,
			"ĠBuildings": 4124,
			"Ġstrings": 4125,
			"Ġeggplant": 4126,
			"Ġtinted": 4127,
			"Ġmop": 4128,
			"minal": 4129,
			"pot": 4130,
			"look": 4131,
			"uster": 4132,
			"Ġstained": 4133,
			"Ġlandsc": 4134,
			"Ġstems": 4135,
			"Ġburgundy": 4136,
			"Ġgun": 4137,
			"Ġwarm": 4138,
			"Ġfaded": 4139,
			"ĠSlice": 4140,
			"Ġclass": 4141,
			"IDE": 4142,
			"Ġmissing": 4143,
			"Ġchili": 4144,
			"Ġwheelchair": 4145,
			"ĠLeg": 4146,
			"Ġstapler": 4147,
			"TING": 4148,
			"aff": 4149,
			"back": 4150,
			"ĠEar": 4151,
			"Ġsystem": 4152,
			"ĠPut": 4153,
			"Ġsolid": 4154,
			"Ġpencils": 4155,
			"Ġdip": 4156,
			"ĠBox": 4157,
			"arning": 4158,
			"lderly": 4159,
			"ĠDes": 4160,
			"Ġident": 4161,
			"Ġinformation": 4162,
			"Ġfin": 4163,
			"Ġpretty": 4164,
			"Ġterminal": 4165,
			"EB": 4166,
			"Ġcherries": 4167,
			"Ġbrake": 4168,
			"ĠCe": 4169,
			"Ġcrouched": 4170,
			"Ġclip": 4171,
			"ais": 4172,
			"vent": 4173,
			"Ġpushed": 4174,
			"Ġjumpsuit": 4175,
			"Ġwash": 4176,
			"ug": 4177,
			"olding": 4178,
			"Ġmanhole": 4179,
			"ĠDec": 4180,
			"ĠColorful": 4181,
			"Ġloaf": 4182,
			"Ġpanels": 4183,
			"Ġflight": 4184,
			"ĠSheep": 4185,
			"Ġjug": 4186,
			"Ġstudents": 4187,
			"Ġlarger": 4188,
			"Ġtoiletries": 4189,
			"Ġposition": 4190,
			"Ġtangerine": 4191,
			"lights": 4192,
			"ĠFire": 4193,
			"mercial": 4194,
			"Ġperched": 4195,
			"Ġtools": 4196,
			"Ġuniforms": 4197,
			"Ġjust": 4198,
			"Ġcastle": 4199,
			"ments": 4200,
			"Ġmarking": 4201,
			"ERSON": 4202,
			"ished": 4203,
			"Ġtrans": 4204,
			"Ġhid": 4205,
			"Ġonly": 4206,
			"Ġstall": 4207,
			"lit": 4208,
			"ĠBrick": 4209,
			"Ġheel": 4210,
			"Ġrusted": 4211,
			"Ġdocked": 4212,
			"ured": 4213,
			"ĠPERSON": 4214,
			"Ġmilitary": 4215,
			"Ġrec": 4216,
			"ĠRe": 4217,
			"Ġpineapples": 4218,
			"Ġgentleman": 4219,
			"ich": 4220,
			"AIN": 4221,
			"ĠTRE": 4222,
			"Ġcomb": 4223,
			"Ġtof": 4224,
			"ĠSlic": 4225,
			"Ġsepar": 4226,
			"Ġbooth": 4227,
			"Ġgat": 4228,
			"KE": 4229,
			"Ġgrin": 4230,
			"ĠBag": 4231,
			"Ġrows": 4232,
			"Ġbillboard": 4233,
			"ilted": 4234,
			"zzle": 4235,
			"Ġbedding": 4236,
			"ĠBE": 4237,
			"Ġexhaust": 4238,
			"ĠCatcher": 4239,
			"ĠStain": 4240,
			"IGN": 4241,
			"lies": 4242,
			"Ġbackwards": 4243,
			"FF": 4244,
			"ĠBottom": 4245,
			"Ġshrub": 4246,
			"weed": 4247,
			"Ġbedside": 4248,
			"Ġscattered": 4249,
			"Ġinterior": 4250,
			"Ġalcoh": 4251,
			"Ġchamp": 4252,
			"Ġdet": 4253,
			"stru": 4254,
			"Ġbelly": 4255,
			"cking": 4256,
			"agne": 4257,
			"ĠAN": 4258,
			"Ġpeel": 4259,
			"Ġbunches": 4260,
			"Ġreceipt": 4261,
			"ative": 4262,
			"Ġcafe": 4263,
			"prints": 4264,
			"Ġshot": 4265,
			"Ġbats": 4266,
			"Ġsquatting": 4267,
			"iff": 4268,
			"ĠNe": 4269,
			"bile": 4270,
			"aur": 4271,
			"Ġpengu": 4272,
			"Ġlength": 4273,
			"Ġmodel": 4274,
			"Ġemp": 4275,
			"ino": 4276,
			"rd": 4277,
			"Ġunc": 4278,
			"Ġherb": 4279,
			"Ġspe": 4280,
			"Ġsnout": 4281,
			"Ġcushions": 4282,
			"peted": 4283,
			"Ġcountry": 4284,
			"Ġweb": 4285,
			"Ġtown": 4286,
			"Ġserved": 4287,
			"Ġpeanut": 4288,
			"asket": 4289,
			"ĠGuy": 4290,
			"ĠLE": 4291,
			"ĠPE": 4292,
			"Ġpeaches": 4293,
			"Ġfloppy": 4294,
			"ĠPlace": 4295,
			"ister": 4296,
			"Ġhal": 4297,
			"culator": 4298,
			"iny": 4299,
			"ĠKey": 4300,
			"ĠTHAT": 4301,
			"Ġstyrofoam": 4302,
			"aroni": 4303,
			"ĠDecor": 4304,
			"Ġcustomers": 4305,
			"Ġpig": 4306,
			"Ġped": 4307,
			"ional": 4308,
			"ĠPLATE": 4309,
			"Ġlipstick": 4310,
			"flowers": 4311,
			"Ġcrackers": 4312,
			"met": 4313,
			"Ġhinge": 4314,
			"Ġoutlets": 4315,
			"Ġmousepad": 4316,
			"ĠPot": 4317,
			"ĠLeaves": 4318,
			"Ġnotepad": 4319,
			"Ġrailway": 4320,
			"Ġtor": 4321,
			"Ġgreens": 4322,
			"rong": 4323,
			"ĠDV": 4324,
			"Ġdesert": 4325,
			"strich": 4326,
			"Ġwaving": 4327,
			"Ġmus": 4328,
			"ĠClouds": 4329,
			"Ġchampagne": 4330,
			"anger": 4331,
			"Ġaction": 4332,
			"Ġrace": 4333,
			"Ġcold": 4334,
			"ĠTow": 4335,
			"Ġstalk": 4336,
			"Ġslo": 4337,
			"orn": 4338,
			"ĠFive": 4339,
			"Ġforehead": 4340,
			"Ġcommercial": 4341,
			"Ġtortilla": 4342,
			"Ġfacial": 4343,
			"ĠCD": 4344,
			"ĠSandwich": 4345,
			"Ġcarpeted": 4346,
			"ĠCou": 4347,
			"Ġmango": 4348,
			"white": 4349,
			"Ġlat": 4350,
			"ĠAnimal": 4351,
			"Ġsnacks": 4352,
			"Ġbroco": 4353,
			"Ġveggies": 4354,
			"ouser": 4355,
			"Ġneat": 4356,
			"Ġrem": 4357,
			"Ġassorted": 4358,
			"Ġcalculator": 4359,
			"raw": 4360,
			"Ġsocket": 4361,
			"arium": 4362,
			"ĠRi": 4363,
			"Ġmashed": 4364,
			"Ġnostri": 4365,
			"ulance": 4366,
			"Ġparas": 4367,
			"bu": 4368,
			"Ġbasin": 4369,
			"Ġrackets": 4370,
			"Ġdistant": 4371,
			"Ġcaution": 4372,
			"Ġval": 4373,
			"Ġmain": 4374,
			"ĠKnife": 4375,
			"Ġbey": 4376,
			"Ġtransparent": 4377,
			"Ġbeyond": 4378,
			"ĠFloor": 4379,
			"00": 4380,
			"Ġtrouser": 4381,
			"ĠCU": 4382,
			"Ġ8": 4383,
			"aves": 4384,
			"Ġsandw": 4385,
			"Ġdro": 4386,
			"ĠDVD": 4387,
			"Ġstripped": 4388,
			"osaur": 4389,
			"Ġtrous": 4390,
			"Ġmobile": 4391,
			"Ġtrousers": 4392,
			"akers": 4393,
			"ĠMotorcycle": 4394,
			"ĠSIGN": 4395,
			"ĠTW": 4396,
			"Ġmore": 4397,
			"EE": 4398,
			"loye": 4399,
			"Ġquilt": 4400,
			"Ġmoon": 4401,
			"Ġsets": 4402,
			"KING": 4403,
			"ĠMo": 4404,
			"Ġperforming": 4405,
			"ĠWAT": 4406,
			"Ġtight": 4407,
			"Ġdinosaur": 4408,
			"Ġmacaroni": 4409,
			"EAD": 4410,
			"Ġraw": 4411,
			"act": 4412,
			"Ġowl": 4413,
			"ĠCell": 4414,
			"SH": 4415,
			"Ġartich": 4416,
			"ampoo": 4417,
			"ST": 4418,
			"ĠBowl": 4419,
			"Ġseaweed": 4420,
			"Ġaquarium": 4421,
			"Ġcact": 4422,
			"Ġcluster": 4423,
			"Ġwaters": 4424,
			"son": 4425,
			"ĠLog": 4426,
			"ĠRocks": 4427,
			"ĠBed": 4428,
			"Ġcopper": 4429,
			"ĠWIND": 4430,
			"ĠRow": 4431,
			"ckle": 4432,
			"omach": 4433,
			"rolley": 4434,
			"ĠCheese": 4435,
			"Ġtouch": 4436,
			"Ġheels": 4437,
			"ĠGLASS": 4438,
			"lend": 4439,
			"Ġambulance": 4440,
			"ĠUS": 4441,
			"Ġslan": 4442,
			"Ġscra": 4443,
			"oise": 4444,
			"Ġchalkboard": 4445,
			"Ġelderly": 4446,
			"ĠTWO": 4447,
			"Ġalcohol": 4448,
			"Ġbalding": 4449,
			"Ġtabby": 4450,
			"Ġemploye": 4451,
			"Ġterra": 4452,
			"Ġlens": 4453,
			"Ġblocks": 4454,
			"Ġrecl": 4455,
			"stal": 4456,
			"Ġpenguin": 4457,
			"Ġostrich": 4458,
			"ĠPain": 4459,
			"Ġslats": 4460,
			"ĠBush": 4461,
			"Ġhear": 4462,
			"amon": 4463,
			"fla": 4464,
			"ĠSection": 4465,
			"Ġbeet": 4466,
			"Ġlandscape": 4467,
			"ract": 4468,
			"Ġmugs": 4469,
			"tone": 4470,
			"Ġvending": 4471,
			"Ġopp": 4472,
			"Ġride": 4473,
			"Ġprof": 4474,
			"Ġwrinkles": 4475,
			"Ġbookshelves": 4476,
			"Ġfigurines": 4477,
			"Ġbubbles": 4478,
			"Ġdesigned": 4479,
			"Ġlane": 4480,
			"ĠAirp": 4481,
			"Ġbark": 4482,
			"Ġstomach": 4483,
			"ath": 4484,
			"Ġ9": 4485,
			"uffed": 4486,
			"Ġprojector": 4487,
			"Ġshampoo": 4488,
			"Ġlounge": 4489,
			"ized": 4490,
			"cess": 4491,
			"Ġcollared": 4492,
			"ĠThi": 4493,
			"ĠBic": 4494,
			"Ġedges": 4495,
			"nail": 4496,
			"Ġcactus": 4497,
			"Ġraspberry": 4498,
			"ĠMountains": 4499,
			"pos": 4500,
			"The": 4501,
			"retched": 4502,
			"Ġoutst": 4503,
			"ĠGIRL": 4504,
			"Ġbeanie": 4505,
			"ĠBroccoli": 4506,
			"ĠSqu": 4507,
			"Ġwrap": 4508,
			"ĠKitchen": 4509,
			"Ġhel": 4510,
			"Ġreads": 4511,
			"asted": 4512,
			"Ġparty": 4513,
			"ĠSunglasses": 4514,
			"ways": 4515,
			"Ġharbor": 4516,
			"Ġcaps": 4517,
			"Ġminute": 4518,
			"Ġank": 4519,
			"innamon": 4520,
			"Ġdotted": 4521,
			"Ġaut": 4522,
			"coat": 4523,
			"Ġfocus": 4524,
			"Ġpilot": 4525,
			"Ġtrolley": 4526,
			"Ġhom": 4527,
			"Ġspeed": 4528,
			"Ġther": 4529,
			"Ġskateboards": 4530,
			"ĠHAND": 4531,
			"ely": 4532,
			"Ġbaker": 4533,
			"mple": 4534,
			"INK": 4535,
			"Ġpit": 4536,
			"Ġblood": 4537,
			"gle": 4538,
			"Ġlove": 4539,
			"Ġglobe": 4540,
			"Ġante": 4541,
			"Ġslanted": 4542,
			"ĠRO": 4543,
			"ppers": 4544,
			"ĠGR": 4545,
			"Ġexit": 4546,
			"ĠTeddy": 4547,
			"Ġdais": 4548,
			"Ġalone": 4549,
			"ĠHalf": 4550,
			"Ġcluttered": 4551,
			"Ġbrushing": 4552,
			"gging": 4553,
			"Ġsemi": 4554,
			"urky": 4555,
			"Ġblowing": 4556,
			"Ġreddish": 4557,
			"Ġpouch": 4558,
			"ĠFla": 4559,
			"anta": 4560,
			"Ġgroom": 4561,
			"Ġsheer": 4562,
			"ĠWALL": 4563,
			"Ġge": 4564,
			"ĠCan": 4565,
			"ĠTI": 4566,
			"Ġsed": 4567,
			"Ġpeak": 4568,
			"Ġbone": 4569,
			"Ġnotes": 4570,
			"Ġoutstretched": 4571,
			"Ġpackets": 4572,
			"mboo": 4573,
			"ream": 4574,
			"rail": 4575,
			"Ġshell": 4576,
			"Ġbad": 4577,
			"Ġshallow": 4578,
			"Ġtowers": 4579,
			"Ġcinnamon": 4580,
			"Ġsour": 4581,
			"lash": 4582,
			"ĠFrench": 4583,
			"Ġvac": 4584,
			"ĠUmpire": 4585,
			"ĠHat": 4586,
			"Ġmoped": 4587,
			"Ġemployee": 4588,
			"Ġcharacters": 4589,
			"ĠSM": 4590,
			"the": 4591,
			"rash": 4592,
			"Ġhooded": 4593,
			"Ġsword": 4594,
			"ĠWOODEN": 4595,
			"onds": 4596,
			"Ġcute": 4597,
			"Ġdiv": 4598,
			"ĠTom": 4599,
			"Ġshou": 4600,
			"Ġsel": 4601,
			"ĠEx": 4602,
			"Ġrabb": 4603,
			"Ġscru": 4604,
			"ĠSkier": 4605,
			"Ġsquares": 4606,
			"Ġfences": 4607,
			"ĠDe": 4608,
			"Ġplank": 4609,
			"Ġgla": 4610,
			"Ġdriveway": 4611,
			"lendar": 4612,
			"Ġbubble": 4613,
			"Ġfun": 4614,
			"Ġbulbs": 4615,
			"sel": 4616,
			"Ġraspberries": 4617,
			"ions": 4618,
			"Ġfenced": 4619,
			"ugh": 4620,
			"Ġrabbit": 4621,
			"ĠDOG": 4622,
			"Ġrolls": 4623,
			"Ġuse": 4624,
			"ĠTrash": 4625,
			"Ġlimb": 4626,
			"Ġmove": 4627,
			"tendo": 4628,
			"ĠHO": 4629,
			"self": 4630,
			"Ġcrumpled": 4631,
			"Ġmurky": 4632,
			"ĠEdge": 4633,
			"Ġturning": 4634,
			"Ġthings": 4635,
			"intendo": 4636,
			"AY": 4637,
			"gan": 4638,
			"Ġindicating": 4639,
			"ĠBench": 4640,
			"RI": 4641,
			"Ġsedan": 4642,
			"ĠCont": 4643,
			"Ġshutters": 4644,
			"Ġcartoon": 4645,
			"aged": 4646,
			"Ġupright": 4647,
			"Ġshakers": 4648,
			"Ġstools": 4649,
			"ĠStainless": 4650,
			"my": 4651,
			"Ġsandwhich": 4652,
			"Ġcrispy": 4653,
			"br": 4654,
			"ĠBoat": 4655,
			"Ġea": 4656,
			"quoise": 4657,
			"Ġfootball": 4658,
			"Ġteapot": 4659,
			"Ġearphones": 4660,
			"ĠPO": 4661,
			"'t": 4662,
			"ronze": 4663,
			"Ġbasketball": 4664,
			"Ġfog": 4665,
			"Ġlaugh": 4666,
			"Ġsunflower": 4667,
			"Ġevent": 4668,
			"Ġarran": 4669,
			"Ġladle": 4670,
			"Ġchoppy": 4671,
			"Ġlocated": 4672,
			"Ġlan": 4673,
			"ONT": 4674,
			"Ġsurfers": 4675,
			"OARD": 4676,
			"Ġalmost": 4677,
			"Ġentry": 4678,
			"looking": 4679,
			"ĠHer": 4680,
			"Ġfishing": 4681,
			"Ġscaff": 4682,
			"Ġbride": 4683,
			"Ġsmok": 4684,
			"ĠTomato": 4685,
			"dgerator": 4686,
			"Ġlighted": 4687,
			"ĠVery": 4688,
			"Ġflaming": 4689,
			"ination": 4690,
			"ĠPower": 4691,
			"view": 4692,
			"ighter": 4693,
			"tz": 4694,
			"ĠTelevision": 4695,
			"rought": 4696,
			"Ġcracker": 4697,
			"Ġinstru": 4698,
			"Ġsmart": 4699,
			"Ġtexture": 4700,
			"Ġsteeple": 4701,
			"Ġsushi": 4702,
			"osite": 4703,
			"Ġrep": 4704,
			"Ġchecked": 4705,
			"ĠDay": 4706,
			"Ġrestroom": 4707,
			"Ġantelope": 4708,
			"Ġmedic": 4709,
			"ĠFruit": 4710,
			"ban": 4711,
			"ĠAT": 4712,
			"Ġpretz": 4713,
			"Ġcatchers": 4714,
			"ĠFoot": 4715,
			"Ġfootprints": 4716,
			"ĠMouse": 4717,
			"ĠSquare": 4718,
			"ĠBlonde": 4719,
			"Ġes": 4720,
			"anging": 4721,
			"Ġclosest": 4722,
			"Ġbamboo": 4723,
			"Ġboulders": 4724,
			"Ġindoor": 4725,
			"Ġnecktie": 4726,
			"iced": 4727,
			"ĠConcrete": 4728,
			"Ġbraid": 4729,
			"Ġpetting": 4730,
			"arse": 4731,
			"ramed": 4732,
			"ores": 4733,
			"Ġpedestal": 4734,
			"fruit": 4735,
			"Ġknot": 4736,
			"Ġwarning": 4737,
			"ĠWINDOW": 4738,
			"Ġnails": 4739,
			"Ġafter": 4740,
			"ĠCake": 4741,
			"oof": 4742,
			"Ġcasting": 4743,
			"Ġstrips": 4744,
			"Ġlaughing": 4745,
			"Ġkios": 4746,
			"cked": 4747,
			"Ġrh": 4748,
			"Ġpop": 4749,
			"Ġrimmed": 4750,
			"Ġyol": 4751,
			"ĠUmbrell": 4752,
			"fted": 4753,
			"Ġsinks": 4754,
			"uri": 4755,
			"ĠRear": 4756,
			"ACKET": 4757,
			"idas": 4758,
			"Ġbronze": 4759,
			"Ġthird": 4760,
			"den": 4761,
			"Ġopposite": 4762,
			"Ġscaffolding": 4763,
			"Ġarranged": 4764,
			"ĠCHAIR": 4765,
			"Ġkiosk": 4766,
			"ids": 4767,
			"ining": 4768,
			"Ġclump": 4769,
			"Ġ12": 4770,
			"Ġtofu": 4771,
			"post": 4772,
			"Ġrouter": 4773,
			"Ġcolumns": 4774,
			"Ġpartly": 4775,
			"ĠBA": 4776,
			"Ġshag": 4777,
			"ĠThick": 4778,
			"Ġchee": 4779,
			"Ġfeather": 4780,
			"otes": 4781,
			"enger": 4782,
			"ĠPole": 4783,
			"Ġrefridgerator": 4784,
			"rystal": 4785,
			"nette": 4786,
			"Ġcyl": 4787,
			"ĠRoad": 4788,
			"ĠThin": 4789,
			"Ġseal": 4790,
			"ĠStop": 4791,
			"Ġdep": 4792,
			"Ġwis": 4793,
			"Ġcamp": 4794,
			"Ġburners": 4795,
			"Ġsuns": 4796,
			"ĠSnowboard": 4797,
			"Ġdrawings": 4798,
			"Ġboulder": 4799,
			"Ġportable": 4800,
			"Ġpreser": 4801,
			"xing": 4802,
			"ĠDecorative": 4803,
			"ined": 4804,
			"illing": 4805,
			"ĠRock": 4806,
			"ĠSIDE": 4807,
			"Ġcattle": 4808,
			"und": 4809,
			"ggy": 4810,
			"Ġbul": 4811,
			"Ġgathered": 4812,
			"Ġathlete": 4813,
			"Ġshoreline": 4814,
			"Ġmedicine": 4815,
			"Ġprocess": 4816,
			"ĠFe": 4817,
			"Ġbrocolli": 4818,
			"ĠBatter": 4819,
			"Ġbelong": 4820,
			"Ġmatching": 4821,
			"Ġbuckle": 4822,
			"redi": 4823,
			"Ġkeep": 4824,
			"Ġpanes": 4825,
			"ung": 4826,
			"Ġrocking": 4827,
			"Ġspi": 4828,
			"Ġwired": 4829,
			"ĠPAIR": 4830,
			"Ġamong": 4831,
			"Ġvend": 4832,
			"RO": 4833,
			"Ġmixing": 4834,
			"Ġfrisb": 4835,
			"Ġblurred": 4836,
			"Ġcds": 4837,
			"Ġfingernail": 4838,
			"ĠHel": 4839,
			"ĠBread": 4840,
			"Ġracing": 4841,
			"Ġmarsh": 4842,
			"ĠWheel": 4843,
			"ĠBath": 4844,
			"Ġgrapefruit": 4845,
			"ĠHome": 4846,
			"Ġcalendar": 4847,
			"Ġgrown": 4848,
			"ĠFace": 4849,
			"Ġspokes": 4850,
			"anas": 4851,
			"iers": 4852,
			"Ġuncooked": 4853,
			"ords": 4854,
			"ĠMic": 4855,
			"Ġhearts": 4856,
			"Ġyolk": 4857,
			"Ġpropped": 4858,
			"xtures": 4859,
			"Ġankle": 4860,
			"ĠHair": 4861,
			"Ġpadded": 4862,
			"Ġteen": 4863,
			"Ġraincoat": 4864,
			"Ġpaintings": 4865,
			"Ġclaws": 4866,
			"Ġgarment": 4867,
			"Ġdaisy": 4868,
			"Ġcoin": 4869,
			"Ġcircles": 4870,
			"ĠBasket": 4871,
			"Ġfrying": 4872,
			"Ġdispos": 4873,
			"Ġcoaster": 4874,
			"Ġshops": 4875,
			"phol": 4876,
			"opter": 4877,
			"ĠGround": 4878,
			"Ġfixtures": 4879,
			"ffle": 4880,
			"Ġpassing": 4881,
			"xed": 4882,
			"Ġshoulders": 4883,
			"Ġwhit": 4884,
			"Ġmer": 4885,
			"Ġcarried": 4886,
			"ĠChocolate": 4887,
			"Ġturquoise": 4888,
			"Ġbloom": 4889,
			"Ġprints": 4890,
			"ĠTOP": 4891,
			"Ġposted": 4892,
			"Ġflamingo": 4893,
			"icle": 4894,
			"ĠCurtain": 4895,
			"Ġhandlebars": 4896,
			"Ġphotos": 4897,
			"RU": 4898,
			"ĠNew": 4899,
			"zen": 4900,
			"ĠFlower": 4901,
			"ĠHEAD": 4902,
			"Ġfast": 4903,
			"Ġsport": 4904,
			"ancing": 4905,
			"Ġpantry": 4906,
			"Ġgrow": 4907,
			"iral": 4908,
			"Ġhelic": 4909,
			"Ġcandies": 4910,
			"ĠPile": 4911,
			"Ġbound": 4912,
			"Ġregister": 4913,
			"Ġtricks": 4914,
			"ĠStuffed": 4915,
			"Ġpathway": 4916,
			"ĠChin": 4917,
			"TU": 4918,
			"atell": 4919,
			"Ġhanger": 4920,
			"eta": 4921,
			"Ġing": 4922,
			"ĠBike": 4923,
			"Ġdust": 4924,
			"Ġglare": 4925,
			"Ġinstrument": 4926,
			"osed": 4927,
			"Ġfrien": 4928,
			"GROUND": 4929,
			"ĠElectrical": 4930,
			"Ġhandled": 4931,
			"ĠPAN": 4932,
			"anyard": 4933,
			"ASS": 4934,
			"Ġfaces": 4935,
			"ĠWheels": 4936,
			"agonal": 4937,
			"Ġome": 4938,
			"Ġjelly": 4939,
			"ĠCAT": 4940,
			"wing": 4941,
			"laces": 4942,
			"MB": 4943,
			"ĠChain": 4944,
			"vory": 4945,
			"Ġbite": 4946,
			"Ġkitty": 4947,
			"Ġskull": 4948,
			"Ġbathing": 4949,
			"Ġtour": 4950,
			"gran": 4951,
			"ĠStriped": 4952,
			"Ġkay": 4953,
			"Ġhomes": 4954,
			"tens": 4955,
			"Ġsuspended": 4956,
			"atellite": 4957,
			"Ġdivider": 4958,
			"ification": 4959,
			"Ġuphol": 4960,
			"Ġwrought": 4961,
			"Ġappear": 4962,
			"Ġingredi": 4963,
			"Ġsunset": 4964,
			"ĠFOR": 4965,
			"Ġsailboats": 4966,
			"ĠBOY": 4967,
			"UT": 4968,
			"Ġgrouped": 4969,
			"Ġparach": 4970,
			"Ġadj": 4971,
			"ITTING": 4972,
			"hou": 4973,
			"Ġmayon": 4974,
			"Ġstreetlight": 4975,
			"Ġbrightly": 4976,
			"ĠBananas": 4977,
			"Ġkicking": 4978,
			"Ġfollow": 4979,
			"omegran": 4980,
			"Ġelevated": 4981,
			"vered": 4982,
			"ftop": 4983,
			"Ġslab": 4984,
			"resh": 4985,
			"ĠPlane": 4986,
			"Ġhelicopter": 4987,
			"RAN": 4988,
			"Ġmov": 4989,
			"ĠBUS": 4990,
			"Ġblades": 4991,
			"Ġhidden": 4992,
			"asty": 4993,
			"Ġshows": 4994,
			"Ġcarved": 4995,
			"ĠFL": 4996,
			"Ġremotes": 4997,
			"Ġshed": 4998,
			"ĠVeget": 4999,
			"Ġputting": 5000,
			"Ġbridle": 5001,
			"Ġlayer": 5002,
			"Ġvariety": 5003,
			"Ġpretzel": 5004,
			"apers": 5005,
			"riting": 5006,
			"Ġfer": 5007,
			"ĠAirplane": 5008,
			"eces": 5009,
			"ĠPolice": 5010,
			"Ġret": 5011,
			"iter": 5012,
			"nd": 5013,
			"ĠShadows": 5014,
			"Ġseating": 5015,
			"Ġmeas": 5016,
			"Ġpomegran": 5017,
			"PU": 5018,
			"ĠBar": 5019,
			"Ġfender": 5020,
			"..": 5021,
			"ĠPass": 5022,
			"Ġcrystal": 5023,
			"Ġthing": 5024,
			"Ġlighter": 5025,
			"Ġbrownie": 5026,
			"Ġlanyard": 5027,
			"Ġahead": 5028,
			"law": 5029,
			"opus": 5030,
			"ĠEng": 5031,
			"Ġbreast": 5032,
			"ĠMac": 5033,
			"wear": 5034,
			"icy": 5035,
			"Ġcondiments": 5036,
			"izer": 5037,
			"ĠLogo": 5038,
			"Ġskiis": 5039,
			"oned": 5040,
			"ĠHelmet": 5041,
			"cessed": 5042,
			"artment": 5043,
			"ĠBACKGROUND": 5044,
			"Ġgoods": 5045,
			"ĠTruck": 5046,
			"Ġspeckled": 5047,
			"Ġmuffins": 5048,
			"Ġstacks": 5049,
			"Ġgiving": 5050,
			"ĠWATER": 5051,
			"ĠiP": 5052,
			"terns": 5053,
			"Ġbib": 5054,
			"IE": 5055,
			"Ġbunk": 5056,
			"ĠHo": 5057,
			"ĠSTOP": 5058,
			"che": 5059,
			"ĠSITTING": 5060,
			"ĠPlant": 5061,
			"Ġomelet": 5062,
			"kn": 5063,
			"ĠHOLDING": 5064,
			"ĠPillows": 5065,
			"screen": 5066,
			"Ġformation": 5067,
			"Ġtilted": 5068,
			"Ġcola": 5069,
			"ĠBicycle": 5070,
			"Ġarrange": 5071,
			"Ġdisposable": 5072,
			"Ġrecessed": 5073,
			"ĠSP": 5074,
			"Ġscr": 5075,
			"Ġcash": 5076,
			"Ġbrunette": 5077,
			"Ġspiral": 5078,
			"Ġduff": 5079,
			"ĠCOM": 5080,
			"Ġtattoos": 5081,
			"Ġsparse": 5082,
			"Ġoctopus": 5083,
			"yers": 5084,
			"ited": 5085,
			"Ġcollection": 5086,
			"mallow": 5087,
			"Ġsausages": 5088,
			"ller": 5089,
			"Ġfrog": 5090,
			"ĠSomeone": 5091,
			"Ġpeanuts": 5092,
			"Ġdisplaying": 5093,
			"Ġrooftop": 5094,
			"Ġtoothpick": 5095,
			"INE": 5096,
			"ried": 5097,
			"ĠPART": 5098,
			"urity": 5099,
			"lines": 5100,
			"Ġdiced": 5101,
			"Ġsatellite": 5102,
			"Ġscale": 5103,
			"Ġeagle": 5104,
			"chi": 5105,
			"vas": 5106,
			"spital": 5107,
			"ĠSliced": 5108,
			"ĠSTAND": 5109,
			"Ġash": 5110,
			"atural": 5111,
			"ĠWalk": 5112,
			"ĠAnother": 5113,
			"Ġreflections": 5114,
			"Ġflames": 5115,
			"Ġwalks": 5116,
			"Ġmarshmallow": 5117,
			"Ġcases": 5118,
			"Ġcomm": 5119,
			"Ġur": 5120,
			"ĠKeyboard": 5121,
			"ĠShiny": 5122,
			"ĠCru": 5123,
			"orescent": 5124,
			"ĠLIGHT": 5125,
			"Ġworkers": 5126,
			"Ġsprinkled": 5127,
			"Ġkeypad": 5128,
			"ION": 5129,
			"Ġloose": 5130,
			"ĠDouble": 5131,
			"Ġparent": 5132,
			"Ġpeeled": 5133,
			"Ġgrinder": 5134,
			"Ġ10": 5135,
			"ripe": 5136,
			"Ġrela": 5137,
			"Ġbeams": 5138,
			"ĠPro": 5139,
			"ators": 5140,
			"ĠWindshield": 5141,
			"Ġ[": 5142,
			"Ġcracks": 5143,
			"Ġvanilla": 5144,
			"ĠLic": 5145,
			"Ġliquor": 5146,
			"Ġpreserver": 5147,
			"ĠWaves": 5148,
			"Ġcarts": 5149,
			"Ġdest": 5150,
			"Ġmeadow": 5151,
			"ental": 5152,
			"cap": 5153,
			"ĠStone": 5154,
			"Ġshaggy": 5155,
			"Ġpolicemen": 5156,
			"Ġyour": 5157,
			"nut": 5158,
			"mbled": 5159,
			"Ġseven": 5160,
			"Ġshaded": 5161,
			"Ġpal": 5162,
			"utter": 5163,
			"Ġprocessor": 5164,
			"Ġstairway": 5165,
			"naise": 5166,
			"ĠMET": 5167,
			"ĠFramed": 5168,
			"Ġforefront": 5169,
			"Ġfoamy": 5170,
			"Ġfighter": 5171,
			"ĠUmbrella": 5172,
			"Ġpomegranate": 5173,
			"Ġcleat": 5174,
			"Ġindi": 5175,
			"Ġcobbles": 5176,
			"Ġtypes": 5177,
			"Ġdeli": 5178,
			"Ġcleaning": 5179,
			"Ġfring": 5180,
			"TLE": 5181,
			"Ġcontains": 5182,
			"ib": 5183,
			"ald": 5184,
			"Ġreflector": 5185,
			"Ġpoint": 5186,
			"TURE": 5187,
			"Ġdeb": 5188,
			"Ġswir": 5189,
			"Ġselling": 5190,
			"Ġcrab": 5191,
			"ĠSTRE": 5192,
			"Ġshing": 5193,
			"Ġneed": 5194,
			"Ġwispy": 5195,
			"Ġlifted": 5196,
			"ĠCut": 5197,
			"ĠSurfer": 5198,
			"ĠChinese": 5199,
			"Ġwait": 5200,
			"Ġcracked": 5201,
			"ĠCA": 5202,
			"ĠDish": 5203,
			"Ġdesserts": 5204,
			"icap": 5205,
			"Ġarrangement": 5206,
			"like": 5207,
			"ĠWomen": 5208,
			"Ġtoothbrushes": 5209,
			"ĠSpect": 5210,
			"Ġhospital": 5211,
			"Ġtasty": 5212,
			"ĠCab": 5213,
			"ĠTEN": 5214,
			"Ġrailings": 5215,
			"Ġnetting": 5216,
			"Ġwasher": 5217,
			"reo": 5218,
			"Ġaccess": 5219,
			"Ġwooded": 5220,
			"Ġmayonnaise": 5221,
			"ĠSpoon": 5222,
			"ĠSTREET": 5223,
			"ĠTowel": 5224,
			"Ġgrasses": 5225,
			"Ġkayak": 5226,
			"ĠSO": 5227,
			"Ġcuff": 5228,
			"Ġrides": 5229,
			"UR": 5230,
			"Ġivory": 5231,
			"ĠOver": 5232,
			"Ġarchway": 5233,
			"ĠWatch": 5234,
			"ĠSMALL": 5235,
			"hib": 5236,
			"Ġexterior": 5237,
			"erase": 5238,
			"Ġthrown": 5239,
			"OUN": 5240,
			"Ġbattery": 5241,
			"Ġclimb": 5242,
			"ech": 5243,
			"Ġsilhou": 5244,
			"Ġbuggy": 5245,
			"Ġpedal": 5246,
			"Ġcondiment": 5247,
			"era": 5248,
			"Ġdivid": 5249,
			"Ġties": 5250,
			"ĠBUI": 5251,
			"ĠCoc": 5252,
			"essional": 5253,
			"Ġins": 5254,
			"ĠButton": 5255,
			"ĠRoman": 5256,
			"rots": 5257,
			"Ġsoil": 5258,
			"Ġcanvas": 5259,
			"vetop": 5260,
			"Ġparachute": 5261,
			"Ġext": 5262,
			"ĠLicense": 5263,
			"Ġstorm": 5264,
			"ĠKite": 5265,
			"Ġeyebrows": 5266,
			"ONE": 5267,
			"ĠBare": 5268,
			"ĠSurfboard": 5269,
			"ĠMeat": 5270,
			"Ġbreaking": 5271,
			"long": 5272,
			"Ġspear": 5273,
			"ĠBUILDING": 5274,
			"Ġarrows": 5275,
			"Ġeas": 5276,
			"Ġpartial": 5277,
			"Ġfile": 5278,
			"ĠFresh": 5279,
			"ĠWriting": 5280,
			"ĠOut": 5281,
			"Ġmou": 5282,
			"ĠGRASS": 5283,
			"Ġconve": 5284,
			"ĠBall": 5285,
			"Ġengines": 5286,
			"Ġcarpeting": 5287,
			"Ġstovetop": 5288,
			"Ġplaque": 5289,
			"ĠGravel": 5290,
			"Ġidentification": 5291,
			"Ġpetals": 5292,
			"ened": 5293,
			"body": 5294,
			"ĠLu": 5295,
			"Ġloo": 5296,
			"Ġprotection": 5297,
			"ains": 5298,
			"Ġchopstick": 5299,
			"Ġdirections": 5300,
			"Ġfloret": 5301,
			"ĠBushes": 5302,
			"ghter": 5303,
			"ĠShirt": 5304,
			"Ġpicket": 5305,
			"Ġflush": 5306,
			"Ġroasted": 5307,
			"Ġoverlooking": 5308,
			"ĠDi": 5309,
			"Ġnostril": 5310,
			"Ġwedge": 5311,
			"Ġraft": 5312,
			"Ġtextured": 5313,
			"Ġaqua": 5314,
			"ied": 5315,
			"Ġsmoking": 5316,
			"Ġjam": 5317,
			"ĠSto": 5318,
			"Ġgreenery": 5319,
			"ĠGo": 5320,
			"Ġmoney": 5321,
			"ĠHOR": 5322,
			"wel": 5323,
			"Ġbuff": 5324,
			"ĠKid": 5325,
			"ha": 5326,
			"ĠVehi": 5327,
			"ĠFLO": 5328,
			"ai": 5329,
			"Ġdrop": 5330,
			"Ġson": 5331,
			"Ġscore": 5332,
			"Ġtabletop": 5333,
			"Ġsecurity": 5334,
			"shaped": 5335,
			"Ġpacked": 5336,
			"Ġdecal": 5337,
			"ĠMu": 5338,
			"Ġskiier": 5339,
			"Ġelectronics": 5340,
			"Ġesc": 5341,
			"gen": 5342,
			"Ġfre": 5343,
			"Ġdirectional": 5344,
			"stered": 5345,
			"ount": 5346,
			"Ġsat": 5347,
			"Ġwax": 5348,
			"Ġeight": 5349,
			"Ġpresent": 5350,
			"Ġgrout": 5351,
			"Ġripple": 5352,
			"Ġlambs": 5353,
			"Ġcork": 5354,
			"elt": 5355,
			"oes": 5356,
			"ĠSHO": 5357,
			"rand": 5358,
			"ailing": 5359,
			"Ġstretched": 5360,
			"ĠSix": 5361,
			"Ġstores": 5362,
			"Ġsaying": 5363,
			"Ġpeeling": 5364,
			"Ġwake": 5365,
			"Ġmanic": 5366,
			"Ġtote": 5367,
			"ĠSN": 5368,
			"very": 5369,
			"leslaw": 5370,
			"Ġcobblestone": 5371,
			"Ġdestination": 5372,
			"Ġori": 5373,
			"Ġinflat": 5374,
			"Ġracks": 5375,
			"ĠHAT": 5376,
			"Ġrhino": 5377,
			"Ġalso": 5378,
			"NIS": 5379,
			"Ġmusic": 5380,
			"Ġtyping": 5381,
			"Ġdrainer": 5382,
			"Ġemer": 5383,
			"ecker": 5384,
			"ĠCoca": 5385,
			"Ġhub": 5386,
			"Ġcarry": 5387,
			"bbery": 5388,
			"ĠCra": 5389,
			"Ġparade": 5390,
			"Ġpouring": 5391,
			"Ġmeters": 5392,
			"ĠRemote": 5393,
			"Ġhut": 5394,
			"Ġchip": 5395,
			"Ġhur": 5396,
			"ĠOlder": 5397,
			"av": 5398,
			"bbing": 5399,
			"Ġappro": 5400,
			"Ġvessel": 5401,
			"Ġobst": 5402,
			"Ġminiature": 5403,
			"Ġdebris": 5404,
			"ĠHouse": 5405,
			"ĠLegs": 5406,
			"Ġpee": 5407,
			"Ġmeasuring": 5408,
			"Ġdusty": 5409,
			"Ġsnowboards": 5410,
			"Ġcourtyard": 5411,
			"Ġhomemade": 5412,
			"ĠJACKET": 5413,
			"Ġkickstand": 5414,
			"Ġbuds": 5415,
			"ĠTENNIS": 5416,
			"Ġriders": 5417,
			"ĠBra": 5418,
			"Ġpersonal": 5419,
			"hill": 5420,
			"ĠThey": 5421,
			"pass": 5422,
			"ĠTrunk": 5423,
			"ĠTREE": 5424,
			"Ġbadge": 5425,
			"Ġcarrier": 5426,
			"Ġobser": 5427,
			"Ġgoo": 5428,
			"ĠCur": 5429,
			"Ġofficers": 5430,
			"Ġsteamed": 5431,
			"Ġpebbles": 5432,
			"Ġmantel": 5433,
			"Ġcoca": 5434,
			"ssom": 5435,
			"Ġstew": 5436,
			"ĠMon": 5437,
			"Ġsideways": 5438,
			"ĠFLOOR": 5439,
			"Ġdate": 5440,
			"Ġseasoning": 5441,
			"Ġenter": 5442,
			"Ġcurve": 5443,
			"Ġmass": 5444,
			"ĠDirty": 5445,
			"erc": 5446,
			"Ġscon": 5447,
			"Ġrag": 5448,
			"Ġsticky": 5449,
			"ĠPen": 5450,
			"Ġstains": 5451,
			"Ġoak": 5452,
			"Ġcordless": 5453,
			"ucas": 5454,
			"ĠMar": 5455,
			"ĠAdvert": 5456,
			"tru": 5457,
			"Ġsiding": 5458,
			"Ġscooters": 5459,
			"ĠFlat": 5460,
			"ĠDra": 5461,
			"ĠElectric": 5462,
			"Ġorgan": 5463,
			"ĠPIC": 5464,
			"Ġiced": 5465,
			"Ġpatterns": 5466,
			"ĠBAS": 5467,
			"ĠPalm": 5468,
			"oggy": 5469,
			"ĠParking": 5470,
			"Ġcheek": 5471,
			"Ġfolder": 5472,
			"Ġblossom": 5473,
			"ĠMETAL": 5474,
			"Ġcoleslaw": 5475,
			"rito": 5476,
			"ĠĠĠĠĠĠĠĠĠĠĠĠĠĠĠĠ": 5477,
			"ecake": 5478,
			"Ġchunks": 5479,
			"Ġprofessional": 5480,
			"ĠCa": 5481,
			"Ġwatches": 5482,
			"Ġgrater": 5483,
			"Ġgrip": 5484,
			"Ġpoo": 5485,
			"PH": 5486,
			"Ġdrying": 5487,
			"Ġmotorcyclist": 5488,
			"Ġtails": 5489,
			"Ġunripe": 5490,
			"Ġtips": 5491,
			"Ġslot": 5492,
			"covered": 5493,
			"uum": 5494,
			"Ġadd": 5495,
			"Ġscratch": 5496,
			"ĠX": 5497,
			"lings": 5498,
			"Ġupholstered": 5499,
			"ĠBea": 5500,
			"Ġsl": 5501,
			"lla": 5502,
			"ĠPhone": 5503,
			"ĠCl": 5504,
			"inger": 5505,
			"ĠPepper": 5506,
			"Ġveggie": 5507,
			"ĠCand": 5508,
			"PP": 5509,
			"Ġhelping": 5510,
			"ĠFlag": 5511,
			"OOK": 5512,
			"ĠLine": 5513,
			"Ġstoplight": 5514,
			"Ġstorefront": 5515,
			"Ġcool": 5516,
			"ZZ": 5517,
			"Ġhandicap": 5518,
			"ĠWire": 5519,
			"ĠCam": 5520,
			"ĠFRONT": 5521,
			"Ġvol": 5522,
			"ĠKit": 5523,
			"Ġroller": 5524,
			"ĠFEN": 5525,
			"ked": 5526,
			"Ġgaz": 5527,
			"Ġnatural": 5528,
			"EAT": 5529,
			"Ġhoop": 5530,
			"ĠLeaf": 5531,
			"Ġbay": 5532,
			"ico": 5533,
			"Ġserve": 5534,
			"ope": 5535,
			"Ġoar": 5536,
			"Ġtwin": 5537,
			"ĠBathroom": 5538,
			"ĠMicrowave": 5539,
			"ĠStraw": 5540,
			"Ġartichoke": 5541,
			"Ġchina": 5542,
			"Ġgall": 5543,
			"Ġamount": 5544,
			"ĠGolden": 5545,
			"ĠRail": 5546,
			"Ġskyline": 5547,
			"Ġweathered": 5548,
			"Ġwheat": 5549,
			"Ġmom": 5550,
			"Ġjewel": 5551,
			"Ġexpress": 5552,
			"Ġvests": 5553,
			"Ġthermo": 5554,
			"Ġvendor": 5555,
			"Ġremo": 5556,
			"Ġseasoned": 5557,
			"ucasian": 5558,
			"mit": 5559,
			"Ġcompact": 5560,
			"Ġobstacle": 5561,
			"Ġinter": 5562,
			"Ġripp": 5563,
			"ĠTRU": 5564,
			"ICK": 5565,
			"ĠSpectators": 5566,
			"Ġboiled": 5567,
			"Ġdom": 5568,
			"ĠGROUND": 5569,
			"lph": 5570,
			"Ġcarries": 5571,
			"Ġram": 5572,
			"ĠPICTURE": 5573,
			"ĠRoof": 5574,
			"Ġwaffle": 5575,
			"pi": 5576,
			"brary": 5577,
			"Ġbarbed": 5578,
			"Ġpolish": 5579,
			"ola": 5580,
			"eting": 5581,
			"Ġcameras": 5582,
			"Ġparts": 5583,
			"Ġshelving": 5584,
			"ĠAll": 5585,
			"Ġtines": 5586,
			"fore": 5587,
			"ĠMultiple": 5588,
			"CT": 5589,
			"Ġvacuum": 5590,
			"Ġmast": 5591,
			"splash": 5592,
			"Ġwindowsill": 5593,
			"Ġblank": 5594,
			"AVE": 5595,
			"gest": 5596,
			"Ġ20": 5597,
			"ĠGRA": 5598,
			"Ġloading": 5599,
			"ĠRE": 5600,
			"Ġnearby": 5601,
			"ĠSHOR": 5602,
			"Ġclassroom": 5603,
			"ably": 5604,
			"ĠLots": 5605,
			"Ġoutfield": 5606,
			"Ġthigh": 5607,
			"Ġraisins": 5608,
			"CLE": 5609,
			"ickey": 5610,
			"robe": 5611,
			"Ġrests": 5612,
			"ides": 5613,
			"ĠBAT": 5614,
			"ĠPieces": 5615,
			"com": 5616,
			"ĠTRAIN": 5617,
			"ĠDOOR": 5618,
			"Ġservice": 5619,
			"Ġtiger": 5620,
			"Ġneatly": 5621,
			"ala": 5622,
			"Ġself": 5623,
			"lor": 5624,
			"Ġmarked": 5625,
			"ĠName": 5626,
			"Ġoverh": 5627,
			"Ġgreat": 5628,
			"Ġanch": 5629,
			"Ġfrisbe": 5630,
			"ĠCloth": 5631,
			"Ġshark": 5632,
			"ĠCement": 5633,
			"onies": 5634,
			"Ġdarker": 5635,
			"Ġwildflowers": 5636,
			"ĠPIZZ": 5637,
			"rait": 5638,
			"yed": 5639,
			"Ġholders": 5640,
			"peeled": 5641,
			"Ġbrist": 5642,
			"Ġfeta": 5643,
			"Ġsupplies": 5644,
			"Ġfoods": 5645,
			"Ġsniff": 5646,
			"ĠSTANDING": 5647,
			"almon": 5648,
			"Ġwomens": 5649,
			"rists": 5650,
			"Ġoper": 5651,
			"ĠDesk": 5652,
			"Ġbroth": 5653,
			"Ġomelette": 5654,
			"ANT": 5655,
			"Ġfollowing": 5656,
			"Ġexhib": 5657,
			"Ġstereo": 5658,
			"Ġconnecting": 5659,
			"site": 5660,
			"Ġmanicured": 5661,
			"Ġcheesecake": 5662,
			"ashed": 5663,
			"ortable": 5664,
			"Ġrelaxing": 5665,
			"IST": 5666,
			"ĠHAIR": 5667,
			"raying": 5668,
			"Ġbefore": 5669,
			"Ġbullet": 5670,
			"ĠCir": 5671,
			"Ġvisitor": 5672,
			"Ġshrubbery": 5673,
			"Ġpr": 5674,
			"Ġstatues": 5675,
			"ales": 5676,
			"ĠBEAR": 5677,
			"Ġcorded": 5678,
			"ĠSidewalk": 5679,
			"tender": 5680,
			"Ġsconce": 5681,
			"Ġcop": 5682,
			"IKE": 5683,
			"Ġbeverages": 5684,
			"Ġflame": 5685,
			"Ġpeice": 5686,
			"Ġwea": 5687,
			"Ġbackyard": 5688,
			"Ġhotdogs": 5689,
			"Ġplanks": 5690,
			"Ġvel": 5691,
			"Ġstock": 5692,
			"Ġangry": 5693,
			"igator": 5694,
			"Ġbarren": 5695,
			"Ġlatch": 5696,
			"Ġclimbing": 5697,
			"door": 5698,
			"ĠBanana": 5699,
			"gency": 5700,
			"ĠCabin": 5701,
			"ĠTracks": 5702,
			"ificial": 5703,
			"esame": 5704,
			"ĠPIZZA": 5705,
			"Ġink": 5706,
			"Ġlibrary": 5707,
			"ĠBottles": 5708,
			"ĠWet": 5709,
			"ĠORAN": 5710,
			"Ġturt": 5711,
			"Ġcommon": 5712,
			"ĠCOL": 5713,
			"Ġdash": 5714,
			"Ġcompartment": 5715,
			"Ġbug": 5716,
			"Ġbalancing": 5717,
			"lee": 5718,
			"ĠRipples": 5719,
			"Ġsheeps": 5720,
			"Ġtoe": 5721,
			"ĠCouple": 5722,
			"Ġale": 5723,
			"shed": 5724,
			"ild": 5725,
			"ĠArm": 5726,
			"tening": 5727,
			"ĠPassenger": 5728,
			"tent": 5729,
			"ĠOranges": 5730,
			"Ġguards": 5731,
			"Ġpaneling": 5732,
			"Ġalmond": 5733,
			"Ġcubes": 5734,
			"gage": 5735,
			"ĠVase": 5736,
			"Ġpackages": 5737,
			"Ġburrito": 5738,
			"Ġtro": 5739,
			"ĠPANTS": 5740,
			"ĠHill": 5741,
			"Ġwrapping": 5742,
			"lers": 5743,
			"Ġdau": 5744,
			"Ġtim": 5745,
			"Ġsole": 5746,
			"ĠPictures": 5747,
			"ĠMed": 5748,
			"ĠNE": 5749,
			"Ġtransit": 5750,
			"Ġbacksplash": 5751,
			"Ġornaments": 5752,
			"ĠPH": 5753,
			"Ġunpeeled": 5754,
			"Ġarmrest": 5755,
			"Ġbelongs": 5756,
			"Ġspec": 5757,
			"Ġsupports": 5758,
			"truck": 5759,
			"Ġsalmon": 5760,
			"ĠHard": 5761,
			"Ġmir": 5762,
			"grown": 5763,
			"ĠNintendo": 5764,
			"fall": 5765,
			"Ġfac": 5766,
			"Ġshutter": 5767,
			"Ġbrim": 5768,
			"Ġcamo": 5769,
			"itched": 5770,
			"Ġmarin": 5771,
			"Ġalligator": 5772,
			"Ġjewelry": 5773,
			"Ġrunner": 5774,
			"ĠELE": 5775,
			"Ġhandlebar": 5776,
			"Ġdetail": 5777,
			"Ġdial": 5778,
			"Ġbraided": 5779,
			"Ġbartender": 5780,
			"Ġdisk": 5781,
			"Ġcushioned": 5782,
			"amel": 5783,
			"Ġjuicy": 5784,
			"ĠCream": 5785,
			"Ġliner": 5786,
			"dering": 5787,
			"seum": 5788,
			"ĠDis": 5789,
			"flage": 5790,
			"ĠCL": 5791,
			"ĠLetters": 5792,
			"iding": 5793,
			"ĠNapkin": 5794,
			"cery": 5795,
			"dium": 5796,
			"ĠLi": 5797,
			"used": 5798,
			"Ġske": 5799,
			"ĠSkateboarder": 5800,
			"Ġfed": 5801,
			"Ġlone": 5802,
			"ĠPlants": 5803,
			"ĠBOW": 5804,
			"Ġtouchpad": 5805,
			"Ġfoggy": 5806,
			"ĠDES": 5807,
			"Ġraisin": 5808,
			"Ġfiling": 5809,
			"YCLE": 5810,
			"Ġcapital": 5811,
			"Ġx": 5812,
			"ĠDon": 5813,
			"Ġfle": 5814,
			"Ġbrowned": 5815,
			"opped": 5816,
			"Ġbiting": 5817,
			"Ġbump": 5818,
			"ĠVari": 5819,
			"ĠPainting": 5820,
			"ange": 5821,
			"Ġfly": 5822,
			"Ġplanted": 5823,
			"Ġmolding": 5824,
			"ances": 5825,
			"Ġbolts": 5826,
			"ĠTire": 5827,
			"RT": 5828,
			"isted": 5829,
			"Ġknitted": 5830,
			"Ġautom": 5831,
			"ĠSmiling": 5832,
			"Ġfringe": 5833,
			"Ġsilhouette": 5834,
			"knob": 5835,
			"Ġspraying": 5836,
			"sor": 5837,
			"Ġangled": 5838,
			"Ġportrait": 5839,
			"ĠGREY": 5840,
			"ĠBOT": 5841,
			"ĠMale": 5842,
			"Ġbits": 5843,
			"ĠHeadlight": 5844,
			"Ġcreamy": 5845,
			"Ġfilling": 5846,
			"Ġlobs": 5847,
			"ĠCross": 5848,
			"Ġpatchy": 5849,
			"Ġbangs": 5850,
			"Ġsniffing": 5851,
			"Ġlego": 5852,
			"Ġteh": 5853,
			"Ġdiaper": 5854,
			"ĠCows": 5855,
			"alls": 5856,
			"gin": 5857,
			"Ġexhibit": 5858,
			"Ġ11": 5859,
			"Ġexposed": 5860,
			"ĠArt": 5861,
			"Ġdaughter": 5862,
			"ĠAf": 5863,
			"vidual": 5864,
			"Ġcass": 5865,
			"Ġroute": 5866,
			"ĠPLAY": 5867,
			"Ġfully": 5868,
			"ĠDry": 5869,
			"Ġjets": 5870,
			"Ġwaiter": 5871,
			"Ġbracket": 5872,
			"ĠTelephone": 5873,
			"Ġwig": 5874,
			"Ġsay": 5875,
			"Ġhugging": 5876,
			"ĠHands": 5877,
			"Ġoverpass": 5878,
			"Ġeven": 5879,
			"pa": 5880,
			"Ġbutt": 5881,
			"Ġinfield": 5882,
			"Ġkeyboards": 5883,
			"dden": 5884,
			"illight": 5885,
			"ĠSIL": 5886,
			"Ġdoorknob": 5887,
			"Ġcouches": 5888,
			"airs": 5889,
			"oots": 5890,
			"shine": 5891,
			"Ġpictured": 5892,
			"Ġpowered": 5893,
			"Ġgeese": 5894,
			"Ġartificial": 5895,
			"Ġbaseboard": 5896,
			"keys": 5897,
			"ĠPL": 5898,
			"asing": 5899,
			"Ġreins": 5900,
			"Ġpage": 5901,
			"ĠPan": 5902,
			"Ġpend": 5903,
			"owed": 5904,
			"Ġlicking": 5905,
			"tuce": 5906,
			"Ġruff": 5907,
			"Ġstun": 5908,
			"Ġtrip": 5909,
			"utt": 5910,
			"Ġhurdle": 5911,
			"mekin": 5912,
			"ĠHORSE": 5913,
			"PUTER": 5914,
			"ument": 5915,
			"BOARD": 5916,
			"Ġplantains": 5917,
			"food": 5918,
			"Ġtransport": 5919,
			"Ġaccents": 5920,
			"ĠCOMPUTER": 5921,
			"Ġscreens": 5922,
			"rie": 5923,
			"Ġforeign": 5924,
			"ĠHeadlights": 5925,
			"ACH": 5926,
			"Ġswitches": 5927,
			"Ġscrambled": 5928,
			"Ġhip": 5929,
			"Ġchecker": 5930,
			"ĠSILVER": 5931,
			"Ġcleaner": 5932,
			"ĠFENCE": 5933,
			"Ġdev": 5934,
			"Ġlobster": 5935,
			"Ġseparating": 5936,
			"uct": 5937,
			"Ġmuseum": 5938,
			"ĠTREES": 5939,
			"Ġtourists": 5940,
			"ĠContain": 5941,
			"Ġcour": 5942,
			"Ġrecliner": 5943,
			"Ġcamou": 5944,
			"ĠGraffiti": 5945,
			"Ġbrow": 5946,
			"Ġposters": 5947,
			"ĠPapers": 5948,
			"Ġwate": 5949,
			"ĠCor": 5950,
			"Ġpartition": 5951,
			"Ġgy": 5952,
			"ĠSink": 5953,
			"ttes": 5954,
			"Ġoutline": 5955,
			"rian": 5956,
			"Ġtoile": 5957,
			"lls": 5958,
			"Ġwheeled": 5959,
			"uck": 5960,
			"Ġothers": 5961,
			"Ġmuzzle": 5962,
			"ists": 5963,
			"Ġreally": 5964,
			"rious": 5965,
			"ĠKnob": 5966,
			"Ġgrocery": 5967,
			"ĠCarrots": 5968,
			"ĠORANGE": 5969,
			"Ġoriental": 5970,
			"Ġfrisbees": 5971,
			"Ġmedian": 5972,
			"Ġsleep": 5973,
			"Ġchopping": 5974,
			"ĠGar": 5975,
			"ĠCOLOR": 5976,
			"Ġpail": 5977,
			"Ġbandage": 5978,
			"Ġhalves": 5979,
			"ĠGlo": 5980,
			"Ġshaved": 5981,
			"Ġbatters": 5982,
			"Ġ.": 5983,
			"Ġovergrown": 5984,
			"Ġconvey": 5985,
			"Ġcopy": 5986,
			"Ġgloved": 5987,
			"ĠPitcher": 5988,
			"Ġint": 5989,
			"ĠCity": 5990,
			"Ġprong": 5991,
			"Ġheaded": 5992,
			"Ġrecept": 5993,
			"ĠBlan": 5994,
			"bably": 5995,
			"Ġtaped": 5996,
			"Ġoat": 5997,
			"Ġnam": 5998,
			"Ġpaneled": 5999,
			"Ġramekin": 6000,
			"ama": 6001,
			"Ġslide": 6002,
			"ĠJe": 6003,
			"Ġdials": 6004,
			"Ġturf": 6005,
			"Ġweed": 6006,
			"Ġbalance": 6007,
			"quee": 6008,
			"Ġfound": 6009,
			"ĠBOWL": 6010,
			"ĠBED": 6011,
			"Ġspring": 6012,
			"Ġbands": 6013,
			"Ġinner": 6014,
			"rica": 6015,
			"ĠBeautiful": 6016,
			"Ġwinds": 6017,
			"Ġflash": 6018,
			"ortment": 6019,
			"Ġfaucets": 6020,
			"ĠSKY": 6021,
			"Ġbottoms": 6022,
			"ĠSKAT": 6023,
			"ĠClosed": 6024,
			"ĠNeck": 6025,
			"ĠZebras": 6026,
			"ĠSeat": 6027,
			"ĠRect": 6028,
			"Ġgolf": 6029,
			"Ġburning": 6030,
			"Ġdirect": 6031,
			"Ġlotion": 6032,
			"ustri": 6033,
			"Ġextending": 6034,
			"ĠSunlight": 6035,
			"ĠLettuce": 6036,
			"hett": 6037,
			"over": 6038,
			"urry": 6039,
			"Ġpodium": 6040,
			"ĠElephants": 6041,
			"Ġtuft": 6042,
			"Ġsanta": 6043,
			"ĠDead": 6044,
			"Ġcylind": 6045,
			"Ġele": 6046,
			"Ġunderside": 6047,
			"ĠMOT": 6048,
			"Ġlemonade": 6049,
			"Ġstreak": 6050,
			"ĠStand": 6051,
			"ĠPINK": 6052,
			"Ġpapay": 6053,
			"EEL": 6054,
			"ustrial": 6055,
			"ĠSet": 6056,
			"Ġfluorescent": 6057,
			"ram": 6058,
			"Ġtoilets": 6059,
			"Ġshine": 6060,
			"Ġtakes": 6061,
			"Ġcages": 6062,
			"Ġpotter": 6063,
			"Ġlead": 6064,
			"Ġalmonds": 6065,
			"ANS": 6066,
			"Ġserver": 6067,
			"cock": 6068,
			"Ġdense": 6069,
			"Ġbaggage": 6070,
			"llo": 6071,
			"Ġapproaching": 6072,
			"Ġterrain": 6073,
			"Ġlantern": 6074,
			"Ġevery": 6075,
			"Ġsid": 6076,
			"Ġdipping": 6077,
			"yy": 6078,
			"ird": 6079,
			"Ġfriends": 6080,
			"Ġwaterfall": 6081,
			"ĠTile": 6082,
			"Ġdolls": 6083,
			"Ġtoes": 6084,
			"Ġproduc": 6085,
			"Ġconveyor": 6086,
			"pants": 6087,
			"bl": 6088,
			"Ġpork": 6089,
			"Ġbristles": 6090,
			"Ġstrapped": 6091,
			"Ġbeets": 6092,
			"tish": 6093,
			"ĠLAR": 6094,
			"ĠSoccer": 6095,
			"Ġincl": 6096,
			"ĠWI": 6097,
			"Ġcommuter": 6098,
			"Ġbuoys": 6099,
			"Ġmerch": 6100,
			"Ġsplit": 6101,
			"arn": 6102,
			"Ġgreenish": 6103,
			"Ġbins": 6104,
			"Ġroast": 6105,
			"Ġgrabbing": 6106,
			"Ġshopper": 6107,
			"ĠSC": 6108,
			"color": 6109,
			"Ġforming": 6110,
			"ĠMagaz": 6111,
			"Ġcape": 6112,
			"Ġhips": 6113,
			"Ġgym": 6114,
			"ĠPEOP": 6115,
			"Ġprobably": 6116,
			"Ġblow": 6117,
			"ĠTea": 6118,
			"Ġtorso": 6119,
			"Ġcolo": 6120,
			"Ġsquir": 6121,
			"net": 6122,
			"hetti": 6123,
			"Ġwre": 6124,
			"armes": 6125,
			"Ġdolph": 6126,
			"meal": 6127,
			"Ġchipped": 6128,
			"ONG": 6129,
			"ĠToy": 6130,
			"Ġlinen": 6131,
			"Ġemergency": 6132,
			"Ġchilds": 6133,
			"Ġtrough": 6134,
			"ĠSA": 6135,
			"oked": 6136,
			"ĠPEOPLE": 6137,
			"Ġsesame": 6138,
			"Ġfli": 6139,
			"Ġspider": 6140,
			"ĠEyes": 6141,
			"ĠPol": 6142,
			"Ġwebsite": 6143,
			"ĠSNOW": 6144,
			"Ġpay": 6145,
			"Ġsignals": 6146,
			"ĠVegetables": 6147,
			"Ġward": 6148,
			"ĠLARGE": 6149,
			"mark": 6150,
			"ĠStar": 6151,
			"acked": 6152,
			"Ġcaramel": 6153,
			"ested": 6154,
			"Ġbeaded": 6155,
			"Ġspire": 6156,
			"za": 6157,
			"Ġtucked": 6158,
			"Ġrelish": 6159,
			"Ġdang": 6160,
			"Ġcalico": 6161,
			"Ġpita": 6162,
			"Ġpapaya": 6163,
			"Ġdelivery": 6164,
			"Ġmidair": 6165,
			"Ġjo": 6166,
			"acles": 6167,
			"VES": 6168,
			"po": 6169,
			"aghetti": 6170,
			"AMP": 6171,
			"obile": 6172,
			"ĠStat": 6173,
			"nse": 6174,
			"Ġdresses": 6175,
			"ĠPos": 6176,
			"glass": 6177,
			"Ġtass": 6178,
			"Ġwatermelons": 6179,
			"Ġmovie": 6180,
			"alog": 6181,
			"RY": 6182,
			"Ġmonument": 6183,
			"fin": 6184,
			"AK": 6185,
			"Ġtorn": 6186,
			"Ġskateboarders": 6187,
			"Ġsunflowers": 6188,
			"decker": 6189,
			"ults": 6190,
			"ixture": 6191,
			"Ġshaving": 6192,
			"ĠQ": 6193,
			"Ġshap": 6194,
			"Ġboardwalk": 6195,
			"ASE": 6196,
			"ĠEY": 6197,
			"ĠBlanket": 6198,
			"vo": 6199,
			"Ġinflatable": 6200,
			"aps": 6201,
			"ams": 6202,
			"Ġcamouflage": 6203,
			"Ġridden": 6204,
			"ĠCLO": 6205,
			"armesan": 6206,
			"Ġbind": 6207,
			"Ġgrand": 6208,
			"ĠCard": 6209,
			"Ġrainy": 6210,
			"itti": 6211,
			"Ġspout": 6212,
			"ENT": 6213,
			"andise": 6214,
			"LES": 6215,
			"Ġtone": 6216,
			"Ġpiles": 6217,
			"Ġwardrobe": 6218,
			"Ġdude": 6219,
			"ikes": 6220,
			"Ġradish": 6221,
			"acks": 6222,
			"ĠHanging": 6223,
			"Ġpitchers": 6224,
			"park": 6225,
			"Ġovens": 6226,
			"ĠSalt": 6227,
			"Ġartichokes": 6228,
			"Ġhipp": 6229,
			"Ġnearest": 6230,
			"Ġwatering": 6231,
			"ropical": 6232,
			"Ġlaund": 6233,
			"Ġcourse": 6234,
			"Ġbackpacks": 6235,
			"Ġcomplete": 6236,
			"Ġfit": 6237,
			"Ġflock": 6238,
			"Ġcrowded": 6239,
			"ĠShoes": 6240,
			"ĠCamera": 6241,
			"ĠStatue": 6242,
			"atee": 6243,
			"ĠRoll": 6244,
			"Ġindustrial": 6245,
			"Ġpeacock": 6246,
			"ĠBoth": 6247,
			"ĠDonut": 6248,
			"Ġsunshine": 6249,
			"Ġscrub": 6250,
			"ĠWires": 6251,
			"Ġtaller": 6252,
			"Ġmarina": 6253,
			"vender": 6254,
			"Ġseafood": 6255,
			"ĠPAP": 6256,
			"Ġsort": 6257,
			"Ġhammer": 6258,
			"Ġmerchandise": 6259,
			"ĠBIKE": 6260,
			"ICE": 6261,
			"Ġpicking": 6262,
			"ĠVarious": 6263,
			"gie": 6264,
			"ĠIT": 6265,
			"ĠCouch": 6266,
			"ĠMouth": 6267,
			"REL": 6268,
			"Ġox": 6269,
			"ĠEgg": 6270,
			"annel": 6271,
			"Ġbacks": 6272,
			"ma": 6273,
			"ĠWAL": 6274,
			"Ġsum": 6275,
			"Ġbrownies": 6276,
			"ĠPlat": 6277,
			"ixed": 6278,
			"ĠShoe": 6279,
			"Ġimp": 6280,
			"Ġbakery": 6281,
			"ĠSauce": 6282,
			"ĠSKI": 6283,
			"ĠBirds": 6284,
			"Ġnecklaces": 6285,
			"ĠOUT": 6286,
			"Ġstocking": 6287,
			"redit": 6288,
			"ĠCeiling": 6289,
			"ummy": 6290,
			"Ġaprt": 6291,
			"Ġalert": 6292,
			"ĠFa": 6293,
			"Ġali": 6294,
			"Ġlaundry": 6295,
			"Ġtaillight": 6296,
			"Ġwhtie": 6297,
			"Ġadidas": 6298,
			"Ġgoatee": 6299,
			"Ġends": 6300,
			"Ġmall": 6301,
			"bucks": 6302,
			"LET": 6303,
			"Ġoctagonal": 6304,
			"ĠSnowboarder": 6305,
			"ĠPA": 6306,
			"Ġstretch": 6307,
			"Ġstab": 6308,
			"rets": 6309,
			"ĠELEPH": 6310,
			"ations": 6311,
			"Ġitself": 6312,
			"Ġlimbs": 6313,
			"Ġstamp": 6314,
			"Ġbricked": 6315,
			"Ġoatmeal": 6316,
			"Ġdam": 6317,
			"Ġcamel": 6318,
			"Ġleafs": 6319,
			"Ġbanners": 6320,
			"ĠCook": 6321,
			"leep": 6322,
			"Ġscissor": 6323,
			"ĠUP": 6324,
			"erole": 6325,
			"Ġobserving": 6326,
			"Ġpeace": 6327,
			"ccup": 6328,
			"Ġsweatband": 6329,
			"Ġleave": 6330,
			"ĠSw": 6331,
			"inds": 6332,
			"Ġpitching": 6333,
			"lamp": 6334,
			"Ġassortment": 6335,
			"uctor": 6336,
			"Ġbrownish": 6337,
			"Ġaccent": 6338,
			"haired": 6339,
			"ĠBEH": 6340,
			"Ġact": 6341,
			"Ġsailing": 6342,
			"Ġlids": 6343,
			"ĠFLOW": 6344,
			"ĠSmo": 6345,
			"Ġpadd": 6346,
			"Ġspiky": 6347,
			"Ġribs": 6348,
			"Ġrobo": 6349,
			"Ġpottery": 6350,
			"ĠCooked": 6351,
			"Ġbud": 6352,
			"Ġsquirrel": 6353,
			"Ġslippers": 6354,
			"yal": 6355,
			"ĠDonuts": 6356,
			"ĠBEHIND": 6357,
			"Ġunderwear": 6358,
			"Ġdownhill": 6359,
			"Ġfiretruck": 6360,
			"brown": 6361,
			"Ġhandrail": 6362,
			"ĠRing": 6363,
			"ometer": 6364,
			"Ġnine": 6365,
			"olded": 6366,
			"ĠCUP": 6367,
			"tray": 6368,
			"ĠBranch": 6369,
			"Ġexpression": 6370,
			"Ġplayground": 6371,
			"ANG": 6372,
			"istening": 6373,
			"bby": 6374,
			"ĠCurtains": 6375,
			"ĠHorses": 6376,
			"Ġrefe": 6377,
			"ĠSlices": 6378,
			"Ġdividing": 6379,
			"Ġalley": 6380,
			"Ġflowing": 6381,
			"Ġselfie": 6382,
			"Ġ@": 6383,
			"Ġblu": 6384,
			"Ġlaid": 6385,
			"TED": 6386,
			"Ġspaghetti": 6387,
			"Ġcigar": 6388,
			"Ġtoss": 6389,
			"Ġboundary": 6390,
			"Ġhanding": 6391,
			"Ġparasail": 6392,
			"Ġpress": 6393,
			"ĠDESK": 6394,
			"ĠSilverware": 6395,
			"iffel": 6396,
			"ĠAl": 6397,
			"Ġware": 6398,
			"Ġcubicle": 6399,
			"ĠSingle": 6400,
			"hand": 6401,
			"Ġentering": 6402,
			"Ġcredit": 6403,
			"IELD": 6404,
			"bee": 6405,
			"Ġbalconies": 6406,
			"Ġstreets": 6407,
			"ĠLAP": 6408,
			"cup": 6409,
			"Ġif": 6410,
			"ĠSHAD": 6411,
			"ĠButtons": 6412,
			"ĠTRUCK": 6413,
			"Ġdangling": 6414,
			"Ġtook": 6415,
			"Ġcanal": 6416,
			"Ġunlit": 6417,
			"Ġcasserole": 6418,
			"Ġmakes": 6419,
			"Ġflakes": 6420,
			"ĠSAND": 6421,
			"ARK": 6422,
			"ĠChildren": 6423,
			"ĠBoard": 6424,
			"Ġcylindrical": 6425,
			"Ġmixture": 6426,
			"Ġoutfits": 6427,
			"dex": 6428,
			"Ġfreshly": 6429,
			"ĠRefri": 6430,
			"RIP": 6431,
			"Ġlast": 6432,
			"Ġconvers": 6433,
			"rus": 6434,
			"ĠPort": 6435,
			"Ġcapped": 6436,
			"ĠTIRE": 6437,
			"Ġwritings": 6438,
			"TOP": 6439,
			"Ġseagulls": 6440,
			"Ġhubcap": 6441,
			"Ġoblong": 6442,
			"Ġdumplings": 6443,
			"Ġnest": 6444,
			"Ġvents": 6445,
			"ĠMedium": 6446,
			"Ġsummer": 6447,
			"lip": 6448,
			"ĠJE": 6449,
			"ĠSec": 6450,
			"Ġadults": 6451,
			"ully": 6452,
			"Ġfrozen": 6453,
			"ational": 6454,
			"Ġasleep": 6455,
			"Ġsubst": 6456,
			"ĠJack": 6457,
			"ĠGRAY": 6458,
			"Ġaged": 6459,
			"Ġrearview": 6460,
			"RELLA": 6461,
			"ĠMOTOR": 6462,
			"eline": 6463,
			"ĠIndi": 6464,
			"ĠWords": 6465,
			"Ġproducts": 6466,
			"Ġhatch": 6467,
			"Ġovers": 6468,
			"ĠFaucet": 6469,
			"ĠRug": 6470,
			"Ġbarb": 6471,
			"angled": 6472,
			"ĠUMB": 6473,
			"Ġvelvet": 6474,
			"ĠScreen": 6475,
			"Ġextra": 6476,
			"Ġcomfortable": 6477,
			"ĠChicken": 6478,
			"Ġbuckets": 6479,
			"PEN": 6480,
			"Ġseem": 6481,
			"Ġbuffet": 6482,
			"ĠUMBRELLA": 6483,
			"Ġshutt": 6484,
			"ĠMa": 6485,
			"ĠShelf": 6486,
			"Ġtripod": 6487,
			"Ġcompet": 6488,
			"Ġpendant": 6489,
			"Ġproduct": 6490,
			"nuts": 6491,
			"gles": 6492,
			"Ġarmy": 6493,
			"elling": 6494,
			"ĠNO": 6495,
			"Ġnostrils": 6496,
			"Ġlavender": 6497,
			"Ġtropical": 6498,
			"Ġadvertise": 6499,
			"ĠFemale": 6500,
			"FA": 6501,
			"ĠBEN": 6502,
			"ĠTooth": 6503,
			"Ġwatermark": 6504,
			"Ġtrave": 6505,
			"Ġengineer": 6506,
			"si": 6507,
			"ĠSHOES": 6508,
			"ĠTake": 6509,
			"Ġfacade": 6510,
			"Ġtwisted": 6511,
			"NG": 6512,
			"Ġleaving": 6513,
			"ĠBAG": 6514,
			"Ġshapes": 6515,
			"ĠWearing": 6516,
			"ĠChairs": 6517,
			"Ġgaming": 6518,
			"Ġstrong": 6519,
			"Ġduffle": 6520,
			"Ġindicator": 6521,
			"Ġdirectly": 6522,
			"igan": 6523,
			"ĠSpeak": 6524,
			"ĠHigh": 6525,
			"Ġburned": 6526,
			"vity": 6527,
			"ĠNumbers": 6528,
			"EBOARD": 6529,
			"ĠSUR": 6530,
			"ĠCap": 6531,
			"Ġpolished": 6532,
			"Ġappliances": 6533,
			"opened": 6534,
			"aint": 6535,
			"ĠSalad": 6536,
			"Ġconductor": 6537,
			"Ġpearl": 6538,
			"Ġbab": 6539,
			"Ġareas": 6540,
			"AGE": 6541,
			"Ġveg": 6542,
			"Ġdonkeys": 6543,
			"Ġchasing": 6544,
			"alle": 6545,
			"ĠSKATEBOARD": 6546,
			"Ġashtray": 6547,
			"Ġsuper": 6548,
			"Ġlitter": 6549,
			"Ġicon": 6550,
			"ĠDri": 6551,
			"Ġflorets": 6552,
			"ager": 6553,
			"ĠAdvertisement": 6554,
			"Ġple": 6555,
			"Ġopener": 6556,
			"Ġnoodle": 6557,
			"slee": 6558,
			"whe": 6559,
			"Ġplays": 6560,
			"Ġsprinkle": 6561,
			"Ġcigarettes": 6562,
			"MP": 6563,
			"Ġvin": 6564,
			"illed": 6565,
			"Ġgrease": 6566,
			"ĠBOTTLE": 6567,
			"Ġfurt": 6568,
			"roll": 6569,
			"cut": 6570,
			"Ġjumper": 6571,
			"ĠCloudy": 6572,
			"Ġvalley": 6573,
			"ĠPAPER": 6574,
			"Ġindividual": 6575,
			"tta": 6576,
			"Ġquar": 6577,
			"Ġrobot": 6578,
			"ĠPat": 6579,
			"ĠContainer": 6580,
			"Ġthread": 6581,
			"bled": 6582,
			"Ġrid": 6583,
			"Ġoveralls": 6584,
			"Ġcharging": 6585,
			"Ġspoke": 6586,
			"lated": 6587,
			"ĠDraw": 6588,
			"ĠJEANS": 6589,
			"Ġhiding": 6590,
			"Ġbulletin": 6591,
			"angu": 6592,
			"OG": 6593,
			"Ġelevator": 6594,
			"Ġcrib": 6595,
			"ĠGri": 6596,
			"ĠLuggage": 6597,
			"ĠChrome": 6598,
			"uge": 6599,
			"NDER": 6600,
			"Ġbundle": 6601,
			"Ġrising": 6602,
			"opard": 6603,
			"Ġfair": 6604,
			"Ġcrest": 6605,
			"Ġyounger": 6606,
			"Ġfut": 6607,
			"Ġattach": 6608,
			"Ġslopes": 6609,
			"Ġroofs": 6610,
			"ĠBoats": 6611,
			"Ġhairs": 6612,
			"Ġfigures": 6613,
			"ĠBENCH": 6614,
			"Ġbroad": 6615,
			"Ġnintendo": 6616,
			"Ġmangoes": 6617,
			"Ġcardigan": 6618,
			"ient": 6619,
			"ora": 6620,
			"ĠThat": 6621,
			"Ġcranberry": 6622,
			"sers": 6623,
			"Ġdolphin": 6624,
			"Ġcrooked": 6625,
			"Ġlangu": 6626,
			"Ġloaded": 6627,
			"Ġshuttle": 6628,
			"ĠSty": 6629,
			"ĠBurn": 6630,
			"ĠLAD": 6631,
			"Ġloves": 6632,
			"Ġplugs": 6633,
			"of": 6634,
			"CKS": 6635,
			"Ġpom": 6636,
			"Ġaff": 6637,
			"Ġdrops": 6638,
			"ĠiPod": 6639,
			"ĠSHORTS": 6640,
			"ĠDesign": 6641,
			"Ġsmartphone": 6642,
			"ĠKet": 6643,
			"ĠMid": 6644,
			"Ġtier": 6645,
			"asy": 6646,
			"Ġflap": 6647,
			"mber": 6648,
			"ĠWR": 6649,
			"Ġtex": 6650,
			"Ġgrated": 6651,
			"ĠUSB": 6652,
			"ĠVan": 6653,
			"ĠTOW": 6654,
			"Ġreal": 6655,
			"Ġsan": 6656,
			"ĠKN": 6657,
			"ĠIce": 6658,
			"Ġgum": 6659,
			"Ġcoffe": 6660,
			"ĠSanta": 6661,
			"Ġbalck": 6662,
			"temp": 6663,
			"Ġcall": 6664,
			"guard": 6665,
			"Ġingredients": 6666,
			"Ġconditioning": 6667,
			"ĠOff": 6668,
			"ĠGLASSES": 6669,
			"Ġspare": 6670,
			"ĠPotato": 6671,
			"Ġroot": 6672,
			"Ġmelons": 6673,
			"Ġstabil": 6674,
			"Ġanalog": 6675,
			"Ġbutterflies": 6676,
			"Ġruns": 6677,
			"ĠFloral": 6678,
			"ĠAfrican": 6679,
			"ĠTri": 6680,
			"Ġsails": 6681,
			"ĠSTRIP": 6682,
			"ĠVehicles": 6683,
			"CYCLE": 6684,
			"Ġtrey": 6685,
			"ĠSea": 6686,
			"ĠTag": 6687,
			"Ġpromot": 6688,
			"yle": 6689,
			"Ġhorseback": 6690,
			"Ġbordering": 6691,
			"Ġreferee": 6692,
			"Ġpeeking": 6693,
			"Ġturb": 6694,
			"ĠWe": 6695,
			"Ġsprou": 6696,
			"aping": 6697,
			"ĠPedest": 6698,
			"Ġparasol": 6699,
			"ript": 6700,
			"ĠOPEN": 6701,
			"ĠDrink": 6702,
			"Ġbold": 6703,
			"Ġ15": 6704,
			"ĠSigns": 6705,
			"Ġginger": 6706,
			"ĠOr": 6707,
			"Ġstitch": 6708,
			"Ġtas": 6709,
			"ĠAnimals": 6710,
			"ĠOven": 6711,
			"Ġyarn": 6712,
			"psi": 6713,
			"Ġspectacles": 6714,
			"Ġrowing": 6715,
			"ĠELEPHANT": 6716,
			"Ġflood": 6717,
			"OUSE": 6718,
			"ĠUnited": 6719,
			"Ġpairs": 6720,
			"Ġstunt": 6721,
			"Ġbabies": 6722,
			"ĠHOT": 6723,
			"Ġmarkers": 6724,
			"Ġpumpkins": 6725,
			"Ġmis": 6726,
			"Ġlicence": 6727,
			"HER": 6728,
			"Ġgrano": 6729,
			"Ġgranola": 6730,
			"bread": 6731,
			"ĠSmoke": 6732,
			"Ġvinyl": 6733,
			"Ġtoo": 6734,
			"ĠMini": 6735,
			"oleum": 6736,
			"Ġturtle": 6737,
			"ĠCola": 6738,
			"Ġingredient": 6739,
			"ĠWHEEL": 6740,
			"ĠBeer": 6741,
			"ccupied": 6742,
			"Ġtherm": 6743,
			"ĠMOTORCYCLE": 6744,
			"Ġfloat": 6745,
			"ĠTip": 6746,
			"ĠPine": 6747,
			"Ġscoreboard": 6748,
			"Ġupward": 6749,
			"Ġsections": 6750,
			"Ġpepsi": 6751,
			"Ġmeatball": 6752,
			"Ġel": 6753,
			"Ġspark": 6754,
			"ĠEAR": 6755,
			"Ġseries": 6756,
			"hief": 6757,
			"Ġairline": 6758,
			"ĠMost": 6759,
			"Ġurban": 6760,
			"Ġridge": 6761,
			"ĠLAPTOP": 6762,
			"Ġcarving": 6763,
			"Ġimages": 6764,
			"Book": 6765,
			"ĠOf": 6766,
			"Ġlargest": 6767,
			"lenty": 6768,
			"Ġdull": 6769,
			"Ġmaple": 6770,
			"Ġtuna": 6771,
			"Ġtomatoe": 6772,
			"Ġresort": 6773,
			"ĠRectangular": 6774,
			"Ġouter": 6775,
			"fact": 6776,
			"Ġcent": 6777,
			"ĠNight": 6778,
			"ITCH": 6779,
			"ration": 6780,
			"Ġwrinkle": 6781,
			"ufact": 6782,
			"Ġloveseat": 6783,
			"Ġstalks": 6784,
			"Ġskatepark": 6785,
			"ĠMove": 6786,
			"ĠFo": 6787,
			"Ġwithin": 6788,
			"Ġappet": 6789,
			"Ġcylinder": 6790,
			"Ġsitted": 6791,
			"Ġmeeting": 6792,
			"Ġtoothpicks": 6793,
			"Ġangle": 6794,
			"lacks": 6795,
			"alc": 6796,
			"Ġcruise": 6797,
			"ĠTAN": 6798,
			"Ġtit": 6799,
			"Ġembro": 6800,
			"ĠSW": 6801,
			"ANE": 6802,
			"tal": 6803,
			"Ġindex": 6804,
			"Ġprepared": 6805,
			"ĠBrace": 6806,
			"Ġflatscreen": 6807,
			"Ġmickey": 6808,
			"Ġsilvery": 6809,
			"Ġmowed": 6810,
			"ĠSkis": 6811,
			"ĠCrowd": 6812,
			"yclists": 6813,
			"Ġancho": 6814,
			"ĠSteel": 6815,
			"AFF": 6816,
			"amole": 6817,
			"ĠPu": 6818,
			"ĠGrassy": 6819,
			"Ġadvertisements": 6820,
			"Ġparmesan": 6821,
			"ĠMU": 6822,
			"Ġisn": 6823,
			"ĠStick": 6824,
			"ĠAdidas": 6825,
			"uous": 6826,
			"ĠRefrigerator": 6827,
			"FT": 6828,
			"PLE": 6829,
			"Ġhooks": 6830,
			"EY": 6831,
			"Ġbead": 6832,
			"Ġreclining": 6833,
			"ĠBeach": 6834,
			"ĠUNDER": 6835,
			"Ġstepping": 6836,
			"va": 6837,
			"umbing": 6838,
			"ĠStairs": 6839,
			"acy": 6840,
			"Ġpush": 6841,
			"Ġodd": 6842,
			"Ġont": 6843,
			"ex": 6844,
			"ylon": 6845,
			"Ġarena": 6846,
			"eather": 6847,
			"acamole": 6848,
			"Ġsubstance": 6849,
			"ĠCoun": 6850,
			"Ġlayers": 6851,
			"Ġfalls": 6852,
			"Ġhangar": 6853,
			"Ġcopyright": 6854,
			"Ġtoolbox": 6855,
			"erchief": 6856,
			"Ġbesides": 6857,
			"shake": 6858,
			"pan": 6859,
			"hering": 6860,
			"ĠBridge": 6861,
			"ĠLAMP": 6862,
			"Ġairbor": 6863,
			"ĠPHONE": 6864,
			"Ġruffled": 6865,
			"Ġbottled": 6866,
			"Ġfixed": 6867,
			"piece": 6868,
			"Ġivy": 6869,
			"Ġenclosed": 6870,
			"Ġguacamole": 6871,
			"esting": 6872,
			"ĠHANG": 6873,
			"Ġwalnut": 6874,
			"Ġtallest": 6875,
			"Ġtar": 6876,
			"DS": 6877,
			"ĠLot": 6878,
			"ĠBricks": 6879,
			"Ġloop": 6880,
			"Ġyear": 6881,
			"Ġtangled": 6882,
			"Ġzip": 6883,
			"Ġcheeseb": 6884,
			"Ġhinges": 6885,
			"Ġslacks": 6886,
			"Ġreceptacle": 6887,
			"bles": 6888,
			"ĠPepperoni": 6889,
			"ĠAR": 6890,
			"ĠEars": 6891,
			"Ġ0": 6892,
			"ito": 6893,
			"Ġarches": 6894,
			"ĠAIR": 6895,
			"ĠHEL": 6896,
			"Ġstrand": 6897,
			"ĠLONG": 6898,
			"hone": 6899,
			"Ġpoints": 6900,
			"cer": 6901,
			"lined": 6902,
			"Ġpas": 6903,
			"Ġdesks": 6904,
			"ches": 6905,
			"ĠParked": 6906,
			"Ġmilkshake": 6907,
			"Ġdou": 6908,
			"Ġurinals": 6909,
			"ĠMust": 6910,
			"Ġlinoleum": 6911,
			"ĠChopped": 6912,
			"Ġgutter": 6913,
			"KET": 6914,
			"ssy": 6915,
			"Ġbigger": 6916,
			"ĠGIRAFF": 6917,
			"Ġcoloring": 6918,
			"Ġavocados": 6919,
			"Ġlamppost": 6920,
			"idential": 6921,
			"Ġcamper": 6922,
			"Ġtemple": 6923,
			"ĠDell": 6924,
			"Ġwreath": 6925,
			"Ġgrab": 6926,
			"Ġswive": 6927,
			"Ġpec": 6928,
			"ĠAdult": 6929,
			"ĠPlaid": 6930,
			"ĠPARK": 6931,
			"ĠLIT": 6932,
			"ĠBur": 6933,
			"ĠHIS": 6934,
			"Ġgallon": 6935,
			"ricade": 6936,
			"ĠTHESE": 6937,
			"BY": 6938,
			"ractive": 6939,
			"ĠOcean": 6940,
			"Ġentryway": 6941,
			"Ġfins": 6942,
			"ĠBALL": 6943,
			"tensil": 6944,
			"Ġlanguage": 6945,
			"ĠDough": 6946,
			"use": 6947,
			"Ġyellowish": 6948,
			"nas": 6949,
			"Ġbend": 6950,
			"Ġamber": 6951,
			"uro": 6952,
			"liner": 6953,
			"Ġoverhang": 6954,
			"Ġlogos": 6955,
			"Ġaer": 6956,
			"Ġpropellers": 6957,
			"Ġrims": 6958,
			"Ġhooked": 6959,
			"ĠRope": 6960,
			"ĠBackpack": 6961,
			"Ġoctagon": 6962,
			"Ġairborne": 6963,
			"apan": 6964,
			"ĠLar": 6965,
			"ĠCorner": 6966,
			"Ġbackside": 6967,
			"ĠGiraffes": 6968,
			"Ġflowering": 6969,
			"thing": 6970,
			"Ġtights": 6971,
			"Ġpoodle": 6972,
			"Ġrustic": 6973,
			"Ġheating": 6974,
			"Ġnap": 6975,
			"ĠSoap": 6976,
			"ĠFolded": 6977,
			"Ġwill": 6978,
			"Ġchewing": 6979,
			"Ġprog": 6980,
			"ubby": 6981,
			"Ġvolley": 6982,
			"ĠLab": 6983,
			"Ġchecking": 6984,
			"ĠCrack": 6985,
			"ĠBOAT": 6986,
			"Ġprotector": 6987,
			"ĠShower": 6988,
			"ĠEYE": 6989,
			"ĠCircular": 6990,
			"erman": 6991,
			"asping": 6992,
			"Ġaddress": 6993,
			"allel": 6994,
			"ĠTHERE": 6995,
			"Ġ19": 6996,
			"ĠTomatoes": 6997,
			"Ġduffel": 6998,
			"ĠPast": 6999,
			"Ġcroche": 7000,
			"ĠSticker": 7001,
			"ĠZEB": 7002,
			"Ġmulch": 7003,
			"Ġfou": 7004,
			"Ġleopard": 7005,
			"ĠOb": 7006,
			"ĠCanad": 7007,
			"Ġkinds": 7008,
			"Ġstockings": 7009,
			"STIC": 7010,
			"Ġus": 7011,
			"cting": 7012,
			"ĠBlinds": 7013,
			"ĠPLASTIC": 7014,
			"ĠPOLE": 7015,
			"abit": 7016,
			"Ġpulls": 7017,
			"ĠMonitor": 7018,
			"Ġlean": 7019,
			"rence": 7020,
			"Ġdispensers": 7021,
			"OVE": 7022,
			"Ġsliver": 7023,
			"rilla": 7024,
			"Ġprofile": 7025,
			"ĠEnglish": 7026,
			"Ġpamp": 7027,
			"ĠSOFA": 7028,
			"Ġbarely": 7029,
			"Ġvi": 7030,
			"IRR": 7031,
			"ĠCarpet": 7032,
			"Ġmural": 7033,
			"Ġsimple": 7034,
			"Ġbunched": 7035,
			"Ġgroo": 7036,
			"ROOM": 7037,
			"Ġhimself": 7038,
			"corn": 7039,
			"ĠROAD": 7040,
			"ĠHANGING": 7041,
			"onald": 7042,
			"ara": 7043,
			"Ġfunny": 7044,
			"Ġleans": 7045,
			"ĠMacBook": 7046,
			"pu": 7047,
			"ĠOpened": 7048,
			"Ġaffixed": 7049,
			"ĠLand": 7050,
			"alapen": 7051,
			"blue": 7052,
			"Ġmoto": 7053,
			"Ġcheeseburger": 7054,
			"ĠEnt": 7055,
			"Ġawnings": 7056,
			"ĠBritish": 7057,
			"rem": 7058,
			"ĠFLA": 7059,
			"issors": 7060,
			"Ġchained": 7061,
			"Ġprotru": 7062,
			"ĠCOW": 7063,
			"Ġsprouts": 7064,
			"Ġrinse": 7065,
			"ĠBlurry": 7066,
			"Ġplenty": 7067,
			"ĠPUR": 7068,
			"ĠStyrofoam": 7069,
			"Ġlovely": 7070,
			"ĠPotted": 7071,
			"Ġfuton": 7072,
			"Ġlimit": 7073,
			"Ġlever": 7074,
			"ĠSL": 7075,
			"ĠMIRR": 7076,
			"Ġpoking": 7077,
			"ĠMIRROR": 7078,
			"Ġprongs": 7079,
			"OC": 7080,
			"echan": 7081,
			"Ġpromotional": 7082,
			"hip": 7083,
			"Ġtaco": 7084,
			"Ġcrock": 7085,
			"kra": 7086,
			"Ġtexting": 7087,
			"ĠCOU": 7088,
			"Ġthermos": 7089,
			"Ġmonster": 7090,
			"Ġglob": 7091,
			"Ġsilk": 7092,
			"Ġinclu": 7093,
			"ĠFan": 7094,
			"Ġspectacle": 7095,
			"oping": 7096,
			"Ġbarricade": 7097,
			"REE": 7098,
			"ĠHELM": 7099,
			"ĠRailing": 7100,
			"ĠLetter": 7101,
			"Ġgorilla": 7102,
			"Ġboogie": 7103,
			"ĠCLOCK": 7104,
			"ĠCOUN": 7105,
			"ĠPoster": 7106,
			"Ġjack": 7107,
			"Ġescape": 7108,
			"Ġsignboard": 7109,
			"Ġpriv": 7110,
			"drop": 7111,
			"Ġscall": 7112,
			"Ġfriend": 7113,
			"Ġcele": 7114,
			"Ġstopper": 7115,
			"Ġshoelaces": 7116,
			"Ġblocking": 7117,
			"ĠWALKING": 7118,
			"Ġheading": 7119,
			"IF": 7120,
			"Ġautomobile": 7121,
			"ĠOutdoor": 7122,
			"Ġhabit": 7123,
			"angles": 7124,
			"ĠTowels": 7125,
			"Ġhun": 7126,
			"reek": 7127,
			"Ġsim": 7128,
			"ĠMiddle": 7129,
			"Ġseems": 7130,
			"Ġlifting": 7131,
			"ĠDVDs": 7132,
			"bandoned": 7133,
			"Ġplaza": 7134,
			"ĠFA": 7135,
			"Ġange": 7136,
			"Ġroyal": 7137,
			"Ġscrews": 7138,
			"Ġhad": 7139,
			"card": 7140,
			"town": 7141,
			"Ġparallel": 7142,
			"Ġ201": 7143,
			"Ġshingles": 7144,
			"Ġdomed": 7145,
			"Ġsoldiers": 7146,
			"EBALL": 7147,
			"ĠBASEBALL": 7148,
			"vi": 7149,
			"ĠEngine": 7150,
			"Ġdevices": 7151,
			"Ġsnowboarders": 7152,
			"Ġflies": 7153,
			"Ġmacbook": 7154,
			"ĠMc": 7155,
			"Ġticket": 7156,
			"Ġwrinkly": 7157,
			"ĠRU": 7158,
			"Ġperf": 7159,
			"Ġtimer": 7160,
			"ests": 7161,
			"Ġunmade": 7162,
			"Ġresidential": 7163,
			"ĠTALL": 7164,
			"ĠRain": 7165,
			"ta": 7166,
			"ĠMaroon": 7167,
			"Ġskyscrapers": 7168,
			"Ġgraf": 7169,
			"illage": 7170,
			"ĠNumer": 7171,
			"ROW": 7172,
			"ĠMushroom": 7173,
			"Ġblossoms": 7174,
			"Ġeiffel": 7175,
			"Ġgrid": 7176,
			"emb": 7177,
			"Ġ18": 7178,
			"Ġstabilizer": 7179,
			"ĠApples": 7180,
			"ĠPILL": 7181,
			"Ġposs": 7182,
			"ĠJackson": 7183,
			"Ġcould": 7184,
			"Ġlays": 7185,
			"ĠFor": 7186,
			"Ġcara": 7187,
			"ĠPar": 7188,
			"Ġmoust": 7189,
			"pole": 7190,
			"Ġstru": 7191,
			"ised": 7192,
			"lage": 7193,
			"ander": 7194,
			"Ġdrivers": 7195,
			"ADE": 7196,
			"ĠBOARD": 7197,
			"rom": 7198,
			"Ġneigh": 7199,
			"Ġalien": 7200,
			"Ġclassic": 7201,
			"Ġshinny": 7202,
			"Ġmirro": 7203,
			"ĠBOOK": 7204,
			"Ġtransportation": 7205,
			"Ġplumbing": 7206,
			"Ġload": 7207,
			"itional": 7208,
			"ker": 7209,
			"Ġcoast": 7210,
			"ĠField": 7211,
			"Ġsmoot": 7212,
			"Ġcaught": 7213,
			"Ġcare": 7214,
			"ĠBOX": 7215,
			"wri": 7216,
			"zy": 7217,
			"ilson": 7218,
			"ondon": 7219,
			"Ġhippo": 7220,
			"Ġsing": 7221,
			"ĠTiles": 7222,
			"Ġdripping": 7223,
			"sa": 7224,
			"down": 7225,
			"Ġnearly": 7226,
			"Ġchimneys": 7227,
			"Ġlabels": 7228,
			"Ġcha": 7229,
			"othing": 7230,
			"ĠSURF": 7231,
			"style": 7232,
			"Ġorder": 7233,
			"rized": 7234,
			"Ġspecks": 7235,
			"cloth": 7236,
			"Ġgoogles": 7237,
			"Ġsoftball": 7238,
			"ĠStripes": 7239,
			"Ġmanufact": 7240,
			"Ġbackdrop": 7241,
			"Ġdecid": 7242,
			"Ġcaucasian": 7243,
			"teen": 7244,
			"Ġspeaking": 7245,
			"urer": 7246,
			"Ġrecord": 7247,
			"Ġmaybe": 7248,
			"Ġlegged": 7249,
			"ĠLines": 7250,
			"Ġgripping": 7251,
			"Ġlapel": 7252,
			"ĠPep": 7253,
			"ĠControl": 7254,
			"ĠCOUNTER": 7255,
			"Ġsuite": 7256,
			"Ġribbons": 7257,
			"rame": 7258,
			"Ġhash": 7259,
			"ycling": 7260,
			"Ġvane": 7261,
			"Ġshines": 7262,
			"mode": 7263,
			"Ġhabitat": 7264,
			"Ġcooling": 7265,
			"ĠMult": 7266,
			"Ġswivel": 7267,
			"lock": 7268,
			"liding": 7269,
			"ĠSecond": 7270,
			"Ġearth": 7271,
			"Ġcroissants": 7272,
			"Ġmechan": 7273,
			"Ġmens": 7274,
			"Ġuni": 7275,
			"Ġunopened": 7276,
			"Ġthumbs": 7277,
			"cedes": 7278,
			"ĠCalm": 7279,
			"ĠEnd": 7280,
			"ĠRu": 7281,
			"Ġmountainside": 7282,
			"Ġspine": 7283,
			"ĠHuge": 7284,
			"Ġmeats": 7285,
			"Ġidentical": 7286,
			"Ġstemmed": 7287,
			"ĠPOT": 7288,
			"Ġheat": 7289,
			"ĠSer": 7290,
			"Ġabandoned": 7291,
			"ctory": 7292,
			"Ġflannel": 7293,
			"Ġgathering": 7294,
			"ĠPILLOW": 7295,
			"ĠCDs": 7296,
			"ĠAss": 7297,
			"Ġpopcorn": 7298,
			"Ġdim": 7299,
			"apanese": 7300,
			"ĠSHADOW": 7301,
			"Ġmoustache": 7302,
			"ĠScissors": 7303,
			"ĠFI": 7304,
			"Ġcpu": 7305,
			"ĠTray": 7306,
			"Ġearing": 7307,
			"Ġsuspenders": 7308,
			"Ġdeciduous": 7309,
			"ĠLook": 7310,
			"ĠLADY": 7311,
			"aces": 7312,
			"Ġherding": 7313,
			"no": 7314,
			"Ġedging": 7315,
			"ĠPhotogra": 7316,
			"Ġfarmer": 7317,
			"Ġpaddling": 7318,
			"Ġdone": 7319,
			"ĠArea": 7320,
			"Ġwhale": 7321,
			"Ġoperating": 7322,
			"Ġpamph": 7323,
			"Ġvillage": 7324,
			"Ġshorter": 7325,
			"50": 7326,
			"Ġgoes": 7327,
			"ĠPortion": 7328,
			"Ġprotruding": 7329,
			"Ġnon": 7330,
			"set": 7331,
			"ĠPost": 7332,
			"ĠNavy": 7333,
			"Ġneedles": 7334,
			"ĠCLOU": 7335,
			"Ġpract": 7336,
			"UMB": 7337,
			"Ġkneep": 7338,
			"ĠFeet": 7339,
			"ĠOli": 7340,
			"Ġhalter": 7341,
			"ĠPepsi": 7342,
			"Ġevening": 7343,
			"ĠCAKE": 7344,
			"Ġseam": 7345,
			"Ġblackberries": 7346,
			"Ġreign": 7347,
			"Ġnick": 7348,
			"Ġthermometer": 7349,
			"Ġnozzle": 7350,
			"Ġshingled": 7351,
			"liet": 7352,
			"ĠOVER": 7353,
			"EEP": 7354,
			"Ġid": 7355,
			"ĠHELMET": 7356,
			"Ġsled": 7357,
			"ĠUp": 7358,
			"Ġsunlit": 7359,
			"Ġrise": 7360,
			"ĠLEG": 7361,
			"Ġlies": 7362,
			"Ġvalve": 7363,
			"Ġcelebr": 7364,
			"ĠDel": 7365,
			"Ġicons": 7366,
			"anna": 7367,
			"Ġpages": 7368,
			"ĠDARK": 7369,
			"ĠHorns": 7370,
			"ĠBroken": 7371,
			"Ġfreight": 7372,
			"Ġrippled": 7373,
			"ILING": 7374,
			"Ġsignage": 7375,
			"ĠGi": 7376,
			"Ġsided": 7377,
			"Ġspri": 7378,
			"Ġfleece": 7379,
			"Ġscoop": 7380,
			"Ġwatercraft": 7381,
			"Ġcres": 7382,
			"ĠLo": 7383,
			"Ġformal": 7384,
			"Ġreach": 7385,
			"print": 7386,
			"Ġjalapen": 7387,
			"Ġadjust": 7388,
			"Ġwoo": 7389,
			"ĠSuitc": 7390,
			"ĠStove": 7391,
			"Ġpest": 7392,
			"Ġgrows": 7393,
			"nder": 7394,
			"teries": 7395,
			"cted": 7396,
			"nes": 7397,
			"ĠKetchup": 7398,
			"Ġkicked": 7399,
			"Ġmoose": 7400,
			"Ġquilted": 7401,
			"lent": 7402,
			"aging": 7403,
			"Ġglossy": 7404,
			"Ġsmiley": 7405,
			"ĠTiny": 7406,
			"Ġowner": 7407,
			"Ġtipped": 7408,
			"Ġswung": 7409,
			"IM": 7410,
			"ĠCHE": 7411,
			"Ġpallet": 7412,
			"Ġcurrent": 7413,
			"leton": 7414,
			"ĠCandle": 7415,
			"Ġdoily": 7416,
			"even": 7417,
			"agged": 7418,
			"Ġsound": 7419,
			"Ġindicates": 7420,
			"Ġteacup": 7421,
			"ĠKids": 7422,
			"occupied": 7423,
			"Ġhow": 7424,
			"ĠGIRAFFE": 7425,
			"Ġplung": 7426,
			"Ġelectricity": 7427,
			"AG": 7428,
			"its": 7429,
			"Ġscen": 7430,
			"Ġpastel": 7431,
			"hedral": 7432,
			"Ġbearded": 7433,
			"ĠWII": 7434,
			"Ġsaute": 7435,
			"basket": 7436,
			"black": 7437,
			"Ġci": 7438,
			"ĠHardwood": 7439,
			"ĠBranches": 7440,
			"Ġless": 7441,
			"ĠBY": 7442,
			"ousel": 7443,
			"ĠCONT": 7444,
			"ĠJacket": 7445,
			"Ġkeeping": 7446,
			"Ġclothe": 7447,
			"Ġvalance": 7448,
			"ĠNet": 7449,
			"Ġcommode": 7450,
			"Ġcompletely": 7451,
			"cro": 7452,
			"Ġsloped": 7453,
			"Ġsewer": 7454,
			"Ġridges": 7455,
			"ĠBirthday": 7456,
			"ĠSINK": 7457,
			"ĠPlayers": 7458,
			"Ġlor": 7459,
			"OUR": 7460,
			"Ġplanters": 7461,
			"ĠMelted": 7462,
			"ĠKEY": 7463,
			"ased": 7464,
			"ĠCoke": 7465,
			"ĠString": 7466,
			"vil": 7467,
			"ĠSpeaker": 7468,
			"Ġeasy": 7469,
			"Ġhaircut": 7470,
			"Ġblooming": 7471,
			"ĠStore": 7472,
			"Ġinstruction": 7473,
			"ngle": 7474,
			"ĠID": 7475,
			"Ġwading": 7476,
			"itrus": 7477,
			"Ġuneven": 7478,
			"ĠOverhead": 7479,
			"ĠTE": 7480,
			"Ġpaving": 7481,
			"Ġgreasy": 7482,
			"ho": 7483,
			"Ġdamaged": 7484,
			"Ġstretching": 7485,
			"uel": 7486,
			"ĠDifferent": 7487,
			"Ġfoots": 7488,
			"Ġcreamer": 7489,
			"Ġindent": 7490,
			"Ġseg": 7491,
			"ddles": 7492,
			"Ġdowntown": 7493,
			"Ġeasel": 7494,
			"finished": 7495,
			"ĠPAT": 7496,
			"tension": 7497,
			"ĠMultic": 7498,
			"ĠWATCH": 7499,
			"Ġfaced": 7500,
			"Ġhelp": 7501,
			"Ġdecorating": 7502,
			"Ġentire": 7503,
			"Ġobsc": 7504,
			"ĠIte": 7505,
			"Ġedged": 7506,
			"amsung": 7507,
			"flo": 7508,
			"Ġferry": 7509,
			"ĠREAR": 7510,
			"ĠPLANE": 7511,
			"ĠLa": 7512,
			"ĠOnions": 7513,
			"Ġridged": 7514,
			"Ġresemb": 7515,
			"Ġupwards": 7516,
			"Ġsnowman": 7517,
			"ference": 7518,
			"Ġslatted": 7519,
			"Ġcheesy": 7520,
			"ank": 7521,
			"Ġsol": 7522,
			"Ġ14": 7523,
			"Ġcrusty": 7524,
			"Ġinfant": 7525,
			"ĠPlates": 7526,
			"Ġown": 7527,
			"ĠLad": 7528,
			"Ġviewing": 7529,
			"ĠTHREE": 7530,
			"Ġchick": 7531,
			"ĠStates": 7532,
			"ĠGarbage": 7533,
			"Ġcathedral": 7534,
			"ĠLEA": 7535,
			"ĠHANDLE": 7536,
			"Ġnothing": 7537,
			"Ġcurious": 7538,
			"Ġweight": 7539,
			"ĠBABY": 7540,
			"Ġpecan": 7541,
			"OL": 7542,
			"luc": 7543,
			"Ġfinish": 7544,
			"ĠUtensil": 7545,
			"Ġcellular": 7546,
			"ĠCaucasian": 7547,
			"ĠMark": 7548,
			"eaten": 7549,
			"Ġcapti": 7550,
			"Ġsponsor": 7551,
			"ĠCardboard": 7552,
			"Ġtying": 7553,
			"ĠClean": 7554,
			"Ġplunger": 7555,
			"Ġsal": 7556,
			"rson": 7557,
			"ĠTower": 7558,
			"Ġmotorcyle": 7559,
			"Ġnumerous": 7560,
			"Ġdaylight": 7561,
			"Ġnews": 7562,
			"vanna": 7563,
			"ĠTie": 7564,
			"Ġcob": 7565,
			"ingus": 7566,
			"stat": 7567,
			"Ġbatteries": 7568,
			"Ġslender": 7569,
			"ĠHouses": 7570,
			"Ġswirl": 7571,
			"Ġcompetition": 7572,
			"alian": 7573,
			"Ġ-": 7574,
			"Ġorchi": 7575,
			"ckles": 7576,
			"rium": 7577,
			"ĠButter": 7578,
			"ĠBATH": 7579,
			"Ġlorry": 7580,
			"Ġsurrounds": 7581,
			"Ġstructures": 7582,
			"Ġgrasping": 7583,
			"ĠDIS": 7584,
			"ĠLEFT": 7585,
			"Ġcitrus": 7586,
			"Ġrot": 7587,
			"alsa": 7588,
			"bird": 7589,
			"Ġmeatballs": 7590,
			"ĠGoggles": 7591,
			"Ġseparate": 7592,
			"usted": 7593,
			"lashes": 7594,
			"Ġtravelling": 7595,
			"Ġyummy": 7596,
			"Ġfingernails": 7597,
			"TH": 7598,
			"ĠVehicle": 7599,
			"Ġfrees": 7600,
			"Ġstate": 7601,
			"ĠMustard": 7602,
			"Ġphotographs": 7603,
			"Ġangel": 7604,
			"ĠCord": 7605,
			"Ġartist": 7606,
			"Ġnicely": 7607,
			"hat": 7608,
			"ĠHER": 7609,
			"anish": 7610,
			"ĠBalc": 7611,
			"Ġer": 7612,
			"Ġtwel": 7613,
			"ĠPrin": 7614,
			"Ġthru": 7615,
			"ĠKITCH": 7616,
			"Ġtwelve": 7617,
			"ĠKITCHEN": 7618,
			"Ġcarousel": 7619,
			"Ġlistening": 7620,
			"ĠStra": 7621,
			"mmed": 7622,
			"Ġflown": 7623,
			"Ġlounging": 7624,
			"ĠShelves": 7625,
			"Ġtoned": 7626,
			"Ġlodge": 7627,
			"Ġmint": 7628,
			"Ġflyer": 7629,
			"Ġpadding": 7630,
			"ĠDIRT": 7631,
			"ĠCHI": 7632,
			"Ġsippy": 7633,
			"Ġstraws": 7634,
			"Ġmessenger": 7635,
			"Ġgrafitti": 7636,
			"Ġbowling": 7637,
			"ĠMil": 7638,
			"ĠDin": 7639,
			"Ġgour": 7640,
			"ĠKID": 7641,
			"Ġracer": 7642,
			"ĠPainted": 7643,
			"Ġscroll": 7644,
			"lucent": 7645,
			"Ġdownward": 7646,
			"mperature": 7647,
			"Ġattire": 7648,
			"Ġmel": 7649,
			"Ġlandline": 7650,
			"Ġjungle": 7651,
			"ibly": 7652,
			"Ġclub": 7653,
			"ĠFirst": 7654,
			"ĠCOFF": 7655,
			"Ġcaptivity": 7656,
			"ĠCOFFEE": 7657,
			"Ġsomebody": 7658,
			"sleeved": 7659,
			"Ġesca": 7660,
			"Ġwines": 7661,
			"Ġstitching": 7662,
			"Ġshinning": 7663,
			"Ġfeaturing": 7664,
			"ĠPErson": 7665,
			"ĠClothes": 7666,
			"ĠNecklace": 7667,
			"ĠTOI": 7668,
			"ĠEyeglasses": 7669,
			"ĠĠĠĠĠĠĠĠĠĠĠĠĠĠĠĠĠĠĠĠĠĠĠĠĠĠĠĠĠĠĠĠ": 7670,
			"GG": 7671,
			"Ġspool": 7672,
			"Ġwhip": 7673,
			"Ġstirrup": 7674,
			"Ġbicyclist": 7675,
			"Ġcircus": 7676,
			"Ġ13": 7677,
			"Ġworld": 7678,
			"ĠPolar": 7679,
			"Ġgrayish": 7680,
			"Ġhalved": 7681,
			"ĠFLOWERS": 7682,
			"Ġdiner": 7683,
			"ĠSteps": 7684,
			"Ġtide": 7685,
			"ĠPa": 7686,
			"Ġhardware": 7687,
			"sive": 7688,
			"ĠPack": 7689,
			"ĠMingus": 7690,
			"stract": 7691,
			"Ġrepres": 7692,
			"Ġcrow": 7693,
			"Ġnaked": 7694,
			"liday": 7695,
			"Ġjumps": 7696,
			"ĠCON": 7697,
			"Ġbowtie": 7698,
			"Ġlocked": 7699,
			"Ġunoccupied": 7700,
			"ĠZEBRA": 7701,
			"Ġwaitress": 7702,
			"ĠCLE": 7703,
			"Ġmirrored": 7704,
			"VING": 7705,
			"Ġcarafe": 7706,
			"Ġskeleton": 7707,
			"ĠDress": 7708,
			"ĠBody": 7709,
			"Ġdream": 7710,
			"ANCE": 7711,
			"ĠBackground": 7712,
			"Ġretrie": 7713,
			"Ġsnake": 7714,
			"Ġlanes": 7715,
			"Ġknick": 7716,
			"urned": 7717,
			"Ġwedges": 7718,
			"Ġrooster": 7719,
			"ĠFam": 7720,
			"ĠMulticolored": 7721,
			"Ġplum": 7722,
			"Ġfactory": 7723,
			"Ġwastebasket": 7724,
			"ĠFOOD": 7725,
			"ĠCabinet": 7726,
			"ils": 7727,
			"Ġforearm": 7728,
			"hest": 7729,
			"IES": 7730,
			"ĠPLAYER": 7731,
			"MENT": 7732,
			"zzled": 7733,
			"Ġturbine": 7734,
			"ote": 7735,
			"ĠHills": 7736,
			"Ġconf": 7737,
			"XT": 7738,
			"ĠEn": 7739,
			"ĠTOILET": 7740,
			"Ġking": 7741,
			"du": 7742,
			"field": 7743,
			"Ġbulding": 7744,
			"ĠKnee": 7745,
			"ĠBre": 7746,
			"Ġsectional": 7747,
			"ĠTa": 7748,
			"adget": 7749,
			"ĠMADE": 7750,
			"Ġselection": 7751,
			"Ġsquee": 7752,
			"ĠDE": 7753,
			"onda": 7754,
			"Ġlinked": 7755,
			"Ġclutter": 7756,
			"Ġmassive": 7757,
			"icles": 7758,
			"Ġsquared": 7759,
			"bar": 7760,
			"Ġfaint": 7761,
			"Ġbandanna": 7762,
			"ah": 7763,
			"Ġsnap": 7764,
			"umn": 7765,
			"Ġslim": 7766,
			"Ġbarbec": 7767,
			"Ġbrushed": 7768,
			"Ġtemperature": 7769,
			"Ġcurving": 7770,
			"phy": 7771,
			"lt": 7772,
			"Ġroots": 7773,
			"ĠJeans": 7774,
			"ĠTur": 7775,
			"Ġvisitors": 7776,
			"Ġtoliet": 7777,
			"Ġsite": 7778,
			"ebo": 7779,
			"Ġcurvy": 7780,
			"Ġchord": 7781,
			"Ġconver": 7782,
			"cake": 7783,
			"zard": 7784,
			"Ġtheater": 7785,
			"ĠRIGHT": 7786,
			"Ġcraft": 7787,
			"ĠPARKED": 7788,
			"ĠKnobs": 7789,
			"Ġraquet": 7790,
			"Ġstreamers": 7791,
			"Ġpaste": 7792,
			"OME": 7793,
			"Ġaud": 7794,
			"Ġvolleyball": 7795,
			"omb": 7796,
			"Ġretain": 7797,
			"Ġchickens": 7798,
			"Ġteenager": 7799,
			"Ġurn": 7800,
			"ĠShru": 7801,
			"Ġfron": 7802,
			"Ġswoo": 7803,
			"Ġlifeguard": 7804,
			"Ġgrowth": 7805,
			"Ġlimes": 7806,
			"ĠDIST": 7807,
			"ĠLabel": 7808,
			"ĠNUMB": 7809,
			"Ġsewing": 7810,
			"Ġshoppers": 7811,
			"wl": 7812,
			"Ġpinky": 7813,
			"lips": 7814,
			"Ġextension": 7815,
			"Ġborders": 7816,
			"ĠCellphone": 7817,
			"ĠCOVER": 7818,
			"ki": 7819,
			"Ġcoated": 7820,
			"Ġmannequins": 7821,
			"ĠKites": 7822,
			"ĠMON": 7823,
			"ĠFIELD": 7824,
			"Ġeats": 7825,
			"Ġremove": 7826,
			"Ġgifts": 7827,
			"ĠiPhone": 7828,
			"Ġstreaks": 7829,
			"ĠLA": 7830,
			"ĠPURPLE": 7831,
			"Ġbiscuits": 7832,
			"ĠItems": 7833,
			"Ġshelve": 7834,
			"Ġgadget": 7835,
			"lable": 7836,
			"ĠBags": 7837,
			"Ġattractive": 7838,
			"arian": 7839,
			"Ġoversized": 7840,
			"Ġlamin": 7841,
			"Ġpatty": 7842,
			"ĠPlan": 7843,
			"Ġgau": 7844,
			"ĠSE": 7845,
			"Ġmusc": 7846,
			"Ġlevels": 7847,
			"elle": 7848,
			"ATO": 7849,
			"ĠFROM": 7850,
			"Ġmuscular": 7851,
			"Ġslicing": 7852,
			"Ġsoles": 7853,
			"Ġ25": 7854,
			"Ġhap": 7855,
			"Ġrods": 7856,
			"Ġstreetlamp": 7857,
			"Ġcamping": 7858,
			"Ġmotorized": 7859,
			"atic": 7860,
			"Ġsmoothie": 7861,
			"Ġdozen": 7862,
			"ĠWrist": 7863,
			"ĠGO": 7864,
			"ton": 7865,
			"Ġbulls": 7866,
			"ĠSUIT": 7867,
			"kraut": 7868,
			"Ġtuxed": 7869,
			"ecting": 7870,
			"Ġcaboose": 7871,
			"IGHTS": 7872,
			"Ġvinegar": 7873,
			"ĠOrn": 7874,
			"ĠBracelet": 7875,
			"hood": 7876,
			"idered": 7877,
			"Ġsymbols": 7878,
			"ĠBEACH": 7879,
			"Ġlearning": 7880,
			"Ġpac": 7881,
			"Ġgen": 7882,
			"stone": 7883,
			"Ġstrainer": 7884,
			"Ġones": 7885,
			"ceries": 7886,
			"ĠREF": 7887,
			"Ġkissing": 7888,
			"ĠTRAY": 7889,
			"ĠBrand": 7890,
			"Ġfields": 7891,
			"Ġsplashes": 7892,
			"Ġironing": 7893,
			"ĠWeeds": 7894,
			"ĠWide": 7895,
			"ĠPotatoes": 7896,
			"Ġblocked": 7897,
			"ago": 7898,
			"Ġtax": 7899,
			"father": 7900,
			"Ġerase": 7901,
			"Ġbroch": 7902,
			"Ġattent": 7903,
			"Ġcrumbled": 7904,
			"ĠPIE": 7905,
			"ĠRocky": 7906,
			"Cola": 7907,
			"Ġbuid": 7908,
			"Ġfight": 7909,
			"Ġpudding": 7910,
			"Ġshaking": 7911,
			"Ġhilly": 7912,
			"ĠROUND": 7913,
			"ĠBald": 7914,
			"Ġtrench": 7915,
			"ĠMet": 7916,
			"Ġoutlined": 7917,
			"ĠCal": 7918,
			"Ġchainlink": 7919,
			"Ġador": 7920,
			"ĠGame": 7921,
			"Ġmotoc": 7922,
			"Ġlate": 7923,
			"ĠHandles": 7924,
			"ĠRA": 7925,
			"Ġmovies": 7926,
			"itorium": 7927,
			"ĠTAIL": 7928,
			"ĠLITTLE": 7929,
			"Ġradishes": 7930,
			"ĠCounter": 7931,
			"Ġsalsa": 7932,
			"Ġtram": 7933,
			"Ġreflects": 7934,
			"REEN": 7935,
			"Ġdrift": 7936,
			"sert": 7937,
			"Ġpinstri": 7938,
			"atched": 7939,
			"Ġsideview": 7940,
			"Ġdying": 7941,
			"play": 7942,
			"Ġjagged": 7943,
			"icing": 7944,
			"ĠTiss": 7945,
			"Ġslaw": 7946,
			"Ġunfinished": 7947,
			"Ġsavanna": 7948,
			"Ġstormy": 7949,
			"Ġreigns": 7950,
			"Ġpelic": 7951,
			"Ġtranslucent": 7952,
			"Ġcorners": 7953,
			"Ġbookbag": 7954,
			"Ġmessage": 7955,
			"Ġfreesbee": 7956,
			"Ġauditorium": 7957,
			"Ġbusses": 7958,
			"ĠFull": 7959,
			"ĠBacon": 7960,
			"Ġexiting": 7961,
			"ĠBurnt": 7962,
			"ĠCrust": 7963,
			"Ġneighbor": 7964,
			"Ġdepic": 7965,
			"Ġet": 7966,
			"ecar": 7967,
			"Ġtiered": 7968,
			"Ġgazebo": 7969,
			"alo": 7970,
			"Ġstirring": 7971,
			"Ġmanufacturer": 7972,
			"ĠDISTANCE": 7973,
			"risp": 7974,
			"ILL": 7975,
			"Ġfootboard": 7976,
			"yered": 7977,
			"utes": 7978,
			"ĠCPU": 7979,
			"Ġtreat": 7980,
			"ĠRust": 7981,
			"lmo": 7982,
			"ĠPale": 7983,
			"Ġtuxedo": 7984,
			"low": 7985,
			"ately": 7986,
			"ĠBoxes": 7987,
			"ĠMagazine": 7988,
			"Ġbuild": 7989,
			"Ġhandk": 7990,
			"Ġdisplays": 7991,
			"Ġlay": 7992,
			"ilar": 7993,
			"plets": 7994,
			"Ġyach": 7995,
			"Ġspecial": 7996,
			"Ġplus": 7997,
			"Ġflav": 7998,
			"Ġdancing": 7999,
			"ĠBAN": 8000,
			"Ġspind": 8001,
			"Ġdeter": 8002,
			"Ġretaining": 8003,
			"ĠGre": 8004,
			"Ġescalator": 8005,
			"Ġvendors": 8006,
			"Ġheight": 8007,
			"car": 8008,
			"ĠAROUND": 8009,
			"ĠJet": 8010,
			"Ġpose": 8011,
			"Ġpinned": 8012,
			"Ġbedshe": 8013,
			"Ġwit": 8014,
			"ails": 8015,
			"Ġdrainage": 8016,
			"ĠStem": 8017,
			"ibrant": 8018,
			"rated": 8019,
			"ĠLeather": 8020,
			"Ġduvet": 8021,
			"Ġhanged": 8022,
			"ĠCAB": 8023,
			"Ġtric": 8024,
			"ops": 8025,
			"Ġbarriers": 8026,
			"ĠSHEL": 8027,
			"press": 8028,
			"Ġbaggy": 8029,
			"Ġproper": 8030,
			"Ġwinding": 8031,
			"Ġfedora": 8032,
			"ĠMer": 8033,
			"Ġfurthest": 8034,
			"ĠSmaller": 8035,
			"Ġburn": 8036,
			"Ġexerc": 8037,
			"ĠToddler": 8038,
			"ĠSuitcase": 8039,
			"Ġguardrail": 8040,
			"ĠFORK": 8041,
			"Ġcreme": 8042,
			"ĠFamily": 8043,
			"ĠCarrot": 8044,
			"ĠInside": 8045,
			"ĠWilson": 8046,
			"20": 8047,
			"Ġgroceries": 8048,
			"mband": 8049,
			"ĠBalcony": 8050,
			"pperware": 8051,
			"rants": 8052,
			"Ġthermostat": 8053,
			"Ġconcent": 8054,
			"Ġsatin": 8055,
			"ifying": 8056,
			"ĠJar": 8057,
			"ĠNEXT": 8058,
			"ĠLid": 8059,
			"ĠDriver": 8060,
			"Ġtrump": 8061,
			"usting": 8062,
			"ĠYork": 8063,
			"Ġthemed": 8064,
			"Ġwhen": 8065,
			"ĠLINE": 8066,
			"ĠNewspaper": 8067,
			"rolling": 8068,
			"Ġwalnuts": 8069,
			"ĠTattoo": 8070,
			"Ġarmband": 8071,
			"Ġbund": 8072,
			"ĠFireplace": 8073,
			"ĠBM": 8074,
			"ĠCAP": 8075,
			"Ġpup": 8076,
			"ĠFro": 8077,
			"Ġintric": 8078,
			"ĠTOWEL": 8079,
			"Ġsimilar": 8080,
			"ws": 8081,
			"ĠCart": 8082,
			"ĠCabinets": 8083,
			"ĠFluffy": 8084,
			"Ġconference": 8085,
			"Ġpavers": 8086,
			"Ġbikers": 8087,
			"ĠClose": 8088,
			"Ġ21": 8089,
			"Ġguide": 8090,
			"Ġcourts": 8091,
			"Ġperi": 8092,
			"Ġrecor": 8093,
			"Ġfill": 8094,
			"ĠRailroad": 8095,
			"Ġiphone": 8096,
			"Ġembroidered": 8097,
			"ĠPedestrian": 8098,
			"Ġabstract": 8099,
			"ni": 8100,
			"Ġinformational": 8101,
			"Ġshells": 8102,
			"EST": 8103,
			"ĠJu": 8104,
			"Ġprivacy": 8105,
			"Ġcray": 8106,
			"Ġusb": 8107,
			"zzly": 8108,
			"Ġjunk": 8109,
			"gly": 8110,
			"ĠNEAR": 8111,
			"ĠCla": 8112,
			"Ġkittens": 8113,
			"Ġhous": 8114,
			"ĠLemon": 8115,
			"Ġattachment": 8116,
			"mus": 8117,
			"acent": 8118,
			"RESS": 8119,
			"ican": 8120,
			"Ġdiagonal": 8121,
			"ĠCHILD": 8122,
			"Ġgap": 8123,
			"Ġwindsurf": 8124,
			"ective": 8125,
			"urdy": 8126,
			"Ġslow": 8127,
			"Ġboun": 8128,
			"vis": 8129,
			"Ġscar": 8130,
			"ilation": 8131,
			"Ġwaterway": 8132,
			"Ġcot": 8133,
			"Ġmotorbikes": 8134,
			"Ġrippling": 8135,
			"ĠStanding": 8136,
			"ilant": 8137,
			"Ġneeds": 8138,
			"Ġcapris": 8139,
			"Ġupon": 8140,
			"Ġvacant": 8141,
			"AYING": 8142,
			"Ġbegin": 8143,
			"fari": 8144,
			"Ġ24": 8145,
			"ĠFried": 8146,
			"ĠCol": 8147,
			"Ġfootprint": 8148,
			"ilantro": 8149,
			"Ġeyelashes": 8150,
			"Ġhangers": 8151,
			"Ġlatt": 8152,
			"EAK": 8153,
			"Ġlump": 8154,
			"RED": 8155,
			"ector": 8156,
			"orary": 8157,
			"Ġ200": 8158,
			"ifier": 8159,
			"ĠUSA": 8160,
			"ĠRID": 8161,
			"Ġlily": 8162,
			"Ġmosa": 8163,
			"Ġuses": 8164,
			"Ġmosaic": 8165,
			"oples": 8166,
			"Ġwhisker": 8167,
			"ĠFlags": 8168,
			"Ġant": 8169,
			"ĠCurved": 8170,
			"ĠBoys": 8171,
			"Ġantennas": 8172,
			"coming": 8173,
			"omet": 8174,
			"Ġshovel": 8175,
			"Ġperked": 8176,
			"Ġscratching": 8177,
			"Ġplayed": 8178,
			"yyyy": 8179,
			"RAW": 8180,
			"Ġfisher": 8181,
			"Ġwhiteboard": 8182,
			"chit": 8183,
			"ĠSail": 8184,
			"Ġsizes": 8185,
			"Ġamid": 8186,
			"Ġbowel": 8187,
			"Ġcinder": 8188,
			"Ġpajama": 8189,
			"Ġbrushes": 8190,
			"VEN": 8191,
			"Ġleast": 8192,
			"dress": 8193,
			"andy": 8194,
			"Ġlattice": 8195,
			"Ġprop": 8196,
			"ĠAssorted": 8197,
			"ĠGU": 8198,
			"ription": 8199,
			"Ġswoosh": 8200,
			"Ġhy": 8201,
			"Ġsnowfla": 8202,
			"ĠKeys": 8203,
			"Ġsidelines": 8204,
			"ĠSandy": 8205,
			"sized": 8206,
			"Ġstarbucks": 8207,
			"Ġhatchback": 8208,
			"ĠGas": 8209,
			"Ġsandles": 8210,
			"ĠDinner": 8211,
			"Ġhandkerchief": 8212,
			"omy": 8213,
			"Ġlenses": 8214,
			"dder": 8215,
			"Ġnecks": 8216,
			"ĠSafety": 8217,
			"ĠPri": 8218,
			"ERY": 8219,
			"Ġsweatpants": 8220,
			"Ġnur": 8221,
			"Ġpug": 8222,
			"QU": 8223,
			"Ġmort": 8224,
			"Ġfist": 8225,
			"Ġadjacent": 8226,
			"Ġorchid": 8227,
			"ĠWing": 8228,
			"ignia": 8229,
			"ainted": 8230,
			"ĠLondon": 8231,
			"Ġmettal": 8232,
			"Ġmold": 8233,
			"Ġenglish": 8234,
			"Ġpric": 8235,
			"story": 8236,
			"ĠHole": 8237,
			"Ġpossibly": 8238,
			"Ġunique": 8239,
			"Ġmelting": 8240,
			"Ġprope": 8241,
			"Ġclasp": 8242,
			"Ġque": 8243,
			"Ġadjusting": 8244,
			"ĠIndian": 8245,
			"ĠClump": 8246,
			"Ġbarbecue": 8247,
			"ĠHar": 8248,
			"ĠSpin": 8249,
			"Ġwar": 8250,
			"Ġleads": 8251,
			"Ġdell": 8252,
			"Ġcharred": 8253,
			"Ġaerop": 8254,
			"ik": 8255,
			"ĠBMW": 8256,
			"Ġmason": 8257,
			"Ġcreek": 8258,
			"ĠMenu": 8259,
			"Ġtrumpet": 8260,
			"Ġpaperback": 8261,
			"Ġmettalic": 8262,
			"urope": 8263,
			"LASSES": 8264,
			"\".": 8265,
			"lex": 8266,
			"Ġcoiled": 8267,
			"ESE": 8268,
			"ĠDoors": 8269,
			"Ġlava": 8270,
			"Ġmodem": 8271,
			"Ġallow": 8272,
			"Ġladles": 8273,
			"Ġsen": 8274,
			"Ġcant": 8275,
			"Ġfir": 8276,
			"Ġknack": 8277,
			"Ġcreated": 8278,
			"Ġjalapeno": 8279,
			"nie": 8280,
			"ĠSteam": 8281,
			"mented": 8282,
			"Ġyacht": 8283,
			"ux": 8284,
			"Ġexc": 8285,
			"rain": 8286,
			"ague": 8287,
			"ĠMe": 8288,
			"Ġwaits": 8289,
			"chment": 8290,
			"Ġted": 8291,
			"cam": 8292,
			"tible": 8293,
			"Ġdroplets": 8294,
			"chitect": 8295,
			"Ġraz": 8296,
			"ICH": 8297,
			"paque": 8298,
			"Ġgroomed": 8299,
			"Ġkhakis": 8300,
			"10": 8301,
			"KIN": 8302,
			"ĠBAR": 8303,
			"Ġthats": 8304,
			"Ġpotatoe": 8305,
			"Ġcasing": 8306,
			"Ġwilder": 8307,
			"leene": 8308,
			"yellow": 8309,
			"Ġsturdy": 8310,
			"ĠWINE": 8311,
			"Ġmuch": 8312,
			"Ġgazelle": 8313,
			"bre": 8314,
			"Ġfixing": 8315,
			"Ġfeathered": 8316,
			"Ġpullover": 8317,
			"Ġslipper": 8318,
			"leenex": 8319,
			"Ġsignpost": 8320,
			"Ġholiday": 8321,
			"ĠMagazines": 8322,
			"ĠMagnet": 8323,
			"written": 8324,
			"Ġdandel": 8325,
			"ĠCAN": 8326,
			"Ġparka": 8327,
			"ĠHotdog": 8328,
			"Ġswings": 8329,
			"Ġattemp": 8330,
			"Ġtrad": 8331,
			"ĠPartially": 8332,
			"Ġteenage": 8333,
			"Ġranch": 8334,
			"Ġneighborhood": 8335,
			"Ġswitched": 8336,
			"ĠBlond": 8337,
			"Ġobscured": 8338,
			"ĠCABIN": 8339,
			"ailable": 8340,
			"Ġtitle": 8341,
			"Ġeverything": 8342,
			"Ġsmelling": 8343,
			"ĠSaus": 8344,
			"Ġtarmacked": 8345,
			"Ġmitten": 8346,
			"meter": 8347,
			"Ġdrizzled": 8348,
			"Ġcookbook": 8349,
			"Ġxbox": 8350,
			"Ġparchment": 8351,
			"ĠWave": 8352,
			"ĠBASKET": 8353,
			"Ġsidecar": 8354,
			"ĠBATHROOM": 8355,
			"Ġphotograp": 8356,
			"ĠSeven": 8357,
			"Ġheadset": 8358,
			"OND": 8359,
			"ĠNECK": 8360,
			"ĠBIR": 8361,
			"Ġfinished": 8362,
			"Ġcode": 8363,
			"Ġmatches": 8364,
			"rank": 8365,
			"Ġsmallest": 8366,
			"ĠHAVE": 8367,
			"OON": 8368,
			"ĠTw": 8369,
			"ĠWrink": 8370,
			"Ġcilantro": 8371,
			"ĠRest": 8372,
			"itting": 8373,
			"Ġformed": 8374,
			"Ġmight": 8375,
			"Ġbreads": 8376,
			"Ġwolf": 8377,
			"Ġmount": 8378,
			"Ġbison": 8379,
			"Ġcoral": 8380,
			"Ġpackaged": 8381,
			"ĠSHEEP": 8382,
			"ĠPurse": 8383,
			"Ġguiding": 8384,
			"ĠHea": 8385,
			"enter": 8386,
			"Ġgrandfather": 8387,
			"ĠCLOUDS": 8388,
			"ometric": 8389,
			"Ġlayered": 8390,
			"ĠMONIT": 8391,
			"Ġcartons": 8392,
			"Ġbarrels": 8393,
			"ĠBlender": 8394,
			"Ġflatbread": 8395,
			"Ġclaim": 8396,
			"Ġanchored": 8397,
			"Ġbon": 8398,
			"usher": 8399,
			"merica": 8400,
			"ĠHappy": 8401,
			"ffles": 8402,
			"Donald": 8403,
			"Ġvans": 8404,
			"Ġhiking": 8405,
			"Ġmulticolor": 8406,
			"ĠPaint": 8407,
			"Ġhutch": 8408,
			"Ġrazor": 8409,
			"Ġdef": 8410,
			"ĠCanadian": 8411,
			"remely": 8412,
			"Ġconvertible": 8413,
			"Ġcotta": 8414,
			"ĠCOR": 8415,
			"Ġpupp": 8416,
			"Ġorganizer": 8417,
			"Ġquarter": 8418,
			"Ġtoen": 8419,
			"Ġshadowed": 8420,
			"Ġpins": 8421,
			"ALK": 8422,
			"reme": 8423,
			"Ġbackg": 8424,
			"Ġinfront": 8425,
			"part": 8426,
			"Ġtat": 8427,
			"ĠBell": 8428,
			"ĠCollar": 8429,
			"ĠKEYBOARD": 8430,
			"Ġretriever": 8431,
			"Ġvibrant": 8432,
			"Ġbaseline": 8433,
			"Ġthrew": 8434,
			"Ġrode": 8435,
			"rit": 8436,
			"ĠLAYING": 8437,
			"Ġlizard": 8438,
			"Ġbutcher": 8439,
			"ĠDogs": 8440,
			"ĠPants": 8441,
			"table": 8442,
			"ĠCrumb": 8443,
			"ĠLeafy": 8444,
			"ĠPU": 8445,
			"INES": 8446,
			"Ġunused": 8447,
			"ĠWicker": 8448,
			"Ġclipboard": 8449,
			"Ġbrocoli": 8450,
			"Ġcrew": 8451,
			"cker": 8452,
			"Ġsafari": 8453,
			"Ġbrid": 8454,
			"Ġaccessory": 8455,
			"Ġfest": 8456,
			"ĠCABINET": 8457,
			"Ġmats": 8458,
			"ĠFootprints": 8459,
			"Ġgob": 8460,
			"ĠMickey": 8461,
			"Ġreturn": 8462,
			"ĠRad": 8463,
			"Ġfighting": 8464,
			"Ġattaching": 8465,
			"Ġchess": 8466,
			"DY": 8467,
			"erkraut": 8468,
			"ĠPin": 8469,
			"ĠHay": 8470,
			"Ġoverhanging": 8471,
			"ĠSpinach": 8472,
			"Ġbacked": 8473,
			"ĠView": 8474,
			"Ġbluish": 8475,
			"where": 8476,
			"Ġtricycle": 8477,
			"nister": 8478,
			"ĠTissue": 8479,
			"igher": 8480,
			"ĠPre": 8481,
			"ĠLU": 8482,
			"ĠDisplay": 8483,
			"Ġcurrently": 8484,
			"Ġpour": 8485,
			"Ġnature": 8486,
			"ĠVer": 8487,
			"Ġclas": 8488,
			"Ġpiping": 8489,
			"Ġwording": 8490,
			"ĠShorts": 8491,
			"OOKING": 8492,
			"izers": 8493,
			"estic": 8494,
			"ĠTiled": 8495,
			"ĠArrow": 8496,
			"Ġmult": 8497,
			"ĠVASE": 8498,
			"Ġspinning": 8499,
			"Ġsleepy": 8500,
			"ĠLow": 8501,
			"Ġtomatos": 8502,
			"Ġinsignia": 8503,
			"ush": 8504,
			"ĠDeep": 8505,
			"ĠMONITOR": 8506,
			"ĠMcDonald": 8507,
			"Ġintern": 8508,
			"Ġchubby": 8509,
			"ĠLOG": 8510,
			"Ġ16": 8511,
			"ĠVideo": 8512,
			"ĠARM": 8513,
			"station": 8514,
			"ĠCro": 8515,
			"Ġtasting": 8516,
			"Ġshack": 8517,
			"ĠWINDOWS": 8518,
			"Ġblen": 8519,
			"ĠBUN": 8520,
			"Ġmag": 8521,
			"Ġgates": 8522,
			"Ġfuel": 8523,
			"face": 8524,
			"Ġmetro": 8525,
			"Ġclumps": 8526,
			"vin": 8527,
			"Ġmetalic": 8528,
			"Ġcentral": 8529,
			"ĠMug": 8530,
			"ĠBRICK": 8531,
			"ĠWOR": 8532,
			"Ġnotice": 8533,
			"Ġscratches": 8534,
			"ĠLargest": 8535,
			"ĠRACKET": 8536,
			"ĠChimney": 8537,
			"Ġventilation": 8538,
			"Ġconversation": 8539,
			"water": 8540,
			"ĠFur": 8541,
			"Ġcoloured": 8542,
			"ĠSEAT": 8543,
			"ĠBANAN": 8544,
			"tick": 8545,
			"rier": 8546,
			"Ġhisto": 8547,
			"bur": 8548,
			"Ġsou": 8549,
			"ĠExterior": 8550,
			"ĠCLEAR": 8551,
			"Ġpliers": 8552,
			"Ġplains": 8553,
			"Ġglow": 8554,
			"Ġraising": 8555,
			"Ġdashboard": 8556,
			"Ġmuffler": 8557,
			"Ġpelican": 8558,
			"Ġhousing": 8559,
			"olin": 8560,
			"ĠDrain": 8561,
			"ĠNUMBER": 8562,
			"gated": 8563,
			"Ġgrouping": 8564,
			"Ġhairbrush": 8565,
			"Ġsealed": 8566,
			"Ġavailable": 8567,
			"ĠMostly": 8568,
			"tened": 8569,
			"Ġfres": 8570,
			"Ġgloomy": 8571,
			"Ġornamental": 8572,
			"Ġcasted": 8573,
			"ĠNOSE": 8574,
			"ism": 8575,
			"Ġskii": 8576,
			"Ġfilter": 8577,
			"ĠQu": 8578,
			"gandy": 8579,
			"Ġtanktop": 8580,
			"Ġclown": 8581,
			"Ġbells": 8582,
			"ĠMotorcycles": 8583,
			"estry": 8584,
			"ĠBun": 8585,
			"Ġsupply": 8586,
			"Ġopaque": 8587,
			"Ġrink": 8588,
			"Ġpy": 8589,
			"isting": 8590,
			"Ġgeometric": 8591,
			"uted": 8592,
			"ĠFO": 8593,
			"Ġlinks": 8594,
			"Ġfoundation": 8595,
			"Ġleaned": 8596,
			"Ġhigher": 8597,
			"rise": 8598,
			"Ġchaise": 8599,
			"fully": 8600,
			"Ġpuff": 8601,
			"Ġsilvertone": 8602,
			"Ġskaters": 8603,
			"Ġcoal": 8604,
			"ĠGran": 8605,
			"ĠElectronic": 8606,
			"ĠFish": 8607,
			"Ġontop": 8608,
			"Ġunus": 8609,
			"Ġwarehouse": 8610,
			"ĠBreak": 8611,
			"Ġflowery": 8612,
			"Ġdrives": 8613,
			"Ġtrails": 8614,
			"Ġaeroplane": 8615,
			"Ġofficial": 8616,
			"ĠStarbucks": 8617,
			"ĠBaked": 8618,
			"lin": 8619,
			"Ġmedia": 8620,
			"Ġ50": 8621,
			"painted": 8622,
			"andom": 8623,
			"Ġpoll": 8624,
			"Ġprotecting": 8625,
			"ĠDrawers": 8626,
			"Ġdetector": 8627,
			"ĠFRE": 8628,
			"Ġseasonings": 8629,
			"Ġpeaks": 8630,
			"Ġjudge": 8631,
			"Ġmakeup": 8632,
			"rio": 8633,
			"ĠMOUSE": 8634,
			"Ġhitter": 8635,
			"tering": 8636,
			"Ġdragging": 8637,
			"Ġchange": 8638,
			"Ġconten": 8639,
			"ASH": 8640,
			"Ġlocation": 8641,
			"Ġfisherman": 8642,
			"Ġprov": 8643,
			"Ġhaw": 8644,
			"Ġhummus": 8645,
			"Ġclapping": 8646,
			"Ġarchitect": 8647,
			"ĠSHELF": 8648,
			"ĠBicycles": 8649,
			"rer": 8650,
			"ĠMother": 8651,
			"Ġfolders": 8652,
			"Ġsauteed": 8653,
			"haw": 8654,
			"Ġmor": 8655,
			"GH": 8656,
			"Ġstrung": 8657,
			"Ġnow": 8658,
			"ĠRice": 8659,
			"ud": 8660,
			"Ġ30": 8661,
			"Ġpiercing": 8662,
			"Ġpir": 8663,
			"Ġgrizzly": 8664,
			"Ġlivingroom": 8665,
			"reg": 8666,
			"ĠPaw": 8667,
			"ulated": 8668,
			"Ġwaffles": 8669,
			"ĠPoin": 8670,
			"Ġpresentation": 8671,
			"ĠRusty": 8672,
			"Ġgoblet": 8673,
			"fashioned": 8674,
			"ories": 8675,
			"cho": 8676,
			"ĠCenter": 8677,
			"leg": 8678,
			"Ġsteer": 8679,
			"Ġflipped": 8680,
			"Ġmarbled": 8681,
			"Ġtulips": 8682,
			"ede": 8683,
			"Ġattention": 8684,
			"Ġhump": 8685,
			"Ġdetails": 8686,
			"Ġcrout": 8687,
			"Ġpamphlet": 8688,
			"lopes": 8689,
			"spapers": 8690,
			"ĠDRESS": 8691,
			"Ġtriangles": 8692,
			"ĠBa": 8693,
			"Ġpesto": 8694,
			"Ġbuffalo": 8695,
			"ĠSHOE": 8696,
			"Ġugly": 8697,
			"ĠGerman": 8698,
			"ĠDOU": 8699,
			"ĠReflections": 8700,
			"Ġleague": 8701,
			"Ġyet": 8702,
			"enty": 8703,
			"Ġgraphics": 8704,
			"ĠCURT": 8705,
			"Ġsharing": 8706,
			"Ġgrains": 8707,
			"Ġhighli": 8708,
			"ending": 8709,
			"Ġnylon": 8710,
			"Ġvegetarian": 8711,
			"ROSS": 8712,
			"ĠCURTAIN": 8713,
			"cola": 8714,
			"Ġcrink": 8715,
			"Ġtossing": 8716,
			"Ġkale": 8717,
			"Ġgummy": 8718,
			"Ġled": 8719,
			"LEE": 8720,
			"Ġpracticing": 8721,
			"Ġmedical": 8722,
			"Ġbinding": 8723,
			"Ġvast": 8724,
			"Ġzone": 8725,
			"ĠNumerous": 8726,
			"WALK": 8727,
			"boards": 8728,
			"Ġmachines": 8729,
			"ĠSausage": 8730,
			"Ġfashion": 8731,
			"Ġalph": 8732,
			"ĠVol": 8733,
			"tical": 8734,
			"IFE": 8735,
			"ĠSi": 8736,
			"Ġcounters": 8737,
			"oped": 8738,
			"ĠLI": 8739,
			"Ġramps": 8740,
			"ĠIm": 8741,
			"ĠCandles": 8742,
			"Ġintricate": 8743,
			"verage": 8744,
			"Ġcrushed": 8745,
			"ĠSUNG": 8746,
			"ĠTRAFF": 8747,
			"ĠEggs": 8748,
			"ĠSUNGLASSES": 8749,
			"orth": 8750,
			"Ġstrange": 8751,
			"aman": 8752,
			"market": 8753,
			"Ġ22": 8754,
			"Ġfilming": 8755,
			"ĠTRAFFIC": 8756,
			"lap": 8757,
			"Ġmenus": 8758,
			"Ġvio": 8759,
			"OOT": 8760,
			"Ġshawl": 8761,
			"cription": 8762,
			"ĠSANDW": 8763,
			"ĠSoda": 8764,
			"cases": 8765,
			"Ġpaned": 8766,
			"ĠAB": 8767,
			"Ġheadphone": 8768,
			"ĠNOT": 8769,
			"Ġstyled": 8770,
			"ĠTIE": 8771,
			"Ġbuidling": 8772,
			"CD": 8773,
			"Ġmes": 8774,
			"Ġships": 8775,
			"ĠZi": 8776,
			"ĠSANDWICH": 8777,
			"ĠHolding": 8778,
			"Ġawa": 8779,
			"ĠProt": 8780,
			"ĠBurgundy": 8781,
			"ask": 8782,
			"Ġpuddles": 8783,
			"Ġnames": 8784,
			"neck": 8785,
			"Ġsafe": 8786,
			"ĠCircle": 8787,
			"Ġsupermarket": 8788,
			"TY": 8789,
			"Ġdual": 8790,
			"ĠOffice": 8791,
			"Ġsau": 8792,
			"ucc": 8793,
			"ĠKitty": 8794,
			"tch": 8795,
			"Ġknow": 8796,
			"ĠDigital": 8797,
			"Ġbitten": 8798,
			"ĠSAU": 8799,
			"ĠBUT": 8800,
			"ĠKnives": 8801,
			"ĠSCREEN": 8802,
			"ude": 8803,
			"bin": 8804,
			"ually": 8805,
			"Ġjaw": 8806,
			"ota": 8807,
			"Ġconnector": 8808,
			"Ġgest": 8809,
			"ĠCords": 8810,
			"uty": 8811,
			"rette": 8812,
			"cover": 8813,
			"ĠNot": 8814,
			"ĠSLEE": 8815,
			"cream": 8816,
			"estern": 8817,
			"ĠPLAYING": 8818,
			"Ġmoniter": 8819,
			"Ġentree": 8820,
			"ĠSHORT": 8821,
			"Ġ33": 8822,
			"wall": 8823,
			"ĠOnly": 8824,
			"ĠNAP": 8825,
			"Ġafrican": 8826,
			"ba": 8827,
			"por": 8828,
			"gnant": 8829,
			"Ġuncut": 8830,
			"ĠSWEAT": 8831,
			"Ġsubmer": 8832,
			"Ġtraditional": 8833,
			"abet": 8834,
			"Ġsmiles": 8835,
			"Ġflagpole": 8836,
			"inter": 8837,
			"ĠIron": 8838,
			"Ġstarting": 8839,
			"Ġhandicapped": 8840,
			"rests": 8841,
			"Ġincolor": 8842,
			"ĠDOWN": 8843,
			"lazed": 8844,
			"ĠHotel": 8845,
			"Ġmarquee": 8846,
			"Ġfreeway": 8847,
			"kely": 8848,
			"ĠCer": 8849,
			"ĠVertical": 8850,
			"OOL": 8851,
			"ĠLED": 8852,
			"Ġwineglass": 8853,
			"etah": 8854,
			"ĠCeramic": 8855,
			"YING": 8856,
			"Ġperfect": 8857,
			"Ġ17": 8858,
			"ĠCHEESE": 8859,
			"Ġrural": 8860,
			"Ġseper": 8861,
			"wash": 8862,
			"ĠLOGO": 8863,
			"ĠWhole": 8864,
			"READ": 8865,
			"Ġlowered": 8866,
			"fish": 8867,
			"Ġseas": 8868,
			"Ġenclosing": 8869,
			"Ġbec": 8870,
			"ĠSIDEWALK": 8871,
			"Ġfas": 8872,
			"ĠVE": 8873,
			"Ġflavor": 8874,
			"Ġbackrest": 8875,
			"ĠFOUR": 8876,
			"ĠGlove": 8877,
			"PS": 8878,
			"ĠDist": 8879,
			"NING": 8880,
			"Ġtobo": 8881,
			"ĠCELL": 8882,
			"LED": 8883,
			"Ġbrowns": 8884,
			"Ġanchor": 8885,
			"agging": 8886,
			"Ġmusical": 8887,
			"ydrant": 8888,
			"Ġwere": 8889,
			"ckered": 8890,
			"ĠPIECE": 8891,
			"ĠWed": 8892,
			"Ġextremely": 8893,
			"veled": 8894,
			"ĠVent": 8895,
			"ston": 8896,
			"Ġhilltop": 8897,
			"Ġillust": 8898,
			"fle": 8899,
			"Ġtowing": 8900,
			"Ġcurves": 8901,
			"Ġgoalie": 8902,
			"Ġadjustable": 8903,
			"Ġhunched": 8904,
			"Ġforested": 8905,
			"Ġsoy": 8906,
			"ĠDuck": 8907,
			"Ġcloser": 8908,
			"ĠBull": 8909,
			"hor": 8910,
			"nc": 8911,
			"etian": 8912,
			"Ġcasual": 8913,
			"ĠArched": 8914,
			"Ġswans": 8915,
			"Ġpeaking": 8916,
			"ĠMicro": 8917,
			"Ġchart": 8918,
			"Ġhoofs": 8919,
			"ĠCUT": 8920,
			"ĠPattern": 8921,
			"ĠKITE": 8922,
			"Ġalphabet": 8923,
			"Ġdanger": 8924,
			"Ġcrayon": 8925,
			"itam": 8926,
			"Ġmittens": 8927,
			"Ġsaw": 8928,
			"Ġenc": 8929,
			"OTH": 8930,
			"ĠOVEN": 8931,
			"Ġraf": 8932,
			"Ġcountertops": 8933,
			"Ġfern": 8934,
			"Ġkneepads": 8935,
			"Ġela": 8936,
			"ĠPAIN": 8937,
			"ĠUtensils": 8938,
			"Ġflusher": 8939,
			"Ġgren": 8940,
			"Ġ$": 8941,
			"Ġwilderness": 8942,
			"ĠDried": 8943,
			"ĠRacket": 8944,
			"ĠDoorway": 8945,
			"Ġgrounds": 8946,
			"ĠDesktop": 8947,
			"sticks": 8948,
			"ga": 8949,
			"off": 8950,
			"Ġdolly": 8951,
			"ĠNAPKIN": 8952,
			"Ġarmor": 8953,
			"Ġsking": 8954,
			"AME": 8955,
			"ĠDelicious": 8956,
			"ĠMercedes": 8957,
			"Ġsubmerged": 8958,
			"Ġfont": 8959,
			"Ġsunb": 8960,
			"ISB": 8961,
			"Ġdiscs": 8962,
			"ĠToothbrush": 8963,
			"belly": 8964,
			"wis": 8965,
			"Ġhanded": 8966,
			"Ġquite": 8967,
			"Ġroads": 8968,
			"Ġbust": 8969,
			"ĠOval": 8970,
			"ĠElderly": 8971,
			"arded": 8972,
			"Ġsphe": 8973,
			"Ġgalloping": 8974,
			"Ġump": 8975,
			"ROT": 8976,
			"dri": 8977,
			"ĠOther": 8978,
			"Ġexercise": 8979,
			"Ġburied": 8980,
			"edded": 8981,
			"NK": 8982,
			"11": 8983,
			"Ġbrocco": 8984,
			"Ġadvertis": 8985,
			"ĠIll": 8986,
			"ĠHeadphones": 8987,
			"Ġcontents": 8988,
			"Ġtupperware": 8989,
			"UL": 8990,
			"Ġgor": 8991,
			"Ġstandard": 8992,
			"ĠLCD": 8993,
			"ĠRainbow": 8994,
			"Ġpocketbook": 8995,
			"uropean": 8996,
			"UTS": 8997,
			"Ġgrooves": 8998,
			"Ġdig": 8999,
			"Ġautumn": 9000,
			"Ġpacifier": 9001,
			"ĠChunk": 9002,
			"Ġprepares": 9003,
			"ĠFruits": 9004,
			"Ġattempting": 9005,
			"Ġstub": 9006,
			"otic": 9007,
			"Ġmaintain": 9008,
			"pherd": 9009,
			"Ġstrands": 9010,
			"agie": 9011,
			"Ġplow": 9012,
			"Ġrays": 9013,
			"Ġlightly": 9014,
			"Ġunf": 9015,
			"teria": 9016,
			"Ġplated": 9017,
			"ented": 9018,
			"Ġhaul": 9019,
			"mbers": 9020,
			"most": 9021,
			"ĠFRISB": 9022,
			"Ġgrove": 9023,
			"ĠAL": 9024,
			"illas": 9025,
			"ĠUtility": 9026,
			"ĠFen": 9027,
			"Ġcrocheted": 9028,
			"ĠPEPP": 9029,
			"Ġwok": 9030,
			"Ġhandmade": 9031,
			"Ġstrewn": 9032,
			"structed": 9033,
			"ĠItalian": 9034,
			"Ġcieling": 9035,
			"ĠRub": 9036,
			"ĠLEAVES": 9037,
			"anced": 9038,
			"ĠAC": 9039,
			"Ġcandlestick": 9040,
			"Ġchipping": 9041,
			"Ġflushing": 9042,
			"ĠAirport": 9043,
			"ECT": 9044,
			"zed": 9045,
			"ĠAPP": 9046,
			"ternal": 9047,
			"ĠCock": 9048,
			"Ġlonger": 9049,
			"ĠLush": 9050,
			"tower": 9051,
			"Ġveil": 9052,
			"Ġcapri": 9053,
			"Ġchefs": 9054,
			"Ġarri": 9055,
			"Ġsnowpants": 9056,
			"Ġsomeones": 9057,
			"Ġguests": 9058,
			"Ġ23": 9059,
			"Ġindicate": 9060,
			"Ġtapestry": 9061,
			"asco": 9062,
			"lam": 9063,
			"ĠWork": 9064,
			"ĠTab": 9065,
			"Ġgraze": 9066,
			"Ġlocks": 9067,
			"Ġtopper": 9068,
			"Ġrandom": 9069,
			"Ġviolin": 9070,
			"gate": 9071,
			"Ġrifle": 9072,
			"Ġpoly": 9073,
			"Ġsiting": 9074,
			"Ġpedals": 9075,
			"Ġcemented": 9076,
			"Ġast": 9077,
			"Ġrestu": 9078,
			"ĠWhisk": 9079,
			"ĠThrow": 9080,
			"nown": 9081,
			"Ġfrothy": 9082,
			"opping": 9083,
			"Ġpoop": 9084,
			"end": 9085,
			"Ġwhee": 9086,
			"Ġskiiers": 9087,
			"ĠMAR": 9088,
			"ternoon": 9089,
			"bank": 9090,
			"Ġappetizer": 9091,
			"Ġindian": 9092,
			"Ġqueen": 9093,
			"oid": 9094,
			"Ġbuying": 9095,
			"Ġcommun": 9096,
			"ĠPaved": 9097,
			"GER": 9098,
			"ĠGrilled": 9099,
			"Ġincluding": 9100,
			"imote": 9101,
			"Ġrung": 9102,
			"Ġembedded": 9103,
			"Ġfoul": 9104,
			"Ġpropell": 9105,
			"ĠFRISBEE": 9106,
			"rating": 9107,
			"Ġwashed": 9108,
			"Ġmayo": 9109,
			"ĠJapanese": 9110,
			"ĠBIRD": 9111,
			"Ġfelt": 9112,
			"Ġbackward": 9113,
			"hell": 9114,
			"ĠPots": 9115,
			"Ġcolander": 9116,
			"Ġtrio": 9117,
			"Ġtwenty": 9118,
			"IA": 9119,
			"anse": 9120,
			"Ġripped": 9121,
			"Ġveins": 9122,
			"ĠNice": 9123,
			"Ġva": 9124,
			"pening": 9125,
			"Ġsatche": 9126,
			"ĠMushrooms": 9127,
			"tes": 9128,
			"Ġcheetah": 9129,
			"Ġhumming": 9130,
			"Ġrecycling": 9131,
			"Ġbulky": 9132,
			"ics": 9133,
			"ĠBIG": 9134,
			"ĠOnion": 9135,
			"ĠVERY": 9136,
			"mill": 9137,
			"Ġmaj": 9138,
			"Ġeachother": 9139,
			"ĠRIDING": 9140,
			"kia": 9141,
			"Ġhandwritten": 9142,
			"Ġwebcam": 9143,
			"Ġleaping": 9144,
			"ĠLOOKING": 9145,
			"ĠWord": 9146,
			"ĠSolid": 9147,
			"Ġgull": 9148,
			"umes": 9149,
			"ĠOFF": 9150,
			"ĠBUSH": 9151,
			"Ġexpanse": 9152,
			"Ġinflated": 9153,
			"Ġdad": 9154,
			"rised": 9155,
			"ĠSOME": 9156,
			"Ġpais": 9157,
			"ĠWell": 9158,
			"Ġhoagie": 9159,
			"Ġcrease": 9160,
			"cument": 9161,
			"Ġarticle": 9162,
			"Ġstucco": 9163,
			"ison": 9164,
			"ĠMud": 9165,
			"Ġtaxis": 9166,
			"Ġsauerkraut": 9167,
			"Ġcrosses": 9168,
			"Ġfeatures": 9169,
			"Ġcranberries": 9170,
			"sion": 9171,
			"Ġcorpor": 9172,
			"ĠOLD": 9173,
			"ĠDishes": 9174,
			"ĠWith": 9175,
			"Ġshipping": 9176,
			"Ġbrimmed": 9177,
			"ĠLadder": 9178,
			"cycle": 9179,
			"Ġtumb": 9180,
			"ĠEver": 9181,
			"ĠPoles": 9182,
			"Ġadorable": 9183,
			"ĠWay": 9184,
			"Ġdiet": 9185,
			"Ġunusual": 9186,
			"Ġregular": 9187,
			"ĠSoup": 9188,
			"ĠDu": 9189,
			"Ġbeginning": 9190,
			"Ġbonnet": 9191,
			"Ġgot": 9192,
			"Ġengra": 9193,
			"bul": 9194,
			"ĠCAM": 9195,
			"ĠSTRIPED": 9196,
			"je": 9197,
			"ĠSub": 9198,
			"Ġmill": 9199,
			"Ġblackberry": 9200,
			"Ġwiring": 9201,
			"ĠFACE": 9202,
			"ĠMOUN": 9203,
			"Ġtassels": 9204,
			"Ġturban": 9205,
			"Ġcheckerboard": 9206,
			"Ġnewspapers": 9207,
			"icer": 9208,
			"tending": 9209,
			"ĠNote": 9210,
			"Ġmedal": 9211,
			"ooting": 9212,
			"clock": 9213,
			"WAY": 9214,
			"nts": 9215,
			"atting": 9216,
			"ĠWRIST": 9217,
			"ĠREFLE": 9218,
			"Ġelmo": 9219,
			"Ġpara": 9220,
			"GET": 9221,
			"Ġdollar": 9222,
			"Ġcubed": 9223,
			"ĠEntrance": 9224,
			"Ġrecording": 9225,
			"gant": 9226,
			"rass": 9227,
			"Ġgree": 9228,
			"engers": 9229,
			"nknown": 9230,
			"ighted": 9231,
			"ĠCracks": 9232,
			"Ġtanker": 9233,
			"Ġmist": 9234,
			"iche": 9235,
			"nchy": 9236,
			"ĠGiant": 9237,
			"Ġhydrants": 9238,
			"Ġmeets": 9239,
			"Ġni": 9240,
			"Ġhello": 9241,
			"Ġburgandy": 9242,
			"Ġcafeteria": 9243,
			"Ġcharm": 9244,
			"Ġcapp": 9245,
			"ĠCONTAIN": 9246,
			"Ġhouseplant": 9247,
			"ĠSeason": 9248,
			"Ġbrackets": 9249,
			"eared": 9250,
			"Ġfox": 9251,
			"Ġbedsheet": 9252,
			"Ġstored": 9253,
			"Ġheav": 9254,
			"Ġbid": 9255,
			"ĠImage": 9256,
			"Ġtortillas": 9257,
			"Ġdepot": 9258,
			"Ġresid": 9259,
			"60": 9260,
			"Ġsaver": 9261,
			"Ġinstructions": 9262,
			"ĠWa": 9263,
			"Ġonlook": 9264,
			"Ġsprig": 9265,
			"Ġwhis": 9266,
			"Ġlon": 9267,
			"ĠCrisp": 9268,
			"Ġflavo": 9269,
			"Ġcomes": 9270,
			"Ġmember": 9271,
			"Ġcoup": 9272,
			"ĠWA": 9273,
			"ĠBru": 9274,
			"Ġalb": 9275,
			"Ġlable": 9276,
			"ĠHEADL": 9277,
			"ĠEvergreen": 9278,
			"Ġairliner": 9279,
			"Ġfanny": 9280,
			"Ġtrackpad": 9281,
			"AST": 9282,
			"ĠToaster": 9283,
			"ggly": 9284,
			"ramid": 9285,
			"ĠNood": 9286,
			"Ġparasailing": 9287,
			"ĠAluminum": 9288,
			"ĠGloves": 9289,
			"Ġopt": 9290,
			"Ġgiraffee": 9291,
			"Ġhoody": 9292,
			"Ġvertically": 9293,
			"ĠSwe": 9294,
			"Ġspiked": 9295,
			"ĠProtective": 9296,
			"plane": 9297,
			"Ġrugs": 9298,
			"ĠCloud": 9299,
			"Ġprojection": 9300,
			"ĠPassengers": 9301,
			"ĠFIRE": 9302,
			"Ġraining": 9303,
			"frame": 9304,
			"Ġlobby": 9305,
			"Ġslip": 9306,
			"Ġsegment": 9307,
			"ooted": 9308,
			"ATING": 9309,
			"Ġspikes": 9310,
			"ĠBreakfast": 9311,
			"Ġmattresses": 9312,
			"Ġfocused": 9313,
			"ĠLiving": 9314,
			"Ġcapt": 9315,
			"orange": 9316,
			"ĠTOM": 9317,
			"ĠAng": 9318,
			"Ġknotted": 9319,
			"ĠSupp": 9320,
			"ĠHoriz": 9321,
			"ĠSmooth": 9322,
			"Ġneedle": 9323,
			"tra": 9324,
			"lymp": 9325,
			"ĠLET": 9326,
			"Ġcantal": 9327,
			"ĠLime": 9328,
			"Ġflaps": 9329,
			"Ġlikely": 9330,
			"Ġtemp": 9331,
			"Ġunderbelly": 9332,
			"ĠFOOT": 9333,
			"Ġpregnant": 9334,
			"Ġaccessories": 9335,
			"ĠAREA": 9336,
			"Ġpaisley": 9337,
			"ĠTong": 9338,
			"Ġspilled": 9339,
			"nished": 9340,
			"ĠJo": 9341,
			"bra": 9342,
			"Ġmiss": 9343,
			"Ġlittered": 9344,
			"Ġearly": 9345,
			"ĠRun": 9346,
			"Ġdiving": 9347,
			"vering": 9348,
			"iet": 9349,
			"Ġtet": 9350,
			"Ġrav": 9351,
			"Ġdirecting": 9352,
			"Ġvitam": 9353,
			"Ġpositioned": 9354,
			"Ġhex": 9355,
			"ĠLIGHTS": 9356,
			"rimmed": 9357,
			"Ġdocument": 9358,
			"ailed": 9359,
			"Ġtubes": 9360,
			"pted": 9361,
			"ĠCats": 9362,
			"ĠSpots": 9363,
			"Ġshiney": 9364,
			"Ġappetizers": 9365,
			"ĠGOLD": 9366,
			"cago": 9367,
			"RANT": 9368,
			"Ġgraff": 9369,
			"Ġmatress": 9370,
			"ĠONE": 9371,
			"ĠSofa": 9372,
			"ĠROOM": 9373,
			"ĠZipper": 9374,
			"Ġsuede": 9375,
			"tin": 9376,
			"Ġsala": 9377,
			"icto": 9378,
			"stop": 9379,
			"Ġbraids": 9380,
			"Ġcollage": 9381,
			"ĠObject": 9382,
			"Ġslit": 9383,
			"Ġwid": 9384,
			"Ġtransform": 9385,
			"aiian": 9386,
			"Ġfreshe": 9387,
			"ĠCompany": 9388,
			"Ġfudge": 9389,
			"Ġstreetlights": 9390,
			"UM": 9391,
			"ĠBRA": 9392,
			"ĠHam": 9393,
			"Ġprovid": 9394,
			"Ġpoured": 9395,
			"Ġdeterg": 9396,
			"Ġtal": 9397,
			"ĠMane": 9398,
			"Ġmortar": 9399,
			"Ġgradu": 9400,
			"ĠPow": 9401,
			"Ġener": 9402,
			"Ġviolet": 9403,
			"Ġmature": 9404,
			"stery": 9405,
			"Ġprices": 9406,
			"TAIN": 9407,
			"Ġframing": 9408,
			"Ġelbows": 9409,
			"ĠTRUNK": 9410,
			"Ġposes": 9411,
			"Ġyield": 9412,
			"ties": 9413,
			"Ġpackaging": 9414,
			"Ġgrinding": 9415,
			"ĠMA": 9416,
			"ĠRV": 9417,
			"Ġduct": 9418,
			"Ġfitting": 9419,
			"Ġker": 9420,
			"Ġtale": 9421,
			"ĠTrack": 9422,
			"Ġkleenex": 9423,
			"ebe": 9424,
			"ĠModern": 9425,
			"Ġafternoon": 9426,
			"OLI": 9427,
			"ĠHonda": 9428,
			"ĠAntique": 9429,
			"ĠSTOVE": 9430,
			"stool": 9431,
			"Ġrumpled": 9432,
			"rth": 9433,
			"Ġsight": 9434,
			"Ġtrophy": 9435,
			"Ġacti": 9436,
			"Ġfootste": 9437,
			"ĠWhiskers": 9438,
			"rect": 9439,
			"Ġdusk": 9440,
			"ĠSPOON": 9441,
			"ĠOrnate": 9442,
			"ĠHeavy": 9443,
			"ural": 9444,
			"Ġoverfl": 9445,
			"Ġbuttoned": 9446,
			"ĠBusiness": 9447,
			"Ġgooey": 9448,
			"VED": 9449,
			"ĠKing": 9450,
			"ATION": 9451,
			"Ġsavannah": 9452,
			"Ġspaces": 9453,
			"Ġrom": 9454,
			"Ġcheeks": 9455,
			"ĠWRIT": 9456,
			"Ġheap": 9457,
			"apple": 9458,
			"Ġpavil": 9459,
			"Ġfuse": 9460,
			"Ġhauling": 9461,
			"Ġpinkish": 9462,
			"Ġmeet": 9463,
			"Ġcorporate": 9464,
			"ĠFLAG": 9465,
			"Ġmechanism": 9466,
			"ĠBand": 9467,
			"ĠUmbrellas": 9468,
			"Ġcomfy": 9469,
			"Ġtossed": 9470,
			"Ġtau": 9471,
			"Ġclearing": 9472,
			"ĠRoom": 9473,
			"Ġjuicer": 9474,
			"Ġcombination": 9475,
			"Ġlinens": 9476,
			"Ġprogram": 9477,
			"Ġalbum": 9478,
			"itter": 9479,
			"arily": 9480,
			"Ġleafed": 9481,
			"cient": 9482,
			"Ġelegant": 9483,
			"Ġsewn": 9484,
			"Ġsecuring": 9485,
			"ĠTOMATO": 9486,
			"Ġreced": 9487,
			"ĠTu": 9488,
			"stic": 9489,
			"Ġtanned": 9490,
			"ĠRack": 9491,
			"ĠMIC": 9492,
			"peas": 9493,
			"Ġletting": 9494,
			"ĠWild": 9495,
			"ĠNeon": 9496,
			"ado": 9497,
			"Ġcobble": 9498,
			"ĠTeen": 9499,
			"Ġlive": 9500,
			"Ġbaseman": 9501,
			"ĠOuts": 9502,
			"Ġsoaps": 9503,
			"YD": 9504,
			"Ġcoins": 9505,
			"Ġbrochure": 9506,
			"ĠTv": 9507,
			"ĠSamsung": 9508,
			"ĠFries": 9509,
			"ĠMANY": 9510,
			"ĠPuppy": 9511,
			"ĠUpside": 9512,
			"Ġserious": 9513,
			"rang": 9514,
			"ĠHeart": 9515,
			"Ġrepair": 9516,
			"Ġupholstery": 9517,
			"Ġboom": 9518,
			"Ġinteresting": 9519,
			"Ġmicrow": 9520,
			"IP": 9521,
			"Ġspicy": 9522,
			"Ġclasped": 9523,
			"atorade": 9524,
			"ĠCheckered": 9525,
			"Ġbalanced": 9526,
			"Ġpooh": 9527,
			"Ġec": 9528,
			"tended": 9529,
			"ĠPropeller": 9530,
			"Ġswirls": 9531,
			"Ġbring": 9532,
			"Ġwindmill": 9533,
			"ĠCond": 9534,
			"Ġcorral": 9535,
			"sts": 9536,
			"ĠHeat": 9537,
			"Ġstatute": 9538,
			"Ġpleated": 9539,
			"Ġpyramid": 9540,
			"Ġhighchair": 9541,
			"Ġstable": 9542,
			"Ġthinly": 9543,
			"ingers": 9544,
			"otive": 9545,
			"Ġkiwis": 9546,
			"Ġgli": 9547,
			"fly": 9548,
			"aser": 9549,
			"lour": 9550,
			"SIDE": 9551,
			"umber": 9552,
			"Ġwiimote": 9553,
			"Ġtoday": 9554,
			"ĠFLOWER": 9555,
			"ĠFord": 9556,
			"well": 9557,
			"ĠDoll": 9558,
			"ĠGlazed": 9559,
			"Ġrather": 9560,
			"Ġsquin": 9561,
			"Ġdinning": 9562,
			"Ġsash": 9563,
			"Ġparrots": 9564,
			"Ġwashcloth": 9565,
			"ĠDoughnut": 9566,
			"uccino": 9567,
			"ĠCockpit": 9568,
			"dry": 9569,
			"Ġshake": 9570,
			"Ġfaux": 9571,
			"ooter": 9572,
			"Ġsteal": 9573,
			"ĠSUN": 9574,
			"ĠCHAIN": 9575,
			"ĠRiver": 9576,
			"ĠGLO": 9577,
			"Ġpearls": 9578,
			"ona": 9579,
			"Ġrivet": 9580,
			"Ġbee": 9581,
			"Ġcomplex": 9582,
			"Ġcros": 9583,
			"Ġmaintained": 9584,
			"Ġdyed": 9585,
			"Ġunb": 9586,
			"cs": 9587,
			"Ġplacard": 9588,
			"IEW": 9589,
			"Ġrap": 9590,
			"life": 9591,
			"ĠHaz": 9592,
			"Ġtacked": 9593,
			"ĠStones": 9594,
			"PLA": 9595,
			"Ġcho": 9596,
			"Ġbeat": 9597,
			"Ġdips": 9598,
			"held": 9599,
			"Ġconnection": 9600,
			"ĠAdvertising": 9601,
			"Ġdetergent": 9602,
			"Ġearbu": 9603,
			"ĠAw": 9604,
			"Ġumb": 9605,
			"Ġrhin": 9606,
			"ĠGrab": 9607,
			"Ġpavilion": 9608,
			"ĠBou": 9609,
			"Ġedible": 9610,
			"Ġcome": 9611,
			"Ġmitts": 9612,
			"Ġdarkness": 9613,
			"Ġsilhouet": 9614,
			"dor": 9615,
			"UFF": 9616,
			"Ġmean": 9617,
			"ĠHerd": 9618,
			"longated": 9619,
			"Ġarmrests": 9620,
			"Ġwalker": 9621,
			"Ġhummingbird": 9622,
			"Ġrotten": 9623,
			"ĠPavement": 9624,
			"Ġgril": 9625,
			"Ġchickpeas": 9626,
			"Ġfronds": 9627,
			"ipe": 9628,
			"Ġsource": 9629,
			"Ġblackboard": 9630,
			"Ġunknown": 9631,
			"vets": 9632,
			"Ġelement": 9633,
			"flops": 9634,
			"Ġinstal": 9635,
			"LDER": 9636,
			"Ġintent": 9637,
			"artments": 9638,
			"ggan": 9639,
			"ĠĠĠ": 9640,
			"Ġpacks": 9641,
			"ATE": 9642,
			"Ġsmu": 9643,
			"Ġfleck": 9644,
			"Ġmarvin": 9645,
			"hel": 9646,
			"omin": 9647,
			"elta": 9648,
			"Ġspecies": 9649,
			"Ġreceding": 9650,
			"Ġwindscreen": 9651,
			"ormal": 9652,
			"Ġconveyer": 9653,
			"ĠPHOT": 9654,
			"Ġhalfway": 9655,
			"OOF": 9656,
			"ilage": 9657,
			"lege": 9658,
			"Ġmales": 9659,
			"Ġchives": 9660,
			"ĠServing": 9661,
			"Ġinset": 9662,
			"ĠStrawberries": 9663,
			"dent": 9664,
			"ĠCLOTH": 9665,
			"ipped": 9666,
			"Ġwritting": 9667,
			"Ġheeled": 9668,
			"Ġmarried": 9669,
			"ĠInterior": 9670,
			"Ġcappuccino": 9671,
			"Ġdread": 9672,
			"ĠWET": 9673,
			"Ġopenings": 9674,
			"Ġwetsuits": 9675,
			"bike": 9676,
			"rugated": 9677,
			"Ġsideline": 9678,
			"ĠCher": 9679,
			"Ġmembers": 9680,
			"CTION": 9681,
			"Ġ,": 9682,
			"nge": 9683,
			"Ġgrassland": 9684,
			"Ġpartic": 9685,
			"Ġsaucepan": 9686,
			"Ġcuts": 9687,
			"Ġlightbul": 9688,
			"ĠKNIFE": 9689,
			"ĠPatches": 9690,
			"what": 9691,
			"Ġoss": 9692,
			"Ġtufts": 9693,
			"ĠWedding": 9694,
			"ause": 9695,
			"Ġax": 9696,
			"Ġmy": 9697,
			"ĠTILE": 9698,
			"Ġsolar": 9699,
			"Ġskates": 9700,
			"Ġboarded": 9701,
			"Ġbulldog": 9702,
			"iser": 9703,
			"ĠHYD": 9704,
			"Ġdrums": 9705,
			"Ġnamed": 9706,
			"ĠOlives": 9707,
			"Ġfreshener": 9708,
			"Ġpers": 9709,
			"Ġexternal": 9710,
			"ioli": 9711,
			"uminated": 9712,
			"Ġmoutain": 9713,
			"Ġsidwalk": 9714,
			"Ġweird": 9715,
			"ĠSTICK": 9716,
			"ĠFoam": 9717,
			"ĠSWEATER": 9718,
			"ĠRider": 9719,
			"Ġruler": 9720,
			"Ġpylon": 9721,
			"ĠCurb": 9722,
			"OUNG": 9723,
			"Ġcanad": 9724,
			"Ġstopping": 9725,
			"Ġsqueeze": 9726,
			"Ġcompound": 9727,
			"Ġphotography": 9728,
			"Ġbrus": 9729,
			"ĠLiqu": 9730,
			"paved": 9731,
			"ĠToothp": 9732,
			"Ġcompartments": 9733,
			"iforn": 9734,
			"Ġfell": 9735,
			"Ġprinting": 9736,
			"Ġgirra": 9737,
			"Ġrefrigerators": 9738,
			"ens": 9739,
			"Ġsurp": 9740,
			"Ġwhie": 9741,
			"Ġflatbed": 9742,
			"ĠWalls": 9743,
[...]
