#version: 0.2 - Trained by `huggingface/tokenizers`
Ġ t
h e
Ġ o
Ġt he
Ġo f
Ġt o
l e
r i
a n
i n
t e
Ġ b
Ġ le
g h
gh t
Ġ ri
Ġ s
f t
Ġ a
Ġle ft
Ġri ght
Ġ w
r e
a s
Ġ c
Ġ p
Ġ h
e r
h i
Ġo n
l a
o w
m an
t t
c k
in g
a r
o n
o r
b u
i s
Ġh as
a l
Ġa tt
Ġ g
ri bu
ribu te
Ġatt ribute
Ġ f
e n
i r
a t
e t
e s
an d
Ġ is
Ġ in
o u
hi te
Ġ d
r a
i l
i t
r t
al l
o o
er s
in d
hi rt
te r
Ġw hite
t he
e l
Ġ man
a b
a ir
Ġ m
o man
e a
c h
la ck
c e
a d
Ġs t
ers on
e d
n g
ind ow
o l
d ing
Ġ l
as s
b o
Ġs i
o p
ab le
Ġb u
ri ng
g e
re e
l ow
t s
Ġb lack
ou n
o or
l u
a ck
Ġ and
Ġb o
Ġ n
s e
it h
Ġw ith
re d
s t
Ġs hirt
ea ring
Ġw earing
lu e
T he
r o
r ow
re en
e ar
v e
i c
il ding
Ġp la
o t
Ġt able
r u
Ġb lue
Ġ la
Ġw all
ar d
a p
s hirt
l ass
d e
g n
row n
Ġw oman
oo d
Ġw indow
m p
Ġs h
h air
oun d
Ġp erson
a in
r ound
o le
he ad
Ġs k
on t
w oman
Ġ u
f f
i ght
p erson
k e
Ġc ar
o g
Ġg reen
Ġt ree
Ġ e
Ġ red
op le
e ople
m b
u r
Ġb rown
Ġbu ilding
Ġ j
w indow
Ġc o
he l
oo k
v er
s h
a g
bo ard
Ġpla te
an ts
Ġt ra
tt le
ir l
l o
Ġa re
an t
Ġh and
v es
Ġg lass
a ter
ack et
Ġsi gn
r ass
Ġc hair
ar k
c le
' s
w hite
as e
m e
on e
el low
Ġb e
Ġc u
i on
t ree
Ġd oor
al k
r an
c ar
i re
Ġ y
c he
Ġl ight
w all
Ġ head
p h
Ġp ole
s i
re et
tt ing
Ġsi de
re es
Ġc ol
Ġp i
le t
Ġ k
hi s
Ġto p
p la
en ce
Ġh air
ff e
l oor
in k
Ġw ood
in e
m all
r ont
u re
p p
s s
Ġw ater
u mb
Ġn e
d y
r oo
Ġb ack
ow l
z z
w o
Ġsi tting
Ġh ol
l d
Ġ ro
Ġy ellow
Ġg rass
Ġst and
ra y
re l
l an
l ou
Ġ re
h at
zz a
y cle
il low
d s
Ġsk y
r ge
Ġf ront
or se
ch air
Ġle g
d oor
le ph
Ġp eople
n ow
Ġbu s
c o
h ind
a ves
Ġbe hind
c t
bu ilding
Ġst reet
u t
Ġd og
Ġbo y
ab in
Ġtra in
Ġg round
Ġbo ttle
Ġt ru
Ġj acket
i f
an s
t ure
Ġ an
a te
abin et
rel la
n k
t op
Ġhol ding
Ġg irl
c u
hel f
y e
m et
Ġs p
Ġp ants
he el
p eople
il ver
t his
a ce
y ing
Ġn ear
b lack
s k
p ole
d er
le g
Ġf loor
h and
u ter
or ts
mp uter
Ġstand ing
ar t
ck s
k et
a m
Ġb ag
Ġc at
ran ge
hi ld
g lass
Ġp h
bo y
Ġ v
l i
ic ture
ap er
ir a
Ġs u
a ge
el d
g round
leph ant
a il
e ans
Ġ ra
n if
t h
an an
Ġcol or
Ġp o
Ġc ont
ou se
hel met
Ġh at
Ġf ence
Ġd es
Ġsh o
en ch
p top
Ġt rees
Ġb ed
t able
x t
Ġg ray
w alk
Ġla rge
on g
y er
si gn
ot or
Ġo range
roo m
Ġs o
g irl
a y
oun ter
Ġa r
Ġb ear
i m
p e
rt ain
an g
le s
ra w
a u
lo ck
Ġpi zza
ira ffe
Ġb owl
Ġcu p
Ġf or
as t
te d
b all
e at
Ġs now
Ġs mall
Ġne xt
Ġ ear
Ġp l
t ter
i e
Ġh orse
ck et
i d
otor c
en t
o se
re ss
at or
Ġc lou
r ol
otorc ycle
Ġb at
Ġd is
ur f
g er
a ke
Ġf low
Ġa t
et al
he r
Ġb ook
Ġu mb
Ġro ad
z e
p o
Ġc ou
Ġp ark
at o
pla te
n is
i ke
e p
Ġf i
r or
ir ror
u l
Ġdes k
p ants
t o
Ġto w
Ġs ilver
ir t
Ġm etal
f ri
j acket
Ġar m
b ra
p le
Ġwood en
le r
Ġumb rella
ke y
a f
Ġf ood
Ġp illow
Ġb y
Ġbo x
Ġw alk
Ġph one
b ag
at ch
Ġla mp
b ook
Ġglass es
s u
umb er
Ġs and
i let
lan e
Ġc abinet
Ġs w
oo t
n e
n der
Ġco mputer
Ġc ounter
si de
g reen
Ġle aves
W hite
Ġs helf
Ġle tter
en nis
Ġw heel
M an
Ġe lephant
Ġtru ck
p art
Ġsh orts
ase ball
bo ttle
q u
or m
t wo
Ġb ench
ate board
a ve
p en
i ck
Ġc an
Ġh ang
ain er
re y
as h
b e
Ġs c
t rees
Ġb ri
Ġ helmet
ar m
ol i
Ġe ye
Ġt ennis
Ġd ark
u y
a k
ze bra
i te
Ġf ace
Ġp aper
Ġla ptop
Ġ The
te n
f low
Ġs urf
Ġside walk
Ġ ve
Ġ it
Ġhang ing
anan a
Ġa ir
el l
Ġg iraffe
Ġp icture
Ġj eans
re ad
ea k
or n
la r
ir d
Ġfi eld
or t
ger ator
Ġp ink
Ġclou ds
he ep
Ġm otorcycle
k in
as ket
t ra
g rass
ffe e
fri gerator
Ġpla yer
sh o
Ġp ot
Ġwalk ing
la g
Ġu nder
c c
l ight
it che
g et
r y
p illow
Ġb all
p i
Ġback ground
key board
Ġc hild
ra me
f ence
Ġo ut
Ġbo at
i de
b lue
Ġst ri
il ing
Ġl ong
Ġc lock
m ato
es e
Ġpo st
nif e
Ġsk i
im al
w i
Ġc ow
Ġf ro
t ru
cu p
bu s
m o
w ay
Ġt e
og o
Ġu p
pp er
g g
ind s
Ġd ress
ea ch
let ter
le v
p ack
Ġtru nk
le d
Ġl i
Ġsu it
Ġc h
Ġw ri
Ġb aseball
ap kin
ad e
e ye
ast ic
Ġc ap
ow n
bo ve
Ġa bove
Ġcont rol
Ġcou ch
ru it
or d
is ion
v en
s helf
b rown
lev ision
b owl
c abinet
sk y
Ġf ri
s o
Ġst o
Ġcu rtain
Ġs ink
Ġt i
Ġto ilet
Ġco at
Ġm irror
Ġg rey
d og
Ġsk ateboard
a re
r ash
Ġsho e
c ase
s p
Ġb ike
o red
it or
Ġbo ard
ea ter
Ġc le
c hild
w ater
c at
Ġp ur
Ġc he
Ġpark ed
get able
ot h
on itor
B lack
le aves
Ġt h
Ġt ail
ou th
Ġd own
Ġn ose
Ġo ver
bo x
nif orm
r ou
roo f
Ġc ake
la mp
hi cle
w heel
ic ycle
Ġt hat
i ce
lan ket
Ġtow el
Ġ zebra
Ġ ru
Ġwindow s
f loor
Ġt an
a me
ff ic
p ed
Ġpl astic
o m
su it
le ct
ro cc
Ġne ck
rocc oli
wi ch
Ġla dy
Ġsho es
Ġl ook
Ġo pen
Ġfro m
m ent
st reet
umb rella
Ġm u
itche n
h orse
Ġa pp
Ġt all
oun t
Ġflow er
ol d
p l
Ġp e
Ġcol ored
Ġan imal
Ġw ine
ow er
lo ve
be e
Ġcont ainer
or k
o on
Ġflow ers
Ġco ve
au c
Ġd ri
Ġbat h
p icture
Ġm ouse
ou ng
Ġpi e
f ood
he s
s bee
T wo
sh orts
Ġp ain
ount ain
t ing
anan as
j eans
e y
Ġd e
Ġle af
Ġleg s
Ġf rame
Ġ keyboard
la dy
Ġs te
raw er
Ġco ffee
Ġb each
on ut
co mputer
Ġra cket
Ġcle ar
Ġb el
i g
r op
la rge
pi zza
tra in
Ġb ird
u ts
al m
f ace
Ġ en
Ġs heep
am er
Ġk itchen
Ġ T
d ge
Ġf lag
s mall
sho e
t an
che r
Ġw atch
cu rtain
c lou
p lane
Ġ room
Ġ round
l oth
Ġv ase
Ġc e
Ġb asket
at ion
Ġs eat
Ġs e
flow er
y ellow
amer a
c ont
glass es
v ing
Ġc lo
Ġre frigerator
Ġd irt
Ġb anana
il l
Ġh ouse
b er
Ġt ire
Ġsc reen
Ġf l
ro t
Ġn umber
Ġpl ant
Ġc on
n ose
ab y
mo te
T his
Ġsto ve
po st
Ġa round
and le
t ail
s now
la ptop
Ġtra y
Ġb l
Ġg ra
Ġf ire
W oman
co at
Ġp lane
Ġk ite
Ġ S
Ġm onitor
Ġg uy
Ġk nife
W hat
at ing
Ġ A
in es
an ge
l l
p es
s c
hi eld
Ġsurf board
p aper
che s
or ange
Ġfor k
Ġo r
e lephant
Ġthe re
Ġri ding
Ġlook ing
au ce
ad ow
u ff
Ġo ven
b ack
Ġf oot
Ġm ade
is h
Ġl ogo
Ġhand le
ro ss
H E
ul l
p ot
Ġph ot
ri c
Ġpla ying
Ġche ese
Ġc ell
inds hield
Ġsh ort
Ġt ie
li ce
bo at
pla yer
Ġb read
R ed
window s
ing er
Ġf ruit
Ġwri st
Ġn apkin
g uy
Ġve hicle
Ġto mato
Ġst ick
b le
t y
Ġ B
Ġdis h
c on
b ench
c ake
d r
Ġp an
c ow
Ġ I
ur n
Ġback pack
u mp
auc et
ou t
Ġpie ce
ed ge
Ġro ck
Ġsand wich
b at
e et
m irror
c ou
ic row
Ġb icycle
icrow ave
d le
Ġcove red
Ġsw eater
Ġl ine
y dr
Ġbu n
c or
Ġpur ple
Ġb ran
ydr ant
Ġ roof
b el
f a
re n
Ġbri ck
Ġh is
d ress
c ap
Ġ W
Ġh ydrant
Ġve getable
Ġte levision
s and
Ġt wo
l y
flow ers
pl ant
d es
Ġm outh
Ġbath room
g iraffe
tru ck
Ġ O
ear s
l ong
s ilver
w ood
s w
Ġtra cks
s es
w ine
Ġu niform
ves t
Ġb lanket
Ġbu sh
ou r
u ce
b ed
u e
Ġof f
b anana
Ġphot o
Ġm en
c lock
Ġs le
eak er
G reen
Ġin side
t i
ow el
Ġtow er
cont ainer
n umber
le af
a w
tru nk
m otorcycle
Ġpe pper
f lect
Ġsp oon
Ġfri sbee
Ġ C
ne ck
p s
Ġtra ffic
uff ed
ph one
Ġc amera
Ġapp le
the r
t ire
Ġt rash
Ġstri ped
Ġp at
Ġh ill
Ġw ire
Ġ N
p et
ce an
t owel
s ed
Ġhand s
Ġce iling
S mall
I s
p ing
hi ck
y es
leg s
s po
Ġy oung
la d
u b
Ġs lice
Ġg love
ri n
Ġh ot
Ġb roccoli
to mato
Ġv an
Ġlight s
che d
B lue
eak ers
Ġe yes
car f
Ġcontrol ler
ro ad
mp ty
a ch
Ġb ananas
m en
re frigerator
v ed
Ġl id
P erson
b ike
n er
tt om
c re
tan ce
c ounter
Ġp ad
Ġg ame
Ġe ating
Ġdis tance
ct ion
Ġm ountain
Ġb ar
side walk
b asket
Ġbel ow
Ġn o
tt uce
ten s
ri es
bu sh
ed dy
I N
i gn
gg age
f ork
Ġair plane
s er
cou ch
b and
o me
r ying
Ġ her
A n
Ġb aby
o re
s heep
f oot
Ġc ook
Ġp air
Ġb es
pla y
i ve
tens il
Ġre mote
Ġs m
Ġletter s
Ġd rawer
te levision
st ing
l ogo
Ġs auce
r on
m u
Ġt eddy
ers ey
u m
to ilet
l ic
b ear
Ġbes ide
clou ds
en se
b ird
the s
b ri
f lag
c an
Ġst op
n apkin
Ġbook s
k nife
tt on
ri st
rou p
Ġla ying
Ġo cean
back pack
Ġ Y
f orm
st ick
pla ce
ro ck
sho es
he et
Ġd onut
Ġw et
pe pper
Ġsuit case
oo l
Ġs qu
h ouse
Ġ P
n eakers
a c
t rash
c ol
im age
s ter
sk i
co ffee
b read
B rown
Ġl ines
ct ator
Ġ he
rop e
ro ts
Ġso fa
che ese
Ġcou rt
Ġst one
Ġdri nk
g ra
ru sh
v ase
Ġc orn
f ruit
Ġd o
Ġsle e
lo ves
Ġchair s
Ġc loth
la ce
Ġare a
Ġpain ted
Ġ image
f rame
s ink
u niform
Ġst raw
umb ers
on d
Ġpark ing
s urf
ak er
at ue
a le
Ġm eat
ĠN o
b roccoli
cre te
Ġcar rying
ap ple
f ul
Ġf ull
sw eater
a lad
oo ts
Ġm icrowave
Ġmu g
Ġcar s
u n
m ed
se at
sc reen
Ġo ld
Ġbo ttom
Ġo uts
ĠY es
Ġf inger
door s
it y
ve getable
Ġc ur
or ds
Ġfl ying
des k
flect ion
Ġru g
A N
Ġg old
L ar
m outh
Ġpur se
spo on
ĠI S
t ie
book s
lass es
Ġcar rot
Ġm o
c lo
le ss
in y
b lanket
Lar ge
n ing
sk ateboard
Ġwheel s
Ġcol lar
Ġon ion
Ġd u
f it
Ġc andle
Ġc ross
th ree
R E
Ġcar t
Ġp art
v el
ber ry
b ran
Ġl ot
f ire
Ġouts ide
Ġc ord
Ġm e
d i
Ġcat cher
Ġf aucet
n o
p ur
Ġ vest
ass en
t form
qu id
Ġt ri
Ġdoor s
la te
Ġe mpty
on es
Ġp en
ri nk
wood en
Ġt ag
c loth
Ġg o
Ġf eet
Ġw indshield
w atch
g love
ru st
Ġl ying
Ġde cor
v an
o co
Ġwatch ing
k ite
on i
in ing
Ġti le
Ġl u
w ire
Ġc re
or ses
Ġbran ch
d ark
Ġli ttle
Ġru n
d rawer
ce let
Ġf ur
ra cket
w e
st and
ng lasses
Ġsu n
hi ch
Ġw a
og g
d ish
Ġco m
Ġa g
Ġt ak
T HE
Ġcar pet
Ġpot ato
Ġd ou
c es
Ġst uffed
B o
at her
Ġp alm
Ġcorn er
d onut
Ġpillow s
Ġsk irt
rol l
leph ants
Ġso me
b icycle
Ġj ar
i ge
Ġsnow board
Ġcon crete
Y ellow
u p
it ch
Ġcabinet s
d irt
Ġtan k
Ġcurtain s
letter s
li d
Ġw ing
c ell
rol ler
tra ffic
i i
Ġro cks
Ġri ng
Ġag ain
Ġdis play
car rot
s ing
Ġbu tton
Ġvegetable s
s te
Ġc one
ter n
t ray
b ananas
t all
Ġbuilding s
h ot
IN G
w rist
Ġto y
Ġsk is
Ġagain st
ogg les
Ġsqu are
r as
es t
Ġdes ign
ve hicle
sh room
itche r
i k
c andle
p ain
ave ment
al f
T E
Ġa long
Ġclou d
Ġm id
The re
m on
clou d
g ray
hick en
met al
oco late
Ġw ears
Ġst ack
rou gh
Ġbri ght
Ġbus hes
la t
Ġs carf
car s
row ing
Ġp aw
te rt
Ġear s
Ġb ig
a z
d a
Ġch ain
Ġlu ggage
tert op
oun tertop
g rey
Ġsh adow
on ion
Ġb ra
o ven
Ġcre am
Ġ M
air s
Ġd i
H I
hel ves
Ġm ark
Ġsm iling
Ġbat ter
Ġbel t
ight stand
t ub
ap ers
lect ric
w indshield
b l
A R
Ġh i
a ched
ira ff
ĠO N
Ġ F
st raw
Ġsh ade
c ord
Ġbottle s
o ve
iraff es
Ġd raw
sh adow
Ġe gg
S t
Ġo ther
Ġu tensil
Ġstri pes
ra p
Ġatt ached
Ġso cks
Ġt urn
a x
Ġcolor ful
c ross
Ġj ersey
Ġski er
Ġg roup
Ġclo sed
sand wich
m onitor
Ġbu r
st a
Ġp rin
Ġs heet
om en
Ġg loves
p alm
Ġsu nglasses
ap p
Ġb al
Ġpla ce
Ġsp e
l as
f ront
Ġen d
assen ger
Ġ edge
A re
al s
Ġp ro
is s
Ġle ather
o ts
Ġsp eaker
Ġra il
P eople
ver al
ra med
an imal
on uts
Ġpla tform
ax i
surf board
Ġsp ot
hand s
Ġf il
Ġstick er
as k
Ġle ttuce
Ġb oots
b aseball
ey es
Ġsw itch
the se
leph one
me at
ver y
no b
Ġf ore
Ġstri pe
Ġs alad
al t
L A
Ġs neakers
g es
Ġbran ches
t te
Ġw omen
a gn
Ġw orn
Ġcu tting
T h
Ġbe ing
g ar
Ġsh ower
cc er
Ġste el
Ġth rough
Ġh orses
f i
Ġwri ting
Ġsto re
f aucet
ie w
oli ce
row d
ra te
Ġv is
st ove
Ġa d
L E
p ink
ra in
re mote
on de
an ing
j e
S ilver
Ġh orn
ber ries
Ġti les
f inger
con y
Ġbri dge
cat cher
Ġj u
b rush
Ġsk ate
Ġclo thes
Ġst atue
ic ense
Ġbe er
Ġla bel
Ġ roll
rel las
b ras
pur se
Ġh ave
Ġpat tern
Ġcove ring
Ġfil led
as her
L ight
m ountain
Ġso ck
u s
Ġhol der
Ġ H
c one
Ġbl inds
ea d
Ġst ation
pp ers
bus hes
m at
Ġc ity
bu r
Ġin to
air plane
Ġplate s
j ar
mp ire
Ġbe ige
Ġclou dy
Ġb and
Ġfri dge
Ġmid dle
Ġ rope
Ġp avement
Ġbo dy
Ġcar rots
ru g
ĠT HE
ri age
curtain s
it i
Ġdoor way
Ġe lephants
or s
ed s
Ġs et
eat shirt
en ter
Ġb en
pp ed
ag az
ze bras
Ġsh ap
is t
Ġman e
Ġre ad
Ġf e
en e
Ġslee ve
Ġt v
Ġl icense
Ġpla y
col lar
h o
Ġu n
pe ctator
Ġg ar
sp eaker
b aby
u lar
Ġtowel s
Ġw ord
Ġg ate
p an
Ġ D
Ġt ea
C K
w asher
Ġra ck
ro cks
Ġle aning
Ġg rowing
agn et
Ġli quid
Ġb et
Ġc ard
Ġ Ġ
Ġpl ants
Ġco ver
ff iti
we en
Ġw ave
Ġout fit
hi ll
Ġout let
Ġp ast
bran ch
f or
fri sbee
Th ree
ri ght
Ġbet ween
building s
Ġneck lace
Ġc enter
Ġbu cket
fi eld
s auce
ing ers
i es
Ġpain t
Ġd ay
W ood
pot ato
as ter
Ġfire place
Ġbook shelf
Ġc hi
Ġon e
Ġme ter
Ġt ent
so ck
Ġk ne
ric an
Ġbun ch
suit case
m s
stick er
ct ang
ski er
Ġc ir
bat ter
Ġ G
Ġ ke
Ġb ase
ir ds
Ġv iew
Ġu mpire
Ġsc ene
s pectator
au s
Ġg iraffes
w ing
Ġp lan
chair s
Ġg ri
Ġcou ple
D o
et h
c amera
ted dy
ou ld
c ook
Ġc rust
eat her
Ġpo in
m icrowave
Ġw ii
Ġo b
ate d
li p
E R
Ġto oth
Ġsurf ace
Ġdri ving
t is
bu n
Ġb are
le ttuce
i ble
Ġcu t
cabinet s
Ġf ramed
Ġpain ting
Ġrun ning
Ġs it
est ri
Ġ very
Ġpole s
Ġp atch
Ġso ap
Ġhead board
Ġo li
Ġs ea
Ġsp ots
pen ser
Ġ row
Ġanimal s
ol l
it ure
auc er
for ter
Ġch ocolate
urn iture
c umber
Ġpo cket
Ġk nob
iss ors
Ġg oggles
ar s
Ġa p
f eet
Ġp a
e gg
t ag
s carf
s hi
Ġe lectric
Ġtable cloth
oo ter
ch up
Ġpi pe
Ġar row
S h
Ġe x
Ġsh aker
wheel s
Ġbl onde
Ġn et
Ġf urniture
R O
Ġap ron
P art
Ġ key
ĠO F
clo thes
Ġm i
b age
Ġn umbers
vegetable s
bl inds
p aw
d is
aus age
Ġbl ond
at ive
Ġl o
sk irt
v y
v ice
Ġtop ping
Ġf an
Ġbra celet
so me
Ġt his
Ġb le
Ġtra ck
ou s
h orn
bat h
m in
Ġb oot
Ġh ome
Ġso ccer
Ġspe ctator
Ġtri m
Ġa cross
Ġsk in
lic ense
light s
Ġh u
it ing
Ġarm s
eat h
Ġvis ible
Ġcow s
pillow s
Ġen g
ar row
Ġwire s
ten nis
ach ine
the re
Ġc ountertop
t ower
man e
p ark
O range
Ġtak en
W hich
ump ire
oo th
Ġdou gh
Ġapp les
Ġa s
Ġpla id
Ġsh op
Ġfro sting
Ġp itcher
door way
n y
st uffed
g o
Ġc and
ain less
ide o
Ġ zebras
ul ti
Ġn ightstand
Ġsh iny
la bel
ing s
Ġli ving
ch ing
Ġn ot
Ġdog s
Ġp assenger
st one
op e
ph ones
Ġski ing
Ġcont ain
Ġp ine
car pet
ar ding
ou p
Ġm at
f ur
Ġbo th
Ġj ump
i ler
Ġb ea
w are
Ġc ase
je ct
Ġf ac
Ġm ask
ran ges
b b
Ġh ood
et y
a con
Ġtomato es
bel t
Ġbear d
Ġra iling
Ġdress er
Ġf o
Ġre ctang
op y
Ġhi gh
pl ants
ne y
y oung
e red
Ġ ite
cle ar
Ġto get
il k
Ġtoget her
Ġpat h
d u
Bo y
Ġit s
ul t
Ġslice d
lou se
Ġh o
Ġl it
pp le
Ġm ar
Ġdraw ers
lu ggage
Ġc hicken
Ġst airs
x ture
E N
u tensil
g u
Ġfri es
j ersey
ap e
Ġs er
Ġcook ed
Ġ hel
Ġw aves
Ġbath tub
Ġpepper oni
rink les
m ney
so fa
Ġde ck
Ġumb rellas
Ġre flection
Ġdirt y
Ġt u
Ġsurf er
ge on
Ġm aker
W indow
S k
Ġp u
Ġso da
p ie
Ġg u
Ġbag s
agaz ine
Ġchild ren
pain ting
s neakers
Ġk ind
Ġsign s
Ġf lat
Ġpo ster
Ġeng ine
lic es
Ġ z
ri er
Ġcar riage
m el
Ġri ver
st ard
Ġh alf
Ġk id
Ġw ork
Ġt alk
Ġo ranges
ic ing
oo ler
ould er
out let
Ġbri cks
i er
Ġte lephone
car rots
f our
Ġs helves
Ġwa iting
Ġd onuts
ch ain
Ġp or
Ġturn ed
Ġcup board
Ġplay ers
Ġmu shroom
he d
Ġshap ed
Ġbear s
i cks
Ġb rush
i p
Ġpi le
Ġsw ing
Ġwet suit
Ġb ik
ten t
d ed
z ing
t ten
st ri
Ġc rowd
Ġ ice
Ġbu tter
re flection
Ġw ords
head board
Ġs y
Ġan y
Ġd ra
Ġw ra
ol ding
p ine
a mp
Ġy ou
c ted
Ġgrass y
snow board
Ġdis penser
Ġsho re
Ġth ree
m ing
af ety
Ġtalk ing
l and
Ġp ack
ser t
bottle s
at u
Wood en
Ġb an
Ġp ed
Ġp re
Ġdecor ation
am ic
Ġu sing
Ġth in
g ate
mo ke
ur ant
mb ol
op en
book shelf
Ġle tte
se ction
Ġju ice
Ġfi xture
Ġh ard
su e
T rees
b oot
er amic
Ġp apers
s heet
ti les
Ġke ttle
L O
Ġde vice
Ġc rate
mu g
or al
d raw
Ġwri tten
de cor
p ort
Ġgra zing
Ġlette ring
Ġcup s
eather s
it ar
w sp
Ġle mon
n ut
Ġsw eatshirt
pi pe
Ġbu l
Ġche ck
w ork
sta urant
bra celet
Ġskateboard er
Ġm achine
sh ort
out fit
bo arding
Ġdrink ing
Ġbal cony
se veral
Ġre flect
Ġear ring
car t
p ad
Ġt axi
h one
Ġpan el
a tt
Ġs ay
qu et
Ġstack ed
G irl
ri ne
Ġpi ck
olice man
b ar
an ce
wire s
bran ches
Ġpotato es
to y
ep ing
HI TE
Ġsh ow
Ġdo ck
ak es
be er
Ġdou ble
Ġv ideo
Ġp lu
st atue
Ġse ction
ag on
wsp aper
Ġj et
Ġrectang ular
Ġp ower
C at
Ġl og
neck lace
le ft
mu shroom
old ed
Ġs ail
Ġla d
Ġsurf ing
Ġre sting
s et
ran ce
su n
in i
b ow
D ark
w ord
Ġs n
ren t
ĠI N
te l
Ġcir cle
Ġti led
ĠT V
as es
Ġslee ved
Ġout doors
o ther
shi on
Ġb irds
Ġk n
Ġri ce
Ġkne e
Ġonion s
Ġst ar
Ġbox es
me rican
n et
Ġs ur
cont roller
ver tis
Ġf lu
Ġs l
bu cket
Ġwall s
Ġtak ing
ard s
p ast
sk is
cou ple
Ġmountain s
n a
Ġsc ooter
Ġa l
Ġcle an
ut if
Ġob ject
Ġ "
so cks
Ġn ame
b s
A T
Ġs aucer
Ġc able
N D
n umbers
i le
ent rance
d d
Ġgo at
it ion
Ġsw im
li quid
w ords
Ġw e
Ġcom ing
ver age
Ġcur b
park ing
li ttle
a ri
Ġgirl s
Ġsh oulder
pepper oni
Ġste ps
Ġc eramic
c l
z er
Ġpe ppers
utif ul
Ġsay s
Ġ each
atu la
Ġlad der
Ġto ng
fire place
ffe rent
lu r
ap ron
Ġboy s
L e
Ġp ull
o ck
app y
Ġra mp
ak ing
Ġfl op
is ter
Ġman s
O R
mel on
Ġtooth brush
es s
re sh
A L
Ġd ining
Ġswing ing
po ster
Ġw hich
Ġwalk way
n ic
co m
Ġno te
p at
Ġt hick
Ġm otor
Ġble nder
Ġcross ing
Ġcu shion
Ġte eth
Ġpie ces
Ġdu ck
Ġt ub
Ġp ol
oun ted
d rink
ren ch
Ġb eak
top ping
Ġa rt
Ġdish washer
en ts
g loves
Ġw as
Ġutensil s
Ġce ment
Ġd ry
Ġsle eping
el ler
W ho
Ġs oup
in ea
A S
p lan
Y oung
plate s
Ġa ll
il lar
c hicken
Ġl and
Ġhorn s
Ġwrist band
g old
z ed
f ro
table cloth
Ġt is
Ġdress ed
Ġs lices
Ġre staurant
ce iling
s alad
Ġstraw berry
Ġse e
R e
sp read
spo ts
b al
Ġsu pp
rop eller
Ġm ounted
G ray
Ġf our
Ġst ool
Ġleaf y
child ren
I R
Ġsc issors
i o
Ġto u
s qu
Ġprin t
T all
Ġgri ll
estri an
Ġbur ner
ff y
p apers
in s
sh ower
ri ce
w n
Ġlook s
if e
pain t
Ġboat s
ic es
Ġh a
ic nic
Ġhel d
Ġh ole
in ach
Ġdecor ative
Ġfac ing
Ġb lock
Ġst y
Ġsit s
Ġoff ice
Ġthe ir
te rtain
Ġplan ter
Ġu sed
le y
Ġp ar
b oots
ra ck
wo men
Ġs afety
E AR
Ġsh ining
ir on
E S
u d
Ġjump ing
Ġoli ve
w et
pur ple
Ġh appy
et chup
Ġra in
Ġ L
Ġste m
Ġc ab
po cket
bri ght
B ig
Ġm agnet
Ġw hi
tertain ment
t axi
tomato es
Ġd oll
Ġl ink
c hi
Ġre ar
Ġcom forter
bath tub
f an
m ale
Ġf ingers
Ġsu v
il y
I T
c ing
n t
st airs
Ġl ike
Ġman y
Ġch op
Ġbu t
on y
i red
ou ses
Ġst rap
M etal
c rust
su v
i al
b ik
pp les
Ġh am
p itcher
Ġstand s
Ġcloth ing
Ġcook ing
Ġst ra
H ead
Ġst ainless
Ġfl oral
sta che
Ġpa ved
Ġc alm
b each
ic rop
b ber
app les
Ġhead band
Ġ 1
Ġre f
di ator
Ġball oon
Ġk etchup
Ġcard board
cu lar
Ġpo s
Ġdi fferent
Ġbook case
B u
Ġf olded
st ar
Ġse en
Ġ i
Ġf ish
so ap
icrop hone
c ountertop
gra ffiti
Ġtra iler
Ġsu gar
fro sting
surf er
arm s
h ole
O N
Ġfore st
hand le
he re
ĠW HITE
Ġth umb
P ink
D og
Ġst roller
so da
c and
n ightstand
wi i
Ġd in
straw berry
Ġsand als
Ġs ausage
Ġstick ing
C o
Ġla ke
tan k
cup board
c akes
p it
le mon
bur ner
S e
Ġ iron
Ġm ilk
tt oman
pie ce
Ġt y
Ġk i
Ġst ring
ang es
g oggles
Ġn ight
oli ve
Ġcup cake
S now
Ġdri ver
Ġgo ing
Ġflag s
ri ver
or anges
O n
E T
Ġto aster
pl astic
all y
Ġhol ds
h ome
j u
Ġhand les
Ġdough nut
P icture
Ġbed room
e f
Ġch ar
m agnet
Ġla p
lur ry
Ġgra ffiti
Ġco mp
Ġf lo
bear d
s helves
O ne
c il
ct ure
bri cks
Ġgra vel
Ġ 2
Ġ icing
lad der
Ġ R
n eath
Ġsign al
Ġphot og
low er
Ġair port
Ġcu cumber
Sh adow
y cl
ash ing
Ġwra pped
Ġunder neath
Ġread ing
p a
Ġc ast
Ġhead light
Ġf lip
Ġcheck ered
ick er
Ġcon d
Ġmi x
st op
g roup
Ġpull ing
L ong
i um
Ġ el
in ter
Ġb ell
f ingers
o c
c rate
re al
ood les
s lice
Ġskate boarding
draw ers
bag s
LA CK
Ġli ft
c able
i ves
Ġp ony
Ġbea utiful
Ġrun way
mb s
ic al
Ġtopping s
Ġb louse
e ment
Ġsy mbol
Ġw ay
Ġc ooler
cu cumber
Ġfruit s
Ġmotorcycle s
Ġban ner
g ers
ur ch
lu min
li ance
Ġgra pe
Ġb acon
decor ation
ck pit
mountain s
d ers
bal cony
m as
dish washer
O M
Ġbul b
Ġs alt
Ġser ving
Ġdes sert
Ġcell phone
wrist band
Ġp ort
inea pple
Ġref le
Ġflu ffy
d onuts
Ġegg s
Ġshow ing
e ring
fri es
bri dge
Ġte e
onion s
d ra
or ful
Ġb re
Ġcand les
c orn
Ġgra pes
Ġcol our
Do es
Ġcan opy
Ġf eathers
Ġri pe
re t
l ine
Ġen clo
Ġl in
his k
Ġs hi
gra pe
pla tform
ear ring
Ġbik es
g out
k itchen
e mpty
st ore
G lass
C h
Ġp er
Ġb in
Ġf en
am ily
Ġoff ic
Ġsl ope
f ig
Ġj e
Ġh ay
p er
Ġm ulti
Ġbutton s
Ġc ru
Ġpast ry
Ġdo ing
cu l
F our
g ame
Ġread y
skateboard er
ĠS T
l og
Ġite ms
ad ing
Ġst ru
ler y
h ing
ro me
s ted
dd ler
Ġtis sue
Ġhot dog
qu e
cul p
Ġmu stard
W ater
Ġad vertis
Ġpattern ed
Ġb la
Ġa w
Ġste p
assen gers
Ġp illar
ab ric
Ġ E
d ay
Ġplace mat
Ġchi mney
Ġm agazine
ri z
Ġrefle cted
Ġme al
Ġm el
T urn
Ġsupp ort
L i
te lephone
Ġcat s
en d
EAR ING
S ome
Ġbu ll
ct or
ĠW EARING
sw eatshirt
F ront
Ġst air
Ġc la
la in
box es
H and
st icks
m er
ĠW ii
Ġbar rier
Ġreflect ing
t ooth
Ġb ent
c rowd
r and
Ġtable s
m ouse
boat s
Ġb ow
Ġti ed
Ġsty le
p ower
pe ppers
Ġf resh
bur ger
culp ture
w ard
cup s
Ġd rain
Ġtong ue
man y
Ġelectric al
p rin
it ten
Ġhe art
Ġf la
ti me
ind er
v ers
it al
Ġcontain ers
ak ed
Ġoli ves
Ġh oo
Ġsp rinkles
T o
an a
Ġben eath
Ġfe ed
Ġvehicle s
bu tter
is e
Ġdeck er
Ġpla tter
Ġcu be
s ure
f o
d uce
go at
G rey
ag es
Ġcur ved
ter s
S ign
st y
Ġclo se
Ġa b
Ġpoin ting
un ch
Ġf abric
Ġpi geon
Ġp ool
Ġc age
ycl ist
ce lain
b ig
Ġp ul
ĠM AN
book case
Ġbe verage
g ri
Ġfore ground
Ġ entrance
wet suit
Ġne wspaper
Ġt ape
a vy
Ġstru cture
com forter
Ġsand y
u me
Ġmi tt
Ġp icnic
Ġbowl s
um er
Ġg as
ad o
Ġmen u
Ġnapkin s
Ġbe ans
Ġg e
Ġm ale
p y
estri ans
Ġla wn
p ick
au l
s alt
pi geon
Ġm ini
Ġhead phones
s ausage
ch ocolate
Ġsnowboard er
Ġru bber
h orses
ot ive
dress er
B aseball
e lephants
Ġha ired
Ġb ro
Ġdu ring
rist mas
il d
ten na
Ġdis hes
bri ck
s he
Ġh ook
t ong
Ġite m
Ġgar bage
B ack
Ġte xt
ste ps
Ġpro te
O W
p atch
P i
Ġg la
Ġra is
o cean
ra ph
le ts
con d
Ġad ult
HI S
ump kin
w ic
Ġc ords
p assenger
Ġenclo sure
Ġdin ner
sh op
Ġcur ly
spectator s
Ġs moke
Ġsnow y
C ar
b eak
Ġpor celain
wic hes
ri mp
m i
ket chup
Ġw ide
pp y
Ġth row
Ġri m
cow s
Ġd ot
potato es
ju ice
Ġw agon
as ted
towel s
Ġz oo
ir th
Ġy ard
Ġpo lar
Ġaw ning
pp ing
Ġl ife
c ast
te eth
Ġsheet s
Ġkite s
Ġti me
di o
Ġfi g
E L
v oc
voc ado
U S
Ġwe eds
Ġtou ching
met hing
Ġan other
low ing
Ġpaw s
as il
Ġcon ne
P l
ĠS U
Ġst or
st ru
Ġa merican
Ġcross walk
ame rican
an o
ball oon
m ask
Ġfi gu
Ġsp l
p air
Ġfig ure
Ġpad s
G rass
irth day
on key
st ume
I G
h ak
Ġpad dle
wi g
Ġab out
Ġhe re
Ġsp atula
Ġs li
R A
Ġcook ie
Ġoffic er
Ġben ches
Ġmu d
a cher
n ed
cup cake
Ġstraw berries
Ġen tertainment
Ġtu sk
gra vel
Ġor n
l ing
bb on
Ġs hel
Ġch urch
Ġin ter
ĠB LACK
Ġw icker
flag s
umb rellas
st om
j o
horn s
Ġpul led
hisk ers
Ġshi p
sk in
h am
Ġtire s
ri sbee
Ġswim ming
Ġmar oon
utensil s
Ġm atch
oo se
Ġprin ted
T ennis
Ġshirt s
Ġbed spread
Ġhi tting
Ġcand y
plan ter
att ress
b acon
car riage
O O
Ġc al
Ġgu itar
ar p
Ġp as
Bu ilding
T ree
p oliceman
Ġho riz
Ġh ose
Ġb i
Ġport ion
um n
chi mney
if lower
silver ware
Ġpo ts
Ġche st
Ġshop ping
tt y
Ġpicture s
cre am
po d
C le
ĠA ND
gra pes
Ġd el
s y
b louse
Ġhard wood
d ou
il t
dis play
aul iflower
Ġthe m
th umb
col ored
acher s
si an
c ard
Ġb er
Ġapp liance
i ous
Ġpat io
cu tting
s ail
st ack
n uts
cor ds
cook ed
hak i
RE D
E D
Ġm ound
Ġst icks
Ġf olding
Ġgar age
Ġwhi le
te a
Ġcond ition
Ġen jo
to aster
Ġp ropeller
Ġc her
Ġstri p
Pi zza
F ood
Ġn umer
Ġri der
Ġra c
bo ttom
Ġ ea
squ are
T HIS
ron ic
kin i
Ġday time
Ġspectator s
c ra
Ġfe w
wall s
ou quet
Ġb lurry
B ook
Ġpo sing
I L
I C
m agazine
Z e
el ier
lect ronic
we eds
Ġc rou
n el
Ġ r
all way
s ea
Ġch in
head band
Ġri bbon
Ġp oliceman
Ġtrunk s
Ġre st
i an
ble nder
agaz ines
sc issors
a tting
are tte
Ġsilver ware
Ġb or
Li ttle
d river
du ck
Ġw inter
Ġsur round
ig arette
Ġhood ie
Ġout door
el ing
Ġdra pes
Ġpast a
Ġ K
it her
C hild
Ġtri ck
Ġc rack
Ġhand bag
TE R
Ġenjo ying
Ġf rench
i ally
Ġt in
Ġski es
Ġro se
Ġdu gout
Ġrail road
Ġst ones
m ark
Ġf ar
Ġc lu
lar m
Ġhill side
Ġsand al
g ed
Ġmark et
sh iny
Ġd ire
Ġball s
pat h
f e
Ġg i
Ġty pe
Ġp olice
Ġped estrian
k en
Ġinter section
Ġe ither
past ry
Ġse veral
O P
AL L
Ġge tting
Ġm icrophone
y ard
Ġpoin ty
oo ring
Ġcir cular
ĠĠ ĠĠ
Ġknob s
ph alt
s aucer
Ġ 3
L U
Ġsp inach
al let
ĠA RE
g iraffes
dis hes
Ġfe male
Window s
Ġc ans
place mat
f ast
Ġsp ray
can opy
ri ting
vehicle s
b irds
o e
Ġ V
p avement
col orful
Ġho tel
Ġo ttoman
A D
p ar
Ġgold en
Ġopen ed
Ġt ran
Ġla mb
f la
ran e
v al
Ġcon es
er y
o y
p t
Ġfo il
mu stard
s moke
animal s
Ġwa ist
c ur
Ġso mething
Ġcolor s
T rain
Ġa way
men u
Ġtri ang
Ġel bow
Ġbus es
Ġmu stache
c ooler
Ġcow boy
Ġs ame
Ġwing s
j am
Ġh it
AN D
gri ll
at s
Ġmo ving
ines s
c umbers
ak fast
Ġsun ny
Ġon to
ch ool
Ġm ed
Re flection
Ġshap e
Ġmotor bike
A CK
u rt
Ġchi ps
Ġeye glasses
Ġto ast
Cle ar
on ed
Ġra diator
o s
Ġis land
Ġh ouses
Ġup side
Ġfl ooring
c ts
Ġw here
Ġb irthday
Ġflo ating
ne qu
e led
Ġg ear
Ġk haki
Ġphotog raph
A B
Ġfigu rine
Ġth rowing
Ġa m
Ġd en
Ġfo am
b y
Ġtow ards
Ġv ent
Ġsh ru
ic ious
Ġnote book
head phones
Ġpas ture
P ie
walk way
oli ves
g ull
Ġch rome
Ġrac quet
The se
let ic
Ġlin ed
Ġfri ed
Ġsk ater
r oun
s ole
play ers
Ġti p
Ġflop s
Ġsea ted
Ġrais ed
Ġ J
sp rinkles
Ġt arm
ad ed
am es
rap her
Ġ range
Le ft
d oll
ĠF risbee
tra iler
at h
as te
Ġl an
and a
egg s
ard en
R ight
p ro
Ġpol o
Ġm et
f ish
Ġhu man
Ġbar n
e lectric
Ġsp read
H e
Ġc a
bu tton
c y
am ent
Ġcol umn
boy s
Ġl ow
Ġ qu
ste p
Ġsu b
ct ive
ach ing
u ck
all ic
Ġ U
Ġw ip
Ġover cast
LU E
Ġspot ted
Ġpor ch
Ġbal d
Ġe xt
Ġw hiskers
f ly
Ġwork ing
Ġwith out
Ġmu ff
st roller
il la
B us
Ġstra ight
sc ooter
Ġtrain s
Ġle ading
R ound
Ġbe en
ed ding
Ġbicycle s
straw berries
att oo
I D
te ri
Ġover head
Ġlo ck
Ġs ad
Ġwater melon
Ġben ding
al le
Ġp acket
Ġp ow
ke ttle
I S
Ġcondition er
roun ding
dra pes
P ur
ĠI t
ic ol
Ze bra
cook ie
ne e
Ġpen cil
am ond
G roup
Ġa th
el s
Ġbar s
Ġbik er
topping s
m ulti
T op
ult icol
m es
in t
Ġfur ry
Ġas phalt
Ġche f
Bo ttle
cand les
Ġsur rounding
al ler
Ġki ds
Ġkey s
Ġpos ts
Ġn oodles
rin al
ag us
Ġmar ble
bath room
A IR
O ld
Ġli ps
Ġden im
sand al
Ġle ash
Ġf all
f ore
Ġco ckpit
Ġclo set
Ġce real
Ġto ol
bik er
Ġhu ge
so ccer
ac ter
Ġfor ward
R T
Ġtra vel
Ġprin ter
bik es
bar rier
Ġst ain
Ġm aking
Ġbor der
Ġc li
Ġdecor ated
Se veral
Ġhead lights
P hot
gh ter
nequ in
Ġplace d
T an
fig u
jam as
Ġh ar
G iraffe
v i
fruit s
po ts
O pen
ig ital
gg ed
Ġf ree
t hick
tis sue
ri ed
Ġdri ve
Ġcan ister
tooth brush
ing le
ch op
ver green
Ġex ten
is her
Ġcab bage
Ġkn ives
T ra
ver t
k n
di ence
Ġd r
k es
Ġt ur
sp atula
ir st
S and
c ases
a ring
s m
Ġtarm ac
ar y
ĠSU V
Ġseat s
ne wspaper
Ġadvertis ement
de red
Ġmel ted
Ġb aked
Ġp ineapple
c a
Ġrock y
Ġcher ry
napkin s
Ġmo st
Ġsp ices
Ġar ched
Ġlamp s
Ġa part
P la
sy mbol
St reet
Ġs culpture
Ġmo ther
Ġsk ating
Man y
Ġsurround ed
Ġd ead
he art
t ape
Ġin doors
Ġs la
sc rap
u te
teri or
ĠC O
m ilk
sh ing
ra il
L amp
Ġs ale
T able
ock ey
Ġo il
Ġroll ing
Ġperson s
Ġconne cted
RO W
zz as
rol led
Ġhill s
Ġle dge
be ige
Ġwood s
ch ar
H orse
Ġsqu ash
des sert
Ġcross ed
Ġw ild
c ru
Ġbus iness
Pur ple
ari ous
cra ft
k i
Ġto ddler
Ġn ail
no te
Ġk itten
P ick
snowboard er
Ġf amily
Ġm ot
ER S
B ri
Ġpony tail
Ġmushroom s
n ame
Ġstair case
Ġpro duce
f eathers
Ġw ind
on s
re ar
Ġt er
Ġmet allic
re am
Ġin d
ste m
Ġdel icious
mp er
Ġt rou
LO W
l led
RO U
ĠH AS
Ġold er
Ġco stume
sp inach
ĠP LA
Ġw ool
Ġp assengers
Ġgu ard
B right
Ġvis or
pi le
Ġm attress
Ġea ten
Ġble achers
sand als
k a
bo dy
ulticol ored
Ġp ea
k nee
OM AN
Ġdraw ing
der n
ph ot
Ġfen cing
Ġdrink s
b ble
ĠC h
h ay
Ġdire ction
Ġhu ng
un nel
b eans
O T
C H
p ropeller
ing u
ain ers
s pi
ail box
sp ices
con crete
ru p
ro iss
RE EN
zza rella
Ġt ap
Ġpart ially
W all
Ġhat s
Ġpre pa
ra diator
Ġe lectronic
Ġ 4
Ġband ana
w riting
k nob
b or
bu ll
su es
Ġsand wiches
bed spread
plan es
Ġpi ano
Ġsi ze
ack s
can ister
Ġt iny
az y
Ġfeed ing
ars ley
Ġru sty
ped estrian
Ġw edding
nis h
R o
Ġpla in
ol der
st ainless
Ġph ones
G old
Ġg arden
k ing
Ġdi amond
Ġbi kini
Phot o
ri al
pad dle
Ġpot ted
Ġstick ers
P late
Ġdesk top
il ity
D oor
Ġcontroller s
Ġtea m
Ġw ho
u c
I n
Ġe mb
h ose
ĠS H
ingu isher
Ġs chool
Sk y
u red
Ġext inguisher
li ps
Ġc alf
d ock
s oup
AB LE
Pl astic
girl s
ĠB LUE
tong ue
d el
Ġbl ind
cont ainers
Ġdo ts
og urt
Ġli me
C E
oco m
l it
ad ium
Ġp in
Ġguy s
Ġmark er
art work
Ġs he
ocom otive
Ġse cond
Ġpack age
Ġf ountain
IT H
L ad
Ġart work
B e
ras p
i que
Ġm ate
dis penser
Ġcook ies
decor ative
C lock
ĠW ITH
Ġdr yer
lumin um
b ell
Ġwrist watch
th in
Pie ce
o ffic
Ġdraw n
vert ical
Ġplu gged
fo am
on ge
Ġw hat
Ġtop ped
w a
Ġro d
Ġ &
Ġce lery
Ġk ick
T S
D irt
Ġbe an
v d
h alf
re st
Ġso ft
T e
it s
Ġl ocomotive
hand bag
Ġsad dle
il lumin
Ġpi led
Ġp ond
Ġsh ut
S S
Ġcart on
water melon
figu rine
Light s
Ġg ames
S lice
ROU ND
Ġkn it
be verage
E lephant
Ġsi des
Ġapp ears
Ġsp eakers
are nt
Ġath letic
Ġs ill
Ġp umpkin
Ġla ce
Ġb rand
Ġl ining
t v
shirt s
ap top
te red
sh ade
u nk
Ġsn eaker
motorcycle s
Ġcat ching
v ds
f ramed
Ġdecoration s
G E
n d
Ġp ant
Ġind ic
squ ash
Ġtra il
stri ped
Ġbe ef
Ġher d
ti le
ef case
c ab
C ol
b are
Ġlaptop s
h ouses
Ġsp ice
g un
scrap er
Ġpen s
Ġdisplay ed
Le g
Ġc igarette
an y
Ġde ep
Ġhoriz on
he red
Ġm ap
E mpty
L aptop
Ġtong s
Ġped estrians
Ġ ed
shadow s
Ġskin ny
heel s
HI RT
Ġg lo
Ġje an
Ġtop s
dle ss
p aste
Ġsm ooth
bowl s
w s
T H
Ġwri nk
Ġwoman s
de ck
Ġst uck
Ġbur ger
S ide
b ea
ro se
Ġ rolled
Ġsw eat
Ġtoy s
offic er
st ones
Ġthe n
Ġcable s
Ġmagnet s
Ġcomputer s
past a
uff y
p ol
c ir
ce lets
Ġ RED
ĠT ABLE
ou ch
k id
sheet s
Ġse eds
vel ope
Ġwall paper
Ġa vocado
Ġg ood
Ġth an
Ġa luminum
Ġse tting
Co mputer
Ġhoo f
s ts
Ġsp ace
stru ction
Ġf u
Ġpi zzas
mo st
OO D
Ġh allway
Ġm ess
Ġbro ken
Ġhe dge
Ġne on
l ink
Ġcal led
tire s
th y
f l
pen s
cand y
Ġste ering
Ġsh rimp
Ġv ases
Ġm a
Ġst ud
Ġpu shing
ĠD O
m icrophone
Ġl unch
n ess
Ġpu ppy
Ġcur led
Ġhelmet s
get ation
Ġstor age
G ra
Ġtable t
ad es
ĠS t
v et
Ġto asted
Ġfro sted
o ff
Ġan tenna
Ġbre akfast
Ġb ouquet
su nglasses
Ġre aching
Ġlu sh
ch and
cross walk
ould ers
ran ite
Ġa cc
p u
Ġg rou
Ġfree zer
Ġmate rial
one y
p ineapple
i pper
S p
roiss ant
d rain
Ġhol d
spi ce
w ards
Ġkne eling
Ġprepa ring
Ġra dio
f lip
as hi
co ckpit
uc ch
Ġgla zed
c ut
ro be
Ġmix er
bb les
mu stache
h ook
Ġn arrow
af e
P o
v ent
Sk ateboard
ub lic
er t
ant ique
Ġcla y
Ġb asil
Ġmark s
Ġmost ly
Lad y
Ġl ots
f lat
Ġe qu
lou r
Ġdo es
ROW N
Ġun it
k y
o ttoman
Ġsail boat
Ġst adium
C hair
cab bage
e x
Ġa larm
Ġdesign s
Ġc ri
Ġs ingle
Ġmuff in
en tertainment
p ut
Ġp anda
L ea
ucch ini
row s
Ġro be
w aves
Ġn avy
Ġcontain ing
Ġexten ded
illumin ated
c ial
ce real
S u
hand elier
ru s
ang ing
g as
Ġski ers
m achine
gu itar
F low
f olding
Ġplan es
Ġcat ch
Ġt wig
ĠS HIRT
Ġleaf less
Ġf ry
tra cks
Ġcon sole
Ġp ear
il let
Ġd ump
Ġl ower
l ines
Ġplu g
B ird
Ġp ale
Ġs a
D ING
Ġreflect ive
Ġpi er
slice d
ret ched
S urf
Ġu pper
Ġspl ashing
l ife
n oodles
Ġe at
Ġclo cks
Ġbu mper
Ġpan e
IG H
Ġclou dless
Ġearring s
Ġarm chair
Ġc auliflower
at ure
Ġa u
Ġpast ries
me al
prin ter
cher ry
Ġchop ped
Ġp ass
ell ing
Ġskin ned
C lou
old ier
Ġste am
ce lery
Ġb ol
stom er
Ġwra pper
Ġcu tter
H andle
d ry
st air
t ool
D e
Ġ 5
C ow
ders hirt
Ġsi zed
kite s
Ġtru cks
Ġla ces
des ign
light ly
C ars
Ġphotog rapher
mo ther
H ow
Ġtran sp
M AN
zz y
or y
sw im
mi x
B O
hi c
Ġu rinal
Ġch alk
Ġth ink
fig ure
i led
ĠA merican
draw ing
as on
Ġf irst
S o
Ġland ing
t urn
C he
b ile
if ic
che f
mushroom s
Ġtrim med
Ġmark ings
IN D
Ġc abin
Ġpillar s
kn ives
Ġpi pes
la mb
Ġar ch
Ġcan oe
note book
Ġsnow boarding
B l
Flow ers
O L
Ġpu d
Ġc rash
Ġsm ile
ip ment
G lasses
Ġli p
Ġe vergreen
Ġhigh way
el f
Ġber ries
S te
Ġw ashing
ru m
je cts
hill s
Ġh azy
Ġc rane
Ġfor m
M ountain
AR D
Ġve gg
an tenna
Ġf ra
Ġb inder
F ence
table s
Ġpol ka
Ġm is
Ġje ep
sho re
or ted
Ġd igital
S he
Ġbla zer
Ġcrou ching
Ġboard s
Ġbus y
f ive
Ġc handelier
fore st
Ġo val
Ġwork er
Ġham burger
bun ch
Ġst aring
Ġa top
pen cil
le m
Ġt attoo
ĠW OMAN
b ears
Ġb ill
t le
g ings
f u
pla tter
o ver
S un
f amily
g y
Ġdress ing
Ġbed s
su gar
Ġfloor s
Ġ vertical
Ġmo ss
p icnic
oli age
Ġlight ing
ped estrians
Ġp each
Ġke pt
Ġr oman
Ġsurfboard s
le te
Ġstor y
sp ar
P illow
Ġstra ps
bicycle s
Ġan g
Ġn ice
dou gh
S E
b an
Ġco tton
Ġb as
red ded
li es
Ġprote ctive
Ġsnow suit
T ail
Ġp itch
op ed
p assengers
b la
ol id
dou ble
Ġm es
dirt y
Ġt w
W HITE
Ġsh own
Ġair craft
Ġdough nuts
l ook
Ġtravel ing
Ġw ell
Ġp rop
magnet s
hi gh
ĠB O
b asil
Ġt arp
Ġhe ater
Ġcup cakes
B aby
Ġslee ves
Ġhole s
Ġfall ing
Ġcu cumbers
Ġnumer al
wrist watch
Ġstop ped
Ġt ab
Ġp ublic
Ġb lo
Ġtow ard
A ir
Ġrail s
p ow
Book s
si te
Ġt shirt
Ġcrash ing
ont al
v ideo
ĠA pple
Ġre ce
Tra ffic
v iew
ashi oned
Ġ '
Ġp ump
gar age
ro foam
Ġha ving
Ġspoon s
Ġsh ades
corn er
Ġc am
int age
Ġro ses
c al
al thy
stick ers
Ġequ ipment
ĠS K
Ġban k
Ġcontrol s
oo f
sh rimp
cook ies
Ġn uts
g on
cow boy
Ġplan k
stair case
M irror
t ility
Ġsleeve less
in n
Ġtis sues
Ġmot ion
U N
min i
lat or
P air
Ġc rown
to ast
h u
Ġ antique
Ġsome one
Ġb aking
Ġhang s
gun dy
Ġt rying
p umpkin
Ġtu be
Ġgri lled
m ade
he dge
Ġring s
Ġpa jamas
Ġcru mbs
C up
re w
Ġbu ilt
Ġp uffy
p or
Ġw he
to ddler
Ġpick up
V E
Ġapart ment
Ġbasket s
P aper
ch o
is cu
m uff
Ġst ars
Ġsp orts
Ġsuit cases
g ing
To ilet
Ġbutter fly
en ches
St ri
n ers
Ġc ra
Ġd ome
Ġcar go
Ġman tle
Ġchar acter
Ġve getation
Ġm agazines
Ġg ranite
tong s
Ġeye b
Ġri pples
V e
Ġb atting
Ġn ike
N umber
ent le
T ru
Ġlamp shade
a vocado
Ġlemon s
B ear
bl onde
Ġst ump
paw s
Ġpick les
fo il
E lectric
ct ing
Ġp ans
Ġopen ing
Ġorn ate
Ġcook er
Ġm onkey
Ġpud dle
m ar
rop es
Ġmo dern
dog s
p illar
t ri
men ts
Ġsea gull
Ġfork s
Ġpoin ted
Ġmirror s
itar y
id ent
Ġroad way
Ġorn ament
Ġnumer als
Ġla r
Ġw hole
Ġchar ger
cur ved
Ġjacket s
d o
W here
ad vertis
Ġst uff
Ġtusk s
y l
alle n
st ation
IGH T
Ġ illuminated
cable s
s culpture
c auliflower
Ġw allet
Ġle vel
li me
Ġs ep
Ġber ry
S T
ate s
Ġbla de
n ail
Ġmix ed
Ġst ill
ce ment
P atch
n s
Ġjar s
B unch
c ans
Ġtra ctor
Ġau dience
pol o
wall paper
m a
Ġsli ding
i x
ĠC AR
Ġshel ter
electric al
Ġbar rel
band ana
Ġt unnel
ĠT O
el y
Ġ roo
M ulti
art ment
C u
ctang ular
j et
pro duce
form ation
Ġblue berry
ĠĠĠĠ ĠĠĠĠ
Ġbush y
N ose
mo ss
c lu
R I
Ġco vers
ĠB ROWN
cru mbs
ti p
ole s
h au
Ġc ycle
b enches
N e
phot og
c rack
Ġmes h
Ġtrash can
Ġbur nt
clo set
t iny
an other
ra dio
st ud
t wig
Ġswim suit
p ea
Ġlog s
s afety
spar agus
mp led
Ġper form
hau st
Ġmini van
Ġdra ped
c onut
Ġi pod
Sk i
lo com
locom otive
Ġsupport ing
c age
Ġcu b
gold en
Ġcupboard s
Ġsw an
Ġb a
EL LOW
N o
ur al
b inder
H is
Ġob jects
Ġwa vy
Ġbo arding
Ġtray s
d ges
Ġse ed
LA SS
Ġgo al
Ġs lat
pp o
op per
A d
Ġm ulticolored
wing s
head light
F ork
m agazines
Ġrectang le
d in
Ġf arm
Ġrain bow
Ġsub way
Ġa sparagus
Ġfra mes
Ġman nequin
Ġdri ed
Ġf oliage
Ġh im
Ġo ct
ĠB ACK
A r
Ġsm aller
p hic
Ġalong side
Ġt ake
Ġp us
Co ffee
Ġhair y
Ġc yclist
Ġf ashioned
il itary
shi p
sp eakers
Ġu tility
chand elier
i pod
Ġplu sh
c yclist
U R
Ġs lightly
c ity
ap ler
Ġgra te
ĠN ike
Ġshadow s
Ġsp onge
ri pples
R i
h ol
s n
Be ige
Ġsu s
blue berry
E ye
Ġst age
Ġkne es
Ġp etal
Ġ LE
rin es
ut ion
Ġw ear
le e
w hi
Ġboard er
Ġtriang ular
we ed
Ġw eather
Ġte al
Ġwip ers
ng th
V ER
Ġwip er
Ġtriang le
Pla yer
min al
trunk s
Ġcle ats
Ġbare foot
Ġ HE
H ot
Building s
ĠT RA
h ard
ount ry
Ġbea m
Ġm ake
Ġ LA
f rench
b ro
Ġbag el
l s
ID E
Ġhar ness
Ġsp rink
snow suit
m ap
ĠC H
Ġf ake
ball s
ĠCh ristmas
o b
W ine
con es
Ġy ogurt
Ġa ss
ĠG REEN
Ġsy stem
ar ning
Ġfi ve
Ġsw eet
Sh ort
Ġju g
Ġemb lem
A P
P ut
inea pples
M otorcycle
ste ering
w agon
U T
Ġwas te
Ġcli ff
Ġste ak
Ġa sian
Ġchop sticks
Ġre g
Ġwire less
tte red
T V
b ase
d ining
w ool
ip t
entle man
off ice
Ġsh in
Ġpe as
Ġpus hed
Ġcol la
mark er
Ġfeed er
prin ts
Ġvan ity
co hol
cir cular
St ack
a ff
ge rine
Ġco ke
Ġpos ition
S c
v id
Ġ 6
pillar s
M en
mer cial
Ġper ched
gh ted
Ġcrate s
Ġbri efcase
m y
Ġst ir
et te
arm chair
all ow
shop ping
Ġm ay
Col orful
K E
is hed
sk ater
ERS ON
wa ist
Ġa f
am on
Ġz ipper
C lo
past ries
Ġcrou ched
B ag
Ġdra pe
s lices
a cle
S heep
Ġl oung
ĠG IR
sc ape
p olice
bl ind
Ġju st
in ese
pie ces
drink s
ol k
Ġ ves
Ġh ing
Bo x
Ġpick le
Ġwrink led
C on
F F
E ar
Ġj ockey
T ING
t hat
Ġne w
an ut
lo ts
Ġcon struction
Ġpanel s
po lar
Ġdock ed
Ġst all
pi pes
Ġhoo ves
il ted
zz le
Ġste ep
Ġround ed
Ġgar nish
Ġblue berries
at tered
ĠA sian
Ġ ent
mix er
a ur
hi r
Ġcomp any
b r
IG N
i ff
in o
Ġc d
decoration s
Ġmud dy
A IN
Ġh ind
r oman
Ġmis sing
c alf
Ġg at
sand wiches
Ġv arious
i a
agn e
Ġmonitor s
Bo ttom
Ġw arm
Ġdi vi
amp agne
Ġhe althy
Ġo w
G uy
Ġdis c
Ġb rass
stom ers
Ġmark ing
S m
Ġsy rup
Ġgra vy
ion al
pack age
Ġd onkey
Ġcond im
Ġgra in
ion s
Cat cher
Ġ 7
Ġco ach
ĠPLA TE
Bri ck
lan ce
t in
i gh
hill side
Ġadvertis ing
b ars
Ġm ailbox
Ġf at
Ġf light
lect ion
c d
Ġst ream
Ġpocket s
B at
cu lator
pe ted
u ring
Ġki wi
Ġb ooth
Ġc lip
di es
D es
Ġbol t
Ġballoon s
Ġle ngth
Ġ RO
Ġser ved
table t
b i
cu cumbers
Ġfu zzy
B owl
Ġgi ant
Ġher bs
Ġsep ar
Ġa qu
F ire
Ġsus pen
Ġspl ash
r ong
Ġsh ot
car oni
Ġpow dered
h allway
Ġshirt less
Ġmess y
bar n
Ġf in
Ġc lass
Ġsqu atting
Ġhead s
Ġp arsley
ste am
sun light
d en
muff in
f lu
Ġg re
Ġsh arp
Ġflow ered
Ġf ans
du gout
il ot
Ġair planes
toy s
Ġste ms
Ġbu oy
Ġfan cy
Ġc ountry
Ġpat ches
Ġs hield
Ġb ru
ĠW A
Ġsk illet
mu d
ces s
co stume
Ġback wards
b lurry
iscu it
Ġdis t
p ud
Ġgra phic
s ers
b ouquet
Ġch ristmas
se eds
P lace
sp y
Ġbra celets
Ġs ack
p ear
la ke
De cor
et s
Ġmulti ple
Clou ds
Lea ves
par agus
Ġgoat s
Ġre fri
M o
Ġgar lic
K ey
as paragus
ari um
ser ving
ject or
Ġp rice
Ġsp o
Ġspe ck
o la
F ive
bu lance
f resh
sail boat
Ġmo zzarella
e k
Ġra ce
ĠB E
Ġtooth paste
clo sed
Ġg lowing
de vice
V D
y ond
Ġh al
Ġwa ving
Ġpe el
0 0
Ġw oven
ak ers
i cho
mel ted
cu s
Ġbe yond
Ġsc attered
Ġmu s
Ġstain ed
P ark
Ġcushion s
Ġhoriz ontal
os aur
Ġm in
d ead
Ġg oose
a ct
mp lo
lamp s
der ly
b re
Ġtrou ser
Ġtrou sers
Ġv intage
c rane
dra pe
rol ley
gu in
Che ese
K ING
mplo ye
An imal
Ġshru bs
h anging
the y
sea gull
Ġtin ted
a larm
pat tern
ĠW OOD
W O
Ġperform ing
Ġ rough
Ġhe avy
amp oo
Ġshru b
Ġroad side
app liance
some one
tt i
l li
at ches
Ġrail way
Ġbas in
oo p
Ġ rou
st al
P ot
R ow
ru n
Ġso cket
pe as
cook ing
Ġch unk
K nife
F loor
Ġcar peted
Ro cks
W ire
lan ted
Ġbed side
work er
D ou
g la
c alm
bu oy
Ġtag s
Ġ rasp
Ġm ilitary
can oe
in er
pick les
Ġl ion
w allet
sc ent
Ġpan cake
lemon s
Ġtur key
Ġmo del
Ġd rop
Se ction
Ġmouse pad
man nequin
Ġsky scraper
Ġn ut
o ise
w ave
pu ppy
ain s
Ġstring s
Ġflop py
Ġpre tty
Ġmel on
Ġbra ke
u al
fl oral
Ġri de
C ell
ct us
Ġfore head
Ġp op
Mountain s
Ġread s
B LACK
Ġs mo
Ġsto ck
way s
ri pe
en g
IN K
Ġf allen
Ġstri pped
Ġen velope
let te
pud dle
Ġfac ial
inn amon
Ġter minal
Ġdesign ed
bla zer
mb ing
controller s
Ġv ine
Ġbell y
t retched
Ġlight house
Ġd vd
ĠS IGN
hir d
Ġin formation
B ed
Ġla dies
Ġsty rofoam
Ġlar ger
rus hes
Ġ LO
Ġm on
TH AT
Ġvegg ies
Su nglasses
Ġcol d
Ġh oney
cup cakes
Ġsn out
Ġblo cks
Ġlan e
f ans
Ġpan cakes
Ġcolla red
A M
m ound
Ġmo bile
Ġsh a
Ġal one
co ve
Ġset s
Ġsh redded
mploye e
multi ple
P ain
picture s
ant a
ra iling
Ġbrush ing
Ġtran s
ur ky
p each
Ġbill board
Ġland scape
Ġd rum
Ġe lev
Ġed ges
T owel
is land
Ġ ident
gg ing
Ġw rap
Ġbean ie
Ġpart y
Ġm otorc
Ġcom mercial
Ġf lour
mb oo
mp le
RE E
A merican
v a
Ġsla ts
Ġpar rot
H alf
mb led
Ġb lowing
inter section
Ġt ents
la wn
ell y
g ran
lur red
ale nd
Ġre cl
orn ament
ac ters
P e
Ġun dershirt
ses t
Ġwhi pped
stri ch
Ġon ly
Ġleg gings
jar s
bea utiful
Ġlo c
po s
ag ed
Ġblanket s
Ġbea ds
Ġm ain
Ġst alk
B roccoli
look ing
he ater
u g
re ctangular
Ġcan e
mini van
pi ano
Ġsuit s
Ġbur gundy
bus es
in ten
Ġbul bs
d ump
Ġc akes
Sk ier
Ġqu ilt
as hed
c ent
s hel
Ġcap s
Ġpar as
Ġs ed
po in
se ed
Ġv al
alend ar
Ġsp ort
u gh
' t
Ġdump ster
Ġc roissant
char acter
mo zzarella
en ding
d vds
inten do
Ġindic ating
Ġtransp arent
Ġtab by
Ġfen ces
Ġto r
Ġu se
sw an
Ġca ution
E dge
Ġd vds
Ġsun light
t ur
Ġhood ed
ar ts
por ch
ic y
T rash
pat io
Ġb it
Ġf aded
tel ope
ĠW ALL
Ġsand w
Ġdot ted
n ch
ck le
Ġt rolley
qu oise
Ġo ppo
Ġsh akers
Ġgreen s
Ġcloth s
Ġdes ert
Ġturn ing
Ġtow n
Ġnote s
ron ze
swim suit
S qu
c igarette
f ather
g i
U mpire
Sand wich
Ġse ason
blue berries
s on
rou ght
St ainless
Ġpacket s
Ġsc rew
Ġdrive way
Ġbun s
K ite
et a
H at
re staurant
Ġar ran
ĠT I
Ġsi x
o il
Ġm oped
Ġouts tretched
Ġloc ated
B icycle
Ġt ight
Ġ 8
Ġan k
sp ray
P E
Ġto rt
Ġe vent
el bow
p acket
Ġsed an
Ġstool s
bb it
ĠY ELLOW
s ent
Ġz ucchini
m ailbox
Ġmed ium
s ack
j ockey
Bo at
ice d
d gerator
Ġsquare s
g le
Ġlo af
Ġwater s
sp l
Ġfence d
Ġg et
d vd
Ġh our
E x
si x
ĠP I
Ġb room
Ġchin ese
est al
Ġw ash
head lights
bi kini
Ġgla ze
Ġf ol
id dle
U n
ki wi
Ġs oldier
f olded
m attress
col li
k itten
Ġpi g
Ġex haust
Ġdu cks
to on
je ep
Ġla ugh
ces sed
chop sticks
Ġw i
S ho
om es
Ġracket s
p ress
t ou
eat hered
BO ARD
V ery
g an
Ġsn ack
Ġp eak
To mato
rel ine
Ġstud ent
Ġclu ttered
Ġc afe
Bl onde
pa jamas
d ome
park ed
her d
pain ted
Ġ 9
hat s
IND OW
r al
Ġpe tting
io sk
P ower
in ed
K itchen
ic ine
Ġla y
Ġshut ters
button s
au dience
Ġcast ing
ch rome
butter fly
spoon s
advertis ement
ĠG LASS
H er
log s
ch urch
Ġaf ter
I t
Ġglo be
ĠDO G
Ġru st
Ġrim med
R ail
eng ine
la ces
Ġdist ant
Ġb ad
f ull
pow dered
id as
bag el
R AS
net te
F oot
Ġg room
Ġm urky
aff olding
A pple
ĠB US
Ġarran ged
ACK ET
Ġcheck ed
Ġg un
R ear
Ġtea pot
pan cake
ĠGIR L
Ġhing e
Ġoppo site
Ġroll s
ic le
T WO
Ġ RE
T hick
C ake
cont rol
Con crete
Ġel derly
ry stal
as ian
Th in
port ion
Ġp ears
Ġg own
p arsley
F ruit
w ide
ill ing
pla ying
Ġ ropes
Ġst re
Ġcoat s
Ġp ou
f ountain
Ġsink s
Ġpre ser
C ont
Ġse mi
Ġlaugh ing
st ring
Te levision
bee f
P hone
Decor ative
ari ety
ĠH OL
Ġin terior
Ġuniform s
Ġth ings
is y
guy s
Ġgat hered
H el
Ġbun ny
Ġspe ed
AR T
Ġbal ding
red i
ĠP ERSON
Ġru sted
Ġ es
Ġskateboard s
Ġco aster
L et
AS E
arm ent
ble achers
Ġclo sest
Ġpro cess
Ġam ong
Ġwheel chair
ook ed
Ġwe b
x ing
Ġbel ong
G ROUND
Squ are
ra is
stri pes
Ġcard s
ĠC D
ming o
Bat ter
ĠB U
Ġrefri dgerator
Ġne at
z el
T eddy
Ġsandw hich
Ġb ark
Ġneck tie
Ġke ep
Ġfri s
Ġcu stomer
Ġco mb
Ġgi ft
Ġped estal
Ġbra id
Ġb ite
Ġal cohol
Ġpan es
Ġno stri
Ġhar bor
Ġpow der
ph ol
op ter
Ġra w
z en
U mb
Ġf un
o ri
Ġsh allow
Ġchi li
Ġex it
Ġreg ister
Ġcar ried
P ole
Ġy olk
ĠCH AIR
Ġpass ing
ad ult
H ome
W heel
M B
Ġd ep
so ft
c abin
ĠP AIR
v ases
ro ses
Ġsh oulders
B ench
Ġloung e
Ġa ut
her bs
p re
Ġpro du
Ġprop ped
Ġcast le
Ġfixture s
stru ment
ĠS IDE
an cing
x ed
Ġde er
grass y
Ġsm art
ir al
Ġpos ted
ate lli
Ġg ro
st ars
cove red
ic t
gg y
Ġchain s
Ġtri cks
atelli te
Ġh id
B asket
P ile
Ġcatcher s
pos able
B read
h ou
ic opter
ap ed
ĠH AND
ff le
Ġg rown
Ġse cu
G round
sky scraper
p ans
agon al
l ish
Ġb oulder
Ġhand led
Ġto o
co ach
Ro ad
gar nish
photog rapher
T U
Ġup right
v ory
Ġhe dges
t u
Ġra cing
Electric al
flu ffy
R ock
P U
cat s
Ġnail s
E E
m ach
W heels
ood le
ĠD VD
ck ed
Ġal most
ing redi
ric al
Ġbat s
ific ation
ĠC LO
spl ash
Ġc amp
St uffed
Ġpencil s
Snow board
Ġ heels
Ġch ampagne
Ġapp ear
Ġa ction
Ġre la
ten ts
shel ter
en velope
ru bber
Ġbasket ball
Ġgrou ped
Cu rtain
ri ty
ĠT OP
ham burger
Ġdi p
D ay
ft op
Ġgar land
F lower
alm on
Ġc as
Ġent ry
Ġpad ded
B ike
Stri ped
Ch ocolate
w ear
Ġrest room
M P
Ġbur ners
ast y
s lee
an uts
Ġdra gon
ĠP O
Ġbl oo
fe male
mb er
ĠS IT
Ġpillow case
Ġhang er
Ġkick ing
B ath
i zed
S po
ach ute
Ġbu ckle
Ġw ired
ol f
AR K
. .
Ġshow s
Ġtwig s
il hou
Ġeyeb row
Ġb ead
whi pped
aus ages
ĠP AN
Ġbath ing
me gran
Shadow s
A TE
ĠT his
Ġcircle s
la w
ki ds
Ġa head
co re
ag gy
op us
char ger
Ġsho reline
Ġd et
Ġw h
Ġhid den
Ġpu tting
earring s
is py
clou dy
co mp
Ġco conut
Ġsurf ers
Ġprin ts
RO N
B ananas
Ġtool s
b rushes
stud ent
Ġfac es
ĠBACK GROUND
cu stomer
Ġw arning
w el
Ġc yl
Ġth ing
P lane
Ġp it
Ġstri ps
chop ped
Ġst ret
con sole
ĠW INDOW
gar land
Ġf rying
Ġl if
Ġgi ving
Ġ US
qu or
sign s
Ġank le
Ġsuspen ded
Ġbun ches
i ted
i zer
Ġchop py
Ġrock ing
c roissant
Ġsto mach
mall ow
u rinal
Ġmug s
Some one
Air plane
Ġbag els
cupboard s
Ġsla b
H air
Ġform ation
sh mallow
ĠHOL DING
ĠSIT TING
st ra
Ġu phol
z ucchini
Ġfo cus
Ġs lanted
Ġdis playing
ĠWOOD EN
Pl ant
IN E
Ġst apler
y ogurt
c rown
C HE
Ġsteep le
Ġass orted
Ġgood s
Hel met
Ġmin ute
Ġspe ct
Ġche ek
Pillow s
Ġow l
Ġf eather
ut ter
sp ot
v as
Ġs hed
ser ts
Ġdivi der
S top
f ess
sp ital
A G
Ġcolumn s
at ural
open ed
b it
Ġthe r
F ace
bl ond
Ġwalk s
Ġ1 2
Ġto ur
Ġb ound
Y ING
crate s
Ġbi b
An other
ead ow
AN T
h a
din ner
bre akfast
L ogo
Ġba mboo
Ġin door
Slice d
ON E
Ġcher ries
Ġco la
Ġphoto s
Ġki tty
Ġar range
Ġca ttle
Ġm ore
ĠF OR
lu sh
Ġpart ly
Ġbed ding
hot dog
co ke
Ġco bble
Sh iny
Ġpath way
Ġpreser ver
Ġcanister s
Ġc or
on na
Tru ck
ĠST AND
U P
Ġv ines
Ġpigeon s
M u
Ġk ay
Ġl im
C LE
Ġcla ws
Ġf ast
Ġy our
Ġtort illa
Ġj elly
W aves
Ġc opper
ite ms
oo g
w rinkles
ste red
rail road
phot o
megran ate
W indshield
Ġpe anut
Ġprocess or
Ġsn acks
gra vy
Ġfore front
onna ise
Ġp ut
Ġfen der
Ġla yer
Ġshe er
Ġle ns
Ġbre ast
Ġbu nk
F ramed
Ġsprink led
T LE
Ġcontain s
chain s
Ġty pes
ĠP E
bri s
Ġfish ing
Ġseat ing
ĠA T
Ġra bbit
Ġjump suit
Ġlan yard
c ri
Ġc ases
Key board
lu nch
Ġd uff
lan k
Ġsun set
Ġs olid
Ġsw itche
P ART
Ġs elling
am el
laptop s
Ġcrack ers
Ch ain
TU RE
W ii
Ġred dish
Dou ble
Ġm ac
li ke
t ch
ic ap
Ġd a
Ġout lets
Ġthe y
c reen
St one
Surf er
dump ster
s oldier
RE ET
Ġm eet
cook er
Ġman hole
Ġd ol
p ond
v is
Ġun cooked
Ġchar acters
stri pe
Ġri des
mon key
Ġshel l
ĠC OM
Ġpor table
Re mote
Ġmatch ing
Ġhandle bars
ent al
Ġski is
W omen
er ase
Ġ heel
C an
Ġw inds
gar lic
S pectator
Ġlip stick
train s
ĠC AT
Ġremote s
Ġspeck led
ĠWA TER
p anda
M ALL
Ġw asher
Ġu r
are a
Ġth rown
fess ional
as uring
Ġm oon
card board
a red
sing le
Ġcru mpled
Ġbea ms
t attoo
vet op
Ġf ather
Ġm it
RAS S
Ġb aker
Ġsk ull
w ashing
ĠF LO
tooth paste
Ġarrange ment
g oose
bo th
IL DING
F lag
ru b
Ġcri spy
Ġstud ents
te am
C ut
bb ing
Ġt ilted
Ġbro colli
Ġg entleman
computer s
L icense
as oned
man s
as y
Ġlif ted
re o
Ġpen guin
W riting
M eat
Ġtou rist
Gra vel
I ON
Ġchalk board
balloon s
a qu
g en
N G
Ġtow ers
sh ine
Ġst atu
sh aped
Ġti es
Ġves s
W atch
se cond
Ġcar toon
ĠSH O
M ouse
Ġover looking
Bus hes
G REEN
d ent
Ġt re
Bu tton
Ġle ad
Ġrow s
Ġprote ction
Ġf re
Ġli ghted
Ġli ghter
ste el
Surf board
alle st
Ġam bulance
ĠS O
Ġfinger nail
Ġfoot ball
Ġso il
K id
ogg y
Ġcle at
Ġspect acle
Ġbu ggy
Umb rella
e lectronic
f lour
col or
bri efcase
Ġf er
O ver
bea ds
Ġcu te
t unnel
Ġc alendar
Ġtan gerine
ap artment
p ears
Ġmix ing
Ġra g
Ġsc ale
w ell
fork s
Ġne ed
Ġdis posable
The y
pe eled
Ġ1 0
b room
ilhou ette
Ġho spital
h ood
Ġsh aded
Ġpoin t
sm iling
Ġd ang
Ġt hird
Ġpe eled
Ġmo ve
h ino
Ġcon ve
L L
Ġmo v
Spo on
Ġcle aning
ĠST OP
te en
un dershirt
Ġv ariety
Ġdirection s
Ġpea ches
Ġbre aking
Ġdel i
tin ation
oles law
S ix
Ġdu st
F resh
Ġp ri
basket s
Ġsmo king
N IS
Ġbal ance
Ġstreet light
op es
A sian
Ġsa ying
B al
um my
Ġeyeb rows
ĠT EN
Ġgla re
p ass
Ġdet ail
R U
air planes
B ar
b aked
med ium
P H
Ġst retched
Ġstair way
Ġal so
cle an
bag els
Ġpre sent
sp onge
Ġreflect or
Ġty ping
L u
Leg s
Ġtou ch
pla id
Ġdrain er
Ġbri dle
Ġvess el
ch ristmas
Ġfi ghter
Old er
Ġsp ik
Ġdin osaur
Ġpetal s
a la
ic o
Ġmeter s
Ġcal culator
Ġcan vas
Ġtur quoise
Ġcar ved
Ġpi cket
Ġkay ak
Ġp ineapples
Ġfi le
Ġman go
ĠST REET
Ġtable top
fri ed
Ġarrow s
Ġpou ring
ĠA N
ĠCO LO
S to
F rench
Ġegg plant
li ding
bro ken
Ġto te
ss om
Ġaqu arium
Ġfigu rines
st ump
Ġbla des
Ġapp ro
Ġclu ster
bra celets
Ġnote pad
Ġtoilet ries
ter y
Ġl ove
W alk
sta cle
B all
run way
ĠJ ACKET
Ġeng ines
v ines
in side
Ġbu ds
Ġv ending
T ire
Ġcu stomers
Ġwood ed
i ds
Ġkn ot
ET AL
po sed
pla in
Ġbri de
Ġb ronze
Ġs our
Ġsto vetop
Ġdis k
en ds
C ou
twig s
el ine
O ut
Ġcar ry
Ġw rought
c ards
Ve hicle
canister s
ch alk
Ġcar rier
ic ured
Ġ Z
D is
egg plant
hu ge
Ġpar ade
Ġped al
Dirt y
ĠBU ILDING
Ġrailing s
Ġman tel
Ġf old
icho ke
Ġa irl
Ġsp iral
Ġh ut
Ġra ft
Ġspo kes
Ġgrou t
ste ak
di fferent
B are
ĠH AT
Tru nk
Ġsw ord
Ġhel ping
st rap
RON T
ĠĠĠĠĠĠĠĠ ĠĠĠĠĠĠĠĠ
tou rist
ri to
Ġsh aggy
ĠG RASS
cu um
w rink
f all
Ġbru nette
Ġw atches
clo se
C e
go al
Ġne tting
amer as
ĠL IGHT
C ur
Ġm ashed
re ce
Ġm eadow
sk ate
Ġpack ed
Z Z
Ġf ring
S hirt
vel y
D i
Ġpro jector
c la
dr yer
Ġc rystal
Ġrece ipt
e w
blanket s
Ad vertis
pa ved
li ving
Ġflo ret
c li
Ġb one
te ring
Ġp ouch
Ġcondim ents
Ġwa x
sy rup
s pe
Ġj am
Ġflu sh
Ġfris be
tru cks
surf ace
B ea
Ġher b
Ġc ork
Ġcu ff
Ġ ic
Ġser ve
Ġam ount
Ġse al
helmet s
dress ing
Ġb iscuit
Ġgrass es
ang le
F risbee
auc asian
Ġma caroni
Ġw al
tray s
tra ctor
ĠC o
j ump
ri ous
Ġtransp ort
Ġpattern s
Ġgri p
Ġfl y
f in
ar ched
Ġsh ampoo
Spectator s
g own
ĠH OR
Ġcar ries
Ġcru mb
ri der
Ġcarpet ing
w ild
ho tel
br ary
Ġv i
Ġchi p
v arious
Ġarch way
IC TURE
M icrowave
Ġsi ding
pocket s
key s
Ġd rying
ath letic
d onkey
Ġhoo p
m ot
L ots
mo ve
Multi ple
am ing
Ġside ways
Lea f
knob s
P olice
g est
P alm
Ġsc r
Ġpol ish
i ers
Ve getable
el t
Ġclu mp
ore scent
ab ly
Ġde cal
m ulticolored
Ġen ter
tis sues
ang s
ep si
ick ey
fe ed
ri s
Ġre sts
te nder
Ġp et
Ġf older
Ġf eat
St raw
g rown
am ents
ĠTEN NIS
suit cases
Ġp ilot
Ġv end
Ġri ders
ill s
ĠM ac
fri can
F l
de ep
Ġbright ly
ver ages
Ġbl ood
Ġfoam y
t ain
ĠT REE
Ġun ripe
ar se
Ġ White
Ġnear by
Ġsh ing
Ġhol ders
Ġo strich
W OMAN
Ġsl ot
P ro
Ġor gan
co ck
mer gen
Pie ces
R oof
Ġcrack ed
Ġra m
toilet ries
on ce
Ġsn iff
d igital
Ġex press
Ġuphol stered
A Y
Ġdu sty
g age
as hes
Ġv el
Ġhe arts
Ġs core
mark et
Ġfol lowing
Ġw edge
R AN
P P
v ine
leg gings
Ġc ool
I KE
G o
Ġvegg ie
k er
Ġwindows ill
roll ing
ĠFLO OR
c eramic
Ġbad ge
Ġvan illa
a ving
i ter
Ġbre ak
C ement
Ġbe fore
Ġh ub
cli ff
ĠSTAND ING
t ake
mirror s
P en
m iddle
l ings
Ġmark ed
Ġex hi
Ġt asty
A rt
bal d
goat s
Ġpla que
Ġex terior
Ġpe eling
pigeon s
Ġmed icine
Ġra cks
ick ing
ĠF EN
pot ted
Ġs at
Ġm ass
Ġtooth pick
Ġcrack er
ĠM O
Ġconne cting
il led
N ame
d rop
Ġc au
A K
ĠH AIR
Ġw ispy
Ġear phones
ZZ A
ific ial
Ġfood s
e vergreen
Ġin fla
Ġchin a
L ine
Ġbu bble
Gold en
Ġm er
ĠSH OR
Bath room
wel ry
Ġrela xing
Ġb lurred
mergen cy
cir cle
F lat
clo cks
w hole
Ri pples
hone y
Ġtail s
Ġre s
H ouse
Ġstore front
ĠG ROUND
poin ty
ct ly
IS T
bur nt
Ġb oulders
Ġf og
ĠI n
ten ing
mar oon
C T
Ġb ay
Ġcobble stone
Ġs elf
Ġme asuring
Ġcom mon
Ġro asted
R oll
Ġdirection al
Bottle s
TE D
b a
e e
Ġcli mbing
Ġgu ards
Ġpar achute
Ġelev ated
Ġo per
Ġla dle
C ir
Ġp ict
W et
Ġice d
Ġb low
Ġea gle
ĠPAN TS
Ġbelong s
swim ming
Ġmus ic
Ġa sh
desk top
Picture s
Ġlo ading
Ġclass room
A ll
i les
Ġc ro
le ather
all s
Ġwomen s
Ġ roller
Ġbu bbles
Ġin strument
ri sts
Ġ [
O ranges
Ġsky line
de ring
Ġsc ra
P assenger
Ġti ps
sk illet
Ġbooks helves
Tra cks
Ġcla w
Ġbal ancing
Ġsupp lies
Cou ple
p ineapples
d ant
t ish
di um
Ġpanel ing
d ried
se um
tan gerine
fla ge
b ster
l ion
L AN
Ġsun flower
Ch op
Ġst orm
Ġsupp orts
c ery
gla ze
Ġser vice
Ġcondim ent
rece ipt
Ġhel icopter
Ġcomp artment
ĠTRA IN
m atch
B ra
ĠDO OR
i der
Ġ2 0
B anana
Ġwhe at
s olid
ĠS N
A IL
ĠHE AD
pan cakes
ĠB EAR
Y CLE
m med
Ġ ingredi
Ġpe e
sea weed
dd en
Ġtext ured
Ġca ctus
Ġo ar
Let ters
au ghter
Ġg all
Ġbo iled
Ġstop light
Pe pper
Ġback splash
Ġco ca
Ġb iting
man hole
Ġcord less
RE Y
Ġcub es
Pl ants
is ted
M ed
Ġbu ff
Ġlin er
Side walk
prin t
Ġw ea
M ar
ders ide
Pain ting
ra it
Ġshel ving
d rum
Ġ X
Cow s
Ġl oose
Ġun peeled
Ġhome made
Skateboard er
Ġparas ail
Ġw hisk
Ar m
Ġpainting s
h oof
mu s
Ġlan tern
Ġsniff ing
rust y
Ġspray ing
hand les
Ġe mployee
h ang
Ġin di
Ġtrans it
Ġcourt yard
p lu
Ġo me
Ġrain coat
Ġ rel
i la
Ġbe et
Ġsecu rity
jacket s
D Y
Ġri pp
vid ual
k ed
t own
foot prints
Des k
C ream
Head light
ĠS HE
M ale
p ers
rain bow
PU TER
air port
w aste
Ġcar ts
Ġplan ted
Ġwra pping
deck er
g in
Ġm ail
Ġm ast
stud ents
s chool
ur dle
Sm iling
tra ck
b ol
Ġhu gging
her b
Ġman icured
g s
ĠN E
Ġo ri
coat s
as ing
H ard
s elf
Ġsea weed
ĠB AT
Ġk iosk
Ġplank s
or age
Ġrasp berries
photog raph
i eld
ĠB OW
Ġi vory
A VE
Ġl icking
Ġdes tination
gar bage
Ġrasp berry
Ġnostri l
p as
Ġf ed
Park ing
u ment
Ġt rop
Ġpict ured
IL VER
Ġacc ents
m uter
w icker
rock y
N apkin
man go
RE ES
D ish
Ġbraid ed
Ġperson al
part ially
Head lights
Ġoffic ers
Ġco in
surfboard s
Ġstain s
Ġident ification
Ġcushion ed
Ġexhi bit
Ġrou te
E Y
jump suit
Ġe y
can e
Ġpar ts
Ġst un
OO K
an ces
w hiskers
Ġpre t
co conut
ate ring
Ġse asoned
V ase
Ġsepar ating
Ġg row
ĠD ES
o d
Ġf li
bed room
ĠCh inese
ang led
Ġc innamon
be et
Ġath lete
gu ard
mas hed
Te lephone
ĠBO Y
Ġs on
Ch ristmas
ĠS P
tur key
Ġmuff ins
Ġcou r
g lowing
na vy
Ġgre at
ar n
Ġthe se
Ġcol lection
Hand s
Ġcord ed
pow der
orn ate
P apers
Ġcomp et
is ts
Ġin k
i ding
rasp berry
id es
Ġv ol
z a
Ġcap ital
g entleman
Ġli brary
Ġa le
ic an
Ġother s
Ġcand ies
L D
leaf y
ĠPI ZZA
for table
Ġscreen s
Ġshut ter
Gra ffiti
S w
Ġan telope
b ably
cu stomers
Ġw ake
Ġte en
hed ges
Ġkick stand
W e
Ġhead ed
ap ay
Ġflo re
Ġg arment
Ġhal ves
Ġm olding
Ġfla mingo
Car rots
oc a
Ġrou ter
la p
Ġli quor
ile ts
Ġv a
di p
Ġbu tt
mo bile
me ter
ck ered
ler s
Ġc ran
y or
Ġrecl iner
Ġtooth brushes
Ġroo ftop
ort ment
Ġclean er
Le ttuce
Ġhi p
Ġfrisbe es
Ġgreen ery
Ġbul let
ĠP H
Ze bras
Ġrun ner
Ġout field
sw eet
rin a
Ġski ier
Ġto fu
tag s
Ġoct opus
cher ries
feed er
Ġla mbs
Ġf iling
AN S
Ġsp ear
Ġsc affolding
R u
Ġhotdog s
st apler
pillow case
Ġsp arse
Ġbri st
stri al
Ġcomp act
Ġsw irl
le ep
Ġexten ding
Sun light
w ash
Ġther mo
D ead
ne on
Ġmu seum
Ġf oggy
Ġswitche s
B LUE
Ġc op
K nob
note pad
Ġli mb
pattern ed
tt a
p ale
books helves
LE PH
part ial
cloth s
Ġtak es
so mething
Ġstatu es
bber y
Ġf illing
ĠCOM PUTER
Ġgri nder
C ross
bu bbles
Ġf ound
P itcher
P an
Ġpro fessional
Ġpant ry
p ant
Ġtap ed
LE T
y y
Ġpan eled
Ġbase board
ca ctus
F e
Ġsnowboard s
du cks
Ġp age
E lephants
C abinet
Ġchop ping
LE S
stand ing
apay a
Ġbar ren
Ne ck
ĠCOLO R
ĠFEN CE
Ġshru bbery
Ġshop s
Ġgro cery
Ġstra pped
Ġd om
Bea utiful
Ġbur ning
pea ches
ou flage
C lu
c innamon
Ġp ail
Ġfor ming
Ġdoor knob
ch inese
Ġs ausages
al og
Ġrece pt
Ġc ash
Ġpart ition
ĠG RA
Ġg y
light house
Ġappro aching
Ġe ven
Ġs ole
Ġcur ve
Ġseason ing
Ġgra bbing
Ġh omes
b iscuit
he tti
arm es
pan e
C orn
Clo sed
ĠC oca
p ump
en s
AR GE
Ġdes serts
ĠBOW L
Ġelectronic s
Ġm ou
o ring
ind rical
ĠP ICTURE
Ġdraw ings
Ġt urf
Ġover pass
ĠF I
clu ster
Ġband s
ea rest
Ġ im
ru bs
OP LE
Ġ .
Ġhand icap
Ġmed ian
pole s
Ġre si
G ar
C amera
ĠHOR SE
V ES
T ile
Ġsli de
Ġf ron
he st
ack ed
ag hetti
Ġk it
Ġknit ted
D ry
Ġjet s
sm ooth
Ġfaucet s
u sed
Ġarm rest
iss or
B oth
Ġsu shi
Ġmid air
Ġpro bably
Ġpatch y
an k
Ġfla me
con ies
ma caroni
Ġhi ps
Ġmini ature
Ġsign als
Ġ1 1
ĠC ON
hu man
S ink
ul ts
ĠF RONT
Ġc las
Ġbar bed
CK S
Ġstack s
Ġste reo
icho kes
Ġn atural
Ġri dden
armes an
am a
Ġves ts
E yes
C hi
Ġdi al
Ġda isy
Ġfring e
Ġsp rou
Ġm ir
RE L
So ccer
chand ise
Ġback yard
at meal
el ds
Ġti ger
cell phone
Ġw are
Ġb lu
ĠM ETAL
Ġpo dium
Ġbottom s
ĠB ED
Ġto ilets
T OP
Ġcam o
ap rt
IC E
Ġsle ep
si ve
Ġter ra
Ġbra ce
Ġt im
Ġwork ers
Ġ x
Vegetable s
Ġto ne
C D
b rass
Ġout line
bo t
Ġbrown ie
co ver
Ġb lank
cal culator
Ġt rough
Ġkey pad
de er
Ġdark er
ĠB OT
To y
B lanket
ate e
Ġconve yor
t on
ang ular
Ġtu cked
ven der
Ġs ort
Ġcou ches
Ġsha ved
Ġwhi t
h our
Ġtw in
m otor
Ġd iced
Ġste w
Ġb ins
gri lled
b one
Ġu s
s hield
Ġlot ion
Ġaqu a
Ġpick ing
Ġapp li
un dry
Ġwhe eled
T ea
V arious
Ġ Red
AN G
Ġpe anuts
ir rel
Ġhandle bar
Wire s
Ġtu rt
p ilot
Ġcour se
gi ft
Ġd ash
Ġser ver
S et
e mployee
Ġb angs
over head
Ġter rain
ĠN intendo
M outh
B urn
Ġsteam ed
Ġg olf
bb y
Ġgy m
F A
S H
bu cks
Ġre ins
ri pple
Ġfro g
Ġbatter s
Ġde c
AT CH
Ġtor so
m mer
su shi
Ġits elf
ass er
Ġsail boats
Ġb racket
Ġcon du
ĠW I
rasp berries
Ġang led
St atue
Ġe very
P ed
Ġfri ends
pencil s
d own
Ġde v
Ġn earest
Snowboard er
o val
te mp
ig ar
Ġsheep s
H IND
c i
t ow
a v
Ġbead ed
ha ired
Ġla tch
tool s
cu shion
E gg
ix ed
red it
Ġpow ered
Ġin field
Child ren
Ġfull y
Ġto e
and ing
Ġd ate
ĠW AL
Ġdeli very
bed ding
ĠSK Y
C ooked
S alt
pat ches
ĠBE HIND
dra gon
asser ole
A GE
H u
Ġre ally
Ġmar shmallow
Ce iling
Ġcap e
Ġob serving
Ġgrape fruit
Ġp ra
Ġm om
EL D
Ġaut o
is tening
ĠO RAN
reflection s
B ran
Ġcheck er
Ġw or
Ġt ines
c er
Ġtattoo s
Ġpad d
Ġst ab
Ġp rong
Ġfla mes
Ġc ds
Ġmotorc yclist
es ame
c cu
ĠO UT
Ġstre ak
lip stick
iff el
Ġle n
sh ampoo
Ġ Black
Ġboard walk
u ttle
Ġsp ire
Ġscooter s
Ġm ount
Ġsp ring
Ġhand ing
Silver ware
R ing
Ġself ie
Ġdis pens
L M
b rand
Ġstock ing
Ġcrowd ed
aqu arium
Ġchunk s
Ġstick y
Button s
Ġen tering
Ġexpress ion
H orses
S MALL
Ġs old
Ġfl ash
Ġsail ing
ts creen
Ġla id
Ġoct agonal
Ġtoo k
B irds
Ġg ras
Ġfore ign
sm aller
Ġre cessed
ĠB IKE
Ġcub icle
li g
Ġacc ent
din osaur
Sho es
Ġsp out
bu l
Ġst amp
Ġmon ument
pas ture
Ġcra cks
Ġindic ator
ĠS C
Ġpitch ing
sh ake
Ġs atellite
Ġm oney
ĠE LEPH
bl ood
fi le
Ġpolice men
ĠG REY
ph in
AD E
crack ers
REL LA
bun ny
on al
ation s
ĠJ E
W ords
Ġleaf s
Ġas leep
S eat
e lev
suit s
Ġst u
Ġpret zel
out lets
Med ium
S lices
ort illa
Ġla b
Ġcap ped
Ġfire truck
p rice
Ġturt le
Ġm akes
MB RELLA
dough nut
RU CK
pro jector
S ingle
Curtain s
E ng
c ds
Ġal ley
Ġfla kes
Ġli ds
ban ner
L it
Ġp al
Ġvend or
D raw
A CH
OT OR
1 2
Ġ if
Ġcon vers
AP ER
Ġbag gage
ĠTI RE
Ġbrist les
Ġneat ly
S auce
f lies
Ġ @
Ġen ds
ĠU n
Ġcream y
cur b
R ug
Ġdi pping
opy right
sand y
Ġsee m
slee ve
ĠDES K
ou gh
pe anut
Ġad ju
ho riz
Ġbrown ed
Ġvel vet
n arrow
te xt
road side
Ġsub st
g arden
Ġbu d
ĠI T
rel y
Ġdi als
Ġt high
Ġde bris
e ments
Ġsu mmer
Ġcan al
ob ject
c am
Ġw atering
Ġcomp lete
Ġpe bbles
Ġdivi ding
Sho e
Ġdang ling
r ooked
w hat
Ġto es
Ġb ind
Ġle aving
Ġbu mp
Ġdire ctly
par rot
Ġo x
Ġw il
ĠB EN
Ġw re
H anging
Ġle ave
u pper
v ity
m ay
Ġmay onnaise
chi li
Ġto ss
ĠC UP
Ġbu g
Ġob stacle
B ro
ven ding
Ġflow ing
an e
T ooth
a co
op s
Ġch asing
Ġmov ie
Fe male
D onut
Ġg rin
Ġshap es
Ġo ak
Ġju icy
U G
Ġs ilk
ag er
an telope
ath lete
Chair s
Ġale rt
Ġdown hill
out door
eye glasses
Ġglo ved
C ook
Ġpea ce
Ġw eathered
v ac
N umbers
ĠR oman
ig an
Ġsweat band
du strial
cast le
Ġpitcher s
ĠSK ATE
Ġopen er
Ġmu zzle
road way
Po d
ad dle
ation al
Ġsh ark
Ġhat ch
Ġskateboard ers
un a
Ġcra b
i z
Ġprodu cts
in ner
b aking
w er
Ġhand rail
F aucet
Ġwa ffle
Ġfac ade
op ard
figu rines
Ġsli ppers
ĠSHO ES
ĠJE ANS
Ġte h
Ġhi ding
Ġgo atee
ND ER
Ġstore s
oo m
pi cks
ab ies
l la
st orage
ĠU MBRELLA
y ers
Ġe ight
or a
Ġori ental
S alad
Ġwe ed
Ġinfla table
ow ed
Ġare as
Ġover alls
Ġcam ouflage
n ice
Ġl ang
EN T
ĠP INK
Ġag ed
US E
Ch rome
Ġsc issor
Ġt aller
Ġli mbs
Ġjump er
Ġan ch
ain t
Ġbrick ed
iny l
Cont ainer
o st
Ġref e
bun ches
f irst
draw ings
Advertis ement
sun flower
C hicken
Ġs anta
ck er
Ġsi del
Ġe le
ĠT RUCK
Ġplay ground
Ġblo ssom
p ret
Ġc ameras
Ġover grown
C rack
z ipper
P ort
Ġti er
Ġlang u
Bo ats
Ġbar ric
Po ster
ĠU P
skin ny
Ġma rina
Ġt rey
Ġcri b
H orn
ĠB AG
Ġchild s
re s
t w
Ġmi xture
Clou dy
Lu ggage
se ven
ĠORAN GE
sc affolding
ĠSHOR TS
Ġkeyboard s
umer ous
Ġru ff
Ġbatter y
Ġart ificial
w orn
C YCLE
ĠF LOW
Ġcondition ing
g lo
Ġstreet s
Ġr hino
K n
cap e
Ġfro zen
Ġt ass
C ouch
Ġl one
l ot
bu bble
Ġd am
Ġcom muter
Sc reen
E B
Ġg rand
Ġrun s
Fl oral
Ġad idas
Ġduff le
Ġf urt
Ġp arent
Ġprote ct
S ea
Ġf le
Ġri sing
da isy
Ġcard igan
l ined
mo on
Ġs au
is on
Ġg aming
Ġbor dering
Ġtri pod
Ġra iny
T ake
is sing
ap ing
Ġwriting s
am bulance
Y ELLOW
to fu
ĠGLASS ES
cu e
Ġla undry
Ġpee king
f og
ĠA ir
Ġbro th
S helf
sh redded
I ce
Ġcal ico
la dle
pi ed
t ortilla
ch unk
G ri
ĠS E
Ġplay s
R Y
to asted
Des ign
Ġval ley
op ing
w ri
Ġgra ter
S moke
ĠS A
ole um
hard wood
or ter
Ġbur rito
Ġbound ary
Ġ rowing
chi ef
Animal s
a ved
f en
Ġchar ging
Ġt en
te ctive
OTOR CYCLE
Ġp ress
sn acks
Ġsl opes
Ġspl it
n ty
Ġp le
crack er
Ġbucket s
Mo st
ear phones
ĠT OW
ctang le
p ouch
Ġfoot prints
P TOP
Ġbe verages
T ip
mo dern
ĠT H
Ġclo the
ng e
Ġup ward
Ġc el
C O
ĠB ri
Ġstun t
Ġl ic
Ġg l
Ġflore ts
t one
mo de
cat ion
Re ctangular
Vehicle s
Ġappli ances
Ġpot tery
ĠS AND
ĠSN OW
Ġro ast
Ġbaker y
T ag
HE EL
Ġsh uttle
Ġprodu ct
ul ch
ĠST RI
Pot ato
u fa
grape fruit
co mb
Ġhorse back
chalk board
Ġw ig
rou ter
pp ort
min ute
fur ry
Ġin te
K ET
Ġwith in
wheel chair
Ġz i
C ru
Ġbol ts
Ġsit ted
ĠE ng
Ġacc ess
Ġres ort
Ġrel ish
lack s
Ġb abies
lig ator
Ġf air
Sign s
B ase
Ġn oodle
IR T
Ġin ner
B ALL
D S
me kin
Ġarm y
gi ant
Ġflu orescent
Ġm all
Ġmeet ing
Ġdi aper
Ġpro mot
ycl ists
Ġc redit
pi zzas
Ġhub cap
Ġve g
ĠBEN CH
rin als
Ġj o
Ġorn aments
ĠSK I
Ġin dustrial
B un
Ġis n
F lu
Re frigerator
am ole
THE R
C ard
A KE
Ġleg o
5 0
ut ility
Ġad ults
C rowd
W earing
RO OM
Ġsu ite
aw ning
Ġn intendo
pret zel
ĠSt reet
k iosk
P EN
Ġskate park
ĠN O
Ġlo ves
Ġche es
Be er
D rink
po megranate
Ġroof s
Ġang le
u ng
Ġpair s
ac amole
Ġsun shine
Ġun derside
bor ne
Ġon t
Ġi mp
Ġfall s
ĠELEPH ANT
Ġsubst ance
A FF
Ġcom fortable
Ġal ligator
st ain
St airs
lat ion
1 0
Ġsprink le
B ROWN
g re
pen guin
Ġbes ides
atch ing
low ed
sn ack
M ove
Ġsp eak
Ġstab il
Ġlo aded
Ġsmart phone
Ġtor n
Ġth read
Ġash tray
HE AD
I E
F T
ite m
Ġsha ving
n as
ou ts
Ġex posed
Ġc all
ĠSU R
Ġrecept acle
U RT
se mb
Ġdu de
ĠU NDER
Ġsail s
P ine
Ġsection s
Ġe as
Grass y
u ous
mo re
ist ant
mar ble
ĠC ola
Ġc oleslaw
Ġs lacks
Ġfla p
Ġparas ol
th ing
Bri cks
Ġd ull
Ġsw i
St ick
s a
Ġsc once
shop s
m ond
Chop ped
ss y
Ġqu ar
Ġfi xed
ĠS h
Ġpack ages
Ġur ban
p arent
Ġflo at
y le
r ation
Ġmark ers
chop stick
Ġs an
Sk is
scrap ers
Ġy arn
up side
c ycle
sail boats
Ġn ap
Ġback s
Ġpo megranate
sw ord
Ġa ff
Pla id
w ind
ĠS W
d or
Ġcyl indrical
s our
bat s
Ġpro tru
Ġh un
B ur
Ġcyl inder
Ġchi pped
Ġare na
Ġic on
w h
g ames
Ġs almon
Ġre al
h azy
Ġoven s
w al
H o
Ġp ork
ch an
ĠB lue
Ġlangu age
he ring
st ool
Ġsp aghetti
b ent
Ġspo ke
Ġban ners
comp any
oog ie
ap an
THE SE
Ġstret ch
H igh
Ġst rong
alle l
ĠA d
poin ted
P LE
Ġpoin ts
Ġcheese cake
Ġ HIS
Ġf ut
Ġo vers
Ġra mekin
h omes
Ġa c
Ġn est
Ġgreen ish
lette ring
ĠP APER
Ġfigure s
Ad ult
R ope
Ġs ilhouette
ĠP ARK
Ġf lock
E ars
Ġpen dant
roiss ants
ANG ING
Ġri ms
and y
Ġdesk s
Ġscra mbled
ĠBOT TLE
s atellite
ra ctive
uniform s
O ven
Ġcre st
T AIN
g arment
Ġloves eat
Ġtight s
Ġm owed
Ġplug s
Pepper oni
Ġste pping
Ġrecl ining
b irthday
ass orted
ST IC
ĠW R
itch ing
c opper
ĠF rench
th row
Ġhook ed
Ġva cuum
d ition
Ġse ven
ren ce
Ġpull s
rus hed
yl on
Cir cular
LAN E
L ot
Ġs lic
ab it
Bu sh
Ġl oo
Ġport rait
Ġcheck ing
Ġcol oring
Ġprote ctor
oog les
Ġsqu irrel
So ap
Ġatt ach
F olded
Ġey el
e mb
Ġh all
bell y
Ġhim self
ĠPH ONE
F ur
t ran
de x
ub by
EL L
Bl inds
pant ry
Ġspik y
ri lla
Ġle ans
Ġbullet in
Ġaff ixed
Ġk inds
Ġbig ger
ala pen
Ġprepa red
Ġvis itor
bol t
Ġs esame
Ġw ill
ra m
Open ed
Ġc ent
ccu pied
Ġan alog
ed ges
Ġdispens ers
T ri
Ġome lette
dent ial
Ġe mergency
b oulders
y al
ar ch
ty rofoam
Ġenclo sed
flect ive
oo ves
Ġche wing
IR RO
Ġspectacle s
ru sted
Sh ower
P ERSON
Park ed
IRRO R
re cessed
Ġpo king
ĠK N
f le
ĠSKATE BOARD
k ra
Ġle an
N ike
O cean
O ff
Ġchain ed
Ġlit ter
Ġroo t
ure s
re ws
Pot ted
Ġfla v
Ġu rinals
Ġcru ise
ĠPE OPLE
Ġa ct
Ġbrown ish
Ġtext ing
ten ded
IT CHE
C ity
Ġwa it
ree k
u nder
Ġge ese
o strich
bun s
Ġin clu
Ġang ry
Ġst art
Ġob long
um in
Ġyoung er
Corn er
ĠC HI
M el
Ġtrop ical
1 1
Ġh ig
Ġin t
Ġsh ine
W OOD
Ste el
Tomato es
Car pet
V an
ĠPO LE
Ġblock ing
Ġhook s
Ġtw isted
t ouch
Ġb ic
ĠRO AD
St icker
Su it
C om
Ġh urdle
h ar
Ġlo bster
fla mingo
Ġhead ing
Ġun lit
Bri dge
ap s
itche d
ĠGRA Y
M onitor
B lurry
land ing
Ġlift ing
co tton
Ġv inyl
Ġbal conies
Ġc ages
Back pack
ĠLE A
Ġlim it
b lo
Ġlemon ade
Ġass ortment
ski ers
Ġpol ished
I F
o ct
ss es
s cu
Ġsp ons
THE RE
Ġstock ings
Ġd aughter
m ain
Ġc rooked
ASE BALL
Ġsee ms
az el
Ġstalk s
ĠWAL KING
ĠT REES
Ġh abit
acks on
Ġh um
w earing
Ġa er
Ġsign board
Ġb its
ad ian
ĠHE LM
Towel s
tattoo s
Ġbri m
a ction
f ake
ĠLA MP
Ġf a
al cohol
ĠO PEN
ĠH ANGING
P ast
Ġcondu ctor
illa ge
P at
il s
brown ie
ĠA IR
b ly
Ġdev ices
Ġbloo m
Ġduff el
Ġsprou ts
Ġpromot ional
li ghted
AD OW
b aker
Ġsilver y
co in
Ġbun ched
Ġes cape
te ries
b in
Ġchop stick
Dou gh
Ġcri sp
F an
Ġl ast
Ġsu per
Ġce le
ĠM OTORCYCLE
E P
Ġm ach
Ġcam el
Ġbuff et
Ġpear l
Ġh ad
Ġg utter
st age
ĠLA PTOP
Ġswi vel
z y
Ġcap ti
M ini
Out door
G iraffes
Ġf lies
Ġlar gest
Ġcau ght
Ġ 0
Ġstabil izer
M iddle
Ġb row
sty le
Ġcigarette s
Ġlo ad
ond on
Ġcamp er
Ġco ffe
cand ies
ĠCO UN
T iles
Ġal mond
f ant
high way
ĠW HEEL
C ap
ra mp
Ġair borne
Ġch a
ĠBO AT
Ġnostri ls
rain coat
Ġcon fe
turn ed
fu zzy
lan nel
Ġo atmeal
Ġrais ins
id uous
Ġsk e
ufa cture
Ġspeak ing
oth ing
Ġ1 5
ĠSO FA
Ġpla za
Ġbackpack s
ft s
Ġleg ged
cond im
Ġairl ine
c enter
ep ad
ne ven
Ġfla tscreen
IL LOW
Ġbarric ade
Ġz ip
Ġwrink les
Ġpit a
fi tti
BO Y
e ver
cra b
ĠC an
ycl ing
Ġsh ines
fla mes
cu te
Ġdress es
Ġben d
ĠB ALL
Ġcou ld
Ġbun dle
s liding
Ġvan e
Mar oon
Ġscore board
lo af
Mu shroom
Ġg a
ch ampagne
fro g
Ġri d
lad ies
cra cks
Ġreflection s
ĠMac Book
Ġlay s
ctor y
Ġgri pping
Ġc rock
Ġthermo s
Ġo wn
R ain
Ġposter s
c el
ce des
round ed
Ġhair s
Ġg ran
is ed
ĠGIR AFF
Ġhabit at
Ġcar ving
Ġvol ley
monitor s
Bo ard
mar shmallow
lee ce
Ġa li
ĠA R
Ġi Pod
Hu ge
ar a
Ġsp las
Ġdrop s
Ġtransport ation
ĠPLA Y
ng er
Ġlic ence
Ġs car
Ġlin oleum
Ġj ack
painting s
Ġsp ider
Let ter
O r
Ġo dd
z es
stack s
Ġoct agon
full y
apan ese
w hisk
sm ile
Ġb oogie
Stri pes
Ġfut on
C ord
ro red
Ġl oop
pe anuts
batter y
f aded
Ġd one
Ġs auc
C alm
F ull
Ġgo es
Ġar ches
Ġart ichoke
Ġc are
sp ace
A ss
police men
tow ers
Ġar c
iscu its
Ġingredi ents
a ches
Ġpadd ling
Ġto f
Ġlo vely
stri p
che ckered
h appy
Ġauto mobile
Ġback drop
Ġm ic
Ġwater mark
Ġpea cock
ĠBO ARD
b led
Ġdoll s
le nder
ĠB en
Ġf ins
Ġmay be
Ġcool ing
Ġover hang
tri angular
he avy
Port ion
Ġfun ny
aw k
U MB
Ġla vender
Ġemb ro
Ġco ck
Ġstop per
in terior
Ġsea food
Ġweb site
Ġbar tender
Ġli es
advertis ing
Ġher ding
ac es
ag ing
Ġba rely
C andle
Ġle ver
Ġp ay
Se cond
P lu
ea ten
Ġwre ath
ĠCOUN TER
r son
ou red
Ġwater fall
p ri
lu lar
Ġco ast
Ġtou rists
fin ished
H ROOM
an na
Ġneck laces
Eng ine
al umin
Ġsi ded
ag ged
Ġunder wear
Ġpropeller s
alumin um
Ġ earing
Rail ing
ĠZ EB
art ichoke
Ġje welry
Ġshoe laces
Ġentry way
Ġawning s
M O
Ġplant ains
Ġlabel s
v il
Ġ1 9
woman s
Ġwild flowers
Ġri se
Ġwater craft
su ng
d iced
Ġg rows
Ġtomato e
Sc issors
ous el
A pples
Ġ ran
ufacture r
Ġlogo s
Ġsc rub
Bro ken
it ted
f eta
en ger
Ġpra ct
Co mp
Ġim ages
A C
Ġsw ung
Ġv ents
Ġh y
Ġear th
RO M
Ġed ging
Ġdi vid
Horn s
F eet
mon ds
let on
Ġgat hering
Ġpar allel
Ġresi dential
he dr
board s
Ġw oo
Ġt it
Ġy ear
ti led
K ids
Ġindic ates
Ġmou stache
may onnaise
ĠP OT
ĠHELM ET
D O
Ġw ard
Ġne igh
Cont rol
T u
E nd
T iny
I M
oot hi
Ġlin en
U L
T ray
L ines
r ating
Ġdu g
ĠEng lish
Ġsuspen ders
Ġpe ice
ĠM IRROR
U B
C loth
Ġgall on
ĠF LA
Ġband age
ck les
dition al
b es
s hed
Ġwh tie
Ġf leece
Ġd ense
Ġ er
ĠE Y
work ers
Ġg oogles
Ġcar amel
ĠB Y
or ry
ng le
Ġpre p
Ġke eping
ĠS INK
Ġh ik
Bran ches
O li
ri g
snow y
ĠPLA STIC
Ġcro che
Ġeven ing
tens ion
hedr al
and er
as ed
Ġfri end
Ġlamp post
col umn
Ġw ading
Ġow ner
A TER
v intage
Ġre mo
red dish
Ġbal ck
Ġf rees
Ġstret ching
ra cks
R oman
Ġhair cut
ĠT AN
er man
air craft
Ġcur rent
dd les
Ġle ss
ign s
ri ers
in ning
it rus
med icine
J ackson
Ġgra ted
ep le
Ġspe c
L ab
Ġti cket
Ġfl ood
Ġhe ating
Ġthumb s
te al
Ġprotru ding
ĠUS B
am sung
Ġri bs
Over head
horiz ontal
b lurred
c ash
gla zed
Ġflow ering
ĠC HE
2 0
es ts
Ġward robe
ast ing
o te
v elling
we b
Ġspe cks
Ġed ged
Ġoper ating
clu mp
Ġrust ic
Ġrefe ree
Ġse ries
ail s
ĠBO X
Mel ted
Ġt ar
Ġsnowboard ers
ĠA frican
Ġs ing
ĠC AKE
ĠS ILVER
inn ie
ing us
Ġup wards
Ġc aucasian
ĠS anta
band oned
Sp eaker
P LA
Ġs led
Ġc asserole
key pad
ĠH O
Ġo uter
ker chief
AB Y
ĠCLO CK
Ġm as
bri de
ĠSt ates
Ġmap le
ĠSTRI P
rin se
Ġt angled
ĠH OT
Ġ1 8
Ġdri pping
St ring
y ed
Ġri dge
Ġdecor ating
van na
Ġin dex
bur gundy
rais ins
Ġp allet
Ġf lannel
Ġt ying
Ġtouch pad
lo ver
Gar bage
On ions
Ġshing les
Ġre semb
Ġwatermelon s
wrink le
Ġcom f
Ġs af
Ġbe ets
Hard wood
Ġf eta
Ġl orry
Ġribbon s
ri dge
wild flowers
Ġg inger
Ġsurround s
Ġhing es
als a
Pla yers
ĠO VER
Card board
I te
K etchup
most at
s ausages
F ield
ITCHE N
ĠN ew
Di fferent
D VD
H ea
Ġbloo ming
Ġruff led
Q U
Ġpa mp
rais ed
ic ally
Ġp epsi
Ġn ine
w here
Ġface d
Ġme chan
s li
Ġham mer
Ġst ate
Ġflow n
Ġtim er
lu cent
slee ved
Ġgras ping
oo h
Ġval ve
Ġlay ers
B each
Ġneed les
Ġto ned
Ġe asy
Ġprong s
Ġcre amer
Ġshin ny
ĠLO NG
Ġtra velling
H ouses
Ġcom mode
b ine
n ight
mper ature
Ġti pped
are s
hole s
Ġc i
mug s
Ġkick ed
Ġhel p
Ġsun flowers
Ġoutfit s
Ġhal ter
FF EE
Ġcapti vity
ple nty
Ġgri d
le eping
Ġrear view
Ġatt ire
nequ ins
Ġsp ark
Ġfeat uring
tu sk
pe ice
char acters
PE rson
Ġcompet ition
ĠB IR
Ġstem med
d ri
Ġh ow
Ġshing led
Neck lace
ord ers
Ġro bot
ĠĠĠĠĠĠĠĠĠĠĠĠĠĠĠĠ ĠĠĠĠĠĠĠĠĠĠĠĠĠĠĠĠ
Ġsi te
Co la
Ġd on
ĠP ark
Ġident ical
stom ach
e ight
Ġth ru
Plate s
ĠP LANE
Cle an
la ted
Ġn othing
Eye glasses
b ru
il son
Ġdo ily
ĠM ingus
stack ed
c ro
Ġmountain side
Ġbar be
Ġad dress
L ook
ĠLO O
pt ion
Ġloung ing
ĠWI I
G oggles
Ġform al
Ġno zzle
she er
Clo thes
Ġa mber
Ġs al
a ut
U tensil
c ran
ori zed
Are a
V ING
Ġhang ar
rain er
Ġ ant
op py
ĠP ILLOW
Ġdom ed
se al
LE R
Ġshin ning
ĠK EY
Ġseagull s
B utter
Ġ -
Ġm ulch
Ġpos si
Ġsc rews
ou l
Ġre pre
ric ate
Ġre tri
if ier
Ġor der
ĠC OW
rais in
Ġlo dge
M ulticolored
h y
I LET
Ġripp led
Ġpo m
Ġm ural
pi g
ĠUn ited
stra ct
b les
tri angle
M ENT
Ġs ound
zz led
d les
Ġdri vers
i tting
Ġal monds
Ġcar ousel
Ġkne epad
Ġfin ish
Ġsoft ball
Ġb road
Ġdown town
ĠSUR F
AN CE
t ion
Ġdown ward
Ġrais in
Ġcel lular
ad get
Ġl istening
otorc yclist
Ġw o
ĠM ADE
Ġwe ight
E n
fri dge
H ills
ond a
Ġtail light
Ġbutter flies
ic les
ĠL IT
Ġdonkey s
Sto ve
sea ted
no ccupied
S helves
P u
w ra
Ġsi mple
Ġcon ver
Ġ Green
Ġ HI
he arts
ĠD IS
Ġjump s
Ġext ra
Ġn ic
Ġwa iter
F irst
Ġme tt
Ġview ing
che st
Ġmac book
ten nas
p uffy
Ġbur ned
Ġsp ine
ff les
sc ene
Ġdin er
Ġa bandoned
Ġplanter s
Ġplu mbing
cru mpled
Ste ps
Ġcomplete ly
ĠS MALL
ĠHAND LE
fan cy
c oleslaw
ĠB ASEBALL
kn ot
Ġpumpkin s
c afe
ari an
Ġlink ed
un d
cloth ing
Ġra quet
wrink led
Ġeas el
r hino
Ġlan es
er c
ĠK ITCHEN
oothi e
UR PLE
Ġstir rup
ĠCD s
oct opus
ĠW ATCH
Bo dy
Ġmess enger
Ġmo de
in strument
li et
bu g
z ard
IL ING
ĠGIRAFF E
Ġe ats
ĠD IST
Ġse g
K nee
Ġes ca
Ġlock ed
ex haust
muff ins
al ian
Ġfresh ly
Ġpu sh
ac ant
t a
ori um
u se
es ti
Ġshel ve
Mu stard
Kite s
Ġwrink ly
h olding
ĠF ROM
AT O
Cell phone
Ġsun lit
Ġchimney s
St ar
Ġelev ator
cri spy
Ġd im
ic a
pick le
ĠK ID
Ġob scu
Ġt allest
kra ut
roo ftop
hi p
Ġplu nger
b ronze
Ġ il
Ġday light
wa iter
ze bo
D onuts
ĠCLO U
ĠPARK ED
ĠLE FT
e xt
Ġc igar
Ġfo cu
Ġband anna
Ġbow tie
IGH TS
X T
Bag s
Ġbrown ies
ide red
Ġbul ding
Ġsection al
Ġlevel s
touch pad
Ġcele br
ce ries
store s
Ġslat ted
Ġfer ry
Ġmer chandise
i me
We eds
pol ka
L IGHT
Ġ erase
Ġsp are
Ġu noccupied
D u
di amond
fen cing
en er
Ġshop per
f allen
in ation
Ġfl yer
Ġju ngle
Ġdam aged
ĠF R
ĠPLAY ER
Bra celet
v o
Ġqu ilted
Potato es
Ġf ight
Ġsh aking
k haki
Ġ1 3
xed o
ĠD E
S tra
Ġout lined
Ġsli ver
Sto re
S U
Ġp ages
LE D
Ġblock ed
Ġhal ved
ne w
Ġelectric ity
H am
di an
no stri
g ro
ĠAd idas
Ġpamp h
Ġm op
Ġtea cup
ĠTRA Y
Ġsepar ate
OL D
ĠDVD s
on a
and el
re ctangle
Ġon es
Ġ1 4
it orium
Ġsign age
Ġk issing
Ġin fant
gri nder
T ie
Ġco b
Ġ EN
C ounter
s addle
Ġhe at
en ed
og raph
bur n
ĠL ARGE
Knob s
Ġgrow th
ĠFI ELD
ĠSU IT
Ġlap el
Ite ms
Ġ ray
b ie
Ġun made
o x
Ġp oodle
Ġsh orter
Ġpa tty
Ġrefle cts
sc ra
Ġad j
Hand les
Ġw edges
Ġst rainer
Ġco ated
Ġex iting
ill board
Ġpad ding
ĠCO FFEE
Ġfrees bee
Ġs il
Ġf oots
vac y
Ġdep ic
Ġ EAR
Burn t
Ġsw oo
ban k
string s
Ġclass ic
ĠDIST ANCE
ĠM ON
Ġla te
Ġle arning
ye red
st adium
Ġslic ing
G O
Ġb orders
prin ted
ĠB u
col lection
Ġn u
je welry
Ġmotorc yle
P re
Ġn a
Ġcu rious
hing e
Ġtre at
Lab el
H ill
Ġ Man
ĠW indow
Ġacc es
V EN
Ġt ide
cur led
bla de
ĠR IGHT
Pain ted
W ide
tent ion
Ġsmile y
UN G
Ġ id
al ic
Ġent ire
va cuum
Ġ illumin
Ġc opyright
Ġdo cu
Ġv en
co ming
Ġsc rap
m oney
Ġhard ware
Ġdu vet
Ġrac er
ĠA ROUND
Ġcamp ing
Ġback side
Ġt rench
Ġse wing
foot ball
br ant
Ġre cord
ĠHE R
Ġt aco
Ġcir cus
Box es
Ġb oo
ce d
ĠK I
wri tten
T Y
Ġt ric
P ale
Ġs oles
Rock y
at ched
if ying
del icious
cu ff
Ġhang ed
Ġro ds
Ġdr ople
S er
Ġstraw s
Ġsl oped
Or n
cur ly
Sm aller
Bal d
s lanted
sh arp
bar tender
hel icopter
si zed
Ġpa ving
To ddler
Ġsla w
Ste m
Ġpi les
ĠFLOW ERS
Ġthe ater
mp et
Po lar
st ir
sh rubs
Ġtu xedo
OM E
Ġur n
T is
Ġstructure s
Ġpin ned
Ġmon ster
Ġcar afe
si tting
Ġland line
er ly
mb and
Ġdisplay s
Ġfre ight
Ru st
Ġpo se
Ġsnow man
ome lette
Ġch ord
Ġart ichokes
ĠNE XT
Ġn aked
mi lar
re g
Ġhe ight
TH REE
C rust
J ar
Ġd ancing
walk ing
Ġsqu ared
Ġnear ly
D el
d ol
te ed
ag o
alapen o
Ġs ol
Ġclu b
Ġbuoy s
gra ter
RE SS
Ġtie red
ĠS tyrofoam
Ġst rand
ĠB R
Ġbull s
tt ice
Ġpro file
Ġto liet
Ġex tension
Ġp ac
al o
Ġwhe n
T attoo
ire ction
ess y
el lo
ĠY ork
ac ent
Car rot
ĠS TE
ĠBE ACH
Ġfore arm
Ġengine er
Ġdec iduous
P rin
Ġb old
bor hood
Ġcourt s
Ġp apaya
B re
Ġthe med
Ġbottle d
Ġbowl ing
Ġstir ring
L og
get arian
Ġcorn ers
Ġsa vanna
Flu ffy
zz ly
as phalt
ason ing
B rand
alm ond
ĠN EAR
ĠL INE
O f
ĠF A
Le mon
G u
M agazine
Ġi vy
chi d
In side
low n
Ġcur ving
Ġsc all
Ġcrust y
RA W
ur dy
Ġfi elds
F amily
ĠCo ke
Ġfed ora
Ġc rop
Ġsc en
Ġtra m
n eat
in formation
tain ing
elev ated
Ġne eds
Ne wspaper
D river
Ġle opard
ach t
B acon
jam a
ulticol or
Ġang el
O b
Ġb oun
Ġmel ons
f lo
Ġapp et
Ġindi vidual
E nt
ant ro
Ass orted
Ġf as
vis itor
or ary
li quor
Ġcap ris
J acket
Ġte xture
Ġup on
ang ry
des serts
ĠST O
W rist
el ican
am ed
ĠTO ILET
sa ic
Ġu ses
Po st
U p
C art
f arm
bus iness
P ack
Ġsc roll
Ġwor ld
n i
ĠP i
h ydrant
su al
Ġplay ed
yy yy
b its
Ġvolley ball
ti ble
Ġesca lator
Ġsi d
Ġsi zes
Ġam id
st ory
ĠC AP
Suit case
open ing
me ric
Ġv acant
LASS ES
Ġle ast
buoy s
Bal cony
Cur ved
sh oulder
Ġro yal
Ġroo ts
Key s
Ġn on
Ġcab oose
G G
Ġwhi p
M W
Ġwaste basket
Ġyellow ish
Ġar mband
Ġsidel ines
onal d
i lation
st able
Ġbook bag
C able
L id
AR KING
drink ing
A l
shirt less
g a
N et
S ail
l or
on ly
rail s
Ped estrian
de bris
Ġdo zen
Ġdol phin
Ġi Phone
s ilhouette
ĠO n
LA DY
i ed
k s
car toon
ĠBri tish
most ly
Ġfurt hest
A RE
Ġlim es
Ġsi ppy
Ġbu sses
ĠB OOK
Ġscr atching
Ġc ray
met ric
ri m
top s
S ILVER
Ġun opened
ĠD ARK
Rail road
N ight
blo ssom
Clu mp
k ick
Ġt una
Ġadj acent
Ġsi milar
Ġcur vy
Ġfingernail s
le n
Ġlead s
ĠZEB RA
Ġadju sting
n ot
AL K
azel le
J eans
d ot
Ġcon cent
sign ia
F ried
ĠR ID
W ing
Ġk now
Ġsymbol s
Ġgre asy
Ġtu ft
D ress
n es
Ġattach ment
Ġmett alic
op lane
Ġhatch back
ur ope
va ila
Ġswoo sh
" .
Ġte mple
Fire place
Ġval ance
L eather
ĠM E
ĠSHE L
Cabinet s
Bl ond
Ġf ist
Ġbar riers
f ree
Ġb rushed
Ġkn ack
Ġlen ses
re flective
Ġne cks
M ug
Ġ2 5
men ted
H ole
K IN
ES E
Ġspons or
Ġroo ster
Ġconfe rence
Ġsc oop
re tte
li ers
ĠB ABY
Ġwa its
w edding
Ġk hak
pe bbles
1 3
AS KET
f er
o ak
ĠM ouse
M e
Ġ Le
Ġb rushes
la y
Ġre taining
p apaya
ve getation
s ely
ashi on
Ġla min
Ġbe gin
ĠTOW EL
ĠB AN
le ene
Ġc ot
Ġsweat pants
Ġne ws
Ġpas te
in a
look s
Ġg our
Ġfi xing
Ġpul lover
que e
ep er
cheese cake
Ġske leton
leene x
t hird
M agazines
ell s
Ġex erc
Ġg au
Ġpark a
co la
Ġsand les
le x
cla y
te s
Ġk ing
i ent
spo kes
AB IN
Ġpri vacy
G i
Ġsw ings
Ġpink y
Ġde ter
ĠC PU
vaila ble
Ġv illage
Ġsm elling
Ġcre ated
Ġnic ely
P S
c oli
ch ment
z or
Boy s
he althy
ra ted
Ġpa vers
Ġiron ing
su pport
Ġstreak s
D ER
Ġre igns
Ġsp ool
ĠF OOD
Ġbul ld
Ġp up
stru cture
Ġte mperature
OW N
green s
Ġm oose
S K
Ġs low
M ac
Ġc itrus
aqu a
Ġmass ive
Ġs alsa
Flag s
Ġde te
Sand y
Ġkhak is
ter minal
Ġpro je
Ġavocado s
Ġmess age
S afety
Ġsle nder
Ġpa jama
Ġpas tel
UMB ER
o metric
Ġobscu red
ĠT E
Ġeyel ashes
Ġga zebo
Ġri vet
Ġd ying
Ġstream ers
C C
Ġhas h
mel y
Ġtarm acked
Q u
f abric
G la
Ġdri zzled
sc rew
Ġswitche d
Se ven
M agnet
Ġm y
Ġk no
Ġc reek
cu rity
Part ially
shop per
ck ing
Ġre c
Ġmilk shake
re mely
Ġsh oot
mud dy
Ġco tta
N avy
s her
Ġwind ing
Ġf eathered
Ġglo ssy
oo my
Sp inach
Pur se
Ġgran ola
Ġin front
Ġn ur
ĠD ell
ĠPI E
wo ven
Ġcla im
li ghter
Ġgroom ed
Ġretri ever
ole t
WOOD EN
O UR
p ony
Ġth rew
Ġg ull
Ġu neven
ag ue
plant ains
Ġcat hedral
Ġblossom s
Ġ vert
Ġmat ches
IT OR
du st
Ġanch ored
Ġsli m
Ġgu iding
Ġhut ch
E ld
IN ES
Ġcas ing
Ġmov ies
Ġcran berry
meric a
h ooves
Ġmen s
Ġmotor bikes
Ġorgan izer
Ġb owel
G as
Ġg ir
ABIN ET
hel l
dump lings
W ave
W icker
Men u
Ġgre ase
ĠLA YING
Ġbu ild
i ver
Ġco de
Ġshel ls
Ġfight ing
b row
c D
Ġatt aching
Ġinte re
er kraut
Ġat temp
Ġ2 4
b let
Ġsign post
Ġback ed
Ġh ou
Dis play
Ġfor med
nis ter
Ġgu ide
Ġin struction
Ġstorm y
te st
hu a
v in
Col lar
Ġmango es
iz ers
Ġphotograph s
Ġchees y
Ġt ed
Ġmu ch
L ARGE
Ġri pple
Ġmat s
Ġhik ing
est ic
Foot prints
Ġhead set
cru mb
L ow
Ġre cor
ĠC ar
ic s
is ting
sc once
se e
almon ds
ĠSH ADOW
Ġtric ycle
Lar gest
ten ed
Ġconvers ation
Ġc pu
pi les
Ġcol oured
ĠSt ar
emb lem
tooth brushes
Ġsat in
T iled
n ick
