{
	"version": "1.0",
	"truncation": null,
	"padding": null,
	"added_tokens": [
		{
			"id": 0,
			"special": true,
			"content": "<s>",
			"single_word": false,
			"lstrip": false,
			"rstrip": false,
			"normalized": true
		},
		{
			"id": 1,
			"special": true,
			"content": "<pad>",
			"single_word": false,
			"lstrip": false,
			"rstrip": false,
			"normalized": true
		},
		{
			"id": 2,
			"special": true,
			"content": "</s>",
			"single_word": false,
			"lstrip": false,
			"rstrip": false,
			"normalized": true
		},
		{
			"id": 3,
			"special": true,
			"content": "<unk>",
			"single_word": false,
			"lstrip": false,
			"rstrip": false,
			"normalized": true
		},
		{
			"id": 4,
			"special": true,
			"content": "<mask>",
			"single_word": false,
			"lstrip": true,
			"rstrip": false,
			"normalized": true
		},
		{
			"id": 5,
			"special": true,
			"content": "<vis_token_1>",
			"single_word": false,
			"lstrip": false,
			"rstrip": false,
			"normalized": false
		},
		{
			"id": 6,
			"special": true,
			"content": "<vis_token_2>",
			"single_word": false,
			"lstrip": false,
			"rstrip": false,
			"normalized": false
		},
		{
			"id": 7,
			"special": true,
			"content": "<vis_token_3>",
			"single_word": false,
			"lstrip": false,
			"rstrip": false,
			"normalized": false
		},
		{
			"id": 8,
			"special": true,
			"content": "<vis_token_4>",
			"single_word": false,
			"lstrip": false,
			"rstrip": false,
			"normalized": false
		},
		{
			"id": 9,
			"special": true,
			"content": "<vis_token_5>",
			"single_word": false,
			"lstrip": false,
			"rstrip": false,
			"normalized": false
		},
		{
			"id": 10,
			"special": true,
			"content": "<vis_token_6>",
			"single_word": false,
			"lstrip": false,
			"rstrip": false,
			"normalized": false
		},
		{
			"id": 11,
			"special": true,
			"content": "<vis_token_7>",
			"single_word": false,
			"lstrip": false,
			"rstrip": false,
			"normalized": false
		},
		{
			"id": 12,
			"special": true,
			"content": "<vis_token_8>",
			"single_word": false,
			"lstrip": false,
			"rstrip": false,
			"normalized": false
		},
		{
			"id": 13,
			"special": true,
			"content": "<vis_token_9>",
			"single_word": false,
			"lstrip": false,
			"rstrip": false,
			"normalized": false
		},
		{
			"id": 14,
			"special": true,
			"content": "<vis_token_10>",
			"single_word": false,
			"lstrip": false,
			"rstrip": false,
			"normalized": false
		},
		{
			"id": 15,
			"special": true,
			"content": "<vis_token_11>",
			"single_word": false,
			"lstrip": false,
			"rstrip": false,
			"normalized": false
		},
		{
			"id": 16,
			"special": true,
			"content": "<vis_token_12>",
			"single_word": false,
			"lstrip": false,
			"rstrip": false,
			"normalized": false
		},
		{
			"id": 17,
			"special": true,
			"content": "<vis_token_13>",
			"single_word": false,
			"lstrip": false,
			"rstrip": false,
			"normalized": false
		},
		{
			"id": 18,
			"special": true,
			"content": "<vis_token_14>",
			"single_word": false,
			"lstrip": false,
			"rstrip": false,
			"normalized": false
		},
		{
			"id": 19,
			"special": true,
			"content": "<vis_token_15>",
			"single_word": false,
			"lstrip": false,
			"rstrip": false,
			"normalized": false
		},
		{
			"id": 20,
			"special": true,
			"content": "<vis_token_16>",
			"single_word": false,
			"lstrip": false,
			"rstrip": false,
			"normalized": false
		},
		{
			"id": 21,
			"special": true,
			"content": "<vis_token_17>",
			"single_word": false,
			"lstrip": false,
			"rstrip": false,
			"normalized": false
		},
		{
			"id": 22,
			"special": true,
			"content": "<vis_token_18>",
			"single_word": false,
			"lstrip": false,
			"rstrip": false,
			"normalized": false
		},
		{
			"id": 23,
			"special": true,
			"content": "<vis_token_19>",
			"single_word": false,
			"lstrip": false,
			"rstrip": false,
			"normalized": false
		},
		{
			"id": 24,
			"special": true,
			"content": "<vis_token_20>",
			"single_word": false,
			"lstrip": false,
			"rstrip": false,
			"normalized": false
		},
		{
			"id": 25,
			"special": true,
			"content": "<vis_token_21>",
			"single_word": false,
			"lstrip": false,
			"rstrip": false,
			"normalized": false
		},
		{
			"id": 26,
			"special": true,
			"content": "<vis_token_22>",
			"single_word": false,
			"lstrip": false,
			"rstrip": false,
			"normalized": false
		},
		{
			"id": 27,
			"special": true,
			"content": "<vis_token_23>",
			"single_word": false,
			"lstrip": false,
			"rstrip": false,
			"normalized": false
		},
		{
			"id": 28,
			"special": true,
			"content": "<vis_token_24>",
			"single_word": false,
			"lstrip": false,
			"rstrip": false,
			"normalized": false
		},
		{
			"id": 29,
			"special": true,
			"content": "<vis_token_25>",
			"single_word": false,
			"lstrip": false,
			"rstrip": false,
			"normalized": false
		},
		{
			"id": 30,
			"special": true,
			"content": "<vis_token_26>",
			"single_word": false,
			"lstrip": false,
			"rstrip": false,
			"normalized": false
		},
		{
			"id": 31,
			"special": true,
			"content": "<vis_token_27>",
			"single_word": false,
			"lstrip": false,
			"rstrip": false,
			"normalized": false
		},
		{
			"id": 32,
			"special": true,
			"content": "<vis_token_28>",
			"single_word": false,
			"lstrip": false,
			"rstrip": false,
			"normalized": false
		},
		{
			"id": 33,
			"special": true,
			"content": "<vis_token_29>",
			"single_word": false,
			"lstrip": false,
			"rstrip": false,
			"normalized": false
		},
		{
			"id": 34,
			"special": true,
			"content": "<vis_token_30>",
			"single_word": false,
			"lstrip": false,
			"rstrip": false,
			"normalized": false
		},
		{
			"id": 35,
			"special": true,
			"content": "<vis_token_31>",
			"single_word": false,
			"lstrip": false,
			"rstrip": false,
			"normalized": false
		},
		{
			"id": 36,
			"special": true,
			"content": "<vis_token_32>",
			"single_word": false,
			"lstrip": false,
			"rstrip": false,
			"normalized": false
		},
		{
			"id": 37,
			"special": true,
			"content": "<vis_token_33>",
			"single_word": false,
			"lstrip": false,
			"rstrip": false,
			"normalized": false
		},
		{
			"id": 38,
			"special": true,
			"content": "<vis_token_34>",
			"single_word": false,
			"lstrip": false,
			"rstrip": false,
			"normalized": false
		},
		{
			"id": 39,
			"special": true,
			"content": "<vis_token_35>",
			"single_word": false,
			"lstrip": false,
			"rstrip": false,
			"normalized": false
		},
		{
			"id": 40,
			"special": true,
			"content": "<vis_token_36>",
			"single_word": false,
			"lstrip": false,
			"rstrip": false,
			"normalized": false
		},
		{
			"id": 41,
			"special": true,
			"content": "<vis_token_37>",
			"single_word": false,
			"lstrip": false,
			"rstrip": false,
			"normalized": false
		},
		{
			"id": 42,
			"special": true,
			"content": "<vis_token_38>",
			"single_word": false,
			"lstrip": false,
			"rstrip": false,
			"normalized": false
		},
		{
			"id": 43,
			"special": true,
			"content": "<vis_token_39>",
			"single_word": false,
			"lstrip": false,
			"rstrip": false,
			"normalized": false
		},
		{
			"id": 44,
			"special": true,
			"content": "<vis_token_40>",
			"single_word": false,
			"lstrip": false,
			"rstrip": false,
			"normalized": false
		},
		{
			"id": 45,
			"special": true,
			"content": "<vis_token_41>",
			"single_word": false,
			"lstrip": false,
			"rstrip": false,
			"normalized": false
		},
		{
			"id": 46,
			"special": true,
			"content": "<vis_token_42>",
			"single_word": false,
			"lstrip": false,
			"rstrip": false,
			"normalized": false
		},
		{
			"id": 47,
			"special": true,
			"content": "<vis_token_43>",
			"single_word": false,
			"lstrip": false,
			"rstrip": false,
			"normalized": false
		},
		{
			"id": 48,
			"special": true,
			"content": "<vis_token_44>",
			"single_word": false,
			"lstrip": false,
			"rstrip": false,
			"normalized": false
		},
		{
			"id": 49,
			"special": true,
			"content": "<vis_token_45>",
			"single_word": false,
			"lstrip": false,
			"rstrip": false,
			"normalized": false
		},
		{
			"id": 50,
			"special": true,
			"content": "<vis_token_46>",
			"single_word": false,
			"lstrip": false,
			"rstrip": false,
			"normalized": false
		},
		{
			"id": 51,
			"special": true,
			"content": "<vis_token_47>",
			"single_word": false,
			"lstrip": false,
			"rstrip": false,
			"normalized": false
		},
		{
			"id": 52,
			"special": true,
			"content": "<vis_token_48>",
			"single_word": false,
			"lstrip": false,
			"rstrip": false,
			"normalized": false
		},
		{
			"id": 53,
			"special": true,
			"content": "<vis_token_49>",
			"single_word": false,
			"lstrip": false,
			"rstrip": false,
			"normalized": false
		},
		{
			"id": 54,
			"special": true,
			"content": "<vis_token_50>",
			"single_word": false,
			"lstrip": false,
			"rstrip": false,
			"normalized": false
		},
		{
			"id": 55,
			"special": true,
			"content": "<vis_token_51>",
			"single_word": false,
			"lstrip": false,
			"rstrip": false,
			"normalized": false
		},
		{
			"id": 56,
			"special": true,
			"content": "<vis_token_52>",
			"single_word": false,
			"lstrip": false,
			"rstrip": false,
			"normalized": false
		},
		{
			"id": 57,
			"special": true,
			"content": "<vis_token_53>",
			"single_word": false,
			"lstrip": false,
			"rstrip": false,
			"normalized": false
		},
		{
			"id": 58,
			"special": true,
			"content": "<vis_token_54>",
			"single_word": false,
			"lstrip": false,
			"rstrip": false,
			"normalized": false
		},
		{
			"id": 59,
			"special": true,
			"content": "<vis_token_55>",
			"single_word": false,
			"lstrip": false,
			"rstrip": false,
			"normalized": false
		},
		{
			"id": 60,
			"special": true,
			"content": "<vis_token_56>",
			"single_word": false,
			"lstrip": false,
			"rstrip": false,
			"normalized": false
		},
		{
			"id": 61,
			"special": true,
			"content": "<vis_token_57>",
			"single_word": false,
			"lstrip": false,
			"rstrip": false,
			"normalized": false
		},
		{
			"id": 62,
			"special": true,
			"content": "<vis_token_58>",
			"single_word": false,
			"lstrip": false,
			"rstrip": false,
			"normalized": false
		},
		{
			"id": 63,
			"special": true,
			"content": "<vis_token_59>",
			"single_word": false,
			"lstrip": false,
			"rstrip": false,
			"normalized": false
		},
		{
			"id": 64,
			"special": true,
			"content": "<vis_token_60>",
			"single_word": false,
			"lstrip": false,
			"rstrip": false,
			"normalized": false
		},
		{
			"id": 65,
			"special": true,
			"content": "<vis_token_61>",
			"single_word": false,
			"lstrip": false,
			"rstrip": false,
			"normalized": false
		},
		{
			"id": 66,
			"special": true,
			"content": "<vis_token_62>",
			"single_word": false,
			"lstrip": false,
			"rstrip": false,
			"normalized": false
		},
		{
			"id": 67,
			"special": true,
			"content": "<vis_token_63>",
			"single_word": false,
			"lstrip": false,
			"rstrip": false,
			"normalized": false
		},
		{
			"id": 68,
			"special": true,
			"content": "<vis_token_64>",
			"single_word": false,
			"lstrip": false,
			"rstrip": false,
			"normalized": false
		},
		{
			"id": 69,
			"special": true,
			"content": "<vis_token_65>",
			"single_word": false,
			"lstrip": false,
			"rstrip": false,
			"normalized": false
		},
		{
			"id": 70,
			"special": true,
			"content": "<vis_token_66>",
			"single_word": false,
			"lstrip": false,
			"rstrip": false,
			"normalized": false
		},
		{
			"id": 71,
			"special": true,
			"content": "<vis_token_67>",
			"single_word": false,
			"lstrip": false,
			"rstrip": false,
			"normalized": false
		},
		{
			"id": 72,
			"special": true,
			"content": "<vis_token_68>",
			"single_word": false,
			"lstrip": false,
			"rstrip": false,
			"normalized": false
		},
		{
			"id": 73,
			"special": true,
			"content": "<vis_token_69>",
			"single_word": false,
			"lstrip": false,
			"rstrip": false,
			"normalized": false
		},
		{
			"id": 74,
			"special": true,
			"content": "<vis_token_70>",
			"single_word": false,
			"lstrip": false,
			"rstrip": false,
			"normalized": false
		},
		{
			"id": 75,
			"special": true,
			"content": "<vis_token_71>",
			"single_word": false,
			"lstrip": false,
			"rstrip": false,
			"normalized": false
		},
		{
			"id": 76,
			"special": true,
			"content": "<vis_token_72>",
			"single_word": false,
			"lstrip": false,
			"rstrip": false,
			"normalized": false
		},
		{
			"id": 77,
			"special": true,
			"content": "<vis_token_73>",
			"single_word": false,
			"lstrip": false,
			"rstrip": false,
			"normalized": false
		},
		{
			"id": 78,
			"special": true,
			"content": "<vis_token_74>",
			"single_word": false,
			"lstrip": false,
			"rstrip": false,
			"normalized": false
		},
		{
			"id": 79,
			"special": true,
			"content": "<vis_token_75>",
			"single_word": false,
			"lstrip": false,
			"rstrip": false,
			"normalized": false
		},
		{
			"id": 80,
			"special": true,
			"content": "<vis_token_76>",
			"single_word": false,
			"lstrip": false,
			"rstrip": false,
			"normalized": false
		},
		{
			"id": 81,
			"special": true,
			"content": "<vis_token_77>",
			"single_word": false,
			"lstrip": false,
			"rstrip": false,
			"normalized": false
		},
		{
			"id": 82,
			"special": true,
			"content": "<vis_token_78>",
			"single_word": false,
			"lstrip": false,
			"rstrip": false,
			"normalized": false
		},
		{
			"id": 83,
			"special": true,
			"content": "<vis_token_79>",
			"single_word": false,
			"lstrip": false,
			"rstrip": false,
			"normalized": false
		},
		{
			"id": 84,
			"special": true,
			"content": "<vis_token_80>",
			"single_word": false,
			"lstrip": false,
			"rstrip": false,
			"normalized": false
		},
		{
			"id": 85,
			"special": true,
			"content": "<vis_token_81>",
			"single_word": false,
			"lstrip": false,
			"rstrip": false,
			"normalized": false
		},
		{
			"id": 86,
			"special": true,
			"content": "<vis_token_82>",
			"single_word": false,
			"lstrip": false,
			"rstrip": false,
			"normalized": false
		},
		{
			"id": 87,
			"special": true,
			"content": "<vis_token_83>",
			"single_word": false,
			"lstrip": false,
			"rstrip": false,
			"normalized": false
		},
		{
			"id": 88,
			"special": true,
			"content": "<vis_token_84>",
			"single_word": false,
			"lstrip": false,
			"rstrip": false,
			"normalized": false
		},
		{
			"id": 89,
			"special": true,
			"content": "<vis_token_85>",
			"single_word": false,
			"lstrip": false,
			"rstrip": false,
			"normalized": false
		},
		{
			"id": 90,
			"special": true,
			"content": "<vis_token_86>",
			"single_word": false,
			"lstrip": false,
			"rstrip": false,
			"normalized": false
		},
		{
			"id": 91,
			"special": true,
			"content": "<vis_token_87>",
			"single_word": false,
			"lstrip": false,
			"rstrip": false,
			"normalized": false
		},
		{
			"id": 92,
			"special": true,
			"content": "<vis_token_88>",
			"single_word": false,
			"lstrip": false,
			"rstrip": false,
			"normalized": false
		},
		{
			"id": 93,
			"special": true,
			"content": "<vis_token_89>",
			"single_word": false,
			"lstrip": false,
			"rstrip": false,
			"normalized": false
		},
		{
			"id": 94,
			"special": true,
			"content": "<vis_token_90>",
			"single_word": false,
			"lstrip": false,
			"rstrip": false,
			"normalized": false
		},
		{
			"id": 95,
			"special": true,
			"content": "<vis_token_91>",
			"single_word": false,
			"lstrip": false,
			"rstrip": false,
			"normalized": false
		},
		{
			"id": 96,
			"special": true,
			"content": "<vis_token_92>",
			"single_word": false,
			"lstrip": false,
			"rstrip": false,
			"normalized": false
		},
		{
			"id": 97,
			"special": true,
			"content": "<vis_token_93>",
			"single_word": false,
			"lstrip": false,
			"rstrip": false,
			"normalized": false
		},
		{
			"id": 98,
			"special": true,
			"content": "<vis_token_94>",
			"single_word": false,
			"lstrip": false,
			"rstrip": false,
			"normalized": false
		},
		{
			"id": 99,
			"special": true,
			"content": "<vis_token_95>",
			"single_word": false,
			"lstrip": false,
			"rstrip": false,
			"normalized": false
		},
		{
			"id": 100,
			"special": true,
			"content": "<vis_token_96>",
			"single_word": false,
			"lstrip": false,
			"rstrip": false,
			"normalized": false
		},
		{
			"id": 101,
			"special": true,
			"content": "<vis_token_97>",
			"single_word": false,
			"lstrip": false,
			"rstrip": false,
			"normalized": false
		},
		{
			"id": 102,
			"special": true,
			"content": "<vis_token_98>",
			"single_word": false,
			"lstrip": false,
			"rstrip": false,
			"normalized": false
		},
		{
			"id": 103,
			"special": true,
			"content": "<vis_token_99>",
			"single_word": false,
			"lstrip": false,
			"rstrip": false,
			"normalized": false
		},
		{
			"id": 104,
			"special": true,
			"content": "<vis_token_100>",
			"single_word": false,
			"lstrip": false,
			"rstrip": false,
			"normalized": false
		}
	],
	"normalizer": null,
	"pre_tokenizer": {
		"type": "ByteLevel",
		"add_prefix_space": false,
		"trim_offsets": true
	},
	"post_processor": {
		"type": "RobertaProcessing",
		"sep": ["</s>", 2],
		"cls": ["<s>", 0],
		"trim_offsets": true,
		"add_prefix_space": false
	},
	"decoder": {
		"type": "ByteLevel",
		"add_prefix_space": true,
		"trim_offsets": true
	},
	"model": {
		"type": "BPE",
		"dropout": null,
		"unk_token": null,
		"continuing_subword_prefix": "",
		"end_of_word_suffix": "",
		"fuse_unk": false,
		"vocab": {
			"<s>": 0,
			"<pad>": 1,
			"</s>": 2,
			"<unk>": 3,
			"<mask>": 4,
			"<vis_token_1>": 5,
			"<vis_token_2>": 6,
			"<vis_token_3>": 7,
			"<vis_token_4>": 8,
			"<vis_token_5>": 9,
			"<vis_token_6>": 10,
			"<vis_token_7>": 11,
			"<vis_token_8>": 12,
			"<vis_token_9>": 13,
			"<vis_token_10>": 14,
			"<vis_token_11>": 15,
			"<vis_token_12>": 16,
			"<vis_token_13>": 17,
			"<vis_token_14>": 18,
			"<vis_token_15>": 19,
			"<vis_token_16>": 20,
			"<vis_token_17>": 21,
			"<vis_token_18>": 22,
			"<vis_token_19>": 23,
			"<vis_token_20>": 24,
			"<vis_token_21>": 25,
			"<vis_token_22>": 26,
			"<vis_token_23>": 27,
			"<vis_token_24>": 28,
			"<vis_token_25>": 29,
			"<vis_token_26>": 30,
			"<vis_token_27>": 31,
			"<vis_token_28>": 32,
			"<vis_token_29>": 33,
			"<vis_token_30>": 34,
			"<vis_token_31>": 35,
			"<vis_token_32>": 36,
			"<vis_token_33>": 37,
			"<vis_token_34>": 38,
			"<vis_token_35>": 39,
			"<vis_token_36>": 40,
			"<vis_token_37>": 41,
			"<vis_token_38>": 42,
			"<vis_token_39>": 43,
			"<vis_token_40>": 44,
			"<vis_token_41>": 45,
			"<vis_token_42>": 46,
			"<vis_token_43>": 47,
			"<vis_token_44>": 48,
			"<vis_token_45>": 49,
			"<vis_token_46>": 50,
			"<vis_token_47>": 51,
			"<vis_token_48>": 52,
			"<vis_token_49>": 53,
			"<vis_token_50>": 54,
			"<vis_token_51>": 55,
			"<vis_token_52>": 56,
			"<vis_token_53>": 57,
			"<vis_token_54>": 58,
			"<vis_token_55>": 59,
			"<vis_token_56>": 60,
			"<vis_token_57>": 61,
			"<vis_token_58>": 62,
			"<vis_token_59>": 63,
			"<vis_token_60>": 64,
			"<vis_token_61>": 65,
			"<vis_token_62>": 66,
			"<vis_token_63>": 67,
			"<vis_token_64>": 68,
			"<vis_token_65>": 69,
			"<vis_token_66>": 70,
			"<vis_token_67>": 71,
			"<vis_token_68>": 72,
			"<vis_token_69>": 73,
			"<vis_token_70>": 74,
			"<vis_token_71>": 75,
			"<vis_token_72>": 76,
			"<vis_token_73>": 77,
			"<vis_token_74>": 78,
			"<vis_token_75>": 79,
			"<vis_token_76>": 80,
			"<vis_token_77>": 81,
			"<vis_token_78>": 82,
			"<vis_token_79>": 83,
			"<vis_token_80>": 84,
			"<vis_token_81>": 85,
			"<vis_token_82>": 86,
			"<vis_token_83>": 87,
			"<vis_token_84>": 88,
			"<vis_token_85>": 89,
			"<vis_token_86>": 90,
			"<vis_token_87>": 91,
			"<vis_token_88>": 92,
			"<vis_token_89>": 93,
			"<vis_token_90>": 94,
			"<vis_token_91>": 95,
			"<vis_token_92>": 96,
			"<vis_token_93>": 97,
			"<vis_token_94>": 98,
			"<vis_token_95>": 99,
			"<vis_token_96>": 100,
			"<vis_token_97>": 101,
			"<vis_token_98>": 102,
			"<vis_token_99>": 103,
			"<vis_token_100>": 104,
			"!": 105,
			"\"": 106,
			"#": 107,
			"$": 108,
			"%": 109,
			"&": 110,
			"'": 111,
			"(": 112,
			")": 113,
			"*": 114,
			"+": 115,
			",": 116,
			"-": 117,
			".": 118,
			"/": 119,
			"0": 120,
			"1": 121,
			"2": 122,
			"3": 123,
			"4": 124,
			"5": 125,
			"6": 126,
			"7": 127,
			"8": 128,
			"9": 129,
			":": 130,
			";": 131,
			"<": 132,
			"=": 133,
			">": 134,
			"?": 135,
			"@": 136,
			"A": 137,
			"B": 138,
			"C": 139,
			"D": 140,
			"E": 141,
			"F": 142,
			"G": 143,
			"H": 144,
			"I": 145,
			"J": 146,
			"K": 147,
			"L": 148,
			"M": 149,
			"N": 150,
			"O": 151,
			"P": 152,
			"Q": 153,
			"R": 154,
			"S": 155,
			"T": 156,
			"U": 157,
			"V": 158,
			"W": 159,
			"X": 160,
			"Y": 161,
			"Z": 162,
			"[": 163,
			"\\": 164,
			"]": 165,
			"^": 166,
			"_": 167,
			"`": 168,
			"a": 169,
			"b": 170,
			"c": 171,
			"d": 172,
			"e": 173,
			"f": 174,
			"g": 175,
			"h": 176,
			"i": 177,
			"j": 178,
			"k": 179,
			"l": 180,
			"m": 181,
			"n": 182,
			"o": 183,
			"p": 184,
			"q": 185,
			"r": 186,
			"s": 187,
			"t": 188,
			"u": 189,
			"v": 190,
			"w": 191,
			"x": 192,
			"y": 193,
			"z": 194,
			"|": 195,
			"}": 196,
			"~": 197,
			"¢": 198,
			"¦": 199,
			"§": 200,
			"¨": 201,
			"©": 202,
			"°": 203,
			"±": 204,
			"´": 205,
			"»": 206,
			"½": 207,
			"Â": 208,
			"Ã": 209,
			"â": 210,
			"ĉ": 211,
			"Ċ": 212,
			"Ġ": 213,
			"Ģ": 214,
			"Ħ": 215,
			"Ķ": 216,
			"Ļ": 217,
			"Ġt": 218,
			"he": 219,
			"Ġo": 220,
			"Ġthe": 221,
			"Ġof": 222,
			"Ġto": 223,
			"le": 224,
			"ri": 225,
			"an": 226,
			"in": 227,
			"te": 228,
			"Ġb": 229,
			"Ġle": 230,
			"gh": 231,
			"ght": 232,
			"Ġri": 233,
			"Ġs": 234,
			"ft": 235,
			"Ġa": 236,
			"Ġleft": 237,
			"Ġright": 238,
			"Ġw": 239,
			"re": 240,
			"as": 241,
			"Ġc": 242,
			"Ġp": 243,
			"Ġh": 244,
			"er": 245,
			"hi": 246,
			"Ġon": 247,
			"la": 248,
			"ow": 249,
			"man": 250,
			"tt": 251,
			"ck": 252,
			"ing": 253,
			"ar": 254,
			"on": 255,
			"or": 256,
			"bu": 257,
			"is": 258,
			"Ġhas": 259,
			"al": 260,
			"Ġatt": 261,
			"Ġg": 262,
			"ribu": 263,
			"ribute": 264,
			"Ġattribute": 265,
			"Ġf": 266,
			"en": 267,
			"ir": 268,
			"at": 269,
			"et": 270,
			"es": 271,
			"and": 272,
			"Ġis": 273,
			"Ġin": 274,
			"ou": 275,
			"hite": 276,
			"Ġd": 277,
			"ra": 278,
			"il": 279,
			"it": 280,
			"rt": 281,
			"all": 282,
			"oo": 283,
			"ers": 284,
			"ind": 285,
			"hirt": 286,
			"ter": 287,
			"Ġwhite": 288,
			"the": 289,
			"el": 290,
			"Ġman": 291,
			"ab": 292,
			"air": 293,
			"Ġm": 294,
			"oman": 295,
			"ea": 296,
			"ch": 297,
			"lack": 298,
			"ce": 299,
			"ad": 300,
			"Ġst": 301,
			"erson": 302,
			"ed": 303,
			"ng": 304,
			"indow": 305,
			"ol": 306,
			"ding": 307,
			"Ġl": 308,
			"ass": 309,
			"bo": 310,
			"Ġsi": 311,
			"op": 312,
			"able": 313,
			"Ġbu": 314,
			"ring": 315,
			"ge": 316,
			"ree": 317,
			"low": 318,
			"ts": 319,
			"Ġblack": 320,
			"oun": 321,
			"oor": 322,
			"lu": 323,
			"ack": 324,
			"Ġand": 325,
			"Ġbo": 326,
			"Ġn": 327,
			"se": 328,
			"ith": 329,
			"Ġwith": 330,
			"red": 331,
			"st": 332,
			"Ġshirt": 333,
			"earing": 334,
			"Ġwearing": 335,
			"lue": 336,
			"The": 337,
			"ro": 338,
			"row": 339,
			"reen": 340,
			"ear": 341,
			"ve": 342,
			"ic": 343,
			"ilding": 344,
			"Ġpla": 345,
			"ot": 346,
			"Ġtable": 347,
			"ru": 348,
			"Ġblue": 349,
			"Ġla": 350,
			"Ġwall": 351,
			"ard": 352,
			"ap": 353,
			"shirt": 354,
			"lass": 355,
			"de": 356,
			"gn": 357,
			"rown": 358,
			"Ġwoman": 359,
			"ood": 360,
			"Ġwindow": 361,
			"mp": 362,
			"Ġsh": 363,
			"hair": 364,
			"ound": 365,
			"Ġperson": 366,
			"ain": 367,
			"round": 368,
			"ole": 369,
			"head": 370,
			"Ġsk": 371,
			"ont": 372,
			"woman": 373,
			"Ġu": 374,
			"ff": 375,
			"ight": 376,
			"person": 377,
			"ke": 378,
			"Ġcar": 379,
			"og": 380,
			"Ġgreen": 381,
			"Ġtree": 382,
			"Ġe": 383,
			"Ġred": 384,
			"ople": 385,
			"eople": 386,
			"mb": 387,
			"ur": 388,
			"Ġbrown": 389,
			"Ġbuilding": 390,
			"Ġj": 391,
			"window": 392,
			"Ġco": 393,
			"hel": 394,
			"ook": 395,
			"ver": 396,
			"sh": 397,
			"ag": 398,
			"board": 399,
			"Ġplate": 400,
			"ants": 401,
			"Ġtra": 402,
			"ttle": 403,
			"irl": 404,
			"lo": 405,
			"Ġare": 406,
			"ant": 407,
			"Ġhand": 408,
			"ves": 409,
			"Ġglass": 410,
			"ater": 411,
			"acket": 412,
			"Ġsign": 413,
			"rass": 414,
			"Ġchair": 415,
			"ark": 416,
			"cle": 417,
			"'s": 418,
			"white": 419,
			"ase": 420,
			"me": 421,
			"one": 422,
			"ellow": 423,
			"Ġbe": 424,
			"Ġcu": 425,
			"ion": 426,
			"tree": 427,
			"Ġdoor": 428,
			"alk": 429,
			"ran": 430,
			"car": 431,
			"ire": 432,
			"Ġy": 433,
			"che": 434,
			"Ġlight": 435,
			"wall": 436,
			"Ġhead": 437,
			"ph": 438,
			"Ġpole": 439,
			"si": 440,
			"reet": 441,
			"tting": 442,
			"Ġside": 443,
			"rees": 444,
			"Ġcol": 445,
			"Ġpi": 446,
			"let": 447,
			"Ġk": 448,
			"his": 449,
			"Ġtop": 450,
			"pla": 451,
			"ence": 452,
			"Ġhair": 453,
			"ffe": 454,
			"loor": 455,
			"ink": 456,
			"Ġwood": 457,
			"ine": 458,
			"mall": 459,
			"ront": 460,
			"ure": 461,
			"pp": 462,
			"ss": 463,
			"Ġwater": 464,
			"umb": 465,
			"Ġne": 466,
			"dy": 467,
			"roo": 468,
			"Ġback": 469,
			"owl": 470,
			"zz": 471,
			"wo": 472,
			"Ġsitting": 473,
			"Ġhol": 474,
			"ld": 475,
			"Ġro": 476,
			"Ġyellow": 477,
			"Ġgrass": 478,
			"Ġstand": 479,
			"ray": 480,
			"rel": 481,
			"lan": 482,
			"lou": 483,
			"Ġre": 484,
			"hat": 485,
			"zza": 486,
			"ycle": 487,
			"illow": 488,
			"ds": 489,
			"Ġsky": 490,
			"rge": 491,
			"Ġfront": 492,
			"orse": 493,
			"chair": 494,
			"Ġleg": 495,
			"door": 496,
			"leph": 497,
			"Ġpeople": 498,
			"now": 499,
			"Ġbus": 500,
			"co": 501,
			"hind": 502,
			"aves": 503,
			"Ġbehind": 504,
			"ct": 505,
			"building": 506,
			"Ġstreet": 507,
			"ut": 508,
			"Ġdog": 509,
			"Ġboy": 510,
			"abin": 511,
			"Ġtrain": 512,
			"Ġground": 513,
			"Ġbottle": 514,
			"Ġtru": 515,
			"Ġjacket": 516,
			"if": 517,
			"ans": 518,
			"ture": 519,
			"Ġan": 520,
			"ate": 521,
			"abinet": 522,
			"rella": 523,
			"nk": 524,
			"top": 525,
			"Ġholding": 526,
			"Ġgirl": 527,
			"cu": 528,
			"helf": 529,
			"ye": 530,
			"met": 531,
			"Ġsp": 532,
			"Ġpants": 533,
			"heel": 534,
			"people": 535,
			"ilver": 536,
			"this": 537,
			"ace": 538,
			"ying": 539,
			"Ġnear": 540,
			"black": 541,
			"sk": 542,
			"pole": 543,
			"der": 544,
			"leg": 545,
			"Ġfloor": 546,
			"hand": 547,
			"uter": 548,
			"orts": 549,
			"mputer": 550,
			"Ġstanding": 551,
			"art": 552,
			"cks": 553,
			"ket": 554,
			"am": 555,
			"Ġbag": 556,
			"Ġcat": 557,
			"range": 558,
			"hild": 559,
			"glass": 560,
			"Ġph": 561,
			"boy": 562,
			"Ġv": 563,
			"li": 564,
			"icture": 565,
			"aper": 566,
			"ira": 567,
			"Ġsu": 568,
			"age": 569,
			"eld": 570,
			"ground": 571,
			"lephant": 572,
			"ail": 573,
			"eans": 574,
			"Ġra": 575,
			"nif": 576,
			"th": 577,
			"anan": 578,
			"Ġcolor": 579,
			"Ġpo": 580,
			"Ġcont": 581,
			"ouse": 582,
			"helmet": 583,
			"Ġhat": 584,
			"Ġfence": 585,
			"Ġdes": 586,
			"Ġsho": 587,
			"ench": 588,
			"ptop": 589,
			"Ġtrees": 590,
			"Ġbed": 591,
			"table": 592,
			"xt": 593,
			"Ġgray": 594,
			"walk": 595,
			"Ġlarge": 596,
			"ong": 597,
			"yer": 598,
			"sign": 599,
			"otor": 600,
			"Ġorange": 601,
			"room": 602,
			"Ġso": 603,
			"girl": 604,
			"ay": 605,
			"ounter": 606,
			"Ġar": 607,
			"Ġbear": 608,
			"im": 609,
			"pe": 610,
			"rtain": 611,
			"ang": 612,
			"les": 613,
			"raw": 614,
			"au": 615,
			"lock": 616,
			"Ġpizza": 617,
			"iraffe": 618,
			"Ġbowl": 619,
			"Ġcup": 620,
			"Ġfor": 621,
			"ast": 622,
			"ted": 623,
			"ball": 624,
			"eat": 625,
			"Ġsnow": 626,
			"Ġsmall": 627,
			"Ġnext": 628,
			"Ġear": 629,
			"Ġpl": 630,
			"tter": 631,
			"ie": 632,
			"Ġhorse": 633,
			"cket": 634,
			"id": 635,
			"otorc": 636,
			"ent": 637,
			"ose": 638,
			"ress": 639,
			"ator": 640,
			"Ġclou": 641,
			"rol": 642,
			"otorcycle": 643,
			"Ġbat": 644,
			"Ġdis": 645,
			"urf": 646,
			"ger": 647,
			"ake": 648,
			"Ġflow": 649,
			"Ġat": 650,
			"etal": 651,
			"her": 652,
			"Ġbook": 653,
			"Ġumb": 654,
			"Ġroad": 655,
			"ze": 656,
			"po": 657,
			"Ġcou": 658,
			"Ġpark": 659,
			"ato": 660,
			"plate": 661,
			"nis": 662,
			"ike": 663,
			"ep": 664,
			"Ġfi": 665,
			"ror": 666,
			"irror": 667,
			"ul": 668,
			"Ġdesk": 669,
			"pants": 670,
			"to": 671,
			"Ġtow": 672,
			"Ġsilver": 673,
			"irt": 674,
			"Ġmetal": 675,
			"fri": 676,
			"jacket": 677,
			"Ġarm": 678,
			"bra": 679,
			"ple": 680,
			"Ġwooden": 681,
			"ler": 682,
			"Ġumbrella": 683,
			"key": 684,
			"af": 685,
			"Ġfood": 686,
			"Ġpillow": 687,
			"Ġby": 688,
			"Ġbox": 689,
			"Ġwalk": 690,
			"Ġphone": 691,
			"bag": 692,
			"atch": 693,
			"Ġlamp": 694,
			"book": 695,
			"Ġglasses": 696,
			"su": 697,
			"umber": 698,
			"Ġsand": 699,
			"ilet": 700,
			"lane": 701,
			"Ġcabinet": 702,
			"Ġsw": 703,
			"oot": 704,
			"ne": 705,
			"nder": 706,
			"Ġcomputer": 707,
			"Ġcounter": 708,
			"side": 709,
			"green": 710,
			"Ġleaves": 711,
			"White": 712,
			"Ġshelf": 713,
			"Ġletter": 714,
			"ennis": 715,
			"Ġwheel": 716,
			"Man": 717,
			"Ġelephant": 718,
			"Ġtruck": 719,
			"part": 720,
			"Ġshorts": 721,
			"aseball": 722,
			"bottle": 723,
			"qu": 724,
			"orm": 725,
			"two": 726,
			"Ġbench": 727,
			"ateboard": 728,
			"ave": 729,
			"pen": 730,
			"ick": 731,
			"Ġcan": 732,
			"Ġhang": 733,
			"ainer": 734,
			"rey": 735,
			"ash": 736,
			"be": 737,
			"Ġsc": 738,
			"trees": 739,
			"Ġbri": 740,
			"Ġhelmet": 741,
			"arm": 742,
			"oli": 743,
			"Ġeye": 744,
			"Ġtennis": 745,
			"Ġdark": 746,
			"uy": 747,
			"ak": 748,
			"zebra": 749,
			"ite": 750,
			"Ġface": 751,
			"Ġpaper": 752,
			"Ġlaptop": 753,
			"ĠThe": 754,
			"ten": 755,
			"flow": 756,
			"Ġsurf": 757,
			"Ġsidewalk": 758,
			"Ġve": 759,
			"Ġit": 760,
			"Ġhanging": 761,
			"anana": 762,
			"Ġair": 763,
			"ell": 764,
			"Ġgiraffe": 765,
			"Ġpicture": 766,
			"Ġjeans": 767,
			"read": 768,
			"eak": 769,
			"orn": 770,
			"lar": 771,
			"ird": 772,
			"Ġfield": 773,
			"ort": 774,
			"gerator": 775,
			"Ġpink": 776,
			"Ġclouds": 777,
			"heep": 778,
			"Ġmotorcycle": 779,
			"kin": 780,
			"asket": 781,
			"tra": 782,
			"grass": 783,
			"ffee": 784,
			"frigerator": 785,
			"Ġplayer": 786,
			"sho": 787,
			"Ġpot": 788,
			"Ġwalking": 789,
			"lag": 790,
			"Ġunder": 791,
			"cc": 792,
			"light": 793,
			"itche": 794,
			"get": 795,
			"ry": 796,
			"pillow": 797,
			"Ġball": 798,
			"pi": 799,
			"Ġbackground": 800,
			"keyboard": 801,
			"Ġchild": 802,
			"rame": 803,
			"fence": 804,
			"Ġout": 805,
			"Ġboat": 806,
			"ide": 807,
			"blue": 808,
			"Ġstri": 809,
			"iling": 810,
			"Ġlong": 811,
			"Ġclock": 812,
			"mato": 813,
			"ese": 814,
			"Ġpost": 815,
			"nife": 816,
			"Ġski": 817,
			"imal": 818,
			"wi": 819,
			"Ġcow": 820,
			"Ġfro": 821,
			"tru": 822,
			"cup": 823,
			"bus": 824,
			"mo": 825,
			"way": 826,
			"Ġte": 827,
			"ogo": 828,
			"Ġup": 829,
			"pper": 830,
			"gg": 831,
			"inds": 832,
			"Ġdress": 833,
			"each": 834,
			"letter": 835,
			"lev": 836,
			"pack": 837,
			"Ġtrunk": 838,
			"led": 839,
			"Ġli": 840,
			"Ġsuit": 841,
			"Ġch": 842,
			"Ġwri": 843,
			"Ġbaseball": 844,
			"apkin": 845,
			"ade": 846,
			"eye": 847,
			"astic": 848,
			"Ġcap": 849,
			"own": 850,
			"bove": 851,
			"Ġabove": 852,
			"Ġcontrol": 853,
			"Ġcouch": 854,
			"ruit": 855,
			"ord": 856,
			"ision": 857,
			"ven": 858,
			"shelf": 859,
			"brown": 860,
			"levision": 861,
			"bowl": 862,
			"cabinet": 863,
			"sky": 864,
			"Ġfri": 865,
			"so": 866,
			"Ġsto": 867,
			"Ġcurtain": 868,
			"Ġsink": 869,
			"Ġti": 870,
			"Ġtoilet": 871,
			"Ġcoat": 872,
			"Ġmirror": 873,
			"Ġgrey": 874,
			"dog": 875,
			"Ġskateboard": 876,
			"are": 877,
			"rash": 878,
			"Ġshoe": 879,
			"case": 880,
			"sp": 881,
			"Ġbike": 882,
			"ored": 883,
			"itor": 884,
			"Ġboard": 885,
			"eater": 886,
			"Ġcle": 887,
			"child": 888,
			"water": 889,
			"cat": 890,
			"Ġpur": 891,
			"Ġche": 892,
			"Ġparked": 893,
			"getable": 894,
			"oth": 895,
			"onitor": 896,
			"Black": 897,
			"leaves": 898,
			"Ġth": 899,
			"Ġtail": 900,
			"outh": 901,
			"Ġdown": 902,
			"Ġnose": 903,
			"Ġover": 904,
			"box": 905,
			"niform": 906,
			"rou": 907,
			"roof": 908,
			"Ġcake": 909,
			"lamp": 910,
			"hicle": 911,
			"wheel": 912,
			"icycle": 913,
			"Ġthat": 914,
			"ice": 915,
			"lanket": 916,
			"Ġtowel": 917,
			"Ġzebra": 918,
			"Ġru": 919,
			"Ġwindows": 920,
			"floor": 921,
			"Ġtan": 922,
			"ame": 923,
			"ffic": 924,
			"ped": 925,
			"Ġplastic": 926,
			"om": 927,
			"suit": 928,
			"lect": 929,
			"rocc": 930,
			"Ġneck": 931,
			"roccoli": 932,
			"wich": 933,
			"Ġlady": 934,
			"Ġshoes": 935,
			"Ġlook": 936,
			"Ġopen": 937,
			"Ġfrom": 938,
			"ment": 939,
			"street": 940,
			"umbrella": 941,
			"Ġmu": 942,
			"itchen": 943,
			"horse": 944,
			"Ġapp": 945,
			"Ġtall": 946,
			"ount": 947,
			"Ġflower": 948,
			"old": 949,
			"pl": 950,
			"Ġpe": 951,
			"Ġcolored": 952,
			"Ġanimal": 953,
			"Ġwine": 954,
			"ower": 955,
			"love": 956,
			"bee": 957,
			"Ġcontainer": 958,
			"ork": 959,
			"oon": 960,
			"Ġflowers": 961,
			"Ġcove": 962,
			"auc": 963,
			"Ġdri": 964,
			"Ġbath": 965,
			"picture": 966,
			"Ġmouse": 967,
			"oung": 968,
			"Ġpie": 969,
			"food": 970,
			"hes": 971,
			"sbee": 972,
			"Two": 973,
			"shorts": 974,
			"Ġpain": 975,
			"ountain": 976,
			"ting": 977,
			"ananas": 978,
			"jeans": 979,
			"ey": 980,
			"Ġde": 981,
			"Ġleaf": 982,
			"Ġlegs": 983,
			"Ġframe": 984,
			"Ġkeyboard": 985,
			"lady": 986,
			"Ġste": 987,
			"rawer": 988,
			"Ġcoffee": 989,
			"Ġbeach": 990,
			"onut": 991,
			"computer": 992,
			"Ġracket": 993,
			"Ġclear": 994,
			"Ġbel": 995,
			"ig": 996,
			"rop": 997,
			"large": 998,
			"pizza": 999,
			"train": 1000,
			"Ġbird": 1001,
			"uts": 1002,
			"alm": 1003,
			"face": 1004,
			"Ġen": 1005,
			"Ġsheep": 1006,
			"amer": 1007,
			"Ġkitchen": 1008,
			"ĠT": 1009,
			"dge": 1010,
			"Ġflag": 1011,
			"small": 1012,
			"shoe": 1013,
			"tan": 1014,
			"cher": 1015,
			"Ġwatch": 1016,
			"curtain": 1017,
			"clou": 1018,
			"plane": 1019,
			"Ġroom": 1020,
			"Ġround": 1021,
			"loth": 1022,
			"Ġvase": 1023,
			"Ġce": 1024,
			"Ġbasket": 1025,
			"ation": 1026,
			"Ġseat": 1027,
			"Ġse": 1028,
			"flower": 1029,
			"yellow": 1030,
			"amera": 1031,
			"cont": 1032,
			"glasses": 1033,
			"ving": 1034,
			"Ġclo": 1035,
			"Ġrefrigerator": 1036,
			"Ġdirt": 1037,
			"Ġbanana": 1038,
			"ill": 1039,
			"Ġhouse": 1040,
			"ber": 1041,
			"Ġtire": 1042,
			"Ġscreen": 1043,
			"Ġfl": 1044,
			"rot": 1045,
			"Ġnumber": 1046,
			"Ġplant": 1047,
			"Ġcon": 1048,
			"nose": 1049,
			"aby": 1050,
			"mote": 1051,
			"This": 1052,
			"Ġstove": 1053,
			"post": 1054,
			"Ġaround": 1055,
			"andle": 1056,
			"tail": 1057,
			"snow": 1058,
			"laptop": 1059,
			"Ġtray": 1060,
			"Ġbl": 1061,
			"Ġgra": 1062,
			"Ġfire": 1063,
			"Woman": 1064,
			"coat": 1065,
			"Ġplane": 1066,
			"Ġkite": 1067,
			"ĠS": 1068,
			"Ġmonitor": 1069,
			"Ġguy": 1070,
			"Ġknife": 1071,
			"What": 1072,
			"ating": 1073,
			"ĠA": 1074,
			"ines": 1075,
			"ange": 1076,
			"ll": 1077,
			"pes": 1078,
			"sc": 1079,
			"hield": 1080,
			"Ġsurfboard": 1081,
			"paper": 1082,
			"ches": 1083,
			"orange": 1084,
			"Ġfork": 1085,
			"Ġor": 1086,
			"elephant": 1087,
			"Ġthere": 1088,
			"Ġriding": 1089,
			"Ġlooking": 1090,
			"auce": 1091,
			"adow": 1092,
			"uff": 1093,
			"Ġoven": 1094,
			"back": 1095,
			"Ġfoot": 1096,
			"Ġmade": 1097,
			"ish": 1098,
			"Ġlogo": 1099,
			"Ġhandle": 1100,
			"ross": 1101,
			"HE": 1102,
			"ull": 1103,
			"pot": 1104,
			"Ġphot": 1105,
			"ric": 1106,
			"Ġplaying": 1107,
			"Ġcheese": 1108,
			"Ġcell": 1109,
			"indshield": 1110,
			"Ġshort": 1111,
			"Ġtie": 1112,
			"lice": 1113,
			"boat": 1114,
			"player": 1115,
			"Ġbread": 1116,
			"Red": 1117,
			"windows": 1118,
			"inger": 1119,
			"Ġfruit": 1120,
			"Ġwrist": 1121,
			"Ġnapkin": 1122,
			"guy": 1123,
			"Ġvehicle": 1124,
			"Ġtomato": 1125,
			"Ġstick": 1126,
			"ble": 1127,
			"ty": 1128,
			"ĠB": 1129,
			"Ġdish": 1130,
			"con": 1131,
			"bench": 1132,
			"cake": 1133,
			"dr": 1134,
			"Ġpan": 1135,
			"cow": 1136,
			"ĠI": 1137,
			"urn": 1138,
			"Ġbackpack": 1139,
			"ump": 1140,
			"aucet": 1141,
			"out": 1142,
			"Ġpiece": 1143,
			"edge": 1144,
			"Ġrock": 1145,
			"Ġsandwich": 1146,
			"bat": 1147,
			"eet": 1148,
			"mirror": 1149,
			"cou": 1150,
			"icrow": 1151,
			"Ġbicycle": 1152,
			"icrowave": 1153,
			"dle": 1154,
			"Ġcovered": 1155,
			"Ġsweater": 1156,
			"Ġline": 1157,
			"ydr": 1158,
			"Ġbun": 1159,
			"cor": 1160,
			"Ġpurple": 1161,
			"Ġbran": 1162,
			"ydrant": 1163,
			"Ġroof": 1164,
			"bel": 1165,
			"fa": 1166,
			"ren": 1167,
			"Ġbrick": 1168,
			"Ġhis": 1169,
			"dress": 1170,
			"cap": 1171,
			"ĠW": 1172,
			"Ġhydrant": 1173,
			"Ġvegetable": 1174,
			"Ġtelevision": 1175,
			"sand": 1176,
			"Ġtwo": 1177,
			"ly": 1178,
			"flowers": 1179,
			"plant": 1180,
			"des": 1181,
			"Ġmouth": 1182,
			"Ġbathroom": 1183,
			"giraffe": 1184,
			"truck": 1185,
			"ĠO": 1186,
			"ears": 1187,
			"long": 1188,
			"silver": 1189,
			"wood": 1190,
			"sw": 1191,
			"Ġtracks": 1192,
			"ses": 1193,
			"wine": 1194,
			"Ġuniform": 1195,
			"vest": 1196,
			"Ġblanket": 1197,
			"Ġbush": 1198,
			"our": 1199,
			"uce": 1200,
			"bed": 1201,
			"ue": 1202,
			"Ġoff": 1203,
			"banana": 1204,
			"Ġphoto": 1205,
			"Ġmen": 1206,
			"clock": 1207,
			"Ġsle": 1208,
			"eaker": 1209,
			"Green": 1210,
			"Ġinside": 1211,
			"ti": 1212,
			"owel": 1213,
			"Ġtower": 1214,
			"container": 1215,
			"number": 1216,
			"leaf": 1217,
			"aw": 1218,
			"trunk": 1219,
			"motorcycle": 1220,
			"Ġpepper": 1221,
			"flect": 1222,
			"Ġspoon": 1223,
			"Ġfrisbee": 1224,
			"ĠC": 1225,
			"neck": 1226,
			"ps": 1227,
			"Ġtraffic": 1228,
			"uffed": 1229,
			"phone": 1230,
			"Ġcamera": 1231,
			"Ġapple": 1232,
			"ther": 1233,
			"tire": 1234,
			"Ġtrash": 1235,
			"Ġstriped": 1236,
			"Ġpat": 1237,
			"Ġhill": 1238,
			"Ġwire": 1239,
			"ĠN": 1240,
			"pet": 1241,
			"cean": 1242,
			"towel": 1243,
			"sed": 1244,
			"Ġhands": 1245,
			"Ġceiling": 1246,
			"Small": 1247,
			"Is": 1248,
			"ping": 1249,
			"hick": 1250,
			"yes": 1251,
			"legs": 1252,
			"spo": 1253,
			"Ġyoung": 1254,
			"lad": 1255,
			"ub": 1256,
			"Ġslice": 1257,
			"Ġglove": 1258,
			"rin": 1259,
			"Ġhot": 1260,
			"Ġbroccoli": 1261,
			"tomato": 1262,
			"Ġvan": 1263,
			"Ġlights": 1264,
			"ched": 1265,
			"Blue": 1266,
			"eakers": 1267,
			"Ġeyes": 1268,
			"carf": 1269,
			"Ġcontroller": 1270,
			"road": 1271,
			"mpty": 1272,
			"ach": 1273,
			"Ġbananas": 1274,
			"men": 1275,
			"refrigerator": 1276,
			"ved": 1277,
			"Ġlid": 1278,
			"Person": 1279,
			"bike": 1280,
			"ner": 1281,
			"ttom": 1282,
			"cre": 1283,
			"tance": 1284,
			"counter": 1285,
			"Ġpad": 1286,
			"Ġgame": 1287,
			"Ġeating": 1288,
			"Ġdistance": 1289,
			"ction": 1290,
			"Ġmountain": 1291,
			"Ġbar": 1292,
			"sidewalk": 1293,
			"basket": 1294,
			"Ġbelow": 1295,
			"Ġno": 1296,
			"ttuce": 1297,
			"tens": 1298,
			"ries": 1299,
			"bush": 1300,
			"eddy": 1301,
			"IN": 1302,
			"ign": 1303,
			"ggage": 1304,
			"fork": 1305,
			"Ġairplane": 1306,
			"ser": 1307,
			"couch": 1308,
			"band": 1309,
			"ome": 1310,
			"rying": 1311,
			"Ġher": 1312,
			"An": 1313,
			"Ġbaby": 1314,
			"ore": 1315,
			"sheep": 1316,
			"foot": 1317,
			"Ġcook": 1318,
			"Ġpair": 1319,
			"Ġbes": 1320,
			"play": 1321,
			"ive": 1322,
			"tensil": 1323,
			"Ġremote": 1324,
			"Ġsm": 1325,
			"Ġletters": 1326,
			"Ġdrawer": 1327,
			"television": 1328,
			"sting": 1329,
			"logo": 1330,
			"Ġsauce": 1331,
			"ron": 1332,
			"mu": 1333,
			"Ġteddy": 1334,
			"ersey": 1335,
			"um": 1336,
			"toilet": 1337,
			"lic": 1338,
			"bear": 1339,
			"Ġbeside": 1340,
			"clouds": 1341,
			"ense": 1342,
			"bird": 1343,
			"thes": 1344,
			"bri": 1345,
			"flag": 1346,
			"can": 1347,
			"Ġstop": 1348,
			"napkin": 1349,
			"Ġbooks": 1350,
			"knife": 1351,
			"tton": 1352,
			"rist": 1353,
			"roup": 1354,
			"Ġlaying": 1355,
			"Ġocean": 1356,
			"backpack": 1357,
			"ĠY": 1358,
			"form": 1359,
			"stick": 1360,
			"place": 1361,
			"rock": 1362,
			"shoes": 1363,
			"heet": 1364,
			"Ġdonut": 1365,
			"Ġwet": 1366,
			"pepper": 1367,
			"Ġsuitcase": 1368,
			"ool": 1369,
			"Ġsqu": 1370,
			"house": 1371,
			"ĠP": 1372,
			"neakers": 1373,
			"ac": 1374,
			"trash": 1375,
			"col": 1376,
			"image": 1377,
			"ster": 1378,
			"ski": 1379,
			"coffee": 1380,
			"bread": 1381,
			"Brown": 1382,
			"Ġlines": 1383,
			"ctator": 1384,
			"Ġhe": 1385,
			"rope": 1386,
			"rots": 1387,
			"Ġsofa": 1388,
			"cheese": 1389,
			"Ġcourt": 1390,
			"Ġstone": 1391,
			"Ġdrink": 1392,
			"gra": 1393,
			"rush": 1394,
			"vase": 1395,
			"Ġcorn": 1396,
			"fruit": 1397,
			"Ġdo": 1398,
			"Ġslee": 1399,
			"loves": 1400,
			"Ġchairs": 1401,
			"Ġcloth": 1402,
			"lace": 1403,
			"Ġarea": 1404,
			"Ġpainted": 1405,
			"Ġimage": 1406,
			"frame": 1407,
			"sink": 1408,
			"uniform": 1409,
			"Ġstraw": 1410,
			"umbers": 1411,
			"ond": 1412,
			"Ġparking": 1413,
			"surf": 1414,
			"aker": 1415,
			"atue": 1416,
			"ale": 1417,
			"Ġmeat": 1418,
			"ĠNo": 1419,
			"broccoli": 1420,
			"crete": 1421,
			"Ġcarrying": 1422,
			"apple": 1423,
			"ful": 1424,
			"Ġfull": 1425,
			"sweater": 1426,
			"alad": 1427,
			"oots": 1428,
			"Ġmicrowave": 1429,
			"Ġmug": 1430,
			"Ġcars": 1431,
			"un": 1432,
			"med": 1433,
			"seat": 1434,
			"screen": 1435,
			"Ġold": 1436,
			"Ġbottom": 1437,
			"Ġouts": 1438,
			"ĠYes": 1439,
			"Ġfinger": 1440,
			"doors": 1441,
			"ity": 1442,
			"vegetable": 1443,
			"Ġcur": 1444,
			"ords": 1445,
			"Ġflying": 1446,
			"desk": 1447,
			"flection": 1448,
			"Ġrug": 1449,
			"AN": 1450,
			"Ġgold": 1451,
			"Lar": 1452,
			"mouth": 1453,
			"Ġpurse": 1454,
			"spoon": 1455,
			"ĠIS": 1456,
			"tie": 1457,
			"books": 1458,
			"lasses": 1459,
			"Ġcarrot": 1460,
			"Ġmo": 1461,
			"clo": 1462,
			"less": 1463,
			"iny": 1464,
			"blanket": 1465,
			"Large": 1466,
			"ning": 1467,
			"skateboard": 1468,
			"Ġwheels": 1469,
			"Ġcollar": 1470,
			"Ġonion": 1471,
			"Ġdu": 1472,
			"fit": 1473,
			"Ġcandle": 1474,
			"Ġcross": 1475,
			"three": 1476,
			"RE": 1477,
			"Ġcart": 1478,
			"Ġpart": 1479,
			"vel": 1480,
			"berry": 1481,
			"bran": 1482,
			"Ġlot": 1483,
			"fire": 1484,
			"Ġoutside": 1485,
			"Ġcord": 1486,
			"Ġme": 1487,
			"di": 1488,
			"Ġcatcher": 1489,
			"Ġfaucet": 1490,
			"no": 1491,
			"pur": 1492,
			"Ġvest": 1493,
			"assen": 1494,
			"tform": 1495,
			"quid": 1496,
			"Ġtri": 1497,
			"Ġdoors": 1498,
			"late": 1499,
			"Ġempty": 1500,
			"ones": 1501,
			"Ġpen": 1502,
			"rink": 1503,
			"wooden": 1504,
			"Ġtag": 1505,
			"cloth": 1506,
			"Ġgo": 1507,
			"Ġfeet": 1508,
			"Ġwindshield": 1509,
			"watch": 1510,
			"glove": 1511,
			"rust": 1512,
			"Ġlying": 1513,
			"Ġdecor": 1514,
			"van": 1515,
			"oco": 1516,
			"Ġwatching": 1517,
			"kite": 1518,
			"oni": 1519,
			"ining": 1520,
			"Ġtile": 1521,
			"Ġlu": 1522,
			"wire": 1523,
			"Ġcre": 1524,
			"orses": 1525,
			"Ġbranch": 1526,
			"dark": 1527,
			"Ġlittle": 1528,
			"Ġrun": 1529,
			"drawer": 1530,
			"celet": 1531,
			"Ġfur": 1532,
			"racket": 1533,
			"we": 1534,
			"stand": 1535,
			"nglasses": 1536,
			"Ġsun": 1537,
			"hich": 1538,
			"Ġwa": 1539,
			"ogg": 1540,
			"dish": 1541,
			"Ġcom": 1542,
			"Ġag": 1543,
			"Ġtak": 1544,
			"THE": 1545,
			"Ġcarpet": 1546,
			"Ġpotato": 1547,
			"Ġdou": 1548,
			"ces": 1549,
			"Ġstuffed": 1550,
			"Bo": 1551,
			"ather": 1552,
			"Ġpalm": 1553,
			"Ġcorner": 1554,
			"donut": 1555,
			"Ġpillows": 1556,
			"Ġskirt": 1557,
			"roll": 1558,
			"lephants": 1559,
			"Ġsome": 1560,
			"bicycle": 1561,
			"Ġjar": 1562,
			"ige": 1563,
			"Ġsnowboard": 1564,
			"Ġconcrete": 1565,
			"Yellow": 1566,
			"up": 1567,
			"itch": 1568,
			"Ġcabinets": 1569,
			"dirt": 1570,
			"Ġtank": 1571,
			"Ġcurtains": 1572,
			"letters": 1573,
			"lid": 1574,
			"Ġwing": 1575,
			"cell": 1576,
			"roller": 1577,
			"traffic": 1578,
			"ii": 1579,
			"Ġrocks": 1580,
			"Ġring": 1581,
			"Ġagain": 1582,
			"Ġdisplay": 1583,
			"carrot": 1584,
			"sing": 1585,
			"Ġbutton": 1586,
			"Ġvegetables": 1587,
			"ste": 1588,
			"Ġcone": 1589,
			"tern": 1590,
			"tray": 1591,
			"bananas": 1592,
			"tall": 1593,
			"Ġbuildings": 1594,
			"hot": 1595,
			"ING": 1596,
			"wrist": 1597,
			"Ġtoy": 1598,
			"Ġskis": 1599,
			"Ġagainst": 1600,
			"oggles": 1601,
			"Ġsquare": 1602,
			"ras": 1603,
			"est": 1604,
			"Ġdesign": 1605,
			"vehicle": 1606,
			"shroom": 1607,
			"itcher": 1608,
			"ik": 1609,
			"candle": 1610,
			"pain": 1611,
			"avement": 1612,
			"alf": 1613,
			"TE": 1614,
			"Ġalong": 1615,
			"Ġcloud": 1616,
			"Ġmid": 1617,
			"There": 1618,
			"mon": 1619,
			"cloud": 1620,
			"gray": 1621,
			"hicken": 1622,
			"metal": 1623,
			"ocolate": 1624,
			"Ġwears": 1625,
			"Ġstack": 1626,
			"rough": 1627,
			"Ġbright": 1628,
			"Ġbushes": 1629,
			"lat": 1630,
			"Ġscarf": 1631,
			"cars": 1632,
			"rowing": 1633,
			"Ġpaw": 1634,
			"tert": 1635,
			"Ġears": 1636,
			"Ġbig": 1637,
			"az": 1638,
			"da": 1639,
			"Ġchain": 1640,
			"Ġluggage": 1641,
			"tertop": 1642,
			"ountertop": 1643,
			"grey": 1644,
			"Ġshadow": 1645,
			"onion": 1646,
			"Ġbra": 1647,
			"oven": 1648,
			"Ġcream": 1649,
			"ĠM": 1650,
			"airs": 1651,
			"Ġdi": 1652,
			"HI": 1653,
			"helves": 1654,
			"Ġmark": 1655,
			"Ġsmiling": 1656,
			"Ġbatter": 1657,
			"Ġbelt": 1658,
			"ightstand": 1659,
			"tub": 1660,
			"apers": 1661,
			"lectric": 1662,
			"windshield": 1663,
			"bl": 1664,
			"AR": 1665,
			"Ġhi": 1666,
			"ached": 1667,
			"iraff": 1668,
			"ĠON": 1669,
			"ĠF": 1670,
			"straw": 1671,
			"Ġshade": 1672,
			"cord": 1673,
			"Ġbottles": 1674,
			"ove": 1675,
			"iraffes": 1676,
			"Ġdraw": 1677,
			"shadow": 1678,
			"Ġegg": 1679,
			"St": 1680,
			"Ġother": 1681,
			"Ġutensil": 1682,
			"Ġstripes": 1683,
			"rap": 1684,
			"Ġattached": 1685,
			"Ġsocks": 1686,
			"Ġturn": 1687,
			"ax": 1688,
			"Ġcolorful": 1689,
			"cross": 1690,
			"Ġjersey": 1691,
			"Ġskier": 1692,
			"Ġgroup": 1693,
			"Ġclosed": 1694,
			"sandwich": 1695,
			"monitor": 1696,
			"Ġbur": 1697,
			"sta": 1698,
			"Ġprin": 1699,
			"Ġsheet": 1700,
			"omen": 1701,
			"Ġgloves": 1702,
			"palm": 1703,
			"Ġsunglasses": 1704,
			"app": 1705,
			"Ġbal": 1706,
			"Ġplace": 1707,
			"Ġspe": 1708,
			"las": 1709,
			"front": 1710,
			"Ġend": 1711,
			"assenger": 1712,
			"Ġedge": 1713,
			"Are": 1714,
			"als": 1715,
			"Ġpro": 1716,
			"iss": 1717,
			"Ġleather": 1718,
			"ots": 1719,
			"Ġspeaker": 1720,
			"Ġrail": 1721,
			"People": 1722,
			"veral": 1723,
			"ramed": 1724,
			"animal": 1725,
			"onuts": 1726,
			"Ġplatform": 1727,
			"axi": 1728,
			"surfboard": 1729,
			"Ġspot": 1730,
			"hands": 1731,
			"Ġfil": 1732,
			"Ġsticker": 1733,
			"ask": 1734,
			"Ġlettuce": 1735,
			"Ġboots": 1736,
			"baseball": 1737,
			"eyes": 1738,
			"Ġswitch": 1739,
			"these": 1740,
			"lephone": 1741,
			"meat": 1742,
			"very": 1743,
			"nob": 1744,
			"Ġfore": 1745,
			"Ġstripe": 1746,
			"Ġsalad": 1747,
			"alt": 1748,
			"LA": 1749,
			"Ġsneakers": 1750,
			"ges": 1751,
			"Ġbranches": 1752,
			"tte": 1753,
			"Ġwomen": 1754,
			"agn": 1755,
			"Ġworn": 1756,
			"Ġcutting": 1757,
			"Th": 1758,
			"Ġbeing": 1759,
			"gar": 1760,
			"Ġshower": 1761,
			"ccer": 1762,
			"Ġsteel": 1763,
			"Ġthrough": 1764,
			"Ġhorses": 1765,
			"fi": 1766,
			"Ġwriting": 1767,
			"Ġstore": 1768,
			"faucet": 1769,
			"iew": 1770,
			"olice": 1771,
			"rowd": 1772,
			"rate": 1773,
			"Ġvis": 1774,
			"stove": 1775,
			"Ġad": 1776,
			"LE": 1777,
			"pink": 1778,
			"rain": 1779,
			"remote": 1780,
			"onde": 1781,
			"aning": 1782,
			"je": 1783,
			"Silver": 1784,
			"Ġhorn": 1785,
			"berries": 1786,
			"Ġtiles": 1787,
			"finger": 1788,
			"cony": 1789,
			"Ġbridge": 1790,
			"catcher": 1791,
			"Ġju": 1792,
			"brush": 1793,
			"Ġskate": 1794,
			"Ġclothes": 1795,
			"Ġstatue": 1796,
			"icense": 1797,
			"Ġbeer": 1798,
			"Ġlabel": 1799,
			"Ġroll": 1800,
			"rellas": 1801,
			"bras": 1802,
			"purse": 1803,
			"Ġhave": 1804,
			"Ġpattern": 1805,
			"Ġcovering": 1806,
			"Ġfilled": 1807,
			"asher": 1808,
			"Light": 1809,
			"mountain": 1810,
			"Ġsock": 1811,
			"us": 1812,
			"Ġholder": 1813,
			"ĠH": 1814,
			"cone": 1815,
			"Ġblinds": 1816,
			"ead": 1817,
			"Ġstation": 1818,
			"ppers": 1819,
			"bushes": 1820,
			"mat": 1821,
			"Ġcity": 1822,
			"bur": 1823,
			"Ġinto": 1824,
			"airplane": 1825,
			"Ġplates": 1826,
			"jar": 1827,
			"mpire": 1828,
			"Ġbeige": 1829,
			"Ġcloudy": 1830,
			"Ġband": 1831,
			"Ġfridge": 1832,
			"Ġmiddle": 1833,
			"Ġrope": 1834,
			"Ġpavement": 1835,
			"Ġbody": 1836,
			"Ġcarrots": 1837,
			"rug": 1838,
			"ĠTHE": 1839,
			"riage": 1840,
			"curtains": 1841,
			"iti": 1842,
			"Ġdoorway": 1843,
			"Ġelephants": 1844,
			"ors": 1845,
			"eds": 1846,
			"Ġset": 1847,
			"eatshirt": 1848,
			"enter": 1849,
			"Ġben": 1850,
			"pped": 1851,
			"agaz": 1852,
			"zebras": 1853,
			"Ġshap": 1854,
			"ist": 1855,
			"Ġmane": 1856,
			"Ġread": 1857,
			"Ġfe": 1858,
			"ene": 1859,
			"Ġsleeve": 1860,
			"Ġtv": 1861,
			"Ġlicense": 1862,
			"Ġplay": 1863,
			"collar": 1864,
			"ho": 1865,
			"Ġun": 1866,
			"pectator": 1867,
			"Ġgar": 1868,
			"speaker": 1869,
			"baby": 1870,
			"ular": 1871,
			"Ġtowels": 1872,
			"Ġword": 1873,
			"Ġgate": 1874,
			"pan": 1875,
			"ĠD": 1876,
			"Ġtea": 1877,
			"CK": 1878,
			"washer": 1879,
			"Ġrack": 1880,
			"rocks": 1881,
			"Ġleaning": 1882,
			"Ġgrowing": 1883,
			"agnet": 1884,
			"Ġliquid": 1885,
			"Ġbet": 1886,
			"Ġcard": 1887,
			"ĠĠ": 1888,
			"Ġplants": 1889,
			"Ġcover": 1890,
			"ffiti": 1891,
			"ween": 1892,
			"Ġwave": 1893,
			"Ġoutfit": 1894,
			"hill": 1895,
			"Ġoutlet": 1896,
			"Ġpast": 1897,
			"branch": 1898,
			"for": 1899,
			"frisbee": 1900,
			"Three": 1901,
			"right": 1902,
			"Ġbetween": 1903,
			"buildings": 1904,
			"Ġnecklace": 1905,
			"Ġcenter": 1906,
			"Ġbucket": 1907,
			"field": 1908,
			"sauce": 1909,
			"ingers": 1910,
			"ies": 1911,
			"Ġpaint": 1912,
			"Ġday": 1913,
			"Wood": 1914,
			"potato": 1915,
			"aster": 1916,
			"Ġfireplace": 1917,
			"Ġbookshelf": 1918,
			"Ġchi": 1919,
			"Ġone": 1920,
			"Ġmeter": 1921,
			"Ġtent": 1922,
			"sock": 1923,
			"Ġkne": 1924,
			"rican": 1925,
			"Ġbunch": 1926,
			"suitcase": 1927,
			"ms": 1928,
			"sticker": 1929,
			"ctang": 1930,
			"skier": 1931,
			"Ġcir": 1932,
			"batter": 1933,
			"ĠG": 1934,
			"Ġke": 1935,
			"Ġbase": 1936,
			"irds": 1937,
			"Ġview": 1938,
			"Ġumpire": 1939,
			"Ġscene": 1940,
			"spectator": 1941,
			"aus": 1942,
			"Ġgiraffes": 1943,
			"wing": 1944,
			"Ġplan": 1945,
			"chairs": 1946,
			"Ġgri": 1947,
			"Ġcouple": 1948,
			"Do": 1949,
			"eth": 1950,
			"camera": 1951,
			"teddy": 1952,
			"ould": 1953,
			"cook": 1954,
			"Ġcrust": 1955,
			"eather": 1956,
			"Ġpoin": 1957,
			"microwave": 1958,
			"Ġwii": 1959,
			"Ġob": 1960,
			"ated": 1961,
			"lip": 1962,
			"ER": 1963,
			"Ġtooth": 1964,
			"Ġsurface": 1965,
			"Ġdriving": 1966,
			"tis": 1967,
			"bun": 1968,
			"Ġbare": 1969,
			"lettuce": 1970,
			"ible": 1971,
			"Ġcut": 1972,
			"cabinets": 1973,
			"Ġframed": 1974,
			"Ġpainting": 1975,
			"Ġrunning": 1976,
			"Ġsit": 1977,
			"estri": 1978,
			"Ġvery": 1979,
			"Ġpoles": 1980,
			"Ġpatch": 1981,
			"Ġsoap": 1982,
			"Ġheadboard": 1983,
			"Ġoli": 1984,
			"Ġsea": 1985,
			"Ġspots": 1986,
			"penser": 1987,
			"Ġrow": 1988,
			"Ġanimals": 1989,
			"oll": 1990,
			"iture": 1991,
			"aucer": 1992,
			"forter": 1993,
			"Ġchocolate": 1994,
			"urniture": 1995,
			"cumber": 1996,
			"Ġpocket": 1997,
			"Ġknob": 1998,
			"issors": 1999,
			"Ġgoggles": 2000,
			"ars": 2001,
			"Ġap": 2002,
			"feet": 2003,
			"Ġpa": 2004,
			"egg": 2005,
			"tag": 2006,
			"scarf": 2007,
			"shi": 2008,
			"Ġelectric": 2009,
			"Ġtablecloth": 2010,
			"ooter": 2011,
			"chup": 2012,
			"Ġpipe": 2013,
			"Ġarrow": 2014,
			"Sh": 2015,
			"Ġex": 2016,
			"Ġshaker": 2017,
			"wheels": 2018,
			"Ġblonde": 2019,
			"Ġnet": 2020,
			"Ġfurniture": 2021,
			"RO": 2022,
			"Ġapron": 2023,
			"Part": 2024,
			"Ġkey": 2025,
			"ĠOF": 2026,
			"clothes": 2027,
			"Ġmi": 2028,
			"bage": 2029,
			"Ġnumbers": 2030,
			"vegetables": 2031,
			"blinds": 2032,
			"paw": 2033,
			"dis": 2034,
			"ausage": 2035,
			"Ġblond": 2036,
			"ative": 2037,
			"Ġlo": 2038,
			"skirt": 2039,
			"vy": 2040,
			"vice": 2041,
			"Ġtopping": 2042,
			"Ġfan": 2043,
			"Ġbracelet": 2044,
			"some": 2045,
			"Ġthis": 2046,
			"Ġble": 2047,
			"Ġtrack": 2048,
			"ous": 2049,
			"horn": 2050,
			"bath": 2051,
			"min": 2052,
			"Ġboot": 2053,
			"Ġhome": 2054,
			"Ġsoccer": 2055,
			"Ġspectator": 2056,
			"Ġtrim": 2057,
			"Ġacross": 2058,
			"Ġskin": 2059,
			"license": 2060,
			"lights": 2061,
			"Ġhu": 2062,
			"iting": 2063,
			"Ġarms": 2064,
			"eath": 2065,
			"Ġvisible": 2066,
			"Ġcows": 2067,
			"pillows": 2068,
			"Ġeng": 2069,
			"arrow": 2070,
			"Ġwires": 2071,
			"tennis": 2072,
			"achine": 2073,
			"there": 2074,
			"Ġcountertop": 2075,
			"tower": 2076,
			"mane": 2077,
			"park": 2078,
			"Orange": 2079,
			"Ġtaken": 2080,
			"Which": 2081,
			"umpire": 2082,
			"ooth": 2083,
			"Ġdough": 2084,
			"Ġapples": 2085,
			"Ġas": 2086,
			"Ġplaid": 2087,
			"Ġshop": 2088,
			"Ġfrosting": 2089,
			"Ġpitcher": 2090,
			"doorway": 2091,
			"ny": 2092,
			"stuffed": 2093,
			"go": 2094,
			"Ġcand": 2095,
			"ainless": 2096,
			"ideo": 2097,
			"Ġzebras": 2098,
			"ulti": 2099,
			"Ġnightstand": 2100,
			"Ġshiny": 2101,
			"label": 2102,
			"ings": 2103,
			"Ġliving": 2104,
			"ching": 2105,
			"Ġnot": 2106,
			"Ġdogs": 2107,
			"Ġpassenger": 2108,
			"stone": 2109,
			"ope": 2110,
			"phones": 2111,
			"Ġskiing": 2112,
			"Ġcontain": 2113,
			"Ġpine": 2114,
			"carpet": 2115,
			"arding": 2116,
			"oup": 2117,
			"Ġmat": 2118,
			"fur": 2119,
			"Ġboth": 2120,
			"Ġjump": 2121,
			"iler": 2122,
			"Ġbea": 2123,
			"ware": 2124,
			"Ġcase": 2125,
			"ject": 2126,
			"Ġfac": 2127,
			"Ġmask": 2128,
			"ranges": 2129,
			"bb": 2130,
			"Ġhood": 2131,
			"ety": 2132,
			"acon": 2133,
			"Ġtomatoes": 2134,
			"belt": 2135,
			"Ġbeard": 2136,
			"Ġrailing": 2137,
			"Ġdresser": 2138,
			"Ġfo": 2139,
			"Ġrectang": 2140,
			"opy": 2141,
			"Ġhigh": 2142,
			"plants": 2143,
			"ney": 2144,
			"young": 2145,
			"ered": 2146,
			"Ġite": 2147,
			"clear": 2148,
			"Ġtoget": 2149,
			"ilk": 2150,
			"Ġtogether": 2151,
			"Ġpath": 2152,
			"du": 2153,
			"Boy": 2154,
			"Ġits": 2155,
			"ult": 2156,
			"Ġsliced": 2157,
			"louse": 2158,
			"Ġho": 2159,
			"Ġlit": 2160,
			"pple": 2161,
			"Ġmar": 2162,
			"Ġdrawers": 2163,
			"luggage": 2164,
			"Ġchicken": 2165,
			"Ġstairs": 2166,
			"xture": 2167,
			"EN": 2168,
			"utensil": 2169,
			"gu": 2170,
			"Ġfries": 2171,
			"jersey": 2172,
			"ape": 2173,
			"Ġser": 2174,
			"Ġcooked": 2175,
			"Ġhel": 2176,
			"Ġwaves": 2177,
			"Ġbathtub": 2178,
			"Ġpepperoni": 2179,
			"rinkles": 2180,
			"mney": 2181,
			"sofa": 2182,
			"Ġdeck": 2183,
			"Ġumbrellas": 2184,
			"Ġreflection": 2185,
			"Ġdirty": 2186,
			"Ġtu": 2187,
			"Ġsurfer": 2188,
			"geon": 2189,
			"Ġmaker": 2190,
			"Window": 2191,
			"Sk": 2192,
			"Ġpu": 2193,
			"Ġsoda": 2194,
			"pie": 2195,
			"Ġgu": 2196,
			"Ġbags": 2197,
			"agazine": 2198,
			"Ġchildren": 2199,
			"painting": 2200,
			"sneakers": 2201,
			"Ġkind": 2202,
			"Ġsigns": 2203,
			"Ġflat": 2204,
			"Ġposter": 2205,
			"Ġengine": 2206,
			"lices": 2207,
			"Ġz": 2208,
			"rier": 2209,
			"Ġcarriage": 2210,
			"mel": 2211,
			"Ġriver": 2212,
			"stard": 2213,
			"Ġhalf": 2214,
			"Ġkid": 2215,
			"Ġwork": 2216,
			"Ġtalk": 2217,
			"Ġoranges": 2218,
			"icing": 2219,
			"ooler": 2220,
			"oulder": 2221,
			"outlet": 2222,
			"Ġbricks": 2223,
			"ier": 2224,
			"Ġtelephone": 2225,
			"carrots": 2226,
			"four": 2227,
			"Ġshelves": 2228,
			"Ġwaiting": 2229,
			"Ġdonuts": 2230,
			"chain": 2231,
			"Ġpor": 2232,
			"Ġturned": 2233,
			"Ġcupboard": 2234,
			"Ġplayers": 2235,
			"Ġmushroom": 2236,
			"hed": 2237,
			"Ġshaped": 2238,
			"Ġbears": 2239,
			"icks": 2240,
			"Ġbrush": 2241,
			"ip": 2242,
			"Ġpile": 2243,
			"Ġswing": 2244,
			"Ġwetsuit": 2245,
			"Ġbik": 2246,
			"tent": 2247,
			"ded": 2248,
			"zing": 2249,
			"tten": 2250,
			"stri": 2251,
			"Ġcrowd": 2252,
			"Ġice": 2253,
			"Ġbutter": 2254,
			"reflection": 2255,
			"Ġwords": 2256,
			"headboard": 2257,
			"Ġsy": 2258,
			"Ġany": 2259,
			"Ġdra": 2260,
			"Ġwra": 2261,
			"olding": 2262,
			"pine": 2263,
			"amp": 2264,
			"Ġyou": 2265,
			"cted": 2266,
			"Ġgrassy": 2267,
			"snowboard": 2268,
			"Ġdispenser": 2269,
			"Ġshore": 2270,
			"Ġthree": 2271,
			"ming": 2272,
			"afety": 2273,
			"Ġtalking": 2274,
			"land": 2275,
			"Ġpack": 2276,
			"sert": 2277,
			"bottles": 2278,
			"atu": 2279,
			"Wooden": 2280,
			"Ġban": 2281,
			"Ġped": 2282,
			"Ġpre": 2283,
			"Ġdecoration": 2284,
			"amic": 2285,
			"Ġusing": 2286,
			"Ġthin": 2287,
			"gate": 2288,
			"moke": 2289,
			"urant": 2290,
			"mbol": 2291,
			"open": 2292,
			"bookshelf": 2293,
			"Ġlette": 2294,
			"section": 2295,
			"Ġjuice": 2296,
			"Ġfixture": 2297,
			"Ġhard": 2298,
			"sue": 2299,
			"Trees": 2300,
			"boot": 2301,
			"eramic": 2302,
			"Ġpapers": 2303,
			"sheet": 2304,
			"tiles": 2305,
			"Ġkettle": 2306,
			"LO": 2307,
			"Ġdevice": 2308,
			"Ġcrate": 2309,
			"mug": 2310,
			"oral": 2311,
			"draw": 2312,
			"Ġwritten": 2313,
			"decor": 2314,
			"port": 2315,
			"Ġgrazing": 2316,
			"Ġlettering": 2317,
			"Ġcups": 2318,
			"eathers": 2319,
			"itar": 2320,
			"wsp": 2321,
			"Ġlemon": 2322,
			"nut": 2323,
			"Ġsweatshirt": 2324,
			"pipe": 2325,
			"Ġbul": 2326,
			"Ġcheck": 2327,
			"work": 2328,
			"staurant": 2329,
			"bracelet": 2330,
			"Ġskateboarder": 2331,
			"Ġmachine": 2332,
			"short": 2333,
			"outfit": 2334,
			"boarding": 2335,
			"Ġdrinking": 2336,
			"Ġbalcony": 2337,
			"several": 2338,
			"Ġreflect": 2339,
			"Ġearring": 2340,
			"cart": 2341,
			"pad": 2342,
			"Ġtaxi": 2343,
			"hone": 2344,
			"Ġpanel": 2345,
			"att": 2346,
			"Ġsay": 2347,
			"quet": 2348,
			"Ġstacked": 2349,
			"Girl": 2350,
			"rine": 2351,
			"Ġpick": 2352,
			"oliceman": 2353,
			"bar": 2354,
			"ance": 2355,
			"wires": 2356,
			"branches": 2357,
			"Ġpotatoes": 2358,
			"toy": 2359,
			"eping": 2360,
			"HITE": 2361,
			"Ġshow": 2362,
			"Ġdock": 2363,
			"akes": 2364,
			"beer": 2365,
			"Ġdouble": 2366,
			"Ġvideo": 2367,
			"Ġplu": 2368,
			"statue": 2369,
			"Ġsection": 2370,
			"agon": 2371,
			"wspaper": 2372,
			"Ġjet": 2373,
			"Ġrectangular": 2374,
			"Ġpower": 2375,
			"Cat": 2376,
			"Ġlog": 2377,
			"necklace": 2378,
			"left": 2379,
			"mushroom": 2380,
			"olded": 2381,
			"Ġsail": 2382,
			"Ġlad": 2383,
			"Ġsurfing": 2384,
			"Ġresting": 2385,
			"set": 2386,
			"rance": 2387,
			"sun": 2388,
			"ini": 2389,
			"bow": 2390,
			"Dark": 2391,
			"word": 2392,
			"Ġsn": 2393,
			"rent": 2394,
			"ĠIN": 2395,
			"tel": 2396,
			"Ġcircle": 2397,
			"Ġtiled": 2398,
			"ĠTV": 2399,
			"ases": 2400,
			"Ġsleeved": 2401,
			"Ġoutdoors": 2402,
			"other": 2403,
			"shion": 2404,
			"Ġbirds": 2405,
			"Ġkn": 2406,
			"Ġrice": 2407,
			"Ġknee": 2408,
			"Ġonions": 2409,
			"Ġstar": 2410,
			"Ġboxes": 2411,
			"merican": 2412,
			"net": 2413,
			"Ġsur": 2414,
			"controller": 2415,
			"vertis": 2416,
			"Ġflu": 2417,
			"Ġsl": 2418,
			"bucket": 2419,
			"Ġwalls": 2420,
			"Ġtaking": 2421,
			"ards": 2422,
			"past": 2423,
			"skis": 2424,
			"couple": 2425,
			"Ġmountains": 2426,
			"na": 2427,
			"Ġscooter": 2428,
			"Ġal": 2429,
			"Ġclean": 2430,
			"utif": 2431,
			"Ġobject": 2432,
			"Ġ\"": 2433,
			"socks": 2434,
			"Ġname": 2435,
			"bs": 2436,
			"AT": 2437,
			"Ġsaucer": 2438,
			"Ġcable": 2439,
			"ND": 2440,
			"numbers": 2441,
			"ile": 2442,
			"entrance": 2443,
			"dd": 2444,
			"Ġgoat": 2445,
			"ition": 2446,
			"Ġswim": 2447,
			"liquid": 2448,
			"words": 2449,
			"Ġwe": 2450,
			"Ġcoming": 2451,
			"verage": 2452,
			"Ġcurb": 2453,
			"parking": 2454,
			"little": 2455,
			"ari": 2456,
			"Ġgirls": 2457,
			"Ġshoulder": 2458,
			"pepperoni": 2459,
			"Ġsteps": 2460,
			"Ġceramic": 2461,
			"cl": 2462,
			"zer": 2463,
			"Ġpeppers": 2464,
			"utiful": 2465,
			"Ġsays": 2466,
			"Ġeach": 2467,
			"atula": 2468,
			"Ġladder": 2469,
			"Ġtong": 2470,
			"fireplace": 2471,
			"fferent": 2472,
			"lur": 2473,
			"apron": 2474,
			"Ġboys": 2475,
			"Le": 2476,
			"Ġpull": 2477,
			"ock": 2478,
			"appy": 2479,
			"Ġramp": 2480,
			"aking": 2481,
			"Ġflop": 2482,
			"ister": 2483,
			"Ġmans": 2484,
			"OR": 2485,
			"melon": 2486,
			"Ġtoothbrush": 2487,
			"ess": 2488,
			"resh": 2489,
			"AL": 2490,
			"Ġdining": 2491,
			"Ġswinging": 2492,
			"poster": 2493,
			"Ġwhich": 2494,
			"Ġwalkway": 2495,
			"nic": 2496,
			"com": 2497,
			"Ġnote": 2498,
			"pat": 2499,
			"Ġthick": 2500,
			"Ġmotor": 2501,
			"Ġblender": 2502,
			"Ġcrossing": 2503,
			"Ġcushion": 2504,
			"Ġteeth": 2505,
			"Ġpieces": 2506,
			"Ġduck": 2507,
			"Ġtub": 2508,
			"Ġpol": 2509,
			"ounted": 2510,
			"drink": 2511,
			"rench": 2512,
			"Ġbeak": 2513,
			"topping": 2514,
			"Ġart": 2515,
			"Ġdishwasher": 2516,
			"ents": 2517,
			"gloves": 2518,
			"Ġwas": 2519,
			"Ġutensils": 2520,
			"Ġcement": 2521,
			"Ġdry": 2522,
			"Ġsleeping": 2523,
			"eller": 2524,
			"Who": 2525,
			"Ġsoup": 2526,
			"inea": 2527,
			"AS": 2528,
			"plan": 2529,
			"Young": 2530,
			"plates": 2531,
			"Ġall": 2532,
			"illar": 2533,
			"chicken": 2534,
			"Ġland": 2535,
			"Ġhorns": 2536,
			"Ġwristband": 2537,
			"gold": 2538,
			"zed": 2539,
			"fro": 2540,
			"tablecloth": 2541,
			"Ġtis": 2542,
			"Ġdressed": 2543,
			"Ġslices": 2544,
			"Ġrestaurant": 2545,
			"ceiling": 2546,
			"salad": 2547,
			"Ġstrawberry": 2548,
			"Ġsee": 2549,
			"Re": 2550,
			"spread": 2551,
			"spots": 2552,
			"bal": 2553,
			"Ġsupp": 2554,
			"ropeller": 2555,
			"Ġmounted": 2556,
			"Gray": 2557,
			"Ġfour": 2558,
			"Ġstool": 2559,
			"Ġleafy": 2560,
			"children": 2561,
			"IR": 2562,
			"Ġscissors": 2563,
			"io": 2564,
			"Ġtou": 2565,
			"squ": 2566,
			"Ġprint": 2567,
			"Tall": 2568,
			"Ġgrill": 2569,
			"estrian": 2570,
			"Ġburner": 2571,
			"ffy": 2572,
			"papers": 2573,
			"ins": 2574,
			"shower": 2575,
			"rice": 2576,
			"wn": 2577,
			"Ġlooks": 2578,
			"ife": 2579,
			"paint": 2580,
			"Ġboats": 2581,
			"ices": 2582,
			"Ġha": 2583,
			"icnic": 2584,
			"Ġheld": 2585,
			"Ġhole": 2586,
			"inach": 2587,
			"Ġdecorative": 2588,
			"Ġfacing": 2589,
			"Ġblock": 2590,
			"Ġsty": 2591,
			"Ġsits": 2592,
			"Ġoffice": 2593,
			"Ġtheir": 2594,
			"tertain": 2595,
			"Ġplanter": 2596,
			"Ġused": 2597,
			"ley": 2598,
			"Ġpar": 2599,
			"boots": 2600,
			"rack": 2601,
			"women": 2602,
			"Ġsafety": 2603,
			"EAR": 2604,
			"Ġshining": 2605,
			"iron": 2606,
			"ES": 2607,
			"ud": 2608,
			"Ġjumping": 2609,
			"Ġolive": 2610,
			"wet": 2611,
			"purple": 2612,
			"Ġhappy": 2613,
			"etchup": 2614,
			"Ġrain": 2615,
			"ĠL": 2616,
			"Ġstem": 2617,
			"Ġcab": 2618,
			"pocket": 2619,
			"bright": 2620,
			"Big": 2621,
			"Ġmagnet": 2622,
			"Ġwhi": 2623,
			"tertainment": 2624,
			"taxi": 2625,
			"tomatoes": 2626,
			"Ġdoll": 2627,
			"Ġlink": 2628,
			"chi": 2629,
			"Ġrear": 2630,
			"Ġcomforter": 2631,
			"bathtub": 2632,
			"fan": 2633,
			"male": 2634,
			"Ġfingers": 2635,
			"Ġsuv": 2636,
			"ily": 2637,
			"IT": 2638,
			"cing": 2639,
			"nt": 2640,
			"stairs": 2641,
			"Ġlike": 2642,
			"Ġmany": 2643,
			"Ġchop": 2644,
			"Ġbut": 2645,
			"ony": 2646,
			"ired": 2647,
			"ouses": 2648,
			"Ġstrap": 2649,
			"Metal": 2650,
			"crust": 2651,
			"suv": 2652,
			"ial": 2653,
			"bik": 2654,
			"pples": 2655,
			"Ġham": 2656,
			"pitcher": 2657,
			"Ġstands": 2658,
			"Ġclothing": 2659,
			"Ġcooking": 2660,
			"Ġstra": 2661,
			"Head": 2662,
			"Ġstainless": 2663,
			"Ġfloral": 2664,
			"stache": 2665,
			"Ġpaved": 2666,
			"Ġcalm": 2667,
			"beach": 2668,
			"icrop": 2669,
			"bber": 2670,
			"apples": 2671,
			"Ġheadband": 2672,
			"Ġ1": 2673,
			"Ġref": 2674,
			"diator": 2675,
			"Ġballoon": 2676,
			"Ġketchup": 2677,
			"Ġcardboard": 2678,
			"cular": 2679,
			"Ġpos": 2680,
			"Ġdifferent": 2681,
			"Ġbookcase": 2682,
			"Bu": 2683,
			"Ġfolded": 2684,
			"star": 2685,
			"Ġseen": 2686,
			"Ġi": 2687,
			"Ġfish": 2688,
			"soap": 2689,
			"icrophone": 2690,
			"countertop": 2691,
			"graffiti": 2692,
			"Ġtrailer": 2693,
			"Ġsugar": 2694,
			"frosting": 2695,
			"surfer": 2696,
			"arms": 2697,
			"hole": 2698,
			"ON": 2699,
			"Ġforest": 2700,
			"handle": 2701,
			"here": 2702,
			"ĠWHITE": 2703,
			"Ġthumb": 2704,
			"Pink": 2705,
			"Dog": 2706,
			"Ġstroller": 2707,
			"soda": 2708,
			"cand": 2709,
			"nightstand": 2710,
			"wii": 2711,
			"Ġdin": 2712,
			"strawberry": 2713,
			"Ġsandals": 2714,
			"Ġsausage": 2715,
			"Ġsticking": 2716,
			"Co": 2717,
			"Ġlake": 2718,
			"tank": 2719,
			"cupboard": 2720,
			"cakes": 2721,
			"pit": 2722,
			"lemon": 2723,
			"burner": 2724,
			"Se": 2725,
			"Ġiron": 2726,
			"Ġmilk": 2727,
			"ttoman": 2728,
			"piece": 2729,
			"Ġty": 2730,
			"Ġki": 2731,
			"Ġstring": 2732,
			"anges": 2733,
			"goggles": 2734,
			"Ġnight": 2735,
			"olive": 2736,
			"Ġcupcake": 2737,
			"Snow": 2738,
			"Ġdriver": 2739,
			"Ġgoing": 2740,
			"Ġflags": 2741,
			"river": 2742,
			"oranges": 2743,
			"On": 2744,
			"ET": 2745,
			"Ġtoaster": 2746,
			"plastic": 2747,
			"ally": 2748,
			"Ġholds": 2749,
			"home": 2750,
			"ju": 2751,
			"Ġhandles": 2752,
			"Ġdoughnut": 2753,
			"Picture": 2754,
			"Ġbedroom": 2755,
			"ef": 2756,
			"Ġchar": 2757,
			"magnet": 2758,
			"Ġlap": 2759,
			"lurry": 2760,
			"Ġgraffiti": 2761,
			"Ġcomp": 2762,
			"Ġflo": 2763,
			"beard": 2764,
			"shelves": 2765,
			"One": 2766,
			"cil": 2767,
			"cture": 2768,
			"bricks": 2769,
			"Ġgravel": 2770,
			"Ġ2": 2771,
			"Ġicing": 2772,
			"ladder": 2773,
			"ĠR": 2774,
			"neath": 2775,
			"Ġsignal": 2776,
			"Ġphotog": 2777,
			"lower": 2778,
			"Ġairport": 2779,
			"Ġcucumber": 2780,
			"Shadow": 2781,
			"ycl": 2782,
			"ashing": 2783,
			"Ġwrapped": 2784,
			"Ġunderneath": 2785,
			"Ġreading": 2786,
			"pa": 2787,
			"Ġcast": 2788,
			"Ġheadlight": 2789,
			"Ġflip": 2790,
			"Ġcheckered": 2791,
			"icker": 2792,
			"Ġcond": 2793,
			"Ġmix": 2794,
			"stop": 2795,
			"group": 2796,
			"Ġpulling": 2797,
			"Long": 2798,
			"ium": 2799,
			"Ġel": 2800,
			"inter": 2801,
			"Ġbell": 2802,
			"fingers": 2803,
			"oc": 2804,
			"crate": 2805,
			"real": 2806,
			"oodles": 2807,
			"slice": 2808,
			"Ġskateboarding": 2809,
			"drawers": 2810,
			"bags": 2811,
			"LACK": 2812,
			"Ġlift": 2813,
			"cable": 2814,
			"ives": 2815,
			"Ġpony": 2816,
			"Ġbeautiful": 2817,
			"Ġrunway": 2818,
			"mbs": 2819,
			"ical": 2820,
			"Ġtoppings": 2821,
			"Ġblouse": 2822,
			"ement": 2823,
			"Ġsymbol": 2824,
			"Ġway": 2825,
			"Ġcooler": 2826,
			"cucumber": 2827,
			"Ġfruits": 2828,
			"Ġmotorcycles": 2829,
			"Ġbanner": 2830,
			"gers": 2831,
			"urch": 2832,
			"lumin": 2833,
			"liance": 2834,
			"Ġgrape": 2835,
			"Ġbacon": 2836,
			"decoration": 2837,
			"ckpit": 2838,
			"mountains": 2839,
			"ders": 2840,
			"balcony": 2841,
			"mas": 2842,
			"dishwasher": 2843,
			"OM": 2844,
			"Ġbulb": 2845,
			"Ġsalt": 2846,
			"Ġserving": 2847,
			"Ġdessert": 2848,
			"Ġcellphone": 2849,
			"wristband": 2850,
			"Ġport": 2851,
			"ineapple": 2852,
			"Ġrefle": 2853,
			"Ġfluffy": 2854,
			"donuts": 2855,
			"Ġeggs": 2856,
			"Ġshowing": 2857,
			"ering": 2858,
			"fries": 2859,
			"bridge": 2860,
			"Ġtee": 2861,
			"onions": 2862,
			"dra": 2863,
			"orful": 2864,
			"Ġbre": 2865,
			"Ġcandles": 2866,
			"corn": 2867,
			"Ġgrapes": 2868,
			"Ġcolour": 2869,
			"Does": 2870,
			"Ġcanopy": 2871,
			"Ġfeathers": 2872,
			"Ġripe": 2873,
			"ret": 2874,
			"line": 2875,
			"Ġenclo": 2876,
			"Ġlin": 2877,
			"hisk": 2878,
			"Ġshi": 2879,
			"grape": 2880,
			"platform": 2881,
			"earring": 2882,
			"Ġbikes": 2883,
			"gout": 2884,
			"kitchen": 2885,
			"empty": 2886,
			"store": 2887,
			"Glass": 2888,
			"Ch": 2889,
			"Ġper": 2890,
			"Ġbin": 2891,
			"Ġfen": 2892,
			"amily": 2893,
			"Ġoffic": 2894,
			"Ġslope": 2895,
			"fig": 2896,
			"Ġje": 2897,
			"Ġhay": 2898,
			"per": 2899,
			"Ġmulti": 2900,
			"Ġbuttons": 2901,
			"Ġcru": 2902,
			"Ġpastry": 2903,
			"Ġdoing": 2904,
			"cul": 2905,
			"Four": 2906,
			"game": 2907,
			"Ġready": 2908,
			"skateboarder": 2909,
			"ĠST": 2910,
			"log": 2911,
			"Ġitems": 2912,
			"ading": 2913,
			"Ġstru": 2914,
			"lery": 2915,
			"hing": 2916,
			"rome": 2917,
			"sted": 2918,
			"ddler": 2919,
			"Ġtissue": 2920,
			"Ġhotdog": 2921,
			"que": 2922,
			"culp": 2923,
			"Ġmustard": 2924,
			"Water": 2925,
			"Ġadvertis": 2926,
			"Ġpatterned": 2927,
			"Ġbla": 2928,
			"Ġaw": 2929,
			"Ġstep": 2930,
			"assengers": 2931,
			"Ġpillar": 2932,
			"abric": 2933,
			"ĠE": 2934,
			"day": 2935,
			"Ġplacemat": 2936,
			"Ġchimney": 2937,
			"Ġmagazine": 2938,
			"riz": 2939,
			"Ġreflected": 2940,
			"Ġmeal": 2941,
			"Ġmel": 2942,
			"Turn": 2943,
			"Ġsupport": 2944,
			"Li": 2945,
			"telephone": 2946,
			"Ġcats": 2947,
			"end": 2948,
			"EARING": 2949,
			"Some": 2950,
			"Ġbull": 2951,
			"ctor": 2952,
			"ĠWEARING": 2953,
			"sweatshirt": 2954,
			"Front": 2955,
			"Ġstair": 2956,
			"Ġcla": 2957,
			"lain": 2958,
			"boxes": 2959,
			"Hand": 2960,
			"sticks": 2961,
			"mer": 2962,
			"ĠWii": 2963,
			"Ġbarrier": 2964,
			"Ġreflecting": 2965,
			"tooth": 2966,
			"Ġbent": 2967,
			"crowd": 2968,
			"rand": 2969,
			"Ġtables": 2970,
			"mouse": 2971,
			"boats": 2972,
			"Ġbow": 2973,
			"Ġtied": 2974,
			"Ġstyle": 2975,
			"power": 2976,
			"peppers": 2977,
			"Ġfresh": 2978,
			"burger": 2979,
			"culpture": 2980,
			"ward": 2981,
			"cups": 2982,
			"Ġdrain": 2983,
			"Ġtongue": 2984,
			"many": 2985,
			"Ġelectrical": 2986,
			"prin": 2987,
			"itten": 2988,
			"Ġheart": 2989,
			"Ġfla": 2990,
			"time": 2991,
			"inder": 2992,
			"vers": 2993,
			"ital": 2994,
			"Ġcontainers": 2995,
			"aked": 2996,
			"Ġolives": 2997,
			"Ġhoo": 2998,
			"Ġsprinkles": 2999,
			"To": 3000,
			"ana": 3001,
			"Ġbeneath": 3002,
			"Ġfeed": 3003,
			"Ġvehicles": 3004,
			"butter": 3005,
			"ise": 3006,
			"Ġdecker": 3007,
			"Ġplatter": 3008,
			"Ġcube": 3009,
			"sure": 3010,
			"fo": 3011,
			"duce": 3012,
			"goat": 3013,
			"Grey": 3014,
			"ages": 3015,
			"Ġcurved": 3016,
			"ters": 3017,
			"Sign": 3018,
			"sty": 3019,
			"Ġclose": 3020,
			"Ġab": 3021,
			"Ġpointing": 3022,
			"unch": 3023,
			"Ġfabric": 3024,
			"Ġpigeon": 3025,
			"Ġpool": 3026,
			"Ġcage": 3027,
			"yclist": 3028,
			"celain": 3029,
			"big": 3030,
			"Ġpul": 3031,
			"ĠMAN": 3032,
			"bookcase": 3033,
			"Ġbeverage": 3034,
			"gri": 3035,
			"Ġforeground": 3036,
			"Ġentrance": 3037,
			"wetsuit": 3038,
			"Ġnewspaper": 3039,
			"Ġtape": 3040,
			"avy": 3041,
			"Ġstructure": 3042,
			"comforter": 3043,
			"Ġsandy": 3044,
			"ume": 3045,
			"Ġmitt": 3046,
			"Ġpicnic": 3047,
			"Ġbowls": 3048,
			"umer": 3049,
			"Ġgas": 3050,
			"ado": 3051,
			"Ġmenu": 3052,
			"Ġnapkins": 3053,
			"Ġbeans": 3054,
			"Ġge": 3055,
			"Ġmale": 3056,
			"py": 3057,
			"estrians": 3058,
			"Ġlawn": 3059,
			"pick": 3060,
			"aul": 3061,
			"salt": 3062,
			"pigeon": 3063,
			"Ġmini": 3064,
			"Ġheadphones": 3065,
			"sausage": 3066,
			"chocolate": 3067,
			"Ġsnowboarder": 3068,
			"Ġrubber": 3069,
			"horses": 3070,
			"otive": 3071,
			"dresser": 3072,
			"Baseball": 3073,
			"elephants": 3074,
			"Ġhaired": 3075,
			"Ġbro": 3076,
			"Ġduring": 3077,
			"ristmas": 3078,
			"ild": 3079,
			"tenna": 3080,
			"Ġdishes": 3081,
			"brick": 3082,
			"she": 3083,
			"Ġhook": 3084,
			"tong": 3085,
			"Ġitem": 3086,
			"Ġgarbage": 3087,
			"Back": 3088,
			"Ġtext": 3089,
			"steps": 3090,
			"Ġprote": 3091,
			"OW": 3092,
			"patch": 3093,
			"Pi": 3094,
			"Ġgla": 3095,
			"Ġrais": 3096,
			"ocean": 3097,
			"raph": 3098,
			"lets": 3099,
			"cond": 3100,
			"Ġadult": 3101,
			"HIS": 3102,
			"umpkin": 3103,
			"wic": 3104,
			"Ġcords": 3105,
			"passenger": 3106,
			"Ġenclosure": 3107,
			"Ġdinner": 3108,
			"shop": 3109,
			"Ġcurly": 3110,
			"spectators": 3111,
			"Ġsmoke": 3112,
			"Ġsnowy": 3113,
			"Car": 3114,
			"beak": 3115,
			"Ġporcelain": 3116,
			"wiches": 3117,
			"rimp": 3118,
			"mi": 3119,
			"ketchup": 3120,
			"Ġwide": 3121,
			"ppy": 3122,
			"Ġthrow": 3123,
			"Ġrim": 3124,
			"cows": 3125,
			"Ġdot": 3126,
			"potatoes": 3127,
			"juice": 3128,
			"Ġwagon": 3129,
			"asted": 3130,
			"towels": 3131,
			"Ġzoo": 3132,
			"irth": 3133,
			"Ġyard": 3134,
			"Ġpolar": 3135,
			"Ġawning": 3136,
			"pping": 3137,
			"Ġlife": 3138,
			"cast": 3139,
			"teeth": 3140,
			"Ġsheets": 3141,
			"Ġkites": 3142,
			"Ġtime": 3143,
			"dio": 3144,
			"Ġfig": 3145,
			"EL": 3146,
			"voc": 3147,
			"vocado": 3148,
			"US": 3149,
			"Ġweeds": 3150,
			"Ġtouching": 3151,
			"mething": 3152,
			"Ġanother": 3153,
			"lowing": 3154,
			"Ġpaws": 3155,
			"asil": 3156,
			"Ġconne": 3157,
			"Pl": 3158,
			"ĠSU": 3159,
			"Ġstor": 3160,
			"stru": 3161,
			"Ġamerican": 3162,
			"Ġcrosswalk": 3163,
			"american": 3164,
			"ano": 3165,
			"balloon": 3166,
			"mask": 3167,
			"Ġfigu": 3168,
			"Ġspl": 3169,
			"pair": 3170,
			"Ġfigure": 3171,
			"Ġpads": 3172,
			"Grass": 3173,
			"irthday": 3174,
			"onkey": 3175,
			"stume": 3176,
			"IG": 3177,
			"hak": 3178,
			"Ġpaddle": 3179,
			"wig": 3180,
			"Ġabout": 3181,
			"Ġhere": 3182,
			"Ġspatula": 3183,
			"Ġsli": 3184,
			"RA": 3185,
			"Ġcookie": 3186,
			"Ġofficer": 3187,
			"Ġbenches": 3188,
			"Ġmud": 3189,
			"acher": 3190,
			"ned": 3191,
			"cupcake": 3192,
			"Ġstrawberries": 3193,
			"Ġentertainment": 3194,
			"Ġtusk": 3195,
			"gravel": 3196,
			"Ġorn": 3197,
			"ling": 3198,
			"bbon": 3199,
			"Ġshel": 3200,
			"Ġchurch": 3201,
			"Ġinter": 3202,
			"ĠBLACK": 3203,
			"Ġwicker": 3204,
			"flags": 3205,
			"umbrellas": 3206,
			"stom": 3207,
			"jo": 3208,
			"horns": 3209,
			"Ġpulled": 3210,
			"hiskers": 3211,
			"Ġship": 3212,
			"skin": 3213,
			"ham": 3214,
			"Ġtires": 3215,
			"risbee": 3216,
			"Ġswimming": 3217,
			"Ġmaroon": 3218,
			"utensils": 3219,
			"Ġmatch": 3220,
			"oose": 3221,
			"Ġprinted": 3222,
			"Tennis": 3223,
			"Ġshirts": 3224,
			"Ġbedspread": 3225,
			"Ġhitting": 3226,
			"Ġcandy": 3227,
			"planter": 3228,
			"attress": 3229,
			"bacon": 3230,
			"carriage": 3231,
			"OO": 3232,
			"Ġcal": 3233,
			"Ġguitar": 3234,
			"arp": 3235,
			"Ġpas": 3236,
			"Building": 3237,
			"Tree": 3238,
			"policeman": 3239,
			"Ġhoriz": 3240,
			"Ġhose": 3241,
			"Ġbi": 3242,
			"Ġportion": 3243,
			"umn": 3244,
			"chimney": 3245,
			"iflower": 3246,
			"silverware": 3247,
			"Ġpots": 3248,
			"Ġchest": 3249,
			"Ġshopping": 3250,
			"tty": 3251,
			"Ġpictures": 3252,
			"cream": 3253,
			"pod": 3254,
			"Cle": 3255,
			"ĠAND": 3256,
			"grapes": 3257,
			"Ġdel": 3258,
			"sy": 3259,
			"blouse": 3260,
			"Ġhardwood": 3261,
			"dou": 3262,
			"ilt": 3263,
			"display": 3264,
			"auliflower": 3265,
			"Ġthem": 3266,
			"thumb": 3267,
			"colored": 3268,
			"achers": 3269,
			"sian": 3270,
			"card": 3271,
			"Ġber": 3272,
			"Ġappliance": 3273,
			"ious": 3274,
			"Ġpatio": 3275,
			"cutting": 3276,
			"sail": 3277,
			"stack": 3278,
			"nuts": 3279,
			"cords": 3280,
			"cooked": 3281,
			"haki": 3282,
			"RED": 3283,
			"ED": 3284,
			"Ġmound": 3285,
			"Ġsticks": 3286,
			"Ġfolding": 3287,
			"Ġgarage": 3288,
			"Ġwhile": 3289,
			"tea": 3290,
			"Ġcondition": 3291,
			"Ġenjo": 3292,
			"toaster": 3293,
			"Ġpropeller": 3294,
			"Ġcher": 3295,
			"Ġstrip": 3296,
			"Pizza": 3297,
			"Food": 3298,
			"Ġnumer": 3299,
			"Ġrider": 3300,
			"Ġrac": 3301,
			"bottom": 3302,
			"Ġea": 3303,
			"square": 3304,
			"THIS": 3305,
			"ronic": 3306,
			"kini": 3307,
			"Ġdaytime": 3308,
			"Ġspectators": 3309,
			"cra": 3310,
			"Ġfew": 3311,
			"walls": 3312,
			"ouquet": 3313,
			"Ġblurry": 3314,
			"Book": 3315,
			"Ġposing": 3316,
			"IL": 3317,
			"IC": 3318,
			"magazine": 3319,
			"Ze": 3320,
			"elier": 3321,
			"lectronic": 3322,
			"weeds": 3323,
			"Ġcrou": 3324,
			"nel": 3325,
			"Ġr": 3326,
			"allway": 3327,
			"sea": 3328,
			"Ġchin": 3329,
			"headband": 3330,
			"Ġribbon": 3331,
			"Ġpoliceman": 3332,
			"Ġtrunks": 3333,
			"Ġrest": 3334,
			"ian": 3335,
			"blender": 3336,
			"agazines": 3337,
			"scissors": 3338,
			"atting": 3339,
			"arette": 3340,
			"Ġsilverware": 3341,
			"Ġbor": 3342,
			"Little": 3343,
			"driver": 3344,
			"duck": 3345,
			"Ġwinter": 3346,
			"Ġsurround": 3347,
			"igarette": 3348,
			"Ġhoodie": 3349,
			"Ġoutdoor": 3350,
			"eling": 3351,
			"Ġdrapes": 3352,
			"Ġpasta": 3353,
			"ĠK": 3354,
			"ither": 3355,
			"Child": 3356,
			"Ġtrick": 3357,
			"Ġcrack": 3358,
			"Ġhandbag": 3359,
			"TER": 3360,
			"Ġenjoying": 3361,
			"Ġfrench": 3362,
			"ially": 3363,
			"Ġtin": 3364,
			"Ġskies": 3365,
			"Ġrose": 3366,
			"Ġdugout": 3367,
			"Ġrailroad": 3368,
			"Ġstones": 3369,
			"mark": 3370,
			"Ġfar": 3371,
			"Ġclu": 3372,
			"larm": 3373,
			"Ġhillside": 3374,
			"Ġsandal": 3375,
			"ged": 3376,
			"Ġmarket": 3377,
			"shiny": 3378,
			"Ġdire": 3379,
			"Ġballs": 3380,
			"path": 3381,
			"fe": 3382,
			"Ġgi": 3383,
			"Ġtype": 3384,
			"Ġpolice": 3385,
			"Ġpedestrian": 3386,
			"ken": 3387,
			"Ġintersection": 3388,
			"Ġeither": 3389,
			"pastry": 3390,
			"Ġseveral": 3391,
			"OP": 3392,
			"ALL": 3393,
			"Ġgetting": 3394,
			"Ġmicrophone": 3395,
			"yard": 3396,
			"Ġpointy": 3397,
			"ooring": 3398,
			"Ġcircular": 3399,
			"ĠĠĠĠ": 3400,
			"Ġknobs": 3401,
			"phalt": 3402,
			"saucer": 3403,
			"Ġ3": 3404,
			"LU": 3405,
			"Ġspinach": 3406,
			"allet": 3407,
			"ĠARE": 3408,
			"giraffes": 3409,
			"dishes": 3410,
			"Ġfemale": 3411,
			"Windows": 3412,
			"Ġcans": 3413,
			"placemat": 3414,
			"fast": 3415,
			"Ġspray": 3416,
			"canopy": 3417,
			"riting": 3418,
			"vehicles": 3419,
			"birds": 3420,
			"oe": 3421,
			"ĠV": 3422,
			"pavement": 3423,
			"colorful": 3424,
			"Ġhotel": 3425,
			"Ġottoman": 3426,
			"AD": 3427,
			"par": 3428,
			"Ġgolden": 3429,
			"Ġopened": 3430,
			"Ġtran": 3431,
			"Ġlamb": 3432,
			"fla": 3433,
			"rane": 3434,
			"val": 3435,
			"Ġcones": 3436,
			"ery": 3437,
			"oy": 3438,
			"pt": 3439,
			"Ġfoil": 3440,
			"mustard": 3441,
			"smoke": 3442,
			"animals": 3443,
			"Ġwaist": 3444,
			"cur": 3445,
			"Ġsomething": 3446,
			"Ġcolors": 3447,
			"Train": 3448,
			"Ġaway": 3449,
			"menu": 3450,
			"Ġtriang": 3451,
			"Ġelbow": 3452,
			"Ġbuses": 3453,
			"Ġmustache": 3454,
			"cooler": 3455,
			"Ġcowboy": 3456,
			"Ġsame": 3457,
			"Ġwings": 3458,
			"jam": 3459,
			"Ġhit": 3460,
			"AND": 3461,
			"grill": 3462,
			"ats": 3463,
			"Ġmoving": 3464,
			"iness": 3465,
			"cumbers": 3466,
			"akfast": 3467,
			"Ġsunny": 3468,
			"Ġonto": 3469,
			"chool": 3470,
			"Ġmed": 3471,
			"Reflection": 3472,
			"Ġshape": 3473,
			"Ġmotorbike": 3474,
			"ACK": 3475,
			"urt": 3476,
			"Ġchips": 3477,
			"Ġeyeglasses": 3478,
			"Ġtoast": 3479,
			"Clear": 3480,
			"oned": 3481,
			"Ġradiator": 3482,
			"os": 3483,
			"Ġisland": 3484,
			"Ġhouses": 3485,
			"Ġupside": 3486,
			"Ġflooring": 3487,
			"cts": 3488,
			"Ġwhere": 3489,
			"Ġbirthday": 3490,
			"Ġfloating": 3491,
			"nequ": 3492,
			"eled": 3493,
			"Ġgear": 3494,
			"Ġkhaki": 3495,
			"Ġphotograph": 3496,
			"AB": 3497,
			"Ġfigurine": 3498,
			"Ġthrowing": 3499,
			"Ġam": 3500,
			"Ġden": 3501,
			"Ġfoam": 3502,
			"by": 3503,
			"Ġtowards": 3504,
			"Ġvent": 3505,
			"Ġshru": 3506,
			"icious": 3507,
			"Ġnotebook": 3508,
			"headphones": 3509,
			"Ġpasture": 3510,
			"Pie": 3511,
			"walkway": 3512,
			"olives": 3513,
			"gull": 3514,
			"Ġchrome": 3515,
			"Ġracquet": 3516,
			"These": 3517,
			"letic": 3518,
			"Ġlined": 3519,
			"Ġfried": 3520,
			"Ġskater": 3521,
			"roun": 3522,
			"sole": 3523,
			"players": 3524,
			"Ġtip": 3525,
			"Ġflops": 3526,
			"Ġseated": 3527,
			"Ġraised": 3528,
			"ĠJ": 3529,
			"sprinkles": 3530,
			"Ġtarm": 3531,
			"aded": 3532,
			"ames": 3533,
			"rapher": 3534,
			"Ġrange": 3535,
			"Left": 3536,
			"doll": 3537,
			"ĠFrisbee": 3538,
			"trailer": 3539,
			"ath": 3540,
			"aste": 3541,
			"Ġlan": 3542,
			"anda": 3543,
			"eggs": 3544,
			"arden": 3545,
			"Right": 3546,
			"pro": 3547,
			"Ġpolo": 3548,
			"Ġmet": 3549,
			"fish": 3550,
			"Ġhuman": 3551,
			"Ġbarn": 3552,
			"electric": 3553,
			"Ġspread": 3554,
			"He": 3555,
			"Ġca": 3556,
			"button": 3557,
			"cy": 3558,
			"ament": 3559,
			"Ġcolumn": 3560,
			"boys": 3561,
			"Ġlow": 3562,
			"Ġqu": 3563,
			"step": 3564,
			"Ġsub": 3565,
			"ctive": 3566,
			"aching": 3567,
			"uck": 3568,
			"allic": 3569,
			"ĠU": 3570,
			"Ġwip": 3571,
			"Ġovercast": 3572,
			"LUE": 3573,
			"Ġspotted": 3574,
			"Ġporch": 3575,
			"Ġbald": 3576,
			"Ġext": 3577,
			"Ġwhiskers": 3578,
			"fly": 3579,
			"Ġworking": 3580,
			"Ġwithout": 3581,
			"Ġmuff": 3582,
			"stroller": 3583,
			"illa": 3584,
			"Bus": 3585,
			"Ġstraight": 3586,
			"scooter": 3587,
			"Ġtrains": 3588,
			"Ġleading": 3589,
			"Round": 3590,
			"Ġbeen": 3591,
			"edding": 3592,
			"Ġbicycles": 3593,
			"strawberries": 3594,
			"attoo": 3595,
			"ID": 3596,
			"teri": 3597,
			"Ġoverhead": 3598,
			"Ġlock": 3599,
			"Ġsad": 3600,
			"Ġwatermelon": 3601,
			"Ġbending": 3602,
			"alle": 3603,
			"Ġpacket": 3604,
			"Ġpow": 3605,
			"kettle": 3606,
			"IS": 3607,
			"Ġconditioner": 3608,
			"rounding": 3609,
			"drapes": 3610,
			"Pur": 3611,
			"ĠIt": 3612,
			"icol": 3613,
			"Zebra": 3614,
			"cookie": 3615,
			"nee": 3616,
			"Ġpencil": 3617,
			"amond": 3618,
			"Group": 3619,
			"Ġath": 3620,
			"els": 3621,
			"Ġbars": 3622,
			"Ġbiker": 3623,
			"toppings": 3624,
			"multi": 3625,
			"Top": 3626,
			"ulticol": 3627,
			"mes": 3628,
			"int": 3629,
			"Ġfurry": 3630,
			"Ġasphalt": 3631,
			"Ġchef": 3632,
			"Bottle": 3633,
			"candles": 3634,
			"Ġsurrounding": 3635,
			"aller": 3636,
			"Ġkids": 3637,
			"Ġkeys": 3638,
			"Ġposts": 3639,
			"Ġnoodles": 3640,
			"rinal": 3641,
			"agus": 3642,
			"Ġmarble": 3643,
			"bathroom": 3644,
			"AIR": 3645,
			"Old": 3646,
			"Ġlips": 3647,
			"Ġdenim": 3648,
			"sandal": 3649,
			"Ġleash": 3650,
			"Ġfall": 3651,
			"fore": 3652,
			"Ġcockpit": 3653,
			"Ġcloset": 3654,
			"Ġcereal": 3655,
			"Ġtool": 3656,
			"biker": 3657,
			"Ġhuge": 3658,
			"soccer": 3659,
			"acter": 3660,
			"Ġforward": 3661,
			"RT": 3662,
			"Ġtravel": 3663,
			"Ġprinter": 3664,
			"bikes": 3665,
			"barrier": 3666,
			"Ġstain": 3667,
			"Ġmaking": 3668,
			"Ġborder": 3669,
			"Ġcli": 3670,
			"Ġdecorated": 3671,
			"Several": 3672,
			"Ġheadlights": 3673,
			"Phot": 3674,
			"ghter": 3675,
			"nequin": 3676,
			"Ġplaced": 3677,
			"Tan": 3678,
			"figu": 3679,
			"jamas": 3680,
			"Ġhar": 3681,
			"Giraffe": 3682,
			"vi": 3683,
			"fruits": 3684,
			"pots": 3685,
			"Open": 3686,
			"igital": 3687,
			"gged": 3688,
			"Ġfree": 3689,
			"thick": 3690,
			"tissue": 3691,
			"ried": 3692,
			"Ġdrive": 3693,
			"Ġcanister": 3694,
			"toothbrush": 3695,
			"ingle": 3696,
			"chop": 3697,
			"vergreen": 3698,
			"Ġexten": 3699,
			"isher": 3700,
			"Ġcabbage": 3701,
			"Ġknives": 3702,
			"Tra": 3703,
			"vert": 3704,
			"kn": 3705,
			"dience": 3706,
			"Ġdr": 3707,
			"kes": 3708,
			"Ġtur": 3709,
			"spatula": 3710,
			"irst": 3711,
			"Sand": 3712,
			"cases": 3713,
			"aring": 3714,
			"sm": 3715,
			"Ġtarmac": 3716,
			"ary": 3717,
			"ĠSUV": 3718,
			"Ġseats": 3719,
			"newspaper": 3720,
			"Ġadvertisement": 3721,
			"dered": 3722,
			"Ġmelted": 3723,
			"Ġbaked": 3724,
			"Ġpineapple": 3725,
			"ca": 3726,
			"Ġrocky": 3727,
			"Ġcherry": 3728,
			"napkins": 3729,
			"Ġmost": 3730,
			"Ġspices": 3731,
			"Ġarched": 3732,
			"Ġlamps": 3733,
			"Ġapart": 3734,
			"Pla": 3735,
			"symbol": 3736,
			"Street": 3737,
			"Ġsculpture": 3738,
			"Ġmother": 3739,
			"Ġskating": 3740,
			"Many": 3741,
			"Ġsurrounded": 3742,
			"Ġdead": 3743,
			"heart": 3744,
			"tape": 3745,
			"Ġindoors": 3746,
			"Ġsla": 3747,
			"scrap": 3748,
			"ute": 3749,
			"terior": 3750,
			"ĠCO": 3751,
			"milk": 3752,
			"shing": 3753,
			"rail": 3754,
			"Lamp": 3755,
			"Ġsale": 3756,
			"Table": 3757,
			"ockey": 3758,
			"Ġoil": 3759,
			"Ġrolling": 3760,
			"Ġpersons": 3761,
			"Ġconnected": 3762,
			"ROW": 3763,
			"zzas": 3764,
			"rolled": 3765,
			"Ġhills": 3766,
			"Ġledge": 3767,
			"beige": 3768,
			"Ġwoods": 3769,
			"char": 3770,
			"Horse": 3771,
			"Ġsquash": 3772,
			"dessert": 3773,
			"Ġcrossed": 3774,
			"Ġwild": 3775,
			"cru": 3776,
			"Ġbusiness": 3777,
			"Purple": 3778,
			"arious": 3779,
			"craft": 3780,
			"ki": 3781,
			"Ġtoddler": 3782,
			"Ġnail": 3783,
			"note": 3784,
			"Ġkitten": 3785,
			"Pick": 3786,
			"snowboarder": 3787,
			"Ġfamily": 3788,
			"Ġmot": 3789,
			"ERS": 3790,
			"Bri": 3791,
			"Ġponytail": 3792,
			"Ġmushrooms": 3793,
			"name": 3794,
			"Ġstaircase": 3795,
			"Ġproduce": 3796,
			"feathers": 3797,
			"Ġwind": 3798,
			"ons": 3799,
			"rear": 3800,
			"Ġter": 3801,
			"Ġmetallic": 3802,
			"ream": 3803,
			"Ġind": 3804,
			"stem": 3805,
			"Ġdelicious": 3806,
			"mper": 3807,
			"Ġtrou": 3808,
			"LOW": 3809,
			"lled": 3810,
			"ROU": 3811,
			"ĠHAS": 3812,
			"Ġolder": 3813,
			"Ġcostume": 3814,
			"spinach": 3815,
			"ĠPLA": 3816,
			"Ġwool": 3817,
			"Ġpassengers": 3818,
			"Ġguard": 3819,
			"Bright": 3820,
			"Ġvisor": 3821,
			"pile": 3822,
			"Ġmattress": 3823,
			"Ġeaten": 3824,
			"Ġbleachers": 3825,
			"sandals": 3826,
			"ka": 3827,
			"body": 3828,
			"ulticolored": 3829,
			"Ġpea": 3830,
			"knee": 3831,
			"OMAN": 3832,
			"Ġdrawing": 3833,
			"dern": 3834,
			"phot": 3835,
			"Ġfencing": 3836,
			"Ġdrinks": 3837,
			"bble": 3838,
			"ĠCh": 3839,
			"hay": 3840,
			"Ġdirection": 3841,
			"Ġhung": 3842,
			"unnel": 3843,
			"beans": 3844,
			"OT": 3845,
			"CH": 3846,
			"propeller": 3847,
			"ingu": 3848,
			"ainers": 3849,
			"spi": 3850,
			"ailbox": 3851,
			"spices": 3852,
			"concrete": 3853,
			"rup": 3854,
			"roiss": 3855,
			"REEN": 3856,
			"zzarella": 3857,
			"Ġtap": 3858,
			"Ġpartially": 3859,
			"Wall": 3860,
			"Ġhats": 3861,
			"Ġprepa": 3862,
			"radiator": 3863,
			"Ġelectronic": 3864,
			"Ġ4": 3865,
			"Ġbandana": 3866,
			"writing": 3867,
			"knob": 3868,
			"bor": 3869,
			"bull": 3870,
			"sues": 3871,
			"Ġsandwiches": 3872,
			"bedspread": 3873,
			"planes": 3874,
			"Ġpiano": 3875,
			"Ġsize": 3876,
			"acks": 3877,
			"canister": 3878,
			"Ġtiny": 3879,
			"azy": 3880,
			"Ġfeeding": 3881,
			"arsley": 3882,
			"Ġrusty": 3883,
			"pedestrian": 3884,
			"Ġwedding": 3885,
			"nish": 3886,
			"Ro": 3887,
			"Ġplain": 3888,
			"older": 3889,
			"stainless": 3890,
			"Ġphones": 3891,
			"Gold": 3892,
			"Ġgarden": 3893,
			"king": 3894,
			"Ġdiamond": 3895,
			"Ġbikini": 3896,
			"Photo": 3897,
			"rial": 3898,
			"paddle": 3899,
			"Ġpotted": 3900,
			"Ġstickers": 3901,
			"Plate": 3902,
			"Ġdesktop": 3903,
			"ility": 3904,
			"Door": 3905,
			"Ġcontrollers": 3906,
			"Ġteam": 3907,
			"Ġwho": 3908,
			"uc": 3909,
			"In": 3910,
			"Ġemb": 3911,
			"hose": 3912,
			"ĠSH": 3913,
			"inguisher": 3914,
			"Ġschool": 3915,
			"Sky": 3916,
			"ured": 3917,
			"Ġextinguisher": 3918,
			"lips": 3919,
			"Ġcalf": 3920,
			"dock": 3921,
			"soup": 3922,
			"ABLE": 3923,
			"Plastic": 3924,
			"girls": 3925,
			"ĠBLUE": 3926,
			"tongue": 3927,
			"del": 3928,
			"Ġblind": 3929,
			"containers": 3930,
			"Ġdots": 3931,
			"ogurt": 3932,
			"Ġlime": 3933,
			"CE": 3934,
			"ocom": 3935,
			"lit": 3936,
			"adium": 3937,
			"Ġpin": 3938,
			"Ġguys": 3939,
			"Ġmarker": 3940,
			"artwork": 3941,
			"Ġshe": 3942,
			"ocomotive": 3943,
			"Ġsecond": 3944,
			"Ġpackage": 3945,
			"Ġfountain": 3946,
			"ITH": 3947,
			"Lad": 3948,
			"Ġartwork": 3949,
			"Be": 3950,
			"rasp": 3951,
			"ique": 3952,
			"Ġmate": 3953,
			"dispenser": 3954,
			"Ġcookies": 3955,
			"decorative": 3956,
			"Clock": 3957,
			"ĠWITH": 3958,
			"Ġdryer": 3959,
			"luminum": 3960,
			"bell": 3961,
			"Ġwristwatch": 3962,
			"thin": 3963,
			"Piece": 3964,
			"offic": 3965,
			"Ġdrawn": 3966,
			"vertical": 3967,
			"Ġplugged": 3968,
			"foam": 3969,
			"onge": 3970,
			"Ġwhat": 3971,
			"Ġtopped": 3972,
			"wa": 3973,
			"Ġrod": 3974,
			"Ġ&": 3975,
			"Ġcelery": 3976,
			"Ġkick": 3977,
			"TS": 3978,
			"Dirt": 3979,
			"Ġbean": 3980,
			"vd": 3981,
			"half": 3982,
			"rest": 3983,
			"Ġsoft": 3984,
			"Te": 3985,
			"its": 3986,
			"Ġlocomotive": 3987,
			"handbag": 3988,
			"Ġsaddle": 3989,
			"illumin": 3990,
			"Ġpiled": 3991,
			"Ġpond": 3992,
			"Ġshut": 3993,
			"SS": 3994,
			"Ġcarton": 3995,
			"watermelon": 3996,
			"figurine": 3997,
			"Lights": 3998,
			"Ġgames": 3999,
			"Slice": 4000,
			"ROUND": 4001,
			"Ġknit": 4002,
			"beverage": 4003,
			"Elephant": 4004,
			"Ġsides": 4005,
			"Ġappears": 4006,
			"Ġspeakers": 4007,
			"arent": 4008,
			"Ġathletic": 4009,
			"Ġsill": 4010,
			"Ġpumpkin": 4011,
			"Ġlace": 4012,
			"Ġbrand": 4013,
			"Ġlining": 4014,
			"tv": 4015,
			"shirts": 4016,
			"aptop": 4017,
			"tered": 4018,
			"shade": 4019,
			"unk": 4020,
			"Ġsneaker": 4021,
			"motorcycles": 4022,
			"Ġcatching": 4023,
			"vds": 4024,
			"framed": 4025,
			"Ġdecorations": 4026,
			"GE": 4027,
			"nd": 4028,
			"Ġpant": 4029,
			"Ġindic": 4030,
			"squash": 4031,
			"Ġtrail": 4032,
			"striped": 4033,
			"Ġbeef": 4034,
			"Ġherd": 4035,
			"tile": 4036,
			"efcase": 4037,
			"cab": 4038,
			"Col": 4039,
			"bare": 4040,
			"Ġlaptops": 4041,
			"houses": 4042,
			"Ġspice": 4043,
			"gun": 4044,
			"scraper": 4045,
			"Ġpens": 4046,
			"Ġdisplayed": 4047,
			"Leg": 4048,
			"Ġcigarette": 4049,
			"any": 4050,
			"Ġdeep": 4051,
			"Ġhorizon": 4052,
			"hered": 4053,
			"Ġmap": 4054,
			"Empty": 4055,
			"Laptop": 4056,
			"Ġtongs": 4057,
			"Ġpedestrians": 4058,
			"Ġed": 4059,
			"shadows": 4060,
			"Ġskinny": 4061,
			"heels": 4062,
			"HIRT": 4063,
			"Ġglo": 4064,
			"Ġjean": 4065,
			"Ġtops": 4066,
			"dless": 4067,
			"paste": 4068,
			"Ġsmooth": 4069,
			"bowls": 4070,
			"ws": 4071,
			"TH": 4072,
			"Ġwrink": 4073,
			"Ġwomans": 4074,
			"deck": 4075,
			"Ġstuck": 4076,
			"Ġburger": 4077,
			"Side": 4078,
			"bea": 4079,
			"rose": 4080,
			"Ġrolled": 4081,
			"Ġsweat": 4082,
			"Ġtoys": 4083,
			"officer": 4084,
			"stones": 4085,
			"Ġthen": 4086,
			"Ġcables": 4087,
			"Ġmagnets": 4088,
			"Ġcomputers": 4089,
			"pasta": 4090,
			"uffy": 4091,
			"pol": 4092,
			"cir": 4093,
			"celets": 4094,
			"ĠRED": 4095,
			"ĠTABLE": 4096,
			"ouch": 4097,
			"kid": 4098,
			"sheets": 4099,
			"Ġseeds": 4100,
			"velope": 4101,
			"Ġwallpaper": 4102,
			"Ġavocado": 4103,
			"Ġgood": 4104,
			"Ġthan": 4105,
			"Ġaluminum": 4106,
			"Ġsetting": 4107,
			"Computer": 4108,
			"Ġhoof": 4109,
			"sts": 4110,
			"Ġspace": 4111,
			"struction": 4112,
			"Ġfu": 4113,
			"Ġpizzas": 4114,
			"most": 4115,
			"OOD": 4116,
			"Ġhallway": 4117,
			"Ġmess": 4118,
			"Ġbroken": 4119,
			"Ġhedge": 4120,
			"Ġneon": 4121,
			"link": 4122,
			"Ġcalled": 4123,
			"tires": 4124,
			"thy": 4125,
			"fl": 4126,
			"pens": 4127,
			"candy": 4128,
			"Ġsteering": 4129,
			"Ġshrimp": 4130,
			"Ġvases": 4131,
			"Ġma": 4132,
			"Ġstud": 4133,
			"Ġpushing": 4134,
			"ĠDO": 4135,
			"microphone": 4136,
			"Ġlunch": 4137,
			"ness": 4138,
			"Ġpuppy": 4139,
			"Ġcurled": 4140,
			"Ġhelmets": 4141,
			"getation": 4142,
			"Ġstorage": 4143,
			"Gra": 4144,
			"Ġtablet": 4145,
			"ades": 4146,
			"ĠSt": 4147,
			"vet": 4148,
			"Ġtoasted": 4149,
			"Ġfrosted": 4150,
			"off": 4151,
			"Ġantenna": 4152,
			"Ġbreakfast": 4153,
			"Ġbouquet": 4154,
			"sunglasses": 4155,
			"Ġreaching": 4156,
			"Ġlush": 4157,
			"chand": 4158,
			"crosswalk": 4159,
			"oulders": 4160,
			"ranite": 4161,
			"Ġacc": 4162,
			"pu": 4163,
			"Ġgrou": 4164,
			"Ġfreezer": 4165,
			"Ġmaterial": 4166,
			"oney": 4167,
			"pineapple": 4168,
			"ipper": 4169,
			"Sp": 4170,
			"roissant": 4171,
			"drain": 4172,
			"Ġhold": 4173,
			"spice": 4174,
			"wards": 4175,
			"Ġkneeling": 4176,
			"Ġpreparing": 4177,
			"Ġradio": 4178,
			"flip": 4179,
			"ashi": 4180,
			"cockpit": 4181,
			"ucch": 4182,
			"Ġglazed": 4183,
			"cut": 4184,
			"robe": 4185,
			"Ġmixer": 4186,
			"bbles": 4187,
			"mustache": 4188,
			"hook": 4189,
			"Ġnarrow": 4190,
			"afe": 4191,
			"Po": 4192,
			"vent": 4193,
			"Skateboard": 4194,
			"ublic": 4195,
			"ert": 4196,
			"antique": 4197,
			"Ġclay": 4198,
			"Ġbasil": 4199,
			"Ġmarks": 4200,
			"Ġmostly": 4201,
			"Lady": 4202,
			"Ġlots": 4203,
			"flat": 4204,
			"Ġequ": 4205,
			"lour": 4206,
			"Ġdoes": 4207,
			"ROWN": 4208,
			"Ġunit": 4209,
			"ky": 4210,
			"ottoman": 4211,
			"Ġsailboat": 4212,
			"Ġstadium": 4213,
			"Chair": 4214,
			"cabbage": 4215,
			"ex": 4216,
			"Ġalarm": 4217,
			"Ġdesigns": 4218,
			"Ġcri": 4219,
			"Ġsingle": 4220,
			"Ġmuffin": 4221,
			"entertainment": 4222,
			"put": 4223,
			"Ġpanda": 4224,
			"Lea": 4225,
			"ucchini": 4226,
			"rows": 4227,
			"Ġrobe": 4228,
			"waves": 4229,
			"Ġnavy": 4230,
			"Ġcontaining": 4231,
			"Ġextended": 4232,
			"illuminated": 4233,
			"cial": 4234,
			"cereal": 4235,
			"Su": 4236,
			"handelier": 4237,
			"rus": 4238,
			"anging": 4239,
			"gas": 4240,
			"Ġskiers": 4241,
			"machine": 4242,
			"guitar": 4243,
			"Flow": 4244,
			"folding": 4245,
			"Ġplanes": 4246,
			"Ġcatch": 4247,
			"Ġtwig": 4248,
			"ĠSHIRT": 4249,
			"Ġleafless": 4250,
			"Ġfry": 4251,
			"tracks": 4252,
			"Ġconsole": 4253,
			"Ġpear": 4254,
			"illet": 4255,
			"Ġdump": 4256,
			"Ġlower": 4257,
			"lines": 4258,
			"Ġplug": 4259,
			"Bird": 4260,
			"Ġpale": 4261,
			"Ġsa": 4262,
			"DING": 4263,
			"Ġreflective": 4264,
			"Ġpier": 4265,
			"sliced": 4266,
			"retched": 4267,
			"Surf": 4268,
			"Ġupper": 4269,
			"Ġsplashing": 4270,
			"life": 4271,
			"noodles": 4272,
			"Ġeat": 4273,
			"Ġclocks": 4274,
			"Ġbumper": 4275,
			"Ġpane": 4276,
			"IGH": 4277,
			"Ġcloudless": 4278,
			"Ġearrings": 4279,
			"Ġarmchair": 4280,
			"Ġcauliflower": 4281,
			"ature": 4282,
			"Ġau": 4283,
			"Ġpastries": 4284,
			"meal": 4285,
			"printer": 4286,
			"cherry": 4287,
			"Ġchopped": 4288,
			"Ġpass": 4289,
			"elling": 4290,
			"Ġskinned": 4291,
			"Clou": 4292,
			"oldier": 4293,
			"Ġsteam": 4294,
			"celery": 4295,
			"Ġbol": 4296,
			"stomer": 4297,
			"Ġwrapper": 4298,
			"Ġcutter": 4299,
			"Handle": 4300,
			"dry": 4301,
			"stair": 4302,
			"tool": 4303,
			"De": 4304,
			"Ġ5": 4305,
			"Cow": 4306,
			"dershirt": 4307,
			"Ġsized": 4308,
			"kites": 4309,
			"Ġtrucks": 4310,
			"Ġlaces": 4311,
			"design": 4312,
			"lightly": 4313,
			"Cars": 4314,
			"Ġphotographer": 4315,
			"mother": 4316,
			"How": 4317,
			"Ġtransp": 4318,
			"MAN": 4319,
			"zzy": 4320,
			"ory": 4321,
			"swim": 4322,
			"mix": 4323,
			"BO": 4324,
			"hic": 4325,
			"Ġurinal": 4326,
			"Ġchalk": 4327,
			"Ġthink": 4328,
			"figure": 4329,
			"iled": 4330,
			"ĠAmerican": 4331,
			"drawing": 4332,
			"ason": 4333,
			"Ġfirst": 4334,
			"So": 4335,
			"Ġlanding": 4336,
			"turn": 4337,
			"Che": 4338,
			"bile": 4339,
			"ific": 4340,
			"chef": 4341,
			"mushrooms": 4342,
			"Ġtrimmed": 4343,
			"Ġmarkings": 4344,
			"IND": 4345,
			"Ġcabin": 4346,
			"Ġpillars": 4347,
			"knives": 4348,
			"Ġpipes": 4349,
			"lamb": 4350,
			"Ġarch": 4351,
			"Ġcanoe": 4352,
			"notebook": 4353,
			"Ġsnowboarding": 4354,
			"Bl": 4355,
			"Flowers": 4356,
			"OL": 4357,
			"Ġpud": 4358,
			"Ġcrash": 4359,
			"Ġsmile": 4360,
			"ipment": 4361,
			"Glasses": 4362,
			"Ġlip": 4363,
			"Ġevergreen": 4364,
			"Ġhighway": 4365,
			"elf": 4366,
			"Ġberries": 4367,
			"Ste": 4368,
			"Ġwashing": 4369,
			"rum": 4370,
			"jects": 4371,
			"hills": 4372,
			"Ġhazy": 4373,
			"Ġcrane": 4374,
			"Ġform": 4375,
			"Mountain": 4376,
			"ARD": 4377,
			"Ġvegg": 4378,
			"antenna": 4379,
			"Ġfra": 4380,
			"Ġbinder": 4381,
			"Fence": 4382,
			"tables": 4383,
			"Ġpolka": 4384,
			"Ġmis": 4385,
			"Ġjeep": 4386,
			"shore": 4387,
			"orted": 4388,
			"Ġdigital": 4389,
			"She": 4390,
			"Ġblazer": 4391,
			"Ġcrouching": 4392,
			"Ġboards": 4393,
			"Ġbusy": 4394,
			"five": 4395,
			"Ġchandelier": 4396,
			"forest": 4397,
			"Ġoval": 4398,
			"Ġworker": 4399,
			"Ġhamburger": 4400,
			"bunch": 4401,
			"Ġstaring": 4402,
			"Ġatop": 4403,
			"pencil": 4404,
			"lem": 4405,
			"Ġtattoo": 4406,
			"ĠWOMAN": 4407,
			"bears": 4408,
			"Ġbill": 4409,
			"tle": 4410,
			"gings": 4411,
			"fu": 4412,
			"platter": 4413,
			"over": 4414,
			"Sun": 4415,
			"family": 4416,
			"gy": 4417,
			"Ġdressing": 4418,
			"Ġbeds": 4419,
			"sugar": 4420,
			"Ġfloors": 4421,
			"Ġvertical": 4422,
			"Ġmoss": 4423,
			"picnic": 4424,
			"oliage": 4425,
			"Ġlighting": 4426,
			"pedestrians": 4427,
			"Ġpeach": 4428,
			"Ġkept": 4429,
			"Ġroman": 4430,
			"Ġsurfboards": 4431,
			"lete": 4432,
			"Ġstory": 4433,
			"spar": 4434,
			"Pillow": 4435,
			"Ġstraps": 4436,
			"bicycles": 4437,
			"Ġang": 4438,
			"Ġnice": 4439,
			"dough": 4440,
			"SE": 4441,
			"ban": 4442,
			"Ġcotton": 4443,
			"Ġbas": 4444,
			"redded": 4445,
			"lies": 4446,
			"Ġprotective": 4447,
			"Ġsnowsuit": 4448,
			"Tail": 4449,
			"Ġpitch": 4450,
			"oped": 4451,
			"passengers": 4452,
			"bla": 4453,
			"olid": 4454,
			"double": 4455,
			"Ġmes": 4456,
			"dirty": 4457,
			"Ġtw": 4458,
			"WHITE": 4459,
			"Ġshown": 4460,
			"Ġaircraft": 4461,
			"Ġdoughnuts": 4462,
			"look": 4463,
			"Ġtraveling": 4464,
			"Ġwell": 4465,
			"Ġprop": 4466,
			"magnets": 4467,
			"high": 4468,
			"ĠBO": 4469,
			"basil": 4470,
			"Ġtarp": 4471,
			"Ġheater": 4472,
			"Ġcupcakes": 4473,
			"Baby": 4474,
			"Ġsleeves": 4475,
			"Ġholes": 4476,
			"Ġfalling": 4477,
			"Ġcucumbers": 4478,
			"Ġnumeral": 4479,
			"wristwatch": 4480,
			"Ġstopped": 4481,
			"Ġtab": 4482,
			"Ġpublic": 4483,
			"Ġblo": 4484,
			"Ġtoward": 4485,
			"Air": 4486,
			"Ġrails": 4487,
			"pow": 4488,
			"Books": 4489,
			"site": 4490,
			"Ġtshirt": 4491,
			"Ġcrashing": 4492,
			"ontal": 4493,
			"video": 4494,
			"ĠApple": 4495,
			"Ġrece": 4496,
			"Traffic": 4497,
			"view": 4498,
			"ashioned": 4499,
			"Ġ'": 4500,
			"Ġpump": 4501,
			"garage": 4502,
			"rofoam": 4503,
			"Ġhaving": 4504,
			"Ġspoons": 4505,
			"Ġshades": 4506,
			"corner": 4507,
			"Ġcam": 4508,
			"intage": 4509,
			"Ġroses": 4510,
			"cal": 4511,
			"althy": 4512,
			"stickers": 4513,
			"Ġequipment": 4514,
			"ĠSK": 4515,
			"Ġbank": 4516,
			"Ġcontrols": 4517,
			"oof": 4518,
			"shrimp": 4519,
			"cookies": 4520,
			"Ġnuts": 4521,
			"gon": 4522,
			"cowboy": 4523,
			"Ġplank": 4524,
			"staircase": 4525,
			"Mirror": 4526,
			"tility": 4527,
			"Ġsleeveless": 4528,
			"inn": 4529,
			"Ġtissues": 4530,
			"Ġmotion": 4531,
			"UN": 4532,
			"mini": 4533,
			"lator": 4534,
			"Pair": 4535,
			"Ġcrown": 4536,
			"toast": 4537,
			"hu": 4538,
			"Ġantique": 4539,
			"Ġsomeone": 4540,
			"Ġbaking": 4541,
			"Ġhangs": 4542,
			"gundy": 4543,
			"Ġtrying": 4544,
			"pumpkin": 4545,
			"Ġtube": 4546,
			"Ġgrilled": 4547,
			"made": 4548,
			"hedge": 4549,
			"Ġrings": 4550,
			"Ġpajamas": 4551,
			"Ġcrumbs": 4552,
			"Cup": 4553,
			"rew": 4554,
			"Ġbuilt": 4555,
			"Ġpuffy": 4556,
			"por": 4557,
			"Ġwhe": 4558,
			"toddler": 4559,
			"Ġpickup": 4560,
			"VE": 4561,
			"Ġapartment": 4562,
			"Ġbaskets": 4563,
			"Paper": 4564,
			"cho": 4565,
			"iscu": 4566,
			"muff": 4567,
			"Ġstars": 4568,
			"Ġsports": 4569,
			"Ġsuitcases": 4570,
			"ging": 4571,
			"Toilet": 4572,
			"Ġbutterfly": 4573,
			"enches": 4574,
			"Stri": 4575,
			"ners": 4576,
			"Ġcra": 4577,
			"Ġdome": 4578,
			"Ġcargo": 4579,
			"Ġmantle": 4580,
			"Ġcharacter": 4581,
			"Ġvegetation": 4582,
			"Ġmagazines": 4583,
			"Ġgranite": 4584,
			"tongs": 4585,
			"Ġeyeb": 4586,
			"Ġripples": 4587,
			"Ve": 4588,
			"Ġbatting": 4589,
			"Ġnike": 4590,
			"Number": 4591,
			"entle": 4592,
			"Tru": 4593,
			"Ġlampshade": 4594,
			"avocado": 4595,
			"Ġlemons": 4596,
			"Bear": 4597,
			"blonde": 4598,
			"Ġstump": 4599,
			"paws": 4600,
			"Ġpickles": 4601,
			"foil": 4602,
			"Electric": 4603,
			"cting": 4604,
			"Ġpans": 4605,
			"Ġopening": 4606,
			"Ġornate": 4607,
			"Ġcooker": 4608,
			"Ġmonkey": 4609,
			"Ġpuddle": 4610,
			"mar": 4611,
			"ropes": 4612,
			"Ġmodern": 4613,
			"dogs": 4614,
			"pillar": 4615,
			"tri": 4616,
			"ments": 4617,
			"Ġseagull": 4618,
			"Ġforks": 4619,
			"Ġpointed": 4620,
			"Ġmirrors": 4621,
			"itary": 4622,
			"ident": 4623,
			"Ġroadway": 4624,
			"Ġornament": 4625,
			"Ġnumerals": 4626,
			"Ġlar": 4627,
			"Ġwhole": 4628,
			"Ġcharger": 4629,
			"curved": 4630,
			"Ġjackets": 4631,
			"do": 4632,
			"Where": 4633,
			"advertis": 4634,
			"Ġstuff": 4635,
			"Ġtusks": 4636,
			"yl": 4637,
			"allen": 4638,
			"station": 4639,
			"IGHT": 4640,
			"Ġilluminated": 4641,
			"cables": 4642,
			"sculpture": 4643,
			"cauliflower": 4644,
			"Ġwallet": 4645,
			"Ġlevel": 4646,
			"lime": 4647,
			"Ġsep": 4648,
			"Ġberry": 4649,
			"ST": 4650,
			"ates": 4651,
			"Ġblade": 4652,
			"nail": 4653,
			"Ġmixed": 4654,
			"Ġstill": 4655,
			"cement": 4656,
			"Patch": 4657,
			"ns": 4658,
			"Ġjars": 4659,
			"Bunch": 4660,
			"cans": 4661,
			"Ġtractor": 4662,
			"Ġaudience": 4663,
			"polo": 4664,
			"wallpaper": 4665,
			"ma": 4666,
			"Ġsliding": 4667,
			"ix": 4668,
			"ĠCAR": 4669,
			"Ġshelter": 4670,
			"electrical": 4671,
			"Ġbarrel": 4672,
			"bandana": 4673,
			"Ġtunnel": 4674,
			"ĠTO": 4675,
			"ely": 4676,
			"Ġroo": 4677,
			"Multi": 4678,
			"artment": 4679,
			"Cu": 4680,
			"ctangular": 4681,
			"jet": 4682,
			"produce": 4683,
			"formation": 4684,
			"Ġblueberry": 4685,
			"ĠĠĠĠĠĠĠĠ": 4686,
			"Ġbushy": 4687,
			"Nose": 4688,
			"moss": 4689,
			"clu": 4690,
			"RI": 4691,
			"Ġcovers": 4692,
			"ĠBROWN": 4693,
			"crumbs": 4694,
			"tip": 4695,
			"oles": 4696,
			"hau": 4697,
			"Ġcycle": 4698,
			"benches": 4699,
			"Ne": 4700,
			"photog": 4701,
			"crack": 4702,
			"Ġmesh": 4703,
			"Ġtrashcan": 4704,
			"Ġburnt": 4705,
			"closet": 4706,
			"tiny": 4707,
			"another": 4708,
			"radio": 4709,
			"stud": 4710,
			"twig": 4711,
			"Ġswimsuit": 4712,
			"pea": 4713,
			"Ġlogs": 4714,
			"safety": 4715,
			"sparagus": 4716,
			"mpled": 4717,
			"Ġperform": 4718,
			"haust": 4719,
			"Ġminivan": 4720,
			"Ġdraped": 4721,
			"conut": 4722,
			"Ġipod": 4723,
			"Ski": 4724,
			"locom": 4725,
			"locomotive": 4726,
			"Ġsupporting": 4727,
			"cage": 4728,
			"Ġcub": 4729,
			"golden": 4730,
			"Ġcupboards": 4731,
			"Ġswan": 4732,
			"Ġba": 4733,
			"ELLOW": 4734,
			"No": 4735,
			"ural": 4736,
			"binder": 4737,
			"His": 4738,
			"Ġobjects": 4739,
			"Ġwavy": 4740,
			"Ġboarding": 4741,
			"Ġtrays": 4742,
			"dges": 4743,
			"Ġseed": 4744,
			"LASS": 4745,
			"Ġgoal": 4746,
			"Ġslat": 4747,
			"ppo": 4748,
			"opper": 4749,
			"Ad": 4750,
			"Ġmulticolored": 4751,
			"wings": 4752,
			"headlight": 4753,
			"Fork": 4754,
			"magazines": 4755,
			"Ġrectangle": 4756,
			"din": 4757,
			"Ġfarm": 4758,
			"Ġrainbow": 4759,
			"Ġsubway": 4760,
			"Ġasparagus": 4761,
			"Ġframes": 4762,
			"Ġmannequin": 4763,
			"Ġdried": 4764,
			"Ġfoliage": 4765,
			"Ġhim": 4766,
			"Ġoct": 4767,
			"ĠBACK": 4768,
			"Ar": 4769,
			"Ġsmaller": 4770,
			"phic": 4771,
			"Ġalongside": 4772,
			"Ġtake": 4773,
			"Ġpus": 4774,
			"Coffee": 4775,
			"Ġhairy": 4776,
			"Ġcyclist": 4777,
			"Ġfashioned": 4778,
			"ilitary": 4779,
			"ship": 4780,
			"speakers": 4781,
			"Ġutility": 4782,
			"chandelier": 4783,
			"ipod": 4784,
			"Ġplush": 4785,
			"cyclist": 4786,
			"UR": 4787,
			"Ġslightly": 4788,
			"city": 4789,
			"apler": 4790,
			"Ġgrate": 4791,
			"ĠNike": 4792,
			"Ġshadows": 4793,
			"Ġsponge": 4794,
			"ripples": 4795,
			"Ri": 4796,
			"hol": 4797,
			"sn": 4798,
			"Beige": 4799,
			"Ġsus": 4800,
			"blueberry": 4801,
			"Eye": 4802,
			"Ġstage": 4803,
			"Ġknees": 4804,
			"Ġpetal": 4805,
			"ĠLE": 4806,
			"rines": 4807,
			"ution": 4808,
			"Ġwear": 4809,
			"lee": 4810,
			"whi": 4811,
			"Ġboarder": 4812,
			"Ġtriangular": 4813,
			"weed": 4814,
			"Ġweather": 4815,
			"Ġteal": 4816,
			"Ġwipers": 4817,
			"ngth": 4818,
			"VER": 4819,
			"Ġwiper": 4820,
			"Ġtriangle": 4821,
			"Player": 4822,
			"minal": 4823,
			"trunks": 4824,
			"Ġcleats": 4825,
			"Ġbarefoot": 4826,
			"ĠHE": 4827,
			"Hot": 4828,
			"Buildings": 4829,
			"ĠTRA": 4830,
			"hard": 4831,
			"ountry": 4832,
			"Ġbeam": 4833,
			"Ġmake": 4834,
			"ĠLA": 4835,
			"french": 4836,
			"bro": 4837,
			"Ġbagel": 4838,
			"ls": 4839,
			"IDE": 4840,
			"Ġharness": 4841,
			"Ġsprink": 4842,
			"snowsuit": 4843,
			"map": 4844,
			"ĠCH": 4845,
			"Ġfake": 4846,
			"balls": 4847,
			"ĠChristmas": 4848,
			"ob": 4849,
			"Wine": 4850,
			"cones": 4851,
			"Ġyogurt": 4852,
			"Ġass": 4853,
			"ĠGREEN": 4854,
			"Ġsystem": 4855,
			"arning": 4856,
			"Ġfive": 4857,
			"Ġsweet": 4858,
			"Short": 4859,
			"Ġjug": 4860,
			"Ġemblem": 4861,
			"AP": 4862,
			"Put": 4863,
			"ineapples": 4864,
			"Motorcycle": 4865,
			"steering": 4866,
			"wagon": 4867,
			"UT": 4868,
			"Ġwaste": 4869,
			"Ġcliff": 4870,
			"Ġsteak": 4871,
			"Ġasian": 4872,
			"Ġchopsticks": 4873,
			"Ġreg": 4874,
			"Ġwireless": 4875,
			"ttered": 4876,
			"TV": 4877,
			"base": 4878,
			"dining": 4879,
			"wool": 4880,
			"ipt": 4881,
			"entleman": 4882,
			"office": 4883,
			"Ġshin": 4884,
			"Ġpeas": 4885,
			"Ġpushed": 4886,
			"Ġcolla": 4887,
			"marker": 4888,
			"Ġfeeder": 4889,
			"prints": 4890,
			"Ġvanity": 4891,
			"cohol": 4892,
			"circular": 4893,
			"Stack": 4894,
			"aff": 4895,
			"gerine": 4896,
			"Ġcoke": 4897,
			"Ġposition": 4898,
			"Sc": 4899,
			"vid": 4900,
			"Ġ6": 4901,
			"pillars": 4902,
			"Men": 4903,
			"mercial": 4904,
			"Ġperched": 4905,
			"ghted": 4906,
			"Ġcrates": 4907,
			"Ġbriefcase": 4908,
			"my": 4909,
			"Ġstir": 4910,
			"ette": 4911,
			"armchair": 4912,
			"allow": 4913,
			"shopping": 4914,
			"Ġmay": 4915,
			"Colorful": 4916,
			"KE": 4917,
			"ished": 4918,
			"skater": 4919,
			"ERSON": 4920,
			"waist": 4921,
			"Ġaf": 4922,
			"amon": 4923,
			"Ġzipper": 4924,
			"Clo": 4925,
			"pastries": 4926,
			"Ġcrouched": 4927,
			"Bag": 4928,
			"Ġdrape": 4929,
			"slices": 4930,
			"acle": 4931,
			"Sheep": 4932,
			"Ġloung": 4933,
			"ĠGIR": 4934,
			"scape": 4935,
			"police": 4936,
			"blind": 4937,
			"Ġjust": 4938,
			"inese": 4939,
			"pieces": 4940,
			"drinks": 4941,
			"olk": 4942,
			"Ġves": 4943,
			"Ġhing": 4944,
			"Box": 4945,
			"Ġpickle": 4946,
			"Ġwrinkled": 4947,
			"Con": 4948,
			"FF": 4949,
			"Ear": 4950,
			"Ġjockey": 4951,
			"TING": 4952,
			"that": 4953,
			"Ġnew": 4954,
			"anut": 4955,
			"lots": 4956,
			"Ġconstruction": 4957,
			"Ġpanels": 4958,
			"polar": 4959,
			"Ġdocked": 4960,
			"Ġstall": 4961,
			"pipes": 4962,
			"Ġhooves": 4963,
			"ilted": 4964,
			"zzle": 4965,
			"Ġsteep": 4966,
			"Ġrounded": 4967,
			"Ġgarnish": 4968,
			"Ġblueberries": 4969,
			"attered": 4970,
			"ĠAsian": 4971,
			"Ġent": 4972,
			"mixer": 4973,
			"aur": 4974,
			"hir": 4975,
			"Ġcompany": 4976,
			"br": 4977,
			"IGN": 4978,
			"iff": 4979,
			"ino": 4980,
			"Ġcd": 4981,
			"decorations": 4982,
			"Ġmuddy": 4983,
			"AIN": 4984,
			"Ġhind": 4985,
			"roman": 4986,
			"Ġmissing": 4987,
			"calf": 4988,
			"Ġgat": 4989,
			"sandwiches": 4990,
			"Ġvarious": 4991,
			"ia": 4992,
			"agne": 4993,
			"Ġmonitors": 4994,
			"Bottom": 4995,
			"Ġwarm": 4996,
			"Ġdivi": 4997,
			"ampagne": 4998,
			"Ġhealthy": 4999,
			"Ġow": 5000,
			"Guy": 5001,
			"Ġdisc": 5002,
			"Ġbrass": 5003,
			"stomers": 5004,
			"Ġmarking": 5005,
			"Sm": 5006,
			"Ġsyrup": 5007,
			"Ġgravy": 5008,
			"ional": 5009,
			"package": 5010,
			"Ġdonkey": 5011,
			"Ġcondim": 5012,
			"Ġgrain": 5013,
			"ions": 5014,
			"Catcher": 5015,
			"Ġ7": 5016,
			"Ġcoach": 5017,
			"ĠPLATE": 5018,
			"Brick": 5019,
			"lance": 5020,
			"tin": 5021,
			"igh": 5022,
			"hillside": 5023,
			"Ġadvertising": 5024,
			"bars": 5025,
			"Ġmailbox": 5026,
			"Ġfat": 5027,
			"Ġflight": 5028,
			"lection": 5029,
			"cd": 5030,
			"Ġstream": 5031,
			"Ġpockets": 5032,
			"Bat": 5033,
			"culator": 5034,
			"peted": 5035,
			"uring": 5036,
			"Ġkiwi": 5037,
			"Ġbooth": 5038,
			"Ġclip": 5039,
			"dies": 5040,
			"Des": 5041,
			"Ġbolt": 5042,
			"Ġballoons": 5043,
			"Ġlength": 5044,
			"ĠRO": 5045,
			"Ġserved": 5046,
			"tablet": 5047,
			"bi": 5048,
			"cucumbers": 5049,
			"Ġfuzzy": 5050,
			"Bowl": 5051,
			"Ġgiant": 5052,
			"Ġherbs": 5053,
			"Ġsepar": 5054,
			"Ġaqu": 5055,
			"Fire": 5056,
			"Ġsuspen": 5057,
			"Ġsplash": 5058,
			"rong": 5059,
			"Ġshot": 5060,
			"caroni": 5061,
			"Ġpowdered": 5062,
			"hallway": 5063,
			"Ġshirtless": 5064,
			"Ġmessy": 5065,
			"barn": 5066,
			"Ġfin": 5067,
			"Ġclass": 5068,
			"Ġsquatting": 5069,
			"Ġheads": 5070,
			"Ġparsley": 5071,
			"steam": 5072,
			"sunlight": 5073,
			"den": 5074,
			"muffin": 5075,
			"flu": 5076,
			"Ġgre": 5077,
			"Ġsharp": 5078,
			"Ġflowered": 5079,
			"Ġfans": 5080,
			"dugout": 5081,
			"ilot": 5082,
			"Ġairplanes": 5083,
			"toys": 5084,
			"Ġstems": 5085,
			"Ġbuoy": 5086,
			"Ġfancy": 5087,
			"Ġcountry": 5088,
			"Ġpatches": 5089,
			"Ġshield": 5090,
			"Ġbru": 5091,
			"ĠWA": 5092,
			"Ġskillet": 5093,
			"mud": 5094,
			"cess": 5095,
			"costume": 5096,
			"Ġbackwards": 5097,
			"blurry": 5098,
			"iscuit": 5099,
			"Ġdist": 5100,
			"pud": 5101,
			"Ġgraphic": 5102,
			"sers": 5103,
			"bouquet": 5104,
			"Ġchristmas": 5105,
			"seeds": 5106,
			"Place": 5107,
			"spy": 5108,
			"Ġbracelets": 5109,
			"Ġsack": 5110,
			"pear": 5111,
			"lake": 5112,
			"Decor": 5113,
			"ets": 5114,
			"Ġmultiple": 5115,
			"Clouds": 5116,
			"Leaves": 5117,
			"paragus": 5118,
			"Ġgoats": 5119,
			"Ġrefri": 5120,
			"Mo": 5121,
			"Ġgarlic": 5122,
			"Key": 5123,
			"asparagus": 5124,
			"arium": 5125,
			"serving": 5126,
			"jector": 5127,
			"Ġprice": 5128,
			"Ġspo": 5129,
			"Ġspeck": 5130,
			"ola": 5131,
			"Five": 5132,
			"bulance": 5133,
			"fresh": 5134,
			"sailboat": 5135,
			"Ġmozzarella": 5136,
			"ek": 5137,
			"Ġrace": 5138,
			"ĠBE": 5139,
			"Ġtoothpaste": 5140,
			"closed": 5141,
			"Ġglowing": 5142,
			"device": 5143,
			"VD": 5144,
			"yond": 5145,
			"Ġhal": 5146,
			"Ġwaving": 5147,
			"Ġpeel": 5148,
			"00": 5149,
			"Ġwoven": 5150,
			"akers": 5151,
			"icho": 5152,
			"melted": 5153,
			"cus": 5154,
			"Ġbeyond": 5155,
			"Ġscattered": 5156,
			"Ġmus": 5157,
			"Ġstained": 5158,
			"Park": 5159,
			"Ġcushions": 5160,
			"Ġhorizontal": 5161,
			"osaur": 5162,
			"Ġmin": 5163,
			"dead": 5164,
			"Ġgoose": 5165,
			"act": 5166,
			"mplo": 5167,
			"lamps": 5168,
			"derly": 5169,
			"bre": 5170,
			"Ġtrouser": 5171,
			"Ġtrousers": 5172,
			"Ġvintage": 5173,
			"crane": 5174,
			"drape": 5175,
			"rolley": 5176,
			"guin": 5177,
			"Cheese": 5178,
			"KING": 5179,
			"mploye": 5180,
			"Animal": 5181,
			"Ġshrubs": 5182,
			"hanging": 5183,
			"they": 5184,
			"seagull": 5185,
			"Ġtinted": 5186,
			"alarm": 5187,
			"pattern": 5188,
			"ĠWOOD": 5189,
			"WO": 5190,
			"Ġperforming": 5191,
			"Ġrough": 5192,
			"Ġheavy": 5193,
			"ampoo": 5194,
			"Ġshrub": 5195,
			"Ġroadside": 5196,
			"appliance": 5197,
			"someone": 5198,
			"tti": 5199,
			"lli": 5200,
			"atches": 5201,
			"Ġrailway": 5202,
			"Ġbasin": 5203,
			"oop": 5204,
			"Ġrou": 5205,
			"stal": 5206,
			"Pot": 5207,
			"Row": 5208,
			"run": 5209,
			"Ġsocket": 5210,
			"peas": 5211,
			"cooking": 5212,
			"Ġchunk": 5213,
			"Knife": 5214,
			"Floor": 5215,
			"Ġcarpeted": 5216,
			"Rocks": 5217,
			"Wire": 5218,
			"lanted": 5219,
			"Ġbedside": 5220,
			"worker": 5221,
			"Dou": 5222,
			"gla": 5223,
			"calm": 5224,
			"buoy": 5225,
			"Ġtags": 5226,
			"Ġrasp": 5227,
			"Ġmilitary": 5228,
			"canoe": 5229,
			"iner": 5230,
			"pickles": 5231,
			"Ġlion": 5232,
			"wallet": 5233,
			"scent": 5234,
			"Ġpancake": 5235,
			"lemons": 5236,
			"Ġturkey": 5237,
			"Ġmodel": 5238,
			"Ġdrop": 5239,
			"Section": 5240,
			"Ġmousepad": 5241,
			"mannequin": 5242,
			"Ġskyscraper": 5243,
			"Ġnut": 5244,
			"oise": 5245,
			"wave": 5246,
			"puppy": 5247,
			"ains": 5248,
			"Ġstrings": 5249,
			"Ġfloppy": 5250,
			"Ġpretty": 5251,
			"Ġmelon": 5252,
			"Ġbrake": 5253,
			"ual": 5254,
			"floral": 5255,
			"Ġride": 5256,
			"Cell": 5257,
			"ctus": 5258,
			"Ġforehead": 5259,
			"Ġpop": 5260,
			"Mountains": 5261,
			"Ġreads": 5262,
			"BLACK": 5263,
			"Ġsmo": 5264,
			"Ġstock": 5265,
			"ways": 5266,
			"ripe": 5267,
			"eng": 5268,
			"INK": 5269,
			"Ġfallen": 5270,
			"Ġstripped": 5271,
			"Ġenvelope": 5272,
			"lette": 5273,
			"puddle": 5274,
			"Ġfacial": 5275,
			"innamon": 5276,
			"Ġterminal": 5277,
			"Ġdesigned": 5278,
			"blazer": 5279,
			"mbing": 5280,
			"controllers": 5281,
			"Ġvine": 5282,
			"Ġbelly": 5283,
			"tretched": 5284,
			"Ġlighthouse": 5285,
			"Ġdvd": 5286,
			"ĠSIGN": 5287,
			"hird": 5288,
			"Ġinformation": 5289,
			"Bed": 5290,
			"Ġladies": 5291,
			"Ġstyrofoam": 5292,
			"Ġlarger": 5293,
			"rushes": 5294,
			"ĠLO": 5295,
			"Ġmon": 5296,
			"THAT": 5297,
			"Ġveggies": 5298,
			"Sunglasses": 5299,
			"Ġcold": 5300,
			"Ġhoney": 5301,
			"cupcakes": 5302,
			"Ġsnout": 5303,
			"Ġblocks": 5304,
			"Ġlane": 5305,
			"fans": 5306,
			"Ġpancakes": 5307,
			"Ġcollared": 5308,
			"AM": 5309,
			"mound": 5310,
			"Ġmobile": 5311,
			"Ġsha": 5312,
			"Ġalone": 5313,
			"cove": 5314,
			"Ġsets": 5315,
			"Ġshredded": 5316,
			"mployee": 5317,
			"multiple": 5318,
			"Pain": 5319,
			"pictures": 5320,
			"anta": 5321,
			"railing": 5322,
			"Ġbrushing": 5323,
			"Ġtrans": 5324,
			"urky": 5325,
			"peach": 5326,
			"Ġbillboard": 5327,
			"Ġlandscape": 5328,
			"Ġdrum": 5329,
			"Ġelev": 5330,
			"Ġedges": 5331,
			"Towel": 5332,
			"island": 5333,
			"Ġident": 5334,
			"gging": 5335,
			"Ġwrap": 5336,
			"Ġbeanie": 5337,
			"Ġparty": 5338,
			"Ġmotorc": 5339,
			"Ġcommercial": 5340,
			"Ġflour": 5341,
			"mboo": 5342,
			"mple": 5343,
			"REE": 5344,
			"American": 5345,
			"va": 5346,
			"Ġslats": 5347,
			"Ġparrot": 5348,
			"Half": 5349,
			"mbled": 5350,
			"Ġblowing": 5351,
			"intersection": 5352,
			"Ġtents": 5353,
			"lawn": 5354,
			"elly": 5355,
			"gran": 5356,
			"lurred": 5357,
			"alend": 5358,
			"Ġrecl": 5359,
			"ornament": 5360,
			"acters": 5361,
			"Pe": 5362,
			"Ġundershirt": 5363,
			"sest": 5364,
			"Ġwhipped": 5365,
			"strich": 5366,
			"Ġonly": 5367,
			"Ġleggings": 5368,
			"jars": 5369,
			"beautiful": 5370,
			"Ġloc": 5371,
			"pos": 5372,
			"aged": 5373,
			"Ġblankets": 5374,
			"Ġbeads": 5375,
			"Ġmain": 5376,
			"Ġstalk": 5377,
			"Broccoli": 5378,
			"looking": 5379,
			"heater": 5380,
			"ug": 5381,
			"rectangular": 5382,
			"Ġcane": 5383,
			"minivan": 5384,
			"piano": 5385,
			"Ġsuits": 5386,
			"Ġburgundy": 5387,
			"buses": 5388,
			"inten": 5389,
			"Ġbulbs": 5390,
			"dump": 5391,
			"Ġcakes": 5392,
			"Skier": 5393,
			"Ġquilt": 5394,
			"ashed": 5395,
			"cent": 5396,
			"shel": 5397,
			"Ġcaps": 5398,
			"Ġparas": 5399,
			"Ġsed": 5400,
			"poin": 5401,
			"seed": 5402,
			"Ġval": 5403,
			"alendar": 5404,
			"Ġsport": 5405,
			"ugh": 5406,
			"'t": 5407,
			"Ġdumpster": 5408,
			"Ġcroissant": 5409,
			"character": 5410,
			"mozzarella": 5411,
			"ending": 5412,
			"dvds": 5413,
			"intendo": 5414,
			"Ġindicating": 5415,
			"Ġtransparent": 5416,
			"Ġtabby": 5417,
			"Ġfences": 5418,
			"Ġtor": 5419,
			"Ġuse": 5420,
			"swan": 5421,
			"Ġcaution": 5422,
			"Edge": 5423,
			"Ġdvds": 5424,
			"Ġsunlight": 5425,
			"tur": 5426,
			"Ġhooded": 5427,
			"arts": 5428,
			"porch": 5429,
			"icy": 5430,
			"Trash": 5431,
			"patio": 5432,
			"Ġbit": 5433,
			"Ġfaded": 5434,
			"telope": 5435,
			"ĠWALL": 5436,
			"Ġsandw": 5437,
			"Ġdotted": 5438,
			"nch": 5439,
			"ckle": 5440,
			"Ġtrolley": 5441,
			"quoise": 5442,
			"Ġoppo": 5443,
			"Ġshakers": 5444,
			"Ġgreens": 5445,
			"Ġcloths": 5446,
			"Ġdesert": 5447,
			"Ġturning": 5448,
			"Ġtown": 5449,
			"Ġnotes": 5450,
			"ronze": 5451,
			"swimsuit": 5452,
			"Squ": 5453,
			"cigarette": 5454,
			"father": 5455,
			"gi": 5456,
			"Umpire": 5457,
			"Sandwich": 5458,
			"Ġseason": 5459,
			"blueberries": 5460,
			"son": 5461,
			"rought": 5462,
			"Stainless": 5463,
			"Ġpackets": 5464,
			"Ġscrew": 5465,
			"Ġdriveway": 5466,
			"Ġbuns": 5467,
			"Kite": 5468,
			"eta": 5469,
			"Hat": 5470,
			"restaurant": 5471,
			"Ġarran": 5472,
			"ĠTI": 5473,
			"Ġsix": 5474,
			"oil": 5475,
			"Ġmoped": 5476,
			"Ġoutstretched": 5477,
			"Ġlocated": 5478,
			"Bicycle": 5479,
			"Ġtight": 5480,
			"Ġ8": 5481,
			"Ġank": 5482,
			"spray": 5483,
			"PE": 5484,
			"Ġtort": 5485,
			"Ġevent": 5486,
			"elbow": 5487,
			"packet": 5488,
			"Ġsedan": 5489,
			"Ġstools": 5490,
			"bbit": 5491,
			"ĠYELLOW": 5492,
			"sent": 5493,
			"Ġzucchini": 5494,
			"mailbox": 5495,
			"Ġmedium": 5496,
			"sack": 5497,
			"jockey": 5498,
			"Boat": 5499,
			"iced": 5500,
			"dgerator": 5501,
			"Ġsquares": 5502,
			"gle": 5503,
			"Ġloaf": 5504,
			"Ġwaters": 5505,
			"spl": 5506,
			"Ġfenced": 5507,
			"Ġget": 5508,
			"dvd": 5509,
			"Ġhour": 5510,
			"Ex": 5511,
			"six": 5512,
			"ĠPI": 5513,
			"Ġbroom": 5514,
			"Ġchinese": 5515,
			"estal": 5516,
			"Ġwash": 5517,
			"headlights": 5518,
			"bikini": 5519,
			"Ġglaze": 5520,
			"Ġfol": 5521,
			"iddle": 5522,
			"Un": 5523,
			"kiwi": 5524,
			"Ġsoldier": 5525,
			"folded": 5526,
			"mattress": 5527,
			"colli": 5528,
			"kitten": 5529,
			"Ġpig": 5530,
			"Ġexhaust": 5531,
			"Ġducks": 5532,
			"toon": 5533,
			"jeep": 5534,
			"Ġlaugh": 5535,
			"cessed": 5536,
			"chopsticks": 5537,
			"Ġwi": 5538,
			"Sho": 5539,
			"omes": 5540,
			"Ġrackets": 5541,
			"press": 5542,
			"tou": 5543,
			"eathered": 5544,
			"BOARD": 5545,
			"Very": 5546,
			"gan": 5547,
			"Ġsnack": 5548,
			"Ġpeak": 5549,
			"Tomato": 5550,
			"reline": 5551,
			"Ġstudent": 5552,
			"Ġcluttered": 5553,
			"Ġcafe": 5554,
			"Blonde": 5555,
			"pajamas": 5556,
			"dome": 5557,
			"parked": 5558,
			"herd": 5559,
			"painted": 5560,
			"Ġ9": 5561,
			"hats": 5562,
			"INDOW": 5563,
			"ral": 5564,
			"Ġpetting": 5565,
			"iosk": 5566,
			"Power": 5567,
			"ined": 5568,
			"Kitchen": 5569,
			"icine": 5570,
			"Ġlay": 5571,
			"Ġshutters": 5572,
			"buttons": 5573,
			"audience": 5574,
			"Ġcasting": 5575,
			"chrome": 5576,
			"butterfly": 5577,
			"spoons": 5578,
			"advertisement": 5579,
			"ĠGLASS": 5580,
			"Her": 5581,
			"logs": 5582,
			"church": 5583,
			"Ġafter": 5584,
			"It": 5585,
			"Ġglobe": 5586,
			"ĠDOG": 5587,
			"Ġrust": 5588,
			"Ġrimmed": 5589,
			"Rail": 5590,
			"engine": 5591,
			"laces": 5592,
			"Ġdistant": 5593,
			"Ġbad": 5594,
			"full": 5595,
			"powdered": 5596,
			"idas": 5597,
			"bagel": 5598,
			"RAS": 5599,
			"nette": 5600,
			"Foot": 5601,
			"Ġgroom": 5602,
			"Ġmurky": 5603,
			"affolding": 5604,
			"Apple": 5605,
			"ĠBUS": 5606,
			"Ġarranged": 5607,
			"ACKET": 5608,
			"Ġchecked": 5609,
			"Ġgun": 5610,
			"Rear": 5611,
			"Ġteapot": 5612,
			"pancake": 5613,
			"ĠGIRL": 5614,
			"Ġhinge": 5615,
			"Ġopposite": 5616,
			"Ġrolls": 5617,
			"icle": 5618,
			"TWO": 5619,
			"ĠRE": 5620,
			"Thick": 5621,
			"Cake": 5622,
			"control": 5623,
			"Concrete": 5624,
			"Ġelderly": 5625,
			"rystal": 5626,
			"asian": 5627,
			"Thin": 5628,
			"portion": 5629,
			"Ġpears": 5630,
			"Ġgown": 5631,
			"parsley": 5632,
			"Fruit": 5633,
			"wide": 5634,
			"illing": 5635,
			"playing": 5636,
			"Ġropes": 5637,
			"Ġstre": 5638,
			"Ġcoats": 5639,
			"Ġpou": 5640,
			"fountain": 5641,
			"Ġsinks": 5642,
			"Ġpreser": 5643,
			"Cont": 5644,
			"Ġsemi": 5645,
			"Ġlaughing": 5646,
			"string": 5647,
			"Television": 5648,
			"beef": 5649,
			"Phone": 5650,
			"Decorative": 5651,
			"ariety": 5652,
			"ĠHOL": 5653,
			"Ġinterior": 5654,
			"Ġuniforms": 5655,
			"Ġthings": 5656,
			"isy": 5657,
			"guys": 5658,
			"Ġgathered": 5659,
			"Hel": 5660,
			"Ġbunny": 5661,
			"Ġspeed": 5662,
			"ART": 5663,
			"Ġbalding": 5664,
			"redi": 5665,
			"ĠPERSON": 5666,
			"Ġrusted": 5667,
			"Ġes": 5668,
			"Ġskateboards": 5669,
			"Ġcoaster": 5670,
			"Let": 5671,
			"ASE": 5672,
			"arment": 5673,
			"bleachers": 5674,
			"Ġclosest": 5675,
			"Ġprocess": 5676,
			"Ġamong": 5677,
			"Ġwheelchair": 5678,
			"ooked": 5679,
			"Ġweb": 5680,
			"xing": 5681,
			"Ġbelong": 5682,
			"GROUND": 5683,
			"Square": 5684,
			"rais": 5685,
			"stripes": 5686,
			"Ġcards": 5687,
			"ĠCD": 5688,
			"mingo": 5689,
			"Batter": 5690,
			"ĠBU": 5691,
			"Ġrefridgerator": 5692,
			"Ġneat": 5693,
			"zel": 5694,
			"Teddy": 5695,
			"Ġsandwhich": 5696,
			"Ġbark": 5697,
			"Ġnecktie": 5698,
			"Ġkeep": 5699,
			"Ġfris": 5700,
			"Ġcustomer": 5701,
			"Ġcomb": 5702,
			"Ġgift": 5703,
			"Ġpedestal": 5704,
			"Ġbraid": 5705,
			"Ġbite": 5706,
			"Ġalcohol": 5707,
			"Ġpanes": 5708,
			"Ġnostri": 5709,
			"Ġharbor": 5710,
			"Ġpowder": 5711,
			"phol": 5712,
			"opter": 5713,
			"Ġraw": 5714,
			"zen": 5715,
			"Umb": 5716,
			"Ġfun": 5717,
			"ori": 5718,
			"Ġshallow": 5719,
			"Ġchili": 5720,
			"Ġexit": 5721,
			"Ġregister": 5722,
			"Ġcarried": 5723,
			"Pole": 5724,
			"Ġyolk": 5725,
			"ĠCHAIR": 5726,
			"Ġpassing": 5727,
			"adult": 5728,
			"Home": 5729,
			"Wheel": 5730,
			"MB": 5731,
			"Ġdep": 5732,
			"soft": 5733,
			"cabin": 5734,
			"ĠPAIR": 5735,
			"vases": 5736,
			"roses": 5737,
			"Ġshoulders": 5738,
			"Bench": 5739,
			"Ġlounge": 5740,
			"Ġaut": 5741,
			"herbs": 5742,
			"pre": 5743,
			"Ġprodu": 5744,
			"Ġpropped": 5745,
			"Ġcastle": 5746,
			"Ġfixtures": 5747,
			"strument": 5748,
			"ĠSIDE": 5749,
			"ancing": 5750,
			"xed": 5751,
			"Ġdeer": 5752,
			"grassy": 5753,
			"Ġsmart": 5754,
			"iral": 5755,
			"Ġposted": 5756,
			"atelli": 5757,
			"Ġgro": 5758,
			"stars": 5759,
			"covered": 5760,
			"ict": 5761,
			"ggy": 5762,
			"Ġchains": 5763,
			"Ġtricks": 5764,
			"atellite": 5765,
			"Ġhid": 5766,
			"Basket": 5767,
			"Pile": 5768,
			"Ġcatchers": 5769,
			"posable": 5770,
			"Bread": 5771,
			"hou": 5772,
			"icopter": 5773,
			"aped": 5774,
			"ĠHAND": 5775,
			"ffle": 5776,
			"Ġgrown": 5777,
			"Ġsecu": 5778,
			"Ground": 5779,
			"skyscraper": 5780,
			"pans": 5781,
			"agonal": 5782,
			"lish": 5783,
			"Ġboulder": 5784,
			"Ġhandled": 5785,
			"Ġtoo": 5786,
			"coach": 5787,
			"Road": 5788,
			"garnish": 5789,
			"photographer": 5790,
			"TU": 5791,
			"Ġupright": 5792,
			"vory": 5793,
			"Ġhedges": 5794,
			"tu": 5795,
			"Ġracing": 5796,
			"Electrical": 5797,
			"fluffy": 5798,
			"Rock": 5799,
			"PU": 5800,
			"cats": 5801,
			"Ġnails": 5802,
			"EE": 5803,
			"mach": 5804,
			"Wheels": 5805,
			"oodle": 5806,
			"ĠDVD": 5807,
			"cked": 5808,
			"Ġalmost": 5809,
			"ingredi": 5810,
			"rical": 5811,
			"Ġbats": 5812,
			"ification": 5813,
			"ĠCLO": 5814,
			"splash": 5815,
			"Ġcamp": 5816,
			"Stuffed": 5817,
			"Ġpencils": 5818,
			"Snowboard": 5819,
			"Ġheels": 5820,
			"Ġchampagne": 5821,
			"Ġappear": 5822,
			"Ġaction": 5823,
			"Ġrela": 5824,
			"tents": 5825,
			"shelter": 5826,
			"envelope": 5827,
			"rubber": 5828,
			"Ġbasketball": 5829,
			"Ġgrouped": 5830,
			"Curtain": 5831,
			"rity": 5832,
			"ĠTOP": 5833,
			"hamburger": 5834,
			"Ġdip": 5835,
			"Day": 5836,
			"ftop": 5837,
			"Ġgarland": 5838,
			"Flower": 5839,
			"almon": 5840,
			"Ġcas": 5841,
			"Ġentry": 5842,
			"Ġpadded": 5843,
			"Bike": 5844,
			"Striped": 5845,
			"Chocolate": 5846,
			"wear": 5847,
			"Ġrestroom": 5848,
			"MP": 5849,
			"Ġburners": 5850,
			"asty": 5851,
			"slee": 5852,
			"anuts": 5853,
			"Ġdragon": 5854,
			"ĠPO": 5855,
			"Ġbloo": 5856,
			"female": 5857,
			"mber": 5858,
			"ĠSIT": 5859,
			"Ġpillowcase": 5860,
			"Ġhanger": 5861,
			"Ġkicking": 5862,
			"Bath": 5863,
			"ized": 5864,
			"Spo": 5865,
			"achute": 5866,
			"Ġbuckle": 5867,
			"Ġwired": 5868,
			"olf": 5869,
			"ARK": 5870,
			"..": 5871,
			"Ġshows": 5872,
			"Ġtwigs": 5873,
			"ilhou": 5874,
			"Ġeyebrow": 5875,
			"Ġbead": 5876,
			"whipped": 5877,
			"ausages": 5878,
			"ĠPAN": 5879,
			"Ġbathing": 5880,
			"megran": 5881,
			"Shadows": 5882,
			"ATE": 5883,
			"ĠThis": 5884,
			"Ġcircles": 5885,
			"law": 5886,
			"kids": 5887,
			"Ġahead": 5888,
			"core": 5889,
			"aggy": 5890,
			"opus": 5891,
			"charger": 5892,
			"Ġshoreline": 5893,
			"Ġdet": 5894,
			"Ġwh": 5895,
			"Ġhidden": 5896,
			"Ġputting": 5897,
			"earrings": 5898,
			"ispy": 5899,
			"cloudy": 5900,
			"comp": 5901,
			"Ġcoconut": 5902,
			"Ġsurfers": 5903,
			"Ġprints": 5904,
			"RON": 5905,
			"Bananas": 5906,
			"Ġtools": 5907,
			"brushes": 5908,
			"student": 5909,
			"Ġfaces": 5910,
			"ĠBACKGROUND": 5911,
			"customer": 5912,
			"Ġwarning": 5913,
			"wel": 5914,
			"Ġcyl": 5915,
			"Ġthing": 5916,
			"Plane": 5917,
			"Ġpit": 5918,
			"Ġstrips": 5919,
			"chopped": 5920,
			"Ġstret": 5921,
			"console": 5922,
			"ĠWINDOW": 5923,
			"garland": 5924,
			"Ġfrying": 5925,
			"Ġlif": 5926,
			"Ġgiving": 5927,
			"ĠUS": 5928,
			"quor": 5929,
			"signs": 5930,
			"Ġankle": 5931,
			"Ġsuspended": 5932,
			"Ġbunches": 5933,
			"ited": 5934,
			"izer": 5935,
			"Ġchoppy": 5936,
			"Ġrocking": 5937,
			"croissant": 5938,
			"Ġstomach": 5939,
			"mallow": 5940,
			"urinal": 5941,
			"Ġmugs": 5942,
			"Someone": 5943,
			"Airplane": 5944,
			"Ġbagels": 5945,
			"cupboards": 5946,
			"Ġslab": 5947,
			"Hair": 5948,
			"Ġformation": 5949,
			"shmallow": 5950,
			"ĠHOLDING": 5951,
			"ĠSITTING": 5952,
			"stra": 5953,
			"Ġuphol": 5954,
			"zucchini": 5955,
			"Ġfocus": 5956,
			"Ġslanted": 5957,
			"Ġdisplaying": 5958,
			"ĠWOODEN": 5959,
			"Plant": 5960,
			"INE": 5961,
			"Ġstapler": 5962,
			"yogurt": 5963,
			"crown": 5964,
			"CHE": 5965,
			"Ġsteeple": 5966,
			"Ġassorted": 5967,
			"Ġgoods": 5968,
			"Helmet": 5969,
			"Ġminute": 5970,
			"Ġspect": 5971,
			"Ġcheek": 5972,
			"Pillows": 5973,
			"Ġowl": 5974,
			"Ġfeather": 5975,
			"utter": 5976,
			"spot": 5977,
			"vas": 5978,
			"Ġshed": 5979,
			"serts": 5980,
			"Ġdivider": 5981,
			"Stop": 5982,
			"fess": 5983,
			"spital": 5984,
			"AG": 5985,
			"Ġcolumns": 5986,
			"atural": 5987,
			"opened": 5988,
			"bit": 5989,
			"Ġther": 5990,
			"Face": 5991,
			"blond": 5992,
			"Ġwalks": 5993,
			"Ġ12": 5994,
			"Ġtour": 5995,
			"Ġbound": 5996,
			"YING": 5997,
			"crates": 5998,
			"Ġbib": 5999,
			"Another": 6000,
			"eadow": 6001,
			"ANT": 6002,
			"ha": 6003,
			"dinner": 6004,
			"breakfast": 6005,
			"Logo": 6006,
			"Ġbamboo": 6007,
			"Ġindoor": 6008,
			"Sliced": 6009,
			"ONE": 6010,
			"Ġcherries": 6011,
			"Ġcola": 6012,
			"Ġphotos": 6013,
			"Ġkitty": 6014,
			"Ġarrange": 6015,
			"Ġcattle": 6016,
			"Ġmore": 6017,
			"ĠFOR": 6018,
			"lush": 6019,
			"Ġpartly": 6020,
			"Ġbedding": 6021,
			"hotdog": 6022,
			"coke": 6023,
			"Ġcobble": 6024,
			"Shiny": 6025,
			"Ġpathway": 6026,
			"Ġpreserver": 6027,
			"Ġcanisters": 6028,
			"Ġcor": 6029,
			"onna": 6030,
			"Truck": 6031,
			"ĠSTAND": 6032,
			"UP": 6033,
			"Ġvines": 6034,
			"Ġpigeons": 6035,
			"Mu": 6036,
			"Ġkay": 6037,
			"Ġlim": 6038,
			"CLE": 6039,
			"Ġclaws": 6040,
			"Ġfast": 6041,
			"Ġyour": 6042,
			"Ġtortilla": 6043,
			"Ġjelly": 6044,
			"Waves": 6045,
			"Ġcopper": 6046,
			"items": 6047,
			"oog": 6048,
			"wrinkles": 6049,
			"stered": 6050,
			"railroad": 6051,
			"photo": 6052,
			"megranate": 6053,
			"Windshield": 6054,
			"Ġpeanut": 6055,
			"Ġprocessor": 6056,
			"Ġsnacks": 6057,
			"gravy": 6058,
			"Ġforefront": 6059,
			"onnaise": 6060,
			"Ġput": 6061,
			"Ġfender": 6062,
			"Ġlayer": 6063,
			"Ġsheer": 6064,
			"Ġlens": 6065,
			"Ġbreast": 6066,
			"Ġbunk": 6067,
			"Framed": 6068,
			"Ġsprinkled": 6069,
			"TLE": 6070,
			"Ġcontains": 6071,
			"chains": 6072,
			"Ġtypes": 6073,
			"ĠPE": 6074,
			"bris": 6075,
			"Ġfishing": 6076,
			"Ġseating": 6077,
			"ĠAT": 6078,
			"Ġrabbit": 6079,
			"Ġjumpsuit": 6080,
			"Ġlanyard": 6081,
			"cri": 6082,
			"Ġcases": 6083,
			"Keyboard": 6084,
			"lunch": 6085,
			"Ġduff": 6086,
			"lank": 6087,
			"Ġsunset": 6088,
			"Ġsolid": 6089,
			"Ġswitche": 6090,
			"PART": 6091,
			"Ġselling": 6092,
			"amel": 6093,
			"laptops": 6094,
			"Ġcrackers": 6095,
			"Chain": 6096,
			"TURE": 6097,
			"Wii": 6098,
			"Ġreddish": 6099,
			"Double": 6100,
			"Ġmac": 6101,
			"like": 6102,
			"tch": 6103,
			"icap": 6104,
			"Ġda": 6105,
			"Ġoutlets": 6106,
			"Ġthey": 6107,
			"creen": 6108,
			"Stone": 6109,
			"Surfer": 6110,
			"dumpster": 6111,
			"soldier": 6112,
			"REET": 6113,
			"Ġmeet": 6114,
			"cooker": 6115,
			"Ġmanhole": 6116,
			"Ġdol": 6117,
			"pond": 6118,
			"vis": 6119,
			"Ġuncooked": 6120,
			"Ġcharacters": 6121,
			"stripe": 6122,
			"Ġrides": 6123,
			"monkey": 6124,
			"Ġshell": 6125,
			"ĠCOM": 6126,
			"Ġportable": 6127,
			"Remote": 6128,
			"Ġmatching": 6129,
			"Ġhandlebars": 6130,
			"ental": 6131,
			"Ġskiis": 6132,
			"Women": 6133,
			"erase": 6134,
			"Ġheel": 6135,
			"Can": 6136,
			"Ġwinds": 6137,
			"garlic": 6138,
			"Spectator": 6139,
			"Ġlipstick": 6140,
			"trains": 6141,
			"ĠCAT": 6142,
			"Ġremotes": 6143,
			"Ġspeckled": 6144,
			"ĠWATER": 6145,
			"panda": 6146,
			"MALL": 6147,
			"Ġwasher": 6148,
			"Ġur": 6149,
			"area": 6150,
			"Ġthrown": 6151,
			"fessional": 6152,
			"asuring": 6153,
			"Ġmoon": 6154,
			"cardboard": 6155,
			"ared": 6156,
			"single": 6157,
			"Ġcrumpled": 6158,
			"Ġbeams": 6159,
			"tattoo": 6160,
			"vetop": 6161,
			"Ġfather": 6162,
			"Ġmit": 6163,
			"RASS": 6164,
			"Ġbaker": 6165,
			"Ġskull": 6166,
			"washing": 6167,
			"ĠFLO": 6168,
			"toothpaste": 6169,
			"Ġarrangement": 6170,
			"goose": 6171,
			"both": 6172,
			"ILDING": 6173,
			"Flag": 6174,
			"rub": 6175,
			"Ġcrispy": 6176,
			"Ġstudents": 6177,
			"team": 6178,
			"Cut": 6179,
			"bbing": 6180,
			"Ġtilted": 6181,
			"Ġbrocolli": 6182,
			"Ġgentleman": 6183,
			"computers": 6184,
			"License": 6185,
			"asoned": 6186,
			"mans": 6187,
			"asy": 6188,
			"Ġlifted": 6189,
			"reo": 6190,
			"Ġpenguin": 6191,
			"Writing": 6192,
			"Meat": 6193,
			"Ġtourist": 6194,
			"Gravel": 6195,
			"ION": 6196,
			"Ġchalkboard": 6197,
			"balloons": 6198,
			"aqu": 6199,
			"gen": 6200,
			"NG": 6201,
			"Ġtowers": 6202,
			"shine": 6203,
			"Ġstatu": 6204,
			"shaped": 6205,
			"Ġties": 6206,
			"Ġvess": 6207,
			"Watch": 6208,
			"second": 6209,
			"Ġcartoon": 6210,
			"ĠSHO": 6211,
			"Mouse": 6212,
			"Ġoverlooking": 6213,
			"Bushes": 6214,
			"GREEN": 6215,
			"dent": 6216,
			"Ġtre": 6217,
			"Button": 6218,
			"Ġlead": 6219,
			"Ġrows": 6220,
			"Ġprotection": 6221,
			"Ġfre": 6222,
			"Ġlighted": 6223,
			"Ġlighter": 6224,
			"steel": 6225,
			"Surfboard": 6226,
			"allest": 6227,
			"Ġambulance": 6228,
			"ĠSO": 6229,
			"Ġfingernail": 6230,
			"Ġfootball": 6231,
			"Ġsoil": 6232,
			"Kid": 6233,
			"oggy": 6234,
			"Ġcleat": 6235,
			"Ġspectacle": 6236,
			"Ġbuggy": 6237,
			"Umbrella": 6238,
			"electronic": 6239,
			"flour": 6240,
			"color": 6241,
			"briefcase": 6242,
			"Ġfer": 6243,
			"Over": 6244,
			"beads": 6245,
			"Ġcute": 6246,
			"tunnel": 6247,
			"Ġcalendar": 6248,
			"Ġtangerine": 6249,
			"apartment": 6250,
			"pears": 6251,
			"Ġmixing": 6252,
			"Ġrag": 6253,
			"Ġscale": 6254,
			"well": 6255,
			"forks": 6256,
			"Ġneed": 6257,
			"Ġdisposable": 6258,
			"They": 6259,
			"peeled": 6260,
			"Ġ10": 6261,
			"broom": 6262,
			"ilhouette": 6263,
			"Ġhospital": 6264,
			"hood": 6265,
			"Ġshaded": 6266,
			"Ġpoint": 6267,
			"smiling": 6268,
			"Ġdang": 6269,
			"Ġthird": 6270,
			"Ġpeeled": 6271,
			"Ġmove": 6272,
			"hino": 6273,
			"Ġconve": 6274,
			"LL": 6275,
			"Ġmov": 6276,
			"Spoon": 6277,
			"Ġcleaning": 6278,
			"ĠSTOP": 6279,
			"teen": 6280,
			"undershirt": 6281,
			"Ġvariety": 6282,
			"Ġdirections": 6283,
			"Ġpeaches": 6284,
			"Ġbreaking": 6285,
			"Ġdeli": 6286,
			"tination": 6287,
			"oleslaw": 6288,
			"Six": 6289,
			"Ġdust": 6290,
			"Fresh": 6291,
			"Ġpri": 6292,
			"baskets": 6293,
			"Ġsmoking": 6294,
			"NIS": 6295,
			"Ġbalance": 6296,
			"Ġstreetlight": 6297,
			"opes": 6298,
			"Asian": 6299,
			"Ġsaying": 6300,
			"Bal": 6301,
			"ummy": 6302,
			"Ġeyebrows": 6303,
			"ĠTEN": 6304,
			"Ġglare": 6305,
			"pass": 6306,
			"Ġdetail": 6307,
			"RU": 6308,
			"airplanes": 6309,
			"Bar": 6310,
			"baked": 6311,
			"medium": 6312,
			"PH": 6313,
			"Ġstretched": 6314,
			"Ġstairway": 6315,
			"Ġalso": 6316,
			"clean": 6317,
			"bagels": 6318,
			"Ġpresent": 6319,
			"sponge": 6320,
			"Ġreflector": 6321,
			"Ġtyping": 6322,
			"Lu": 6323,
			"Legs": 6324,
			"Ġtouch": 6325,
			"plaid": 6326,
			"Ġdrainer": 6327,
			"Ġbridle": 6328,
			"Ġvessel": 6329,
			"christmas": 6330,
			"Ġfighter": 6331,
			"Older": 6332,
			"Ġspik": 6333,
			"Ġdinosaur": 6334,
			"Ġpetals": 6335,
			"ala": 6336,
			"ico": 6337,
			"Ġmeters": 6338,
			"Ġcalculator": 6339,
			"Ġcanvas": 6340,
			"Ġturquoise": 6341,
			"Ġcarved": 6342,
			"Ġpicket": 6343,
			"Ġkayak": 6344,
			"Ġpineapples": 6345,
			"Ġfile": 6346,
			"Ġmango": 6347,
			"ĠSTREET": 6348,
			"Ġtabletop": 6349,
			"fried": 6350,
			"Ġarrows": 6351,
			"Ġpouring": 6352,
			"ĠAN": 6353,
			"ĠCOLO": 6354,
			"Sto": 6355,
			"French": 6356,
			"Ġeggplant": 6357,
			"liding": 6358,
			"broken": 6359,
			"Ġtote": 6360,
			"ssom": 6361,
			"Ġaquarium": 6362,
			"Ġfigurines": 6363,
			"stump": 6364,
			"Ġblades": 6365,
			"Ġappro": 6366,
			"Ġcluster": 6367,
			"bracelets": 6368,
			"Ġnotepad": 6369,
			"Ġtoiletries": 6370,
			"tery": 6371,
			"Ġlove": 6372,
			"Walk": 6373,
			"stacle": 6374,
			"Ball": 6375,
			"runway": 6376,
			"ĠJACKET": 6377,
			"Ġengines": 6378,
			"vines": 6379,
			"inside": 6380,
			"Ġbuds": 6381,
			"Ġvending": 6382,
			"Tire": 6383,
			"Ġcustomers": 6384,
			"Ġwooded": 6385,
			"ids": 6386,
			"Ġknot": 6387,
			"ETAL": 6388,
			"posed": 6389,
			"plain": 6390,
			"Ġbride": 6391,
			"Ġbronze": 6392,
			"Ġsour": 6393,
			"Ġstovetop": 6394,
			"Ġdisk": 6395,
			"ends": 6396,
			"Cou": 6397,
			"twigs": 6398,
			"eline": 6399,
			"Out": 6400,
			"Ġcarry": 6401,
			"Ġwrought": 6402,
			"cards": 6403,
			"Vehicle": 6404,
			"canisters": 6405,
			"chalk": 6406,
			"Ġcarrier": 6407,
			"icured": 6408,
			"ĠZ": 6409,
			"Dis": 6410,
			"eggplant": 6411,
			"huge": 6412,
			"Ġparade": 6413,
			"Ġpedal": 6414,
			"Dirty": 6415,
			"ĠBUILDING": 6416,
			"Ġrailings": 6417,
			"Ġmantel": 6418,
			"Ġfold": 6419,
			"ichoke": 6420,
			"Ġairl": 6421,
			"Ġspiral": 6422,
			"Ġhut": 6423,
			"Ġraft": 6424,
			"Ġspokes": 6425,
			"Ġgrout": 6426,
			"steak": 6427,
			"different": 6428,
			"Bare": 6429,
			"ĠHAT": 6430,
			"Trunk": 6431,
			"Ġsword": 6432,
			"Ġhelping": 6433,
			"strap": 6434,
			"RONT": 6435,
			"ĠĠĠĠĠĠĠĠĠĠĠĠĠĠĠĠ": 6436,
			"tourist": 6437,
			"rito": 6438,
			"Ġshaggy": 6439,
			"ĠGRASS": 6440,
			"cuum": 6441,
			"wrink": 6442,
			"fall": 6443,
			"Ġbrunette": 6444,
			"Ġwatches": 6445,
			"close": 6446,
			"Ce": 6447,
			"goal": 6448,
			"Ġnetting": 6449,
			"ameras": 6450,
			"ĠLIGHT": 6451,
			"Cur": 6452,
			"Ġmashed": 6453,
			"rece": 6454,
			"Ġmeadow": 6455,
			"skate": 6456,
			"Ġpacked": 6457,
			"ZZ": 6458,
			"Ġfring": 6459,
			"Shirt": 6460,
			"vely": 6461,
			"Di": 6462,
			"Ġprojector": 6463,
			"cla": 6464,
			"dryer": 6465,
			"Ġcrystal": 6466,
			"Ġreceipt": 6467,
			"ew": 6468,
			"blankets": 6469,
			"Advertis": 6470,
			"paved": 6471,
			"living": 6472,
			"Ġfloret": 6473,
			"cli": 6474,
			"Ġbone": 6475,
			"tering": 6476,
			"Ġpouch": 6477,
			"Ġcondiments": 6478,
			"Ġwax": 6479,
			"syrup": 6480,
			"spe": 6481,
			"Ġjam": 6482,
			"Ġflush": 6483,
			"Ġfrisbe": 6484,
			"trucks": 6485,
			"surface": 6486,
			"Bea": 6487,
			"Ġherb": 6488,
			"Ġcork": 6489,
			"Ġcuff": 6490,
			"Ġic": 6491,
			"Ġserve": 6492,
			"Ġamount": 6493,
			"Ġseal": 6494,
			"helmets": 6495,
			"dressing": 6496,
			"Ġbiscuit": 6497,
			"Ġgrasses": 6498,
			"angle": 6499,
			"Frisbee": 6500,
			"aucasian": 6501,
			"Ġmacaroni": 6502,
			"Ġwal": 6503,
			"trays": 6504,
			"tractor": 6505,
			"ĠCo": 6506,
			"jump": 6507,
			"rious": 6508,
			"Ġtransport": 6509,
			"Ġpatterns": 6510,
			"Ġgrip": 6511,
			"Ġfly": 6512,
			"fin": 6513,
			"arched": 6514,
			"Ġshampoo": 6515,
			"Spectators": 6516,
			"gown": 6517,
			"ĠHOR": 6518,
			"Ġcarries": 6519,
			"Ġcrumb": 6520,
			"rider": 6521,
			"Ġcarpeting": 6522,
			"wild": 6523,
			"hotel": 6524,
			"brary": 6525,
			"Ġvi": 6526,
			"Ġchip": 6527,
			"various": 6528,
			"Ġarchway": 6529,
			"ICTURE": 6530,
			"Microwave": 6531,
			"Ġsiding": 6532,
			"pockets": 6533,
			"keys": 6534,
			"Ġdrying": 6535,
			"athletic": 6536,
			"donkey": 6537,
			"Ġhoop": 6538,
			"mot": 6539,
			"Lots": 6540,
			"move": 6541,
			"Multiple": 6542,
			"aming": 6543,
			"Ġsideways": 6544,
			"Leaf": 6545,
			"knobs": 6546,
			"Police": 6547,
			"gest": 6548,
			"Palm": 6549,
			"Ġscr": 6550,
			"Ġpolish": 6551,
			"iers": 6552,
			"Vegetable": 6553,
			"elt": 6554,
			"Ġclump": 6555,
			"orescent": 6556,
			"ably": 6557,
			"Ġdecal": 6558,
			"multicolored": 6559,
			"Ġenter": 6560,
			"tissues": 6561,
			"angs": 6562,
			"epsi": 6563,
			"ickey": 6564,
			"feed": 6565,
			"ris": 6566,
			"Ġrests": 6567,
			"tender": 6568,
			"Ġpet": 6569,
			"Ġfolder": 6570,
			"Ġfeat": 6571,
			"Straw": 6572,
			"grown": 6573,
			"aments": 6574,
			"ĠTENNIS": 6575,
			"suitcases": 6576,
			"Ġpilot": 6577,
			"Ġvend": 6578,
			"Ġriders": 6579,
			"ills": 6580,
			"ĠMac": 6581,
			"frican": 6582,
			"Fl": 6583,
			"deep": 6584,
			"Ġbrightly": 6585,
			"verages": 6586,
			"Ġblood": 6587,
			"Ġfoamy": 6588,
			"tain": 6589,
			"ĠTREE": 6590,
			"Ġunripe": 6591,
			"arse": 6592,
			"ĠWhite": 6593,
			"Ġnearby": 6594,
			"Ġshing": 6595,
			"Ġholders": 6596,
			"Ġostrich": 6597,
			"WOMAN": 6598,
			"Ġslot": 6599,
			"Pro": 6600,
			"Ġorgan": 6601,
			"cock": 6602,
			"mergen": 6603,
			"Pieces": 6604,
			"Roof": 6605,
			"Ġcracked": 6606,
			"Ġram": 6607,
			"toiletries": 6608,
			"once": 6609,
			"Ġsniff": 6610,
			"digital": 6611,
			"Ġexpress": 6612,
			"Ġupholstered": 6613,
			"AY": 6614,
			"Ġdusty": 6615,
			"gage": 6616,
			"ashes": 6617,
			"Ġvel": 6618,
			"Ġhearts": 6619,
			"Ġscore": 6620,
			"market": 6621,
			"Ġfollowing": 6622,
			"Ġwedge": 6623,
			"RAN": 6624,
			"PP": 6625,
			"vine": 6626,
			"leggings": 6627,
			"Ġcool": 6628,
			"IKE": 6629,
			"Go": 6630,
			"Ġveggie": 6631,
			"ker": 6632,
			"Ġwindowsill": 6633,
			"rolling": 6634,
			"ĠFLOOR": 6635,
			"ceramic": 6636,
			"Ġbadge": 6637,
			"Ġvanilla": 6638,
			"aving": 6639,
			"iter": 6640,
			"Ġbreak": 6641,
			"Cement": 6642,
			"Ġbefore": 6643,
			"Ġhub": 6644,
			"cliff": 6645,
			"ĠSTANDING": 6646,
			"take": 6647,
			"mirrors": 6648,
			"Pen": 6649,
			"middle": 6650,
			"lings": 6651,
			"Ġmarked": 6652,
			"Ġexhi": 6653,
			"Ġtasty": 6654,
			"Art": 6655,
			"bald": 6656,
			"goats": 6657,
			"Ġplaque": 6658,
			"Ġexterior": 6659,
			"Ġpeeling": 6660,
			"pigeons": 6661,
			"Ġmedicine": 6662,
			"Ġracks": 6663,
			"icking": 6664,
			"ĠFEN": 6665,
			"potted": 6666,
			"Ġsat": 6667,
			"Ġmass": 6668,
			"Ġtoothpick": 6669,
			"Ġcracker": 6670,
			"ĠMO": 6671,
			"Ġconnecting": 6672,
			"illed": 6673,
			"Name": 6674,
			"drop": 6675,
			"Ġcau": 6676,
			"AK": 6677,
			"ĠHAIR": 6678,
			"Ġwispy": 6679,
			"Ġearphones": 6680,
			"ZZA": 6681,
			"ificial": 6682,
			"Ġfoods": 6683,
			"evergreen": 6684,
			"Ġinfla": 6685,
			"Ġchina": 6686,
			"Line": 6687,
			"Ġbubble": 6688,
			"Golden": 6689,
			"Ġmer": 6690,
			"ĠSHOR": 6691,
			"Bathroom": 6692,
			"welry": 6693,
			"Ġrelaxing": 6694,
			"Ġblurred": 6695,
			"mergency": 6696,
			"circle": 6697,
			"Flat": 6698,
			"clocks": 6699,
			"whole": 6700,
			"Ripples": 6701,
			"honey": 6702,
			"Ġtails": 6703,
			"Ġres": 6704,
			"House": 6705,
			"Ġstorefront": 6706,
			"ĠGROUND": 6707,
			"pointy": 6708,
			"ctly": 6709,
			"IST": 6710,
			"burnt": 6711,
			"Ġboulders": 6712,
			"Ġfog": 6713,
			"ĠIn": 6714,
			"tening": 6715,
			"maroon": 6716,
			"CT": 6717,
			"Ġbay": 6718,
			"Ġcobblestone": 6719,
			"Ġself": 6720,
			"Ġmeasuring": 6721,
			"Ġcommon": 6722,
			"Ġroasted": 6723,
			"Roll": 6724,
			"Ġdirectional": 6725,
			"Bottles": 6726,
			"TED": 6727,
			"ba": 6728,
			"ee": 6729,
			"Ġclimbing": 6730,
			"Ġguards": 6731,
			"Ġparachute": 6732,
			"Ġelevated": 6733,
			"Ġoper": 6734,
			"Ġladle": 6735,
			"Cir": 6736,
			"Ġpict": 6737,
			"Wet": 6738,
			"Ġiced": 6739,
			"Ġblow": 6740,
			"Ġeagle": 6741,
			"ĠPANTS": 6742,
			"Ġbelongs": 6743,
			"swimming": 6744,
			"Ġmusic": 6745,
			"Ġash": 6746,
			"desktop": 6747,
			"Pictures": 6748,
			"Ġloading": 6749,
			"Ġclassroom": 6750,
			"All": 6751,
			"iles": 6752,
			"Ġcro": 6753,
			"leather": 6754,
			"alls": 6755,
			"Ġwomens": 6756,
			"Ġroller": 6757,
			"Ġbubbles": 6758,
			"Ġinstrument": 6759,
			"rists": 6760,
			"Ġ[": 6761,
			"Oranges": 6762,
			"Ġskyline": 6763,
			"dering": 6764,
			"Ġscra": 6765,
			"Passenger": 6766,
			"Ġtips": 6767,
			"skillet": 6768,
			"Ġbookshelves": 6769,
			"Tracks": 6770,
			"Ġclaw": 6771,
			"Ġbalancing": 6772,
			"Ġsupplies": 6773,
			"Couple": 6774,
			"pineapples": 6775,
			"dant": 6776,
			"tish": 6777,
			"dium": 6778,
			"Ġpaneling": 6779,
			"dried": 6780,
			"seum": 6781,
			"tangerine": 6782,
			"flage": 6783,
			"bster": 6784,
			"lion": 6785,
			"LAN": 6786,
			"Ġsunflower": 6787,
			"Chop": 6788,
			"Ġstorm": 6789,
			"Ġsupports": 6790,
			"cery": 6791,
			"glaze": 6792,
			"Ġservice": 6793,
			"Ġcondiment": 6794,
			"receipt": 6795,
			"Ġhelicopter": 6796,
			"Ġcompartment": 6797,
			"ĠTRAIN": 6798,
			"match": 6799,
			"Bra": 6800,
			"ĠDOOR": 6801,
			"ider": 6802,
			"Ġ20": 6803,
			"Banana": 6804,
			"Ġwheat": 6805,
			"solid": 6806,
			"ĠSN": 6807,
			"AIL": 6808,
			"ĠHEAD": 6809,
			"pancakes": 6810,
			"ĠBEAR": 6811,
			"YCLE": 6812,
			"mmed": 6813,
			"Ġingredi": 6814,
			"Ġpee": 6815,
			"seaweed": 6816,
			"dden": 6817,
			"Ġtextured": 6818,
			"Ġcactus": 6819,
			"Ġoar": 6820,
			"Letters": 6821,
			"aughter": 6822,
			"Ġgall": 6823,
			"Ġboiled": 6824,
			"Ġstoplight": 6825,
			"Pepper": 6826,
			"Ġbacksplash": 6827,
			"Ġcoca": 6828,
			"Ġbiting": 6829,
			"manhole": 6830,
			"Ġcordless": 6831,
			"REY": 6832,
			"Ġcubes": 6833,
			"Plants": 6834,
			"isted": 6835,
			"Med": 6836,
			"Ġbuff": 6837,
			"Ġliner": 6838,
			"Sidewalk": 6839,
			"print": 6840,
			"Ġwea": 6841,
			"Mar": 6842,
			"derside": 6843,
			"Painting": 6844,
			"rait": 6845,
			"Ġshelving": 6846,
			"drum": 6847,
			"ĠX": 6848,
			"Cows": 6849,
			"Ġloose": 6850,
			"Ġunpeeled": 6851,
			"Ġhomemade": 6852,
			"Skateboarder": 6853,
			"Ġparasail": 6854,
			"Ġwhisk": 6855,
			"Arm": 6856,
			"Ġpaintings": 6857,
			"hoof": 6858,
			"mus": 6859,
			"Ġlantern": 6860,
			"Ġsniffing": 6861,
			"rusty": 6862,
			"Ġspraying": 6863,
			"handles": 6864,
			"Ġemployee": 6865,
			"hang": 6866,
			"Ġindi": 6867,
			"Ġtransit": 6868,
			"Ġcourtyard": 6869,
			"plu": 6870,
			"Ġome": 6871,
			"Ġraincoat": 6872,
			"Ġrel": 6873,
			"ila": 6874,
			"Ġbeet": 6875,
			"Ġsecurity": 6876,
			"jackets": 6877,
			"DY": 6878,
			"Ġripp": 6879,
			"vidual": 6880,
			"ked": 6881,
			"town": 6882,
			"footprints": 6883,
			"Desk": 6884,
			"Cream": 6885,
			"Headlight": 6886,
			"ĠSHE": 6887,
			"Male": 6888,
			"pers": 6889,
			"rainbow": 6890,
			"PUTER": 6891,
			"airport": 6892,
			"waste": 6893,
			"Ġcarts": 6894,
			"Ġplanted": 6895,
			"Ġwrapping": 6896,
			"decker": 6897,
			"gin": 6898,
			"Ġmail": 6899,
			"Ġmast": 6900,
			"students": 6901,
			"school": 6902,
			"urdle": 6903,
			"Smiling": 6904,
			"track": 6905,
			"bol": 6906,
			"Ġhugging": 6907,
			"herb": 6908,
			"Ġmanicured": 6909,
			"gs": 6910,
			"ĠNE": 6911,
			"Ġori": 6912,
			"coats": 6913,
			"asing": 6914,
			"Hard": 6915,
			"self": 6916,
			"Ġseaweed": 6917,
			"ĠBAT": 6918,
			"Ġkiosk": 6919,
			"Ġplanks": 6920,
			"orage": 6921,
			"Ġraspberries": 6922,
			"photograph": 6923,
			"ield": 6924,
			"ĠBOW": 6925,
			"Ġivory": 6926,
			"AVE": 6927,
			"Ġlicking": 6928,
			"Ġdestination": 6929,
			"garbage": 6930,
			"Ġraspberry": 6931,
			"Ġnostril": 6932,
			"pas": 6933,
			"Ġfed": 6934,
			"Parking": 6935,
			"ument": 6936,
			"Ġtrop": 6937,
			"Ġpictured": 6938,
			"ILVER": 6939,
			"Ġaccents": 6940,
			"muter": 6941,
			"wicker": 6942,
			"rocky": 6943,
			"Napkin": 6944,
			"mango": 6945,
			"REES": 6946,
			"Dish": 6947,
			"Ġbraided": 6948,
			"Ġpersonal": 6949,
			"partially": 6950,
			"Headlights": 6951,
			"Ġofficers": 6952,
			"Ġcoin": 6953,
			"surfboards": 6954,
			"Ġstains": 6955,
			"Ġidentification": 6956,
			"Ġcushioned": 6957,
			"Ġexhibit": 6958,
			"Ġroute": 6959,
			"EY": 6960,
			"jumpsuit": 6961,
			"Ġey": 6962,
			"cane": 6963,
			"Ġparts": 6964,
			"Ġstun": 6965,
			"OOK": 6966,
			"ances": 6967,
			"whiskers": 6968,
			"Ġpret": 6969,
			"coconut": 6970,
			"atering": 6971,
			"Ġseasoned": 6972,
			"Vase": 6973,
			"Ġseparating": 6974,
			"Ġgrow": 6975,
			"ĠDES": 6976,
			"od": 6977,
			"Ġfli": 6978,
			"bedroom": 6979,
			"ĠChinese": 6980,
			"angled": 6981,
			"Ġcinnamon": 6982,
			"beet": 6983,
			"Ġathlete": 6984,
			"guard": 6985,
			"mashed": 6986,
			"Telephone": 6987,
			"ĠBOY": 6988,
			"Ġson": 6989,
			"Christmas": 6990,
			"ĠSP": 6991,
			"turkey": 6992,
			"Ġmuffins": 6993,
			"Ġcour": 6994,
			"glowing": 6995,
			"navy": 6996,
			"Ġgreat": 6997,
			"arn": 6998,
			"Ġthese": 6999,
			"Ġcollection": 7000,
			"Hands": 7001,
			"Ġcorded": 7002,
			"powder": 7003,
			"ornate": 7004,
			"Papers": 7005,
			"Ġcompet": 7006,
			"ists": 7007,
			"Ġink": 7008,
			"iding": 7009,
			"raspberry": 7010,
			"ides": 7011,
			"Ġvol": 7012,
			"za": 7013,
			"Ġcapital": 7014,
			"gentleman": 7015,
			"Ġlibrary": 7016,
			"Ġale": 7017,
			"ican": 7018,
			"Ġothers": 7019,
			"Ġcandies": 7020,
			"LD": 7021,
			"leafy": 7022,
			"ĠPIZZA": 7023,
			"fortable": 7024,
			"Ġscreens": 7025,
			"Ġshutter": 7026,
			"Graffiti": 7027,
			"Sw": 7028,
			"Ġantelope": 7029,
			"bably": 7030,
			"customers": 7031,
			"Ġwake": 7032,
			"Ġteen": 7033,
			"hedges": 7034,
			"Ġkickstand": 7035,
			"We": 7036,
			"Ġheaded": 7037,
			"apay": 7038,
			"Ġflore": 7039,
			"Ġgarment": 7040,
			"Ġhalves": 7041,
			"Ġmolding": 7042,
			"Ġflamingo": 7043,
			"Carrots": 7044,
			"oca": 7045,
			"Ġrouter": 7046,
			"lap": 7047,
			"Ġliquor": 7048,
			"ilets": 7049,
			"Ġva": 7050,
			"dip": 7051,
			"Ġbutt": 7052,
			"mobile": 7053,
			"meter": 7054,
			"ckered": 7055,
			"lers": 7056,
			"Ġcran": 7057,
			"yor": 7058,
			"Ġrecliner": 7059,
			"Ġtoothbrushes": 7060,
			"Ġrooftop": 7061,
			"ortment": 7062,
			"Ġcleaner": 7063,
			"Lettuce": 7064,
			"Ġhip": 7065,
			"Ġfrisbees": 7066,
			"Ġgreenery": 7067,
			"Ġbullet": 7068,
			"ĠPH": 7069,
			"Zebras": 7070,
			"Ġrunner": 7071,
			"Ġoutfield": 7072,
			"sweet": 7073,
			"rina": 7074,
			"Ġskiier": 7075,
			"Ġtofu": 7076,
			"tags": 7077,
			"Ġoctopus": 7078,
			"cherries": 7079,
			"feeder": 7080,
			"Ġlambs": 7081,
			"Ġfiling": 7082,
			"ANS": 7083,
			"Ġspear": 7084,
			"Ġscaffolding": 7085,
			"Ru": 7086,
			"Ġhotdogs": 7087,
			"stapler": 7088,
			"pillowcase": 7089,
			"Ġsparse": 7090,
			"Ġbrist": 7091,
			"strial": 7092,
			"Ġcompact": 7093,
			"Ġswirl": 7094,
			"leep": 7095,
			"Ġextending": 7096,
			"Sunlight": 7097,
			"wash": 7098,
			"Ġthermo": 7099,
			"Dead": 7100,
			"neon": 7101,
			"Ġmuseum": 7102,
			"Ġfoggy": 7103,
			"Ġswitches": 7104,
			"BLUE": 7105,
			"Ġcop": 7106,
			"Knob": 7107,
			"notepad": 7108,
			"Ġlimb": 7109,
			"patterned": 7110,
			"tta": 7111,
			"pale": 7112,
			"bookshelves": 7113,
			"LEPH": 7114,
			"partial": 7115,
			"cloths": 7116,
			"Ġtakes": 7117,
			"something": 7118,
			"Ġstatues": 7119,
			"bbery": 7120,
			"Ġfilling": 7121,
			"ĠCOMPUTER": 7122,
			"Ġgrinder": 7123,
			"Cross": 7124,
			"bubbles": 7125,
			"Ġfound": 7126,
			"Pitcher": 7127,
			"Pan": 7128,
			"Ġprofessional": 7129,
			"Ġpantry": 7130,
			"pant": 7131,
			"Ġtaped": 7132,
			"LET": 7133,
			"yy": 7134,
			"Ġpaneled": 7135,
			"Ġbaseboard": 7136,
			"cactus": 7137,
			"Fe": 7138,
			"Ġsnowboards": 7139,
			"ducks": 7140,
			"Ġpage": 7141,
			"Elephants": 7142,
			"Cabinet": 7143,
			"Ġchopping": 7144,
			"LES": 7145,
			"standing": 7146,
			"apaya": 7147,
			"Ġbarren": 7148,
			"Neck": 7149,
			"ĠCOLOR": 7150,
			"ĠFENCE": 7151,
			"Ġshrubbery": 7152,
			"Ġshops": 7153,
			"Ġgrocery": 7154,
			"Ġstrapped": 7155,
			"Ġdom": 7156,
			"Beautiful": 7157,
			"Ġburning": 7158,
			"peaches": 7159,
			"ouflage": 7160,
			"Clu": 7161,
			"cinnamon": 7162,
			"Ġpail": 7163,
			"Ġforming": 7164,
			"Ġdoorknob": 7165,
			"chinese": 7166,
			"Ġsausages": 7167,
			"alog": 7168,
			"Ġrecept": 7169,
			"Ġcash": 7170,
			"Ġpartition": 7171,
			"ĠGRA": 7172,
			"Ġgy": 7173,
			"lighthouse": 7174,
			"Ġapproaching": 7175,
			"Ġeven": 7176,
			"Ġsole": 7177,
			"Ġcurve": 7178,
			"Ġseasoning": 7179,
			"Ġgrabbing": 7180,
			"Ġhomes": 7181,
			"biscuit": 7182,
			"hetti": 7183,
			"armes": 7184,
			"pane": 7185,
			"Corn": 7186,
			"Closed": 7187,
			"ĠCoca": 7188,
			"pump": 7189,
			"ens": 7190,
			"ARGE": 7191,
			"Ġdesserts": 7192,
			"ĠBOWL": 7193,
			"Ġelectronics": 7194,
			"Ġmou": 7195,
			"oring": 7196,
			"indrical": 7197,
			"ĠPICTURE": 7198,
			"Ġdrawings": 7199,
			"Ġturf": 7200,
			"Ġoverpass": 7201,
			"ĠFI": 7202,
			"cluster": 7203,
			"Ġbands": 7204,
			"earest": 7205,
			"Ġim": 7206,
			"rubs": 7207,
			"OPLE": 7208,
			"Ġ.": 7209,
			"Ġhandicap": 7210,
			"Ġmedian": 7211,
			"poles": 7212,
			"Ġresi": 7213,
			"Gar": 7214,
			"Camera": 7215,
			"ĠHORSE": 7216,
			"VES": 7217,
			"Tile": 7218,
			"Ġslide": 7219,
			"Ġfron": 7220,
			"hest": 7221,
			"acked": 7222,
			"aghetti": 7223,
			"Ġkit": 7224,
			"Ġknitted": 7225,
			"Dry": 7226,
			"Ġjets": 7227,
			"smooth": 7228,
			"Ġfaucets": 7229,
			"used": 7230,
			"Ġarmrest": 7231,
			"issor": 7232,
			"Both": 7233,
			"Ġsushi": 7234,
			"Ġmidair": 7235,
			"Ġprobably": 7236,
			"Ġpatchy": 7237,
			"ank": 7238,
			"Ġflame": 7239,
			"conies": 7240,
			"macaroni": 7241,
			"Ġhips": 7242,
			"Ġminiature": 7243,
			"Ġsignals": 7244,
			"Ġ11": 7245,
			"ĠCON": 7246,
			"human": 7247,
			"Sink": 7248,
			"ults": 7249,
			"ĠFRONT": 7250,
			"Ġclas": 7251,
			"Ġbarbed": 7252,
			"CKS": 7253,
			"Ġstacks": 7254,
			"Ġstereo": 7255,
			"ichokes": 7256,
			"Ġnatural": 7257,
			"Ġridden": 7258,
			"armesan": 7259,
			"ama": 7260,
			"Ġvests": 7261,
			"Eyes": 7262,
			"Chi": 7263,
			"Ġdial": 7264,
			"Ġdaisy": 7265,
			"Ġfringe": 7266,
			"Ġsprou": 7267,
			"Ġmir": 7268,
			"REL": 7269,
			"Soccer": 7270,
			"chandise": 7271,
			"Ġbackyard": 7272,
			"atmeal": 7273,
			"elds": 7274,
			"Ġtiger": 7275,
			"cellphone": 7276,
			"Ġware": 7277,
			"Ġblu": 7278,
			"ĠMETAL": 7279,
			"Ġpodium": 7280,
			"Ġbottoms": 7281,
			"ĠBED": 7282,
			"Ġtoilets": 7283,
			"TOP": 7284,
			"Ġcamo": 7285,
			"aprt": 7286,
			"ICE": 7287,
			"Ġsleep": 7288,
			"sive": 7289,
			"Ġterra": 7290,
			"Ġbrace": 7291,
			"Ġtim": 7292,
			"Ġworkers": 7293,
			"Ġx": 7294,
			"Vegetables": 7295,
			"Ġtone": 7296,
			"CD": 7297,
			"brass": 7298,
			"Ġoutline": 7299,
			"bot": 7300,
			"Ġbrownie": 7301,
			"cover": 7302,
			"Ġblank": 7303,
			"calculator": 7304,
			"Ġtrough": 7305,
			"Ġkeypad": 7306,
			"deer": 7307,
			"Ġdarker": 7308,
			"ĠBOT": 7309,
			"Toy": 7310,
			"Blanket": 7311,
			"atee": 7312,
			"Ġconveyor": 7313,
			"ton": 7314,
			"angular": 7315,
			"Ġtucked": 7316,
			"vender": 7317,
			"Ġsort": 7318,
			"Ġcouches": 7319,
			"Ġshaved": 7320,
			"Ġwhit": 7321,
			"hour": 7322,
			"Ġtwin": 7323,
			"motor": 7324,
			"Ġdiced": 7325,
			"Ġstew": 7326,
			"Ġbins": 7327,
			"grilled": 7328,
			"bone": 7329,
			"Ġus": 7330,
			"shield": 7331,
			"Ġlotion": 7332,
			"Ġaqua": 7333,
			"Ġpicking": 7334,
			"Ġappli": 7335,
			"undry": 7336,
			"Ġwheeled": 7337,
			"Tea": 7338,
			"Various": 7339,
			"ĠRed": 7340,
			"ANG": 7341,
			"Ġpeanuts": 7342,
			"irrel": 7343,
			"Ġhandlebar": 7344,
			"Wires": 7345,
			"Ġturt": 7346,
			"pilot": 7347,
			"Ġcourse": 7348,
			"gift": 7349,
			"Ġdash": 7350,
			"Ġserver": 7351,
			"Set": 7352,
			"employee": 7353,
			"Ġbangs": 7354,
			"overhead": 7355,
			"Ġterrain": 7356,
			"ĠNintendo": 7357,
			"Mouth": 7358,
			"Burn": 7359,
			"Ġsteamed": 7360,
			"Ġgolf": 7361,
			"bby": 7362,
			"Ġgym": 7363,
			"FA": 7364,
			"SH": 7365,
			"bucks": 7366,
			"Ġreins": 7367,
			"ripple": 7368,
			"Ġfrog": 7369,
			"Ġbatters": 7370,
			"Ġdec": 7371,
			"ATCH": 7372,
			"Ġtorso": 7373,
			"mmer": 7374,
			"sushi": 7375,
			"Ġitself": 7376,
			"asser": 7377,
			"Ġsailboats": 7378,
			"Ġbracket": 7379,
			"Ġcondu": 7380,
			"ĠWI": 7381,
			"raspberries": 7382,
			"Ġangled": 7383,
			"Statue": 7384,
			"Ġevery": 7385,
			"Ped": 7386,
			"Ġfriends": 7387,
			"pencils": 7388,
			"down": 7389,
			"Ġdev": 7390,
			"Ġnearest": 7391,
			"Snowboarder": 7392,
			"oval": 7393,
			"temp": 7394,
			"igar": 7395,
			"Ġsheeps": 7396,
			"HIND": 7397,
			"ci": 7398,
			"tow": 7399,
			"av": 7400,
			"Ġbeaded": 7401,
			"haired": 7402,
			"Ġlatch": 7403,
			"tools": 7404,
			"cushion": 7405,
			"Egg": 7406,
			"ixed": 7407,
			"redit": 7408,
			"Ġpowered": 7409,
			"Ġinfield": 7410,
			"Children": 7411,
			"Ġfully": 7412,
			"Ġtoe": 7413,
			"anding": 7414,
			"Ġdate": 7415,
			"ĠWAL": 7416,
			"Ġdelivery": 7417,
			"bedding": 7418,
			"ĠSKY": 7419,
			"Cooked": 7420,
			"Salt": 7421,
			"patches": 7422,
			"ĠBEHIND": 7423,
			"dragon": 7424,
			"asserole": 7425,
			"AGE": 7426,
			"Hu": 7427,
			"Ġreally": 7428,
			"Ġmarshmallow": 7429,
			"Ceiling": 7430,
			"Ġcape": 7431,
			"Ġobserving": 7432,
			"Ġgrapefruit": 7433,
			"Ġpra": 7434,
			"Ġmom": 7435,
			"ELD": 7436,
			"Ġauto": 7437,
			"istening": 7438,
			"ĠORAN": 7439,
			"reflections": 7440,
			"Bran": 7441,
			"Ġchecker": 7442,
			"Ġwor": 7443,
			"Ġtines": 7444,
			"cer": 7445,
			"Ġtattoos": 7446,
			"Ġpadd": 7447,
			"Ġstab": 7448,
			"Ġprong": 7449,
			"Ġflames": 7450,
			"Ġcds": 7451,
			"Ġmotorcyclist": 7452,
			"esame": 7453,
			"ccu": 7454,
			"ĠOUT": 7455,
			"Ġstreak": 7456,
			"lipstick": 7457,
			"iffel": 7458,
			"Ġlen": 7459,
			"shampoo": 7460,
			"ĠBlack": 7461,
			"Ġboardwalk": 7462,
			"uttle": 7463,
			"Ġspire": 7464,
			"Ġscooters": 7465,
			"Ġmount": 7466,
			"Ġspring": 7467,
			"Ġhanding": 7468,
			"Silverware": 7469,
			"Ring": 7470,
			"Ġselfie": 7471,
			"Ġdispens": 7472,
			"LM": 7473,
			"brand": 7474,
			"Ġstocking": 7475,
			"Ġcrowded": 7476,
			"aquarium": 7477,
			"Ġchunks": 7478,
			"Ġsticky": 7479,
			"Buttons": 7480,
			"Ġentering": 7481,
			"Ġexpression": 7482,
			"Horses": 7483,
			"SMALL": 7484,
			"Ġsold": 7485,
			"Ġflash": 7486,
			"Ġsailing": 7487,
			"tscreen": 7488,
			"Ġlaid": 7489,
			"Ġoctagonal": 7490,
			"Ġtook": 7491,
			"Birds": 7492,
			"Ġgras": 7493,
			"Ġforeign": 7494,
			"smaller": 7495,
			"Ġrecessed": 7496,
			"ĠBIKE": 7497,
			"Ġcubicle": 7498,
			"lig": 7499,
			"Ġaccent": 7500,
			"dinosaur": 7501,
			"Shoes": 7502,
			"Ġspout": 7503,
			"bul": 7504,
			"Ġstamp": 7505,
			"Ġmonument": 7506,
			"pasture": 7507,
			"Ġcracks": 7508,
			"Ġindicator": 7509,
			"ĠSC": 7510,
			"Ġpitching": 7511,
			"shake": 7512,
			"Ġsatellite": 7513,
			"Ġmoney": 7514,
			"ĠELEPH": 7515,
			"blood": 7516,
			"file": 7517,
			"Ġpolicemen": 7518,
			"ĠGREY": 7519,
			"phin": 7520,
			"ADE": 7521,
			"crackers": 7522,
			"RELLA": 7523,
			"bunny": 7524,
			"onal": 7525,
			"ations": 7526,
			"ĠJE": 7527,
			"Words": 7528,
			"Ġleafs": 7529,
			"Ġasleep": 7530,
			"Seat": 7531,
			"elev": 7532,
			"suits": 7533,
			"Ġstu": 7534,
			"Ġpretzel": 7535,
			"outlets": 7536,
			"Medium": 7537,
			"Slices": 7538,
			"ortilla": 7539,
			"Ġlab": 7540,
			"Ġcapped": 7541,
			"Ġfiretruck": 7542,
			"price": 7543,
			"Ġturtle": 7544,
			"Ġmakes": 7545,
			"MBRELLA": 7546,
			"doughnut": 7547,
			"RUCK": 7548,
			"projector": 7549,
			"Single": 7550,
			"Curtains": 7551,
			"Eng": 7552,
			"cds": 7553,
			"Ġalley": 7554,
			"Ġflakes": 7555,
			"Ġlids": 7556,
			"banner": 7557,
			"Lit": 7558,
			"Ġpal": 7559,
			"Ġvendor": 7560,
			"Draw": 7561,
			"ACH": 7562,
			"OTOR": 7563,
			"12": 7564,
			"Ġif": 7565,
			"Ġconvers": 7566,
			"APER": 7567,
			"Ġbaggage": 7568,
			"ĠTIRE": 7569,
			"Ġbristles": 7570,
			"Ġneatly": 7571,
			"Sauce": 7572,
			"flies": 7573,
			"Ġ@": 7574,
			"Ġends": 7575,
			"ĠUn": 7576,
			"Ġcreamy": 7577,
			"curb": 7578,
			"Rug": 7579,
			"Ġdipping": 7580,
			"opyright": 7581,
			"sandy": 7582,
			"Ġseem": 7583,
			"sleeve": 7584,
			"ĠDESK": 7585,
			"ough": 7586,
			"peanut": 7587,
			"Ġadju": 7588,
			"horiz": 7589,
			"Ġbrowned": 7590,
			"Ġvelvet": 7591,
			"narrow": 7592,
			"text": 7593,
			"roadside": 7594,
			"Ġsubst": 7595,
			"garden": 7596,
			"Ġbud": 7597,
			"ĠIT": 7598,
			"rely": 7599,
			"Ġdials": 7600,
			"Ġthigh": 7601,
			"Ġdebris": 7602,
			"ements": 7603,
			"Ġsummer": 7604,
			"Ġcanal": 7605,
			"object": 7606,
			"cam": 7607,
			"Ġwatering": 7608,
			"Ġcomplete": 7609,
			"Ġpebbles": 7610,
			"Ġdividing": 7611,
			"Shoe": 7612,
			"Ġdangling": 7613,
			"rooked": 7614,
			"what": 7615,
			"Ġtoes": 7616,
			"Ġbind": 7617,
			"Ġleaving": 7618,
			"Ġbump": 7619,
			"Ġdirectly": 7620,
			"parrot": 7621,
			"Ġox": 7622,
			"Ġwil": 7623,
			"ĠBEN": 7624,
			"Ġwre": 7625,
			"Hanging": 7626,
			"Ġleave": 7627,
			"upper": 7628,
			"vity": 7629,
			"may": 7630,
			"Ġmayonnaise": 7631,
			"chili": 7632,
			"Ġtoss": 7633,
			"ĠCUP": 7634,
			"Ġbug": 7635,
			"Ġobstacle": 7636,
			"Bro": 7637,
			"vending": 7638,
			"Ġflowing": 7639,
			"ane": 7640,
			"Tooth": 7641,
			"aco": 7642,
			"ops": 7643,
			"Ġchasing": 7644,
			"Ġmovie": 7645,
			"Female": 7646,
			"Donut": 7647,
			"Ġgrin": 7648,
			"Ġshapes": 7649,
			"Ġoak": 7650,
			"Ġjuicy": 7651,
			"UG": 7652,
			"Ġsilk": 7653,
			"ager": 7654,
			"antelope": 7655,
			"athlete": 7656,
			"Chairs": 7657,
			"Ġalert": 7658,
			"Ġdownhill": 7659,
			"outdoor": 7660,
			"eyeglasses": 7661,
			"Ġgloved": 7662,
			"Cook": 7663,
			"Ġpeace": 7664,
			"Ġweathered": 7665,
			"vac": 7666,
			"Numbers": 7667,
			"ĠRoman": 7668,
			"igan": 7669,
			"Ġsweatband": 7670,
			"dustrial": 7671,
			"castle": 7672,
			"Ġpitchers": 7673,
			"ĠSKATE": 7674,
			"Ġopener": 7675,
			"Ġmuzzle": 7676,
			"roadway": 7677,
			"Pod": 7678,
			"addle": 7679,
			"ational": 7680,
			"Ġshark": 7681,
			"Ġhatch": 7682,
			"Ġskateboarders": 7683,
			"una": 7684,
			"Ġcrab": 7685,
			"iz": 7686,
			"Ġproducts": 7687,
			"inner": 7688,
			"baking": 7689,
			"wer": 7690,
			"Ġhandrail": 7691,
			"Faucet": 7692,
			"Ġwaffle": 7693,
			"Ġfacade": 7694,
			"opard": 7695,
			"figurines": 7696,
			"Ġslippers": 7697,
			"ĠSHOES": 7698,
			"ĠJEANS": 7699,
			"Ġteh": 7700,
			"Ġhiding": 7701,
			"Ġgoatee": 7702,
			"NDER": 7703,
			"Ġstores": 7704,
			"oom": 7705,
			"picks": 7706,
			"abies": 7707,
			"lla": 7708,
			"storage": 7709,
			"ĠUMBRELLA": 7710,
			"yers": 7711,
			"Ġeight": 7712,
			"ora": 7713,
			"Ġoriental": 7714,
			"Salad": 7715,
			"Ġweed": 7716,
			"Ġinflatable": 7717,
			"owed": 7718,
			"Ġareas": 7719,
			"Ġoveralls": 7720,
			"Ġcamouflage": 7721,
			"nice": 7722,
			"Ġlang": 7723,
			"ENT": 7724,
			"ĠPINK": 7725,
			"Ġaged": 7726,
			"USE": 7727,
			"Chrome": 7728,
			"Ġscissor": 7729,
			"Ġtaller": 7730,
			"Ġlimbs": 7731,
			"Ġjumper": 7732,
			"Ġanch": 7733,
			"aint": 7734,
			"Ġbricked": 7735,
			"inyl": 7736,
			"Container": 7737,
			"ost": 7738,
			"Ġrefe": 7739,
			"bunches": 7740,
			"first": 7741,
			"drawings": 7742,
			"Advertisement": 7743,
			"sunflower": 7744,
			"Chicken": 7745,
			"Ġsanta": 7746,
			"cker": 7747,
			"Ġsidel": 7748,
			"Ġele": 7749,
			"ĠTRUCK": 7750,
			"Ġplayground": 7751,
			"Ġblossom": 7752,
			"pret": 7753,
			"Ġcameras": 7754,
			"Ġovergrown": 7755,
			"Crack": 7756,
			"zipper": 7757,
			"Port": 7758,
			"Ġtier": 7759,
			"Ġlangu": 7760,
			"Boats": 7761,
			"Ġbarric": 7762,
			"Poster": 7763,
			"ĠUP": 7764,
			"skinny": 7765,
			"Ġmarina": 7766,
			"Ġtrey": 7767,
			"Ġcrib": 7768,
			"Horn": 7769,
			"ĠBAG": 7770,
			"Ġchilds": 7771,
			"res": 7772,
			"tw": 7773,
			"Ġmixture": 7774,
			"Cloudy": 7775,
			"Luggage": 7776,
			"seven": 7777,
			"ĠORANGE": 7778,
			"scaffolding": 7779,
			"ĠSHORTS": 7780,
			"Ġkeyboards": 7781,
			"umerous": 7782,
			"Ġruff": 7783,
			"Ġbattery": 7784,
			"Ġartificial": 7785,
			"worn": 7786,
			"CYCLE": 7787,
			"ĠFLOW": 7788,
			"Ġconditioning": 7789,
			"glo": 7790,
			"Ġstreets": 7791,
			"Ġrhino": 7792,
			"Kn": 7793,
			"cape": 7794,
			"Ġfrozen": 7795,
			"Ġtass": 7796,
			"Couch": 7797,
			"Ġlone": 7798,
			"lot": 7799,
			"bubble": 7800,
			"Ġdam": 7801,
			"Ġcommuter": 7802,
			"Screen": 7803,
			"EB": 7804,
			"Ġgrand": 7805,
			"Ġruns": 7806,
			"Floral": 7807,
			"Ġadidas": 7808,
			"Ġduffle": 7809,
			"Ġfurt": 7810,
			"Ġparent": 7811,
			"Ġprotect": 7812,
			"Sea": 7813,
			"Ġfle": 7814,
			"Ġrising": 7815,
			"daisy": 7816,
			"Ġcardigan": 7817,
			"lined": 7818,
			"moon": 7819,
			"Ġsau": 7820,
			"ison": 7821,
			"Ġgaming": 7822,
			"Ġbordering": 7823,
			"Ġtripod": 7824,
			"Ġrainy": 7825,
			"Take": 7826,
			"issing": 7827,
			"aping": 7828,
			"Ġwritings": 7829,
			"ambulance": 7830,
			"YELLOW": 7831,
			"tofu": 7832,
			"ĠGLASSES": 7833,
			"cue": 7834,
			"Ġlaundry": 7835,
			"Ġpeeking": 7836,
			"fog": 7837,
			"ĠAir": 7838,
			"Ġbroth": 7839,
			"Shelf": 7840,
			"shredded": 7841,
			"Ice": 7842,
			"Ġcalico": 7843,
			"ladle": 7844,
			"pied": 7845,
			"tortilla": 7846,
			"chunk": 7847,
			"Gri": 7848,
			"ĠSE": 7849,
			"Ġplays": 7850,
			"RY": 7851,
			"toasted": 7852,
			"Design": 7853,
			"Ġvalley": 7854,
			"oping": 7855,
			"wri": 7856,
			"Ġgrater": 7857,
			"Smoke": 7858,
			"ĠSA": 7859,
			"oleum": 7860,
			"hardwood": 7861,
			"orter": 7862,
			"Ġburrito": 7863,
			"Ġboundary": 7864,
			"Ġrowing": 7865,
			"chief": 7866,
			"Animals": 7867,
			"aved": 7868,
			"fen": 7869,
			"Ġcharging": 7870,
			"Ġten": 7871,
			"tective": 7872,
			"OTORCYCLE": 7873,
			"Ġpress": 7874,
			"snacks": 7875,
			"Ġslopes": 7876,
			"Ġsplit": 7877,
			"nty": 7878,
			"Ġple": 7879,
			"cracker": 7880,
			"Ġbuckets": 7881,
			"Most": 7882,
			"earphones": 7883,
			"ĠTOW": 7884,
			"ctangle": 7885,
			"pouch": 7886,
			"Ġfootprints": 7887,
			"PTOP": 7888,
			"Ġbeverages": 7889,
			"Tip": 7890,
			"modern": 7891,
			"ĠTH": 7892,
			"Ġclothe": 7893,
			"nge": 7894,
			"Ġupward": 7895,
			"Ġcel": 7896,
			"CO": 7897,
			"ĠBri": 7898,
			"Ġstunt": 7899,
			"Ġlic": 7900,
			"Ġgl": 7901,
			"Ġflorets": 7902,
			"tone": 7903,
			"mode": 7904,
			"cation": 7905,
			"Rectangular": 7906,
			"Vehicles": 7907,
			"Ġappliances": 7908,
			"Ġpottery": 7909,
			"ĠSAND": 7910,
			"ĠSNOW": 7911,
			"Ġroast": 7912,
			"Ġbakery": 7913,
			"Tag": 7914,
			"HEEL": 7915,
			"Ġshuttle": 7916,
			"Ġproduct": 7917,
			"ulch": 7918,
			"ĠSTRI": 7919,
			"Potato": 7920,
			"ufa": 7921,
			"grapefruit": 7922,
			"comb": 7923,
			"Ġhorseback": 7924,
			"chalkboard": 7925,
			"Ġwig": 7926,
			"router": 7927,
			"pport": 7928,
			"minute": 7929,
			"furry": 7930,
			"Ġinte": 7931,
			"KET": 7932,
			"Ġwithin": 7933,
			"wheelchair": 7934,
			"Ġzi": 7935,
			"Cru": 7936,
			"Ġbolts": 7937,
			"Ġsitted": 7938,
			"ĠEng": 7939,
			"Ġaccess": 7940,
			"Ġresort": 7941,
			"Ġrelish": 7942,
			"lacks": 7943,
			"Ġbabies": 7944,
			"ligator": 7945,
			"Ġfair": 7946,
			"Signs": 7947,
			"Base": 7948,
			"Ġnoodle": 7949,
			"IRT": 7950,
			"Ġinner": 7951,
			"BALL": 7952,
			"DS": 7953,
			"mekin": 7954,
			"Ġarmy": 7955,
			"giant": 7956,
			"Ġfluorescent": 7957,
			"Ġmall": 7958,
			"Ġmeeting": 7959,
			"Ġdiaper": 7960,
			"Ġpromot": 7961,
			"yclists": 7962,
			"Ġcredit": 7963,
			"pizzas": 7964,
			"Ġhubcap": 7965,
			"Ġveg": 7966,
			"ĠBENCH": 7967,
			"rinals": 7968,
			"Ġjo": 7969,
			"Ġornaments": 7970,
			"ĠSKI": 7971,
			"Ġindustrial": 7972,
			"Bun": 7973,
			"Ġisn": 7974,
			"Flu": 7975,
			"Refrigerator": 7976,
			"amole": 7977,
			"THER": 7978,
			"Card": 7979,
			"AKE": 7980,
			"Ġlego": 7981,
			"50": 7982,
			"utility": 7983,
			"Ġadults": 7984,
			"Crowd": 7985,
			"Wearing": 7986,
			"ROOM": 7987,
			"Ġsuite": 7988,
			"awning": 7989,
			"Ġnintendo": 7990,
			"pretzel": 7991,
			"ĠStreet": 7992,
			"kiosk": 7993,
			"PEN": 7994,
			"Ġskatepark": 7995,
			"ĠNO": 7996,
			"Ġloves": 7997,
			"Ġchees": 7998,
			"Beer": 7999,
			"Drink": 8000,
			"pomegranate": 8001,
			"Ġroofs": 8002,
			"Ġangle": 8003,
			"ung": 8004,
			"Ġpairs": 8005,
			"acamole": 8006,
			"Ġsunshine": 8007,
			"Ġunderside": 8008,
			"borne": 8009,
			"Ġont": 8010,
			"Ġimp": 8011,
			"Ġfalls": 8012,
			"ĠELEPHANT": 8013,
			"Ġsubstance": 8014,
			"AFF": 8015,
			"Ġcomfortable": 8016,
			"Ġalligator": 8017,
			"stain": 8018,
			"Stairs": 8019,
			"lation": 8020,
			"10": 8021,
			"Ġsprinkle": 8022,
			"BROWN": 8023,
			"gre": 8024,
			"penguin": 8025,
			"Ġbesides": 8026,
			"atching": 8027,
			"lowed": 8028,
			"snack": 8029,
			"Move": 8030,
			"Ġspeak": 8031,
			"Ġstabil": 8032,
			"Ġloaded": 8033,
			"Ġsmartphone": 8034,
			"Ġtorn": 8035,
			"Ġthread": 8036,
			"Ġashtray": 8037,
			"HEAD": 8038,
			"IE": 8039,
			"FT": 8040,
			"item": 8041,
			"Ġshaving": 8042,
			"nas": 8043,
			"outs": 8044,
			"Ġexposed": 8045,
			"Ġcall": 8046,
			"ĠSUR": 8047,
			"Ġreceptacle": 8048,
			"URT": 8049,
			"semb": 8050,
			"Ġdude": 8051,
			"ĠUNDER": 8052,
			"Ġsails": 8053,
			"Pine": 8054,
			"Ġsections": 8055,
			"Ġeas": 8056,
			"Grassy": 8057,
			"uous": 8058,
			"more": 8059,
			"istant": 8060,
			"marble": 8061,
			"ĠCola": 8062,
			"Ġcoleslaw": 8063,
			"Ġslacks": 8064,
			"Ġflap": 8065,
			"Ġparasol": 8066,
			"thing": 8067,
			"Bricks": 8068,
			"Ġdull": 8069,
			"Ġswi": 8070,
			"Stick": 8071,
			"sa": 8072,
			"Ġsconce": 8073,
			"shops": 8074,
			"mond": 8075,
			"Chopped": 8076,
			"ssy": 8077,
			"Ġquar": 8078,
			"Ġfixed": 8079,
			"ĠSh": 8080,
			"Ġpackages": 8081,
			"Ġurban": 8082,
			"parent": 8083,
			"Ġfloat": 8084,
			"yle": 8085,
			"ration": 8086,
			"Ġmarkers": 8087,
			"chopstick": 8088,
			"Ġsan": 8089,
			"Skis": 8090,
			"scrapers": 8091,
			"Ġyarn": 8092,
			"upside": 8093,
			"cycle": 8094,
			"sailboats": 8095,
			"Ġnap": 8096,
			"Ġbacks": 8097,
			"Ġpomegranate": 8098,
			"sword": 8099,
			"Ġaff": 8100,
			"Plaid": 8101,
			"wind": 8102,
			"ĠSW": 8103,
			"dor": 8104,
			"Ġcylindrical": 8105,
			"sour": 8106,
			"bats": 8107,
			"Ġprotru": 8108,
			"Ġhun": 8109,
			"Bur": 8110,
			"Ġcylinder": 8111,
			"Ġchipped": 8112,
			"Ġarena": 8113,
			"Ġicon": 8114,
			"wh": 8115,
			"games": 8116,
			"Ġsalmon": 8117,
			"Ġreal": 8118,
			"hazy": 8119,
			"Ġovens": 8120,
			"wal": 8121,
			"Ho": 8122,
			"Ġpork": 8123,
			"chan": 8124,
			"ĠBlue": 8125,
			"Ġlanguage": 8126,
			"hering": 8127,
			"stool": 8128,
			"Ġspaghetti": 8129,
			"bent": 8130,
			"Ġspoke": 8131,
			"Ġbanners": 8132,
			"company": 8133,
			"oogie": 8134,
			"apan": 8135,
			"THESE": 8136,
			"Ġstretch": 8137,
			"High": 8138,
			"Ġstrong": 8139,
			"allel": 8140,
			"ĠAd": 8141,
			"pointed": 8142,
			"PLE": 8143,
			"Ġpoints": 8144,
			"Ġcheesecake": 8145,
			"ĠHIS": 8146,
			"Ġfut": 8147,
			"Ġovers": 8148,
			"Ġramekin": 8149,
			"homes": 8150,
			"Ġac": 8151,
			"Ġnest": 8152,
			"Ġgreenish": 8153,
			"lettering": 8154,
			"ĠPAPER": 8155,
			"Ġfigures": 8156,
			"Adult": 8157,
			"Rope": 8158,
			"Ġsilhouette": 8159,
			"ĠPARK": 8160,
			"Ġflock": 8161,
			"Ears": 8162,
			"Ġpendant": 8163,
			"roissants": 8164,
			"ANGING": 8165,
			"Ġrims": 8166,
			"andy": 8167,
			"Ġdesks": 8168,
			"Ġscrambled": 8169,
			"ĠBOTTLE": 8170,
			"satellite": 8171,
			"ractive": 8172,
			"uniforms": 8173,
			"Oven": 8174,
			"Ġcrest": 8175,
			"TAIN": 8176,
			"garment": 8177,
			"Ġloveseat": 8178,
			"Ġtights": 8179,
			"Ġmowed": 8180,
			"Ġplugs": 8181,
			"Pepperoni": 8182,
			"Ġstepping": 8183,
			"Ġreclining": 8184,
			"birthday": 8185,
			"assorted": 8186,
			"STIC": 8187,
			"ĠWR": 8188,
			"itching": 8189,
			"copper": 8190,
			"ĠFrench": 8191,
			"throw": 8192,
			"Ġhooked": 8193,
			"Ġvacuum": 8194,
			"dition": 8195,
			"Ġseven": 8196,
			"rence": 8197,
			"Ġpulls": 8198,
			"rushed": 8199,
			"ylon": 8200,
			"Circular": 8201,
			"LANE": 8202,
			"Lot": 8203,
			"Ġslic": 8204,
			"abit": 8205,
			"Bush": 8206,
			"Ġloo": 8207,
			"Ġportrait": 8208,
			"Ġchecking": 8209,
			"Ġcoloring": 8210,
			"Ġprotector": 8211,
			"oogles": 8212,
			"Ġsquirrel": 8213,
			"Soap": 8214,
			"Ġattach": 8215,
			"Folded": 8216,
			"Ġeyel": 8217,
			"emb": 8218,
			"Ġhall": 8219,
			"belly": 8220,
			"Ġhimself": 8221,
			"ĠPHONE": 8222,
			"Fur": 8223,
			"tran": 8224,
			"dex": 8225,
			"ubby": 8226,
			"ELL": 8227,
			"Blinds": 8228,
			"pantry": 8229,
			"Ġspiky": 8230,
			"rilla": 8231,
			"Ġleans": 8232,
			"Ġbulletin": 8233,
			"Ġaffixed": 8234,
			"Ġkinds": 8235,
			"Ġbigger": 8236,
			"alapen": 8237,
			"Ġprepared": 8238,
			"Ġvisitor": 8239,
			"bolt": 8240,
			"Ġsesame": 8241,
			"Ġwill": 8242,
			"ram": 8243,
			"Opened": 8244,
			"Ġcent": 8245,
			"ccupied": 8246,
			"Ġanalog": 8247,
			"edges": 8248,
			"Ġdispensers": 8249,
			"Tri": 8250,
			"Ġomelette": 8251,
			"dential": 8252,
			"Ġemergency": 8253,
			"boulders": 8254,
			"yal": 8255,
			"arch": 8256,
			"tyrofoam": 8257,
			"Ġenclosed": 8258,
			"flective": 8259,
			"ooves": 8260,
			"Ġchewing": 8261,
			"IRRO": 8262,
			"Ġspectacles": 8263,
			"rusted": 8264,
			"Shower": 8265,
			"PERSON": 8266,
			"Parked": 8267,
			"IRROR": 8268,
			"recessed": 8269,
			"Ġpoking": 8270,
			"ĠKN": 8271,
			"fle": 8272,
			"ĠSKATEBOARD": 8273,
			"kra": 8274,
			"Ġlean": 8275,
			"Nike": 8276,
			"Ocean": 8277,
			"Off": 8278,
			"Ġchained": 8279,
			"Ġlitter": 8280,
			"Ġroot": 8281,
			"ures": 8282,
			"rews": 8283,
			"Potted": 8284,
			"Ġflav": 8285,
			"Ġurinals": 8286,
			"Ġcruise": 8287,
			"ĠPEOPLE": 8288,
			"Ġact": 8289,
			"Ġbrownish": 8290,
			"Ġtexting": 8291,
			"tended": 8292,
			"ITCHE": 8293,
			"City": 8294,
			"Ġwait": 8295,
			"reek": 8296,
			"under": 8297,
			"Ġgeese": 8298,
			"ostrich": 8299,
			"buns": 8300,
			"Ġinclu": 8301,
			"Ġangry": 8302,
			"Ġstart": 8303,
			"Ġoblong": 8304,
			"umin": 8305,
			"Ġyounger": 8306,
			"Corner": 8307,
			"ĠCHI": 8308,
			"Mel": 8309,
			"Ġtropical": 8310,
			"11": 8311,
			"Ġhig": 8312,
			"Ġint": 8313,
			"Ġshine": 8314,
			"WOOD": 8315,
			"Steel": 8316,
			"Tomatoes": 8317,
			"Carpet": 8318,
			"Van": 8319,
			"ĠPOLE": 8320,
			"Ġblocking": 8321,
			"Ġhooks": 8322,
			"Ġtwisted": 8323,
			"touch": 8324,
			"Ġbic": 8325,
			"ĠROAD": 8326,
			"Sticker": 8327,
			"Suit": 8328,
			"Com": 8329,
			"Ġhurdle": 8330,
			"har": 8331,
			"Ġlobster": 8332,
			"flamingo": 8333,
			"Ġheading": 8334,
			"Ġunlit": 8335,
			"Bridge": 8336,
			"aps": 8337,
			"itched": 8338,
			"ĠGRAY": 8339,
			"Monitor": 8340,
			"Blurry": 8341,
			"landing": 8342,
			"Ġlifting": 8343,
			"cotton": 8344,
			"Ġvinyl": 8345,
			"Ġbalconies": 8346,
			"Ġcages": 8347,
			"Backpack": 8348,
			"ĠLEA": 8349,
			"Ġlimit": 8350,
			"blo": 8351,
			"Ġlemonade": 8352,
			"Ġassortment": 8353,
			"skiers": 8354,
			"Ġpolished": 8355,
			"IF": 8356,
			"oct": 8357,
			"sses": 8358,
			"scu": 8359,
			"Ġspons": 8360,
			"THERE": 8361,
			"Ġstockings": 8362,
			"Ġdaughter": 8363,
			"main": 8364,
			"Ġcrooked": 8365,
			"ASEBALL": 8366,
			"Ġseems": 8367,
			"azel": 8368,
			"Ġstalks": 8369,
			"ĠWALKING": 8370,
			"ĠTREES": 8371,
			"Ġhabit": 8372,
			"ackson": 8373,
			"Ġhum": 8374,
			"wearing": 8375,
			"Ġaer": 8376,
			"Ġsignboard": 8377,
			"Ġbits": 8378,
			"adian": 8379,
			"ĠHELM": 8380,
			"Towels": 8381,
			"tattoos": 8382,
			"Ġbrim": 8383,
			"action": 8384,
			"fake": 8385,
			"ĠLAMP": 8386,
			"Ġfa": 8387,
			"alcohol": 8388,
			"ĠOPEN": 8389,
			"ĠHANGING": 8390,
			"Past": 8391,
			"Ġconductor": 8392,
			"illage": 8393,
			"Pat": 8394,
			"ils": 8395,
			"brownie": 8396,
			"ĠAIR": 8397,
			"bly": 8398,
			"Ġdevices": 8399,
			"Ġbloom": 8400,
			"Ġduffel": 8401,
			"Ġsprouts": 8402,
			"Ġpromotional": 8403,
			"lighted": 8404,
			"ADOW": 8405,
			"baker": 8406,
			"Ġsilvery": 8407,
			"coin": 8408,
			"Ġbunched": 8409,
			"Ġescape": 8410,
			"teries": 8411,
			"bin": 8412,
			"Ġchopstick": 8413,
			"Dough": 8414,
			"Ġcrisp": 8415,
			"Fan": 8416,
			"Ġlast": 8417,
			"Ġsuper": 8418,
			"Ġcele": 8419,
			"ĠMOTORCYCLE": 8420,
			"EP": 8421,
			"Ġmach": 8422,
			"Ġcamel": 8423,
			"Ġbuffet": 8424,
			"Ġpearl": 8425,
			"Ġhad": 8426,
			"Ġgutter": 8427,
			"stage": 8428,
			"ĠLAPTOP": 8429,
			"Ġswivel": 8430,
			"zy": 8431,
			"Ġcapti": 8432,
			"Mini": 8433,
			"Outdoor": 8434,
			"Giraffes": 8435,
			"Ġflies": 8436,
			"Ġlargest": 8437,
			"Ġcaught": 8438,
			"Ġ0": 8439,
			"Ġstabilizer": 8440,
			"Middle": 8441,
			"Ġbrow": 8442,
			"style": 8443,
			"Ġcigarettes": 8444,
			"Ġload": 8445,
			"ondon": 8446,
			"Ġcamper": 8447,
			"Ġcoffe": 8448,
			"candies": 8449,
			"ĠCOUN": 8450,
			"Tiles": 8451,
			"Ġalmond": 8452,
			"fant": 8453,
			"highway": 8454,
			"ĠWHEEL": 8455,
			"Cap": 8456,
			"ramp": 8457,
			"Ġairborne": 8458,
			"Ġcha": 8459,
			"ĠBOAT": 8460,
			"Ġnostrils": 8461,
			"raincoat": 8462,
			"Ġconfe": 8463,
			"turned": 8464,
			"fuzzy": 8465,
			"lannel": 8466,
			"Ġoatmeal": 8467,
			"Ġraisins": 8468,
			"iduous": 8469,
			"Ġske": 8470,
			"ufacture": 8471,
			"Ġspeaking": 8472,
			"othing": 8473,
			"Ġ15": 8474,
			"ĠSOFA": 8475,
			"Ġplaza": 8476,
			"Ġbackpacks": 8477,
			"fts": 8478,
			"Ġlegged": 8479,
			"condim": 8480,
			"Ġairline": 8481,
			"center": 8482,
			"epad": 8483,
			"neven": 8484,
			"Ġflatscreen": 8485,
			"ILLOW": 8486,
			"Ġbarricade": 8487,
			"Ġzip": 8488,
			"Ġwrinkles": 8489,
			"Ġpita": 8490,
			"fitti": 8491,
			"BOY": 8492,
			"ever": 8493,
			"crab": 8494,
			"ĠCan": 8495,
			"ycling": 8496,
			"Ġshines": 8497,
			"flames": 8498,
			"cute": 8499,
			"Ġdresses": 8500,
			"Ġbend": 8501,
			"ĠBALL": 8502,
			"Ġcould": 8503,
			"Ġbundle": 8504,
			"sliding": 8505,
			"Ġvane": 8506,
			"Maroon": 8507,
			"Ġscoreboard": 8508,
			"loaf": 8509,
			"Mushroom": 8510,
			"Ġga": 8511,
			"champagne": 8512,
			"frog": 8513,
			"Ġrid": 8514,
			"ladies": 8515,
			"cracks": 8516,
			"Ġreflections": 8517,
			"ĠMacBook": 8518,
			"Ġlays": 8519,
			"ctory": 8520,
			"Ġgripping": 8521,
			"Ġcrock": 8522,
			"Ġthermos": 8523,
			"Ġown": 8524,
			"Rain": 8525,
			"Ġposters": 8526,
			"cel": 8527,
			"cedes": 8528,
			"rounded": 8529,
			"Ġhairs": 8530,
			"Ġgran": 8531,
			"ised": 8532,
			"ĠGIRAFF": 8533,
			"Ġhabitat": 8534,
			"Ġcarving": 8535,
			"Ġvolley": 8536,
			"monitors": 8537,
			"Board": 8538,
			"marshmallow": 8539,
			"leece": 8540,
			"Ġali": 8541,
			"ĠAR": 8542,
			"ĠiPod": 8543,
			"Huge": 8544,
			"ara": 8545,
			"Ġsplas": 8546,
			"Ġdrops": 8547,
			"Ġtransportation": 8548,
			"ĠPLAY": 8549,
			"nger": 8550,
			"Ġlicence": 8551,
			"Ġscar": 8552,
			"Ġlinoleum": 8553,
			"Ġjack": 8554,
			"paintings": 8555,
			"Ġspider": 8556,
			"Letter": 8557,
			"Or": 8558,
			"Ġodd": 8559,
			"zes": 8560,
			"stacks": 8561,
			"Ġoctagon": 8562,
			"fully": 8563,
			"apanese": 8564,
			"whisk": 8565,
			"smile": 8566,
			"Ġboogie": 8567,
			"Stripes": 8568,
			"Ġfuton": 8569,
			"Cord": 8570,
			"rored": 8571,
			"Ġloop": 8572,
			"peanuts": 8573,
			"battery": 8574,
			"faded": 8575,
			"Ġdone": 8576,
			"Ġsauc": 8577,
			"Calm": 8578,
			"Full": 8579,
			"Ġgoes": 8580,
			"Ġarches": 8581,
			"Ġartichoke": 8582,
			"Ġcare": 8583,
			"space": 8584,
			"Ass": 8585,
			"policemen": 8586,
			"towers": 8587,
			"Ġarc": 8588,
			"iscuits": 8589,
			"Ġingredients": 8590,
			"aches": 8591,
			"Ġpaddling": 8592,
			"Ġtof": 8593,
			"Ġlovely": 8594,
			"strip": 8595,
			"checkered": 8596,
			"happy": 8597,
			"Ġautomobile": 8598,
			"Ġbackdrop": 8599,
			"Ġmic": 8600,
			"Ġwatermark": 8601,
			"Ġpeacock": 8602,
			"ĠBOARD": 8603,
			"bled": 8604,
			"Ġdolls": 8605,
			"lender": 8606,
			"ĠBen": 8607,
			"Ġfins": 8608,
			"Ġmaybe": 8609,
			"Ġcooling": 8610,
			"Ġoverhang": 8611,
			"triangular": 8612,
			"heavy": 8613,
			"Portion": 8614,
			"Ġfunny": 8615,
			"awk": 8616,
			"UMB": 8617,
			"Ġlavender": 8618,
			"Ġembro": 8619,
			"Ġcock": 8620,
			"Ġstopper": 8621,
			"interior": 8622,
			"Ġseafood": 8623,
			"Ġwebsite": 8624,
			"Ġbartender": 8625,
			"Ġlies": 8626,
			"advertising": 8627,
			"Ġherding": 8628,
			"aces": 8629,
			"aging": 8630,
			"Ġbarely": 8631,
			"Candle": 8632,
			"Ġlever": 8633,
			"Ġpay": 8634,
			"Second": 8635,
			"Plu": 8636,
			"eaten": 8637,
			"Ġwreath": 8638,
			"ĠCOUNTER": 8639,
			"rson": 8640,
			"oured": 8641,
			"Ġwaterfall": 8642,
			"pri": 8643,
			"lular": 8644,
			"Ġcoast": 8645,
			"Ġtourists": 8646,
			"finished": 8647,
			"HROOM": 8648,
			"anna": 8649,
			"Ġnecklaces": 8650,
			"Engine": 8651,
			"alumin": 8652,
			"Ġsided": 8653,
			"agged": 8654,
			"Ġunderwear": 8655,
			"Ġpropellers": 8656,
			"aluminum": 8657,
			"Ġearing": 8658,
			"Railing": 8659,
			"ĠZEB": 8660,
			"artichoke": 8661,
			"Ġjewelry": 8662,
			"Ġshoelaces": 8663,
			"Ġentryway": 8664,
			"Ġawnings": 8665,
			"MO": 8666,
			"Ġplantains": 8667,
			"Ġlabels": 8668,
			"vil": 8669,
			"Ġ19": 8670,
			"womans": 8671,
			"Ġwildflowers": 8672,
			"Ġrise": 8673,
			"Ġwatercraft": 8674,
			"sung": 8675,
			"diced": 8676,
			"Ġgrows": 8677,
			"Ġtomatoe": 8678,
			"Scissors": 8679,
			"ousel": 8680,
			"Apples": 8681,
			"Ġran": 8682,
			"ufacturer": 8683,
			"Ġlogos": 8684,
			"Ġscrub": 8685,
			"Broken": 8686,
			"itted": 8687,
			"feta": 8688,
			"enger": 8689,
			"Ġpract": 8690,
			"Comp": 8691,
			"Ġimages": 8692,
			"AC": 8693,
			"Ġswung": 8694,
			"Ġvents": 8695,
			"Ġhy": 8696,
			"Ġearth": 8697,
			"ROM": 8698,
			"Ġedging": 8699,
			"Ġdivid": 8700,
			"Horns": 8701,
			"Feet": 8702,
			"monds": 8703,
			"leton": 8704,
			"Ġgathering": 8705,
			"Ġparallel": 8706,
			"Ġresidential": 8707,
			"hedr": 8708,
			"boards": 8709,
			"Ġwoo": 8710,
			"Ġtit": 8711,
			"Ġyear": 8712,
			"tiled": 8713,
			"Kids": 8714,
			"Ġindicates": 8715,
			"Ġmoustache": 8716,
			"mayonnaise": 8717,
			"ĠPOT": 8718,
			"ĠHELMET": 8719,
			"DO": 8720,
			"Ġward": 8721,
			"Ġneigh": 8722,
			"Control": 8723,
			"Tu": 8724,
			"End": 8725,
			"Tiny": 8726,
			"IM": 8727,
			"oothi": 8728,
			"Ġlinen": 8729,
			"UL": 8730,
			"Tray": 8731,
			"Lines": 8732,
			"rating": 8733,
			"Ġdug": 8734,
			"ĠEnglish": 8735,
			"Ġsuspenders": 8736,
			"Ġpeice": 8737,
			"ĠMIRROR": 8738,
			"UB": 8739,
			"Cloth": 8740,
			"Ġgallon": 8741,
			"ĠFLA": 8742,
			"Ġbandage": 8743,
			"ckles": 8744,
			"ditional": 8745,
			"bes": 8746,
			"shed": 8747,
			"Ġwhtie": 8748,
			"Ġfleece": 8749,
			"Ġdense": 8750,
			"Ġer": 8751,
			"ĠEY": 8752,
			"workers": 8753,
			"Ġgoogles": 8754,
			"Ġcaramel": 8755,
			"ĠBY": 8756,
			"orry": 8757,
			"ngle": 8758,
			"Ġprep": 8759,
			"Ġkeeping": 8760,
			"ĠSINK": 8761,
			"Ġhik": 8762,
			"Branches": 8763,
			"Oli": 8764,
			"rig": 8765,
			"snowy": 8766,
			"ĠPLASTIC": 8767,
			"Ġcroche": 8768,
			"Ġevening": 8769,
			"tension": 8770,
			"hedral": 8771,
			"ander": 8772,
			"ased": 8773,
			"Ġfriend": 8774,
			"Ġlamppost": 8775,
			"column": 8776,
			"Ġwading": 8777,
			"Ġowner": 8778,
			"ATER": 8779,
			"vintage": 8780,
			"Ġremo": 8781,
			"reddish": 8782,
			"Ġbalck": 8783,
			"Ġfrees": 8784,
			"Ġstretching": 8785,
			"racks": 8786,
			"Roman": 8787,
			"Ġhaircut": 8788,
			"ĠTAN": 8789,
			"erman": 8790,
			"aircraft": 8791,
			"Ġcurrent": 8792,
			"ddles": 8793,
			"Ġless": 8794,
			"igns": 8795,
			"riers": 8796,
			"inning": 8797,
			"itrus": 8798,
			"medicine": 8799,
			"Jackson": 8800,
			"Ġgrated": 8801,
			"eple": 8802,
			"Ġspec": 8803,
			"Lab": 8804,
			"Ġticket": 8805,
			"Ġflood": 8806,
			"Ġheating": 8807,
			"Ġthumbs": 8808,
			"teal": 8809,
			"Ġprotruding": 8810,
			"ĠUSB": 8811,
			"amsung": 8812,
			"Ġribs": 8813,
			"Overhead": 8814,
			"horizontal": 8815,
			"blurred": 8816,
			"cash": 8817,
			"glazed": 8818,
			"Ġflowering": 8819,
			"ĠCHE": 8820,
			"20": 8821,
			"ests": 8822,
			"Ġwardrobe": 8823,
			"asting": 8824,
			"ote": 8825,
			"velling": 8826,
			"web": 8827,
			"Ġspecks": 8828,
			"Ġedged": 8829,
			"Ġoperating": 8830,
			"clump": 8831,
			"Ġrustic": 8832,
			"Ġreferee": 8833,
			"Ġseries": 8834,
			"ails": 8835,
			"ĠBOX": 8836,
			"Melted": 8837,
			"Ġtar": 8838,
			"Ġsnowboarders": 8839,
			"ĠAfrican": 8840,
			"Ġsing": 8841,
			"ĠCAKE": 8842,
			"ĠSILVER": 8843,
			"innie": 8844,
			"ingus": 8845,
			"Ġupwards": 8846,
			"Ġcaucasian": 8847,
			"ĠSanta": 8848,
			"bandoned": 8849,
			"Speaker": 8850,
			"PLA": 8851,
			"Ġsled": 8852,
			"Ġcasserole": 8853,
			"keypad": 8854,
			"ĠHO": 8855,
			"Ġouter": 8856,
			"kerchief": 8857,
			"ABY": 8858,
			"ĠCLOCK": 8859,
			"Ġmas": 8860,
			"bride": 8861,
			"ĠStates": 8862,
			"Ġmaple": 8863,
			"ĠSTRIP": 8864,
			"rinse": 8865,
			"Ġtangled": 8866,
			"ĠHOT": 8867,
			"Ġ18": 8868,
			"Ġdripping": 8869,
			"String": 8870,
			"yed": 8871,
			"Ġridge": 8872,
			"Ġdecorating": 8873,
			"vanna": 8874,
			"Ġindex": 8875,
			"burgundy": 8876,
			"raisins": 8877,
			"Ġpallet": 8878,
			"Ġflannel": 8879,
			"Ġtying": 8880,
			"Ġtouchpad": 8881,
			"lover": 8882,
			"Garbage": 8883,
			"Onions": 8884,
			"Ġshingles": 8885,
			"Ġresemb": 8886,
			"Ġwatermelons": 8887,
			"wrinkle": 8888,
			"Ġcomf": 8889,
			"Ġsaf": 8890,
			"Ġbeets": 8891,
			"Hardwood": 8892,
			"Ġfeta": 8893,
			"Ġlorry": 8894,
			"Ġribbons": 8895,
			"ridge": 8896,
			"wildflowers": 8897,
			"Ġginger": 8898,
			"Ġsurrounds": 8899,
			"Ġhinges": 8900,
			"alsa": 8901,
			"Players": 8902,
			"ĠOVER": 8903,
			"Cardboard": 8904,
			"Ite": 8905,
			"Ketchup": 8906,
			"mostat": 8907,
			"sausages": 8908,
			"Field": 8909,
			"ITCHEN": 8910,
			"ĠNew": 8911,
			"Different": 8912,
			"DVD": 8913,
			"Hea": 8914,
			"Ġblooming": 8915,
			"Ġruffled": 8916,
			"QU": 8917,
			"Ġpamp": 8918,
			"raised": 8919,
			"ically": 8920,
			"Ġpepsi": 8921,
			"Ġnine": 8922,
			"where": 8923,
			"Ġfaced": 8924,
			"Ġmechan": 8925,
			"sli": 8926,
			"Ġhammer": 8927,
			"Ġstate": 8928,
			"Ġflown": 8929,
			"Ġtimer": 8930,
			"lucent": 8931,
			"sleeved": 8932,
			"Ġgrasping": 8933,
			"ooh": 8934,
			"Ġvalve": 8935,
			"Ġlayers": 8936,
			"Beach": 8937,
			"Ġneedles": 8938,
			"Ġtoned": 8939,
			"Ġeasy": 8940,
			"Ġprongs": 8941,
			"Ġcreamer": 8942,
			"Ġshinny": 8943,
			"ĠLONG": 8944,
			"Ġtravelling": 8945,
			"Houses": 8946,
			"Ġcommode": 8947,
			"bine": 8948,
			"night": 8949,
			"mperature": 8950,
			"Ġtipped": 8951,
			"ares": 8952,
			"holes": 8953,
			"Ġci": 8954,
			"mugs": 8955,
			"Ġkicked": 8956,
			"Ġhelp": 8957,
			"Ġsunflowers": 8958,
			"Ġoutfits": 8959,
			"Ġhalter": 8960,
			"FFEE": 8961,
			"Ġcaptivity": 8962,
			"plenty": 8963,
			"Ġgrid": 8964,
			"leeping": 8965,
			"Ġrearview": 8966,
			"Ġattire": 8967,
			"nequins": 8968,
			"Ġspark": 8969,
			"Ġfeaturing": 8970,
			"tusk": 8971,
			"peice": 8972,
			"characters": 8973,
			"PErson": 8974,
			"Ġcompetition": 8975,
			"ĠBIR": 8976,
			"Ġstemmed": 8977,
			"dri": 8978,
			"Ġhow": 8979,
			"Ġshingled": 8980,
			"Necklace": 8981,
			"orders": 8982,
			"Ġrobot": 8983,
			"ĠĠĠĠĠĠĠĠĠĠĠĠĠĠĠĠĠĠĠĠĠĠĠĠĠĠĠĠĠĠĠĠ": 8984,
			"Ġsite": 8985,
			"Cola": 8986,
			"Ġdon": 8987,
			"ĠPark": 8988,
			"Ġidentical": 8989,
			"stomach": 8990,
			"eight": 8991,
			"Ġthru": 8992,
			"Plates": 8993,
			"ĠPLANE": 8994,
			"Clean": 8995,
			"lated": 8996,
			"Ġnothing": 8997,
			"Eyeglasses": 8998,
			"bru": 8999,
			"ilson": 9000,
			"Ġdoily": 9001,
			"ĠMingus": 9002,
			"stacked": 9003,
			"cro": 9004,
			"Ġmountainside": 9005,
			"Ġbarbe": 9006,
			"Ġaddress": 9007,
			"Look": 9008,
			"ĠLOO": 9009,
			"ption": 9010,
			"Ġlounging": 9011,
			"ĠWII": 9012,
			"Goggles": 9013,
			"Ġformal": 9014,
			"Ġnozzle": 9015,
			"sheer": 9016,
			"Clothes": 9017,
			"Ġamber": 9018,
			"Ġsal": 9019,
			"aut": 9020,
			"Utensil": 9021,
			"cran": 9022,
			"orized": 9023,
			"Area": 9024,
			"VING": 9025,
			"Ġhangar": 9026,
			"rainer": 9027,
			"Ġant": 9028,
			"oppy": 9029,
			"ĠPILLOW": 9030,
			"Ġdomed": 9031,
			"seal": 9032,
			"LER": 9033,
			"Ġshinning": 9034,
			"ĠKEY": 9035,
			"Ġseagulls": 9036,
			"Butter": 9037,
			"Ġ-": 9038,
			"Ġmulch": 9039,
			"Ġpossi": 9040,
			"Ġscrews": 9041,
			"oul": 9042,
			"Ġrepre": 9043,
			"ricate": 9044,
			"Ġretri": 9045,
			"ifier": 9046,
			"Ġorder": 9047,
			"ĠCOW": 9048,
			"raisin": 9049,
			"Ġlodge": 9050,
			"Multicolored": 9051,
			"hy": 9052,
			"ILET": 9053,
			"Ġrippled": 9054,
			"Ġpom": 9055,
			"Ġmural": 9056,
			"pig": 9057,
			"ĠUnited": 9058,
			"stract": 9059,
			"bles": 9060,
			"triangle": 9061,
			"MENT": 9062,
			"Ġsound": 9063,
			"zzled": 9064,
			"dles": 9065,
			"Ġdrivers": 9066,
			"itting": 9067,
			"Ġalmonds": 9068,
			"Ġcarousel": 9069,
			"Ġkneepad": 9070,
			"Ġfinish": 9071,
			"Ġsoftball": 9072,
			"Ġbroad": 9073,
			"Ġdowntown": 9074,
			"ĠSURF": 9075,
			"ANCE": 9076,
			"tion": 9077,
			"Ġdownward": 9078,
			"Ġraisin": 9079,
			"Ġcellular": 9080,
			"adget": 9081,
			"Ġlistening": 9082,
			"otorcyclist": 9083,
			"Ġwo": 9084,
			"ĠMADE": 9085,
			"Ġweight": 9086,
			"En": 9087,
			"fridge": 9088,
			"Hills": 9089,
			"onda": 9090,
			"Ġtaillight": 9091,
			"Ġbutterflies": 9092,
			"icles": 9093,
			"ĠLIT": 9094,
			"Ġdonkeys": 9095,
			"Stove": 9096,
			"seated": 9097,
			"noccupied": 9098,
			"Shelves": 9099,
			"Pu": 9100,
			"wra": 9101,
			"Ġsimple": 9102,
			"Ġconver": 9103,
			"ĠGreen": 9104,
			"ĠHI": 9105,
			"hearts": 9106,
			"ĠDIS": 9107,
			"Ġjumps": 9108,
			"Ġextra": 9109,
			"Ġnic": 9110,
			"Ġwaiter": 9111,
			"First": 9112,
			"Ġmett": 9113,
			"Ġviewing": 9114,
			"chest": 9115,
			"Ġmacbook": 9116,
			"tennas": 9117,
			"puffy": 9118,
			"Ġburned": 9119,
			"Ġspine": 9120,
			"ffles": 9121,
			"scene": 9122,
			"Ġdiner": 9123,
			"Ġabandoned": 9124,
			"Ġplanters": 9125,
			"Ġplumbing": 9126,
			"crumpled": 9127,
			"Steps": 9128,
			"Ġcompletely": 9129,
			"ĠSMALL": 9130,
			"ĠHANDLE": 9131,
			"fancy": 9132,
			"coleslaw": 9133,
			"ĠBASEBALL": 9134,
			"knot": 9135,
			"Ġpumpkins": 9136,
			"cafe": 9137,
			"arian": 9138,
			"Ġlinked": 9139,
			"und": 9140,
			"clothing": 9141,
			"Ġraquet": 9142,
			"wrinkled": 9143,
			"Ġeasel": 9144,
			"rhino": 9145,
			"Ġlanes": 9146,
			"erc": 9147,
			"ĠKITCHEN": 9148,
			"oothie": 9149,
			"URPLE": 9150,
			"Ġstirrup": 9151,
			"ĠCDs": 9152,
			"octopus": 9153,
			"ĠWATCH": 9154,
			"Body": 9155,
			"Ġmessenger": 9156,
			"Ġmode": 9157,
			"instrument": 9158,
			"liet": 9159,
			"bug": 9160,
			"zard": 9161,
			"ILING": 9162,
			"ĠGIRAFFE": 9163,
			"Ġeats": 9164,
			"ĠDIST": 9165,
			"Ġseg": 9166,
			"Knee": 9167,
			"Ġesca": 9168,
			"Ġlocked": 9169,
			"exhaust": 9170,
			"muffins": 9171,
			"alian": 9172,
			"Ġfreshly": 9173,
			"Ġpush": 9174,
			"acant": 9175,
			"ta": 9176,
			"orium": 9177,
			"use": 9178,
			"esti": 9179,
			"Ġshelve": 9180,
			"Mustard": 9181,
			"Kites": 9182,
			"Ġwrinkly": 9183,
			"holding": 9184,
			"ĠFROM": 9185,
			"ATO": 9186,
			"Cellphone": 9187,
			"Ġsunlit": 9188,
			"Ġchimneys": 9189,
			"Star": 9190,
			"Ġelevator": 9191,
			"crispy": 9192,
			"Ġdim": 9193,
			"ica": 9194,
			"pickle": 9195,
			"ĠKID": 9196,
			"Ġobscu": 9197,
			"Ġtallest": 9198,
			"kraut": 9199,
			"rooftop": 9200,
			"hip": 9201,
			"Ġplunger": 9202,
			"bronze": 9203,
			"Ġil": 9204,
			"Ġdaylight": 9205,
			"waiter": 9206,
			"zebo": 9207,
			"Donuts": 9208,
			"ĠCLOU": 9209,
			"ĠPARKED": 9210,
			"ĠLEFT": 9211,
			"ext": 9212,
			"Ġcigar": 9213,
			"Ġfocu": 9214,
			"Ġbandanna": 9215,
			"Ġbowtie": 9216,
			"IGHTS": 9217,
			"XT": 9218,
			"Bags": 9219,
			"Ġbrownies": 9220,
			"idered": 9221,
			"Ġbulding": 9222,
			"Ġsectional": 9223,
			"Ġlevels": 9224,
			"touchpad": 9225,
			"Ġcelebr": 9226,
			"ceries": 9227,
			"stores": 9228,
			"Ġslatted": 9229,
			"Ġferry": 9230,
			"Ġmerchandise": 9231,
			"ime": 9232,
			"Weeds": 9233,
			"polka": 9234,
			"LIGHT": 9235,
			"Ġerase": 9236,
			"Ġspare": 9237,
			"Ġunoccupied": 9238,
			"Du": 9239,
			"diamond": 9240,
			"fencing": 9241,
			"ener": 9242,
			"Ġshopper": 9243,
			"fallen": 9244,
			"ination": 9245,
			"Ġflyer": 9246,
			"Ġjungle": 9247,
			"Ġdamaged": 9248,
			"ĠFR": 9249,
			"ĠPLAYER": 9250,
			"Bracelet": 9251,
			"vo": 9252,
			"Ġquilted": 9253,
			"Potatoes": 9254,
			"Ġfight": 9255,
			"Ġshaking": 9256,
			"khaki": 9257,
			"Ġ13": 9258,
			"xedo": 9259,
			"ĠDE": 9260,
			"Stra": 9261,
			"Ġoutlined": 9262,
			"Ġsliver": 9263,
			"Store": 9264,
			"SU": 9265,
			"Ġpages": 9266,
			"LED": 9267,
			"Ġblocked": 9268,
			"Ġhalved": 9269,
			"new": 9270,
			"Ġelectricity": 9271,
			"Ham": 9272,
			"dian": 9273,
			"nostri": 9274,
			"gro": 9275,
			"ĠAdidas": 9276,
			"Ġpamph": 9277,
			"Ġmop": 9278,
			"Ġteacup": 9279,
			"ĠTRAY": 9280,
			"Ġseparate": 9281,
			"OLD": 9282,
			"ĠDVDs": 9283,
			"ona": 9284,
			"andel": 9285,
			"rectangle": 9286,
			"Ġones": 9287,
			"Ġ14": 9288,
			"itorium": 9289,
			"Ġsignage": 9290,
			"Ġkissing": 9291,
			"Ġinfant": 9292,
			"grinder": 9293,
			"Tie": 9294,
			"Ġcob": 9295,
			"ĠEN": 9296,
			"Counter": 9297,
			"saddle": 9298,
			"Ġheat": 9299,
			"ened": 9300,
			"ograph": 9301,
			"burn": 9302,
			"ĠLARGE": 9303,
			"Knobs": 9304,
			"Ġgrowth": 9305,
			"ĠFIELD": 9306,
			"ĠSUIT": 9307,
			"Ġlapel": 9308,
			"Items": 9309,
			"Ġray": 9310,
			"bie": 9311,
			"Ġunmade": 9312,
			"ox": 9313,
			"Ġpoodle": 9314,
			"Ġshorter": 9315,
			"Ġpatty": 9316,
			"Ġreflects": 9317,
			"scra": 9318,
			"Ġadj": 9319,
			"Handles": 9320,
			"Ġwedges": 9321,
			"Ġstrainer": 9322,
			"Ġcoated": 9323,
			"Ġexiting": 9324,
			"illboard": 9325,
			"Ġpadding": 9326,
			"ĠCOFFEE": 9327,
			"Ġfreesbee": 9328,
			"Ġsil": 9329,
			"Ġfoots": 9330,
			"vacy": 9331,
			"Ġdepic": 9332,
			"ĠEAR": 9333,
			"Burnt": 9334,
			"Ġswoo": 9335,
			"bank": 9336,
			"strings": 9337,
			"Ġclassic": 9338,
			"ĠDISTANCE": 9339,
			"ĠMON": 9340,
			"Ġlate": 9341,
			"Ġlearning": 9342,
			"yered": 9343,
			"stadium": 9344,
			"Ġslicing": 9345,
			"GO": 9346,
			"Ġborders": 9347,
			"printed": 9348,
			"ĠBu": 9349,
			"collection": 9350,
			"Ġnu": 9351,
			"jewelry": 9352,
			"Ġmotorcyle": 9353,
			"Pre": 9354,
			"Ġna": 9355,
			"Ġcurious": 9356,
			"hinge": 9357,
			"Ġtreat": 9358,
			"Label": 9359,
			"Hill": 9360,
			"ĠMan": 9361,
			"ĠWindow": 9362,
			"Ġacces": 9363,
			"VEN": 9364,
			"Ġtide": 9365,
			"curled": 9366,
			"blade": 9367,
			"ĠRIGHT": 9368,
			"Painted": 9369,
			"Wide": 9370,
			"tention": 9371,
			"Ġsmiley": 9372,
			"UNG": 9373,
			"Ġid": 9374,
			"alic": 9375,
			"Ġentire": 9376,
			"vacuum": 9377,
			"Ġillumin": 9378,
			"Ġcopyright": 9379,
			"Ġdocu": 9380,
			"Ġven": 9381,
			"coming": 9382,
			"Ġscrap": 9383,
			"money": 9384,
			"Ġhardware": 9385,
			"Ġduvet": 9386,
			"Ġracer": 9387,
			"ĠAROUND": 9388,
			"Ġcamping": 9389,
			"Ġbackside": 9390,
			"Ġtrench": 9391,
			"Ġsewing": 9392,
			"football": 9393,
			"brant": 9394,
			"Ġrecord": 9395,
			"ĠHER": 9396,
			"Ġtaco": 9397,
			"Ġcircus": 9398,
			"Boxes": 9399,
			"Ġboo": 9400,
			"ced": 9401,
			"ĠKI": 9402,
			"written": 9403,
			"TY": 9404,
			"Ġtric": 9405,
			"Pale": 9406,
			"Ġsoles": 9407,
			"Rocky": 9408,
			"atched": 9409,
			"ifying": 9410,
			"delicious": 9411,
			"cuff": 9412,
			"Ġhanged": 9413,
			"Ġrods": 9414,
			"Ġdrople": 9415,
			"Ser": 9416,
			"Ġstraws": 9417,
			"Ġsloped": 9418,
			"Orn": 9419,
			"curly": 9420,
			"Smaller": 9421,
			"Bald": 9422,
			"slanted": 9423,
			"sharp": 9424,
			"bartender": 9425,
			"helicopter": 9426,
			"sized": 9427,
			"Ġpaving": 9428,
			"Toddler": 9429,
			"Ġslaw": 9430,
			"Stem": 9431,
			"Ġpiles": 9432,
			"ĠFLOWERS": 9433,
			"Ġtheater": 9434,
			"mpet": 9435,
			"Polar": 9436,
			"stir": 9437,
			"shrubs": 9438,
			"Ġtuxedo": 9439,
			"OME": 9440,
			"Ġurn": 9441,
			"Tis": 9442,
			"Ġstructures": 9443,
			"Ġpinned": 9444,
			"Ġmonster": 9445,
			"Ġcarafe": 9446,
			"sitting": 9447,
			"Ġlandline": 9448,
			"erly": 9449,
			"mband": 9450,
			"Ġdisplays": 9451,
			"Ġfreight": 9452,
			"Rust": 9453,
			"Ġpose": 9454,
			"Ġsnowman": 9455,
			"omelette": 9456,
			"Ġchord": 9457,
			"Ġartichokes": 9458,
			"ĠNEXT": 9459,
			"Ġnaked": 9460,
			"milar": 9461,
			"reg": 9462,
			"Ġheight": 9463,
			"THREE": 9464,
			"Crust": 9465,
			"Jar": 9466,
			"Ġdancing": 9467,
			"walking": 9468,
			"Ġsquared": 9469,
			"Ġnearly": 9470,
			"Del": 9471,
			"dol": 9472,
			"teed": 9473,
			"ago": 9474,
			"alapeno": 9475,
			"Ġsol": 9476,
			"Ġclub": 9477,
			"Ġbuoys": 9478,
			"grater": 9479,
			"RESS": 9480,
			"Ġtiered": 9481,
			"ĠStyrofoam": 9482,
			"Ġstrand": 9483,
			"ĠBR": 9484,
			"Ġbulls": 9485,
			"ttice": 9486,
			"Ġprofile": 9487,
			"Ġtoliet": 9488,
			"Ġextension": 9489,
			"Ġpac": 9490,
			"alo": 9491,
			"Ġwhen": 9492,
			"Tattoo": 9493,
			"irection": 9494,
			"essy": 9495,
			"ello": 9496,
			"ĠYork": 9497,
			"acent": 9498,
			"Carrot": 9499,
			"ĠSTE": 9500,
			"ĠBEACH": 9501,
			"Ġforearm": 9502,
			"Ġengineer": 9503,
			"Ġdeciduous": 9504,
			"Prin": 9505,
			"Ġbold": 9506,
			"borhood": 9507,
			"Ġcourts": 9508,
			"Ġpapaya": 9509,
			"Bre": 9510,
			"Ġthemed": 9511,
			"Ġbottled": 9512,
			"Ġbowling": 9513,
			"Ġstirring": 9514,
			"Log": 9515,
			"getarian": 9516,
			"Ġcorners": 9517,
			"Ġsavanna": 9518,
			"Fluffy": 9519,
			"zzly": 9520,
			"asphalt": 9521,
			"asoning": 9522,
			"Brand": 9523,
			"almond": 9524,
			"ĠNEAR": 9525,
			"ĠLINE": 9526,
			"Of": 9527,
			"ĠFA": 9528,
			"Lemon": 9529,
			"Gu": 9530,
			"Magazine": 9531,
			"Ġivy": 9532,
			"chid": 9533,
			"Inside": 9534,
			"lown": 9535,
			"Ġcurving": 9536,
			"Ġscall": 9537,
			"Ġcrusty": 9538,
			"RAW": 9539,
			"urdy": 9540,
			"Ġfields": 9541,
			"Family": 9542,
			"ĠCoke": 9543,
			"Ġfedora": 9544,
			"Ġcrop": 9545,
			"Ġscen": 9546,
			"Ġtram": 9547,
			"neat": 9548,
			"information": 9549,
			"taining": 9550,
			"elevated": 9551,
			"Ġneeds": 9552,
			"Newspaper": 9553,
			"Driver": 9554,
			"Ġleopard": 9555,
			"acht": 9556,
			"Bacon": 9557,
			"jama": 9558,
			"ulticolor": 9559,
			"Ġangel": 9560,
			"Ob": 9561,
			"Ġboun": 9562,
			"Ġmelons": 9563,
			"flo": 9564,
			"Ġappet": 9565,
			"Ġindividual": 9566,
			"Ent": 9567,
			"antro": 9568,
			"Assorted": 9569,
			"Ġfas": 9570,
			"visitor": 9571,
			"orary": 9572,
			"liquor": 9573,
			"Ġcapris": 9574,
			"Jacket": 9575,
			"Ġtexture": 9576,
			"Ġupon": 9577,
			"angry": 9578,
			"desserts": 9579,
			"ĠSTO": 9580,
			"Wrist": 9581,
			"elican": 9582,
			"amed": 9583,
			"ĠTOILET": 9584,
			"saic": 9585,
			"Ġuses": 9586,
			"Post": 9587,
			"Up": 9588,
			"Cart": 9589,
			"farm": 9590,
			"business": 9591,
			"Pack": 9592,
			"Ġscroll": 9593,
			"Ġworld": 9594,
			"ni": 9595,
			"ĠPi": 9596,
			"hydrant": 9597,
			"sual": 9598,
			"Ġplayed": 9599,
			"yyyy": 9600,
			"bits": 9601,
			"Ġvolleyball": 9602,
			"tible": 9603,
			"Ġescalator": 9604,
			"Ġsid": 9605,
			"Ġsizes": 9606,
			"Ġamid": 9607,
			"story": 9608,
			"ĠCAP": 9609,
			"Suitcase": 9610,
			"opening": 9611,
			"meric": 9612,
			"Ġvacant": 9613,
			"LASSES": 9614,
			"Ġleast": 9615,
			"buoys": 9616,
			"Balcony": 9617,
			"Curved": 9618,
			"shoulder": 9619,
			"Ġroyal": 9620,
			"Ġroots": 9621,
			"Keys": 9622,
			"Ġnon": 9623,
			"Ġcaboose": 9624,
			"GG": 9625,
			"Ġwhip": 9626,
			"MW": 9627,
			"Ġwastebasket": 9628,
			"Ġyellowish": 9629,
			"Ġarmband": 9630,
			"Ġsidelines": 9631,
			"onald": 9632,
			"ilation": 9633,
			"stable": 9634,
			"Ġbookbag": 9635,
			"Cable": 9636,
			"Lid": 9637,
			"ARKING": 9638,
			"drinking": 9639,
			"Al": 9640,
			"shirtless": 9641,
			"ga": 9642,
			"Net": 9643,
			"Sail": 9644,
			"lor": 9645,
			"only": 9646,
			"rails": 9647,
			"Pedestrian": 9648,
			"debris": 9649,
			"Ġdozen": 9650,
			"Ġdolphin": 9651,
			"ĠiPhone": 9652,
			"silhouette": 9653,
			"ĠOn": 9654,
			"LADY": 9655,
			"ied": 9656,
			"ks": 9657,
			"cartoon": 9658,
			"ĠBritish": 9659,
			"mostly": 9660,
			"Ġfurthest": 9661,
			"ARE": 9662,
			"Ġlimes": 9663,
			"Ġsippy": 9664,
			"Ġbusses": 9665,
			"ĠBOOK": 9666,
			"Ġscratching": 9667,
			"Ġcray": 9668,
			"metric": 9669,
			"rim": 9670,
			"tops": 9671,
			"SILVER": 9672,
			"Ġunopened": 9673,
			"ĠDARK": 9674,
			"Railroad": 9675,
			"Night": 9676,
			"blossom": 9677,
			"Clump": 9678,
			"kick": 9679,
			"Ġtuna": 9680,
			"Ġadjacent": 9681,
			"Ġsimilar": 9682,
			"Ġcurvy": 9683,
			"Ġfingernails": 9684,
			"len": 9685,
			"Ġleads": 9686,
			"ĠZEBRA": 9687,
			"Ġadjusting": 9688,
			"not": 9689,
			"ALK": 9690,
			"azelle": 9691,
			"Jeans": 9692,
			"dot": 9693,
			"Ġconcent": 9694,
			"signia": 9695,
			"Fried": 9696,
			"ĠRID": 9697,
			"Wing": 9698,
			"Ġknow": 9699,
			"Ġsymbols": 9700,
			"Ġgreasy": 9701,
			"Ġtuft": 9702,
			"Dress": 9703,
			"nes": 9704,
			"Ġattachment": 9705,
			"Ġmettalic": 9706,
			"oplane": 9707,
			"Ġhatchback": 9708,
			"urope": 9709,
			"vaila": 9710,
			"Ġswoosh": 9711,
			"\".": 9712,
			"Ġtemple": 9713,
			"Fireplace": 9714,
			"Ġvalance": 9715,
			"Leather": 9716,
			"ĠME": 9717,
			"ĠSHEL": 9718,
			"Cabinets": 9719,
			"Blond": 9720,
			"Ġfist": 9721,
			"Ġbarriers": 9722,
			"free": 9723,
			"Ġbrushed": 9724,
			"Ġknack": 9725,
			"Ġlenses": 9726,
			"reflective": 9727,
			"Ġnecks": 9728,
			"Mug": 9729,
			"Ġ25": 9730,
			"mented": 9731,
			"Hole": 9732,
			"KIN": 9733,
			"ESE": 9734,
			"Ġsponsor": 9735,
			"Ġrooster": 9736,
			"Ġconference": 9737,
			"Ġscoop": 9738,
			"rette": 9739,
			"liers": 9740,
			"ĠBABY": 9741,
			"Ġwaits": 9742,
			"wedding": 9743,
			"Ġkhak": 9744,
			"pebbles": 9745,
			"13": 9746,
			"ASKET": 9747,
			"fer": 9748,
			"oak": 9749,
			"ĠMouse": 9750,
			"Me": 9751,
			"ĠLe": 9752,
			"Ġbrushes": 9753,
			"lay": 9754,
			"Ġretaining": 9755,
			"papaya": 9756,
			"vegetation": 9757,
			"sely": 9758,
			"ashion": 9759,
			"Ġlamin": 9760,
			"Ġbegin": 9761,
			"ĠTOWEL": 9762,
			"ĠBAN": 9763,
			"leene": 9764,
			"Ġcot": 9765,
			"Ġsweatpants": 9766,
			"Ġnews": 9767,
			"Ġpaste": 9768,
			"ina": 9769,
			"looks": 9770,
			"Ġgour": 9771,
			"Ġfixing": 9772,
			"Ġpullover": 9773,
			"quee": 9774,
			"eper": 9775,
			"cheesecake": 9776,
			"Ġskeleton": 9777,
			"leenex": 9778,
			"third": 9779,
			"Magazines": 9780,
			"ells": 9781,
			"Ġexerc": 9782,
			"Ġgau": 9783,
			"Ġparka": 9784,
			"cola": 9785,
			"Ġsandles": 9786,
			"lex": 9787,
			"clay": 9788,
			"tes": 9789,
			"Ġking": 9790,
			"ient": 9791,
			"spokes": 9792,
			"ABIN": 9793,
			"Ġprivacy": 9794,
			"Gi": 9795,
			"Ġswings": 9796,
			"Ġpinky": 9797,
			"Ġdeter": 9798,
			"ĠCPU": 9799,
			"vailable": 9800,
			"Ġvillage": 9801,
			"Ġsmelling": 9802,
			"Ġcreated": 9803,
			"Ġnicely": 9804,
			"PS": 9805,
			"coli": 9806,
			"chment": 9807,
			"zor": 9808,
			"Boys": 9809,
			"healthy": 9810,
			"rated": 9811,
			"Ġpavers": 9812,
			"Ġironing": 9813,
			"support": 9814,
			"Ġstreaks": 9815,
			"DER": 9816,
			"Ġreigns": 9817,
			"Ġspool": 9818,
			"ĠFOOD": 9819,
			"Ġbulld": 9820,
			"Ġpup": 9821,
			"structure": 9822,
			"Ġtemperature": 9823,
			"OWN": 9824,
			"greens": 9825,
			"Ġmoose": 9826,
			"SK": 9827,
			"Ġslow": 9828,
			"Mac": 9829,
			"Ġcitrus": 9830,
			"aqua": 9831,
			"Ġmassive": 9832,
			"Ġsalsa": 9833,
			"Flags": 9834,
			"Ġdete": 9835,
			"Sandy": 9836,
			"Ġkhakis": 9837,
			"terminal": 9838,
			"Ġproje": 9839,
			"Ġavocados": 9840,
			"Ġmessage": 9841,
			"Safety": 9842,
			"Ġslender": 9843,
[...]
