{
	"<s>": 0,
	"<pad>": 1,
	"</s>": 2,
	"<unk>": 3,
	"<mask>": 4,
	"<vis_token_1>": 5,
	"<vis_token_2>": 6,
	"<vis_token_3>": 7,
	"<vis_token_4>": 8,
	"<vis_token_5>": 9,
	"<vis_token_6>": 10,
	"<vis_token_7>": 11,
	"<vis_token_8>": 12,
	"<vis_token_9>": 13,
	"<vis_token_10>": 14,
	"<vis_token_11>": 15,
	"<vis_token_12>": 16,
	"<vis_token_13>": 17,
	"<vis_token_14>": 18,
	"<vis_token_15>": 19,
	"<vis_token_16>": 20,
	"<vis_token_17>": 21,
	"<vis_token_18>": 22,
	"<vis_token_19>": 23,
	"<vis_token_20>": 24,
	"<vis_token_21>": 25,
	"<vis_token_22>": 26,
	"<vis_token_23>": 27,
	"<vis_token_24>": 28,
	"<vis_token_25>": 29,
	"<vis_token_26>": 30,
	"<vis_token_27>": 31,
	"<vis_token_28>": 32,
	"<vis_token_29>": 33,
	"<vis_token_30>": 34,
	"<vis_token_31>": 35,
	"<vis_token_32>": 36,
	"<vis_token_33>": 37,
	"<vis_token_34>": 38,
	"<vis_token_35>": 39,
	"<vis_token_36>": 40,
	"<vis_token_37>": 41,
	"<vis_token_38>": 42,
	"<vis_token_39>": 43,
	"<vis_token_40>": 44,
	"<vis_token_41>": 45,
	"<vis_token_42>": 46,
	"<vis_token_43>": 47,
	"<vis_token_44>": 48,
	"<vis_token_45>": 49,
	"<vis_token_46>": 50,
	"<vis_token_47>": 51,
	"<vis_token_48>": 52,
	"<vis_token_49>": 53,
	"<vis_token_50>": 54,
	"<vis_token_51>": 55,
	"<vis_token_52>": 56,
	"<vis_token_53>": 57,
	"<vis_token_54>": 58,
	"<vis_token_55>": 59,
	"<vis_token_56>": 60,
	"<vis_token_57>": 61,
	"<vis_token_58>": 62,
	"<vis_token_59>": 63,
	"<vis_token_60>": 64,
	"<vis_token_61>": 65,
	"<vis_token_62>": 66,
	"<vis_token_63>": 67,
	"<vis_token_64>": 68,
	"<vis_token_65>": 69,
	"<vis_token_66>": 70,
	"<vis_token_67>": 71,
	"<vis_token_68>": 72,
	"<vis_token_69>": 73,
	"<vis_token_70>": 74,
	"<vis_token_71>": 75,
	"<vis_token_72>": 76,
	"<vis_token_73>": 77,
	"<vis_token_74>": 78,
	"<vis_token_75>": 79,
	"<vis_token_76>": 80,
	"<vis_token_77>": 81,
	"<vis_token_78>": 82,
	"<vis_token_79>": 83,
	"<vis_token_80>": 84,
	"<vis_token_81>": 85,
	"<vis_token_82>": 86,
	"<vis_token_83>": 87,
	"<vis_token_84>": 88,
	"<vis_token_85>": 89,
	"<vis_token_86>": 90,
	"<vis_token_87>": 91,
	"<vis_token_88>": 92,
	"<vis_token_89>": 93,
	"<vis_token_90>": 94,
	"<vis_token_91>": 95,
	"<vis_token_92>": 96,
	"<vis_token_93>": 97,
	"<vis_token_94>": 98,
	"<vis_token_95>": 99,
	"<vis_token_96>": 100,
	"<vis_token_97>": 101,
	"<vis_token_98>": 102,
	"<vis_token_99>": 103,
	"<vis_token_100>": 104,
	"<frame_token_1>": 105,
	"<frame_token_2>": 106,
	"<frame_token_3>": 107,
	"<frame_token_4>": 108,
	"<frame_token_5>": 109,
	"<frame_token_6>": 110,
	"<frame_token_7>": 111,
	"<frame_token_8>": 112,
	"<frame_token_9>": 113,
	"<frame_token_10>": 114,
	"<frame_token_11>": 115,
	"<frame_token_12>": 116,
	"<frame_token_13>": 117,
	"<frame_token_14>": 118,
	"<frame_token_15>": 119,
	"<frame_token_16>": 120,
	"<frame_token_17>": 121,
	"<frame_token_18>": 122,
	"<frame_token_19>": 123,
	"<frame_token_20>": 124,
	"<frame_token_21>": 125,
	"<frame_token_22>": 126,
	"<frame_token_23>": 127,
	"<frame_token_24>": 128,
	"<frame_token_25>": 129,
	"<frame_token_26>": 130,
	"<frame_token_27>": 131,
	"<frame_token_28>": 132,
	"<frame_token_29>": 133,
	"<frame_token_30>": 134,
	"<frame_token_31>": 135,
	"<frame_token_32>": 136,
	"<frame_token_33>": 137,
	"<frame_token_34>": 138,
	"<frame_token_35>": 139,
	"<frame_token_36>": 140,
	"<frame_token_37>": 141,
	"<frame_token_38>": 142,
	"<frame_token_39>": 143,
	"<frame_token_40>": 144,
	"<frame_token_41>": 145,
	"<frame_token_42>": 146,
	"<frame_token_43>": 147,
	"<frame_token_44>": 148,
	"<frame_token_45>": 149,
	"<frame_token_46>": 150,
	"<frame_token_47>": 151,
	"<frame_token_48>": 152,
	"<frame_token_49>": 153,
	"<frame_token_50>": 154,
	"<frame_token_51>": 155,
	"<frame_token_52>": 156,
	"<frame_token_53>": 157,
	"<frame_token_54>": 158,
	"<frame_token_55>": 159,
	"<frame_token_56>": 160,
	"<frame_token_57>": 161,
	"<frame_token_58>": 162,
	"<frame_token_59>": 163,
	"<frame_token_60>": 164,
	"<frame_token_61>": 165,
	"<frame_token_62>": 166,
	"<frame_token_63>": 167,
	"<frame_token_64>": 168,
	"<frame_token_65>": 169,
	"<frame_token_66>": 170,
	"<frame_token_67>": 171,
	"<frame_token_68>": 172,
	"<frame_token_69>": 173,
	"<frame_token_70>": 174,
	"<frame_token_71>": 175,
	"<frame_token_72>": 176,
	"<frame_token_73>": 177,
	"<frame_token_74>": 178,
	"<frame_token_75>": 179,
	"<frame_token_76>": 180,
	"<frame_token_77>": 181,
	"<frame_token_78>": 182,
	"<frame_token_79>": 183,
	"<frame_token_80>": 184,
	"<frame_token_81>": 185,
	"<frame_token_82>": 186,
	"<frame_token_83>": 187,
	"<frame_token_84>": 188,
	"<frame_token_85>": 189,
	"<frame_token_86>": 190,
	"<frame_token_87>": 191,
	"<frame_token_88>": 192,
	"<frame_token_89>": 193,
	"<frame_token_90>": 194,
	"<frame_token_91>": 195,
	"<frame_token_92>": 196,
	"<frame_token_93>": 197,
	"<frame_token_94>": 198,
	"<frame_token_95>": 199,
	"<frame_token_96>": 200,
	"<frame_token_97>": 201,
	"<frame_token_98>": 202,
	"<frame_token_99>": 203,
	"<frame_token_100>": 204,
	"<frame_token_101>": 205,
	"<frame_token_102>": 206,
	"<frame_token_103>": 207,
	"<frame_token_104>": 208,
	"<frame_token_105>": 209,
	"<frame_token_106>": 210,
	"<frame_token_107>": 211,
	"<frame_token_108>": 212,
	"<frame_token_109>": 213,
	"<frame_token_110>": 214,
	"<frame_token_111>": 215,
	"<frame_token_112>": 216,
	"<frame_token_113>": 217,
	"<frame_token_114>": 218,
	"<frame_token_115>": 219,
	"<frame_token_116>": 220,
	"<frame_token_117>": 221,
	"<frame_token_118>": 222,
	"<frame_token_119>": 223,
	"<frame_token_120>": 224,
	"<frame_token_121>": 225,
	"<frame_token_122>": 226,
	"<frame_token_123>": 227,
	"<frame_token_124>": 228,
	"<frame_token_125>": 229,
	"<frame_token_126>": 230,
	"<frame_token_127>": 231,
	"<frame_token_128>": 232,
	"<frame_token_129>": 233,
	"<frame_token_130>": 234,
	"<frame_token_131>": 235,
	"<frame_token_132>": 236,
	"<frame_token_133>": 237,
	"<frame_token_134>": 238,
	"<frame_token_135>": 239,
	"<frame_token_136>": 240,
	"<frame_token_137>": 241,
	"<frame_token_138>": 242,
	"<frame_token_139>": 243,
	"<frame_token_140>": 244,
	"<frame_token_141>": 245,
	"<frame_token_142>": 246,
	"<frame_token_143>": 247,
	"<frame_token_144>": 248,
	"<frame_token_145>": 249,
	"<frame_token_146>": 250,
	"<frame_token_147>": 251,
	"<frame_token_148>": 252,
	"<frame_token_149>": 253,
	"<frame_token_150>": 254,
	"<frame_token_151>": 255,
	"<frame_token_152>": 256,
	"<frame_token_153>": 257,
	"<frame_token_154>": 258,
	"<frame_token_155>": 259,
	"<frame_token_156>": 260,
	"<frame_token_157>": 261,
	"<frame_token_158>": 262,
	"<frame_token_159>": 263,
	"<frame_token_160>": 264,
	"<frame_token_161>": 265,
	"<frame_token_162>": 266,
	"<frame_token_163>": 267,
	"<frame_token_164>": 268,
	"<frame_token_165>": 269,
	"<frame_token_166>": 270,
	"<frame_token_167>": 271,
	"<frame_token_168>": 272,
	"<frame_token_169>": 273,
	"<frame_token_170>": 274,
	"<frame_token_171>": 275,
	"<frame_token_172>": 276,
	"<frame_token_173>": 277,
	"<frame_token_174>": 278,
	"<frame_token_175>": 279,
	"<frame_token_176>": 280,
	"<frame_token_177>": 281,
	"<frame_token_178>": 282,
	"<frame_token_179>": 283,
	"<frame_token_180>": 284,
	"<frame_token_181>": 285,
	"<frame_token_182>": 286,
	"<frame_token_183>": 287,
	"<frame_token_184>": 288,
	"<frame_token_185>": 289,
	"<frame_token_186>": 290,
	"<frame_token_187>": 291,
	"<frame_token_188>": 292,
	"<frame_token_189>": 293,
	"<frame_token_190>": 294,
	"<frame_token_191>": 295,
	"<frame_token_192>": 296,
	"<frame_token_193>": 297,
	"<frame_token_194>": 298,
	"<frame_token_195>": 299,
	"<frame_token_196>": 300,
	"<frame_token_197>": 301,
	"<frame_token_198>": 302,
	"<frame_token_199>": 303,
	"<frame_token_200>": 304,
	"<frame_token_201>": 305,
	"<frame_token_202>": 306,
	"<frame_token_203>": 307,
	"<frame_token_204>": 308,
	"<frame_token_205>": 309,
	"<frame_token_206>": 310,
	"<frame_token_207>": 311,
	"<frame_token_208>": 312,
	"<frame_token_209>": 313,
	"<frame_token_210>": 314,
	"<frame_token_211>": 315,
	"<frame_token_212>": 316,
	"<frame_token_213>": 317,
	"<frame_token_214>": 318,
	"<frame_token_215>": 319,
	"<frame_token_216>": 320,
	"<frame_token_217>": 321,
	"<frame_token_218>": 322,
	"<frame_token_219>": 323,
	"<frame_token_220>": 324,
	"<frame_token_221>": 325,
	"<frame_token_222>": 326,
	"<frame_token_223>": 327,
	"<frame_token_224>": 328,
	"<frame_token_225>": 329,
	"<frame_token_226>": 330,
	"<frame_token_227>": 331,
	"<frame_token_228>": 332,
	"<frame_token_229>": 333,
	"<frame_token_230>": 334,
	"<frame_token_231>": 335,
	"<frame_token_232>": 336,
	"<frame_token_233>": 337,
	"<frame_token_234>": 338,
	"<frame_token_235>": 339,
	"<frame_token_236>": 340,
	"<frame_token_237>": 341,
	"<frame_token_238>": 342,
	"<frame_token_239>": 343,
	"<frame_token_240>": 344,
	"<frame_token_241>": 345,
	"<frame_token_242>": 346,
	"<frame_token_243>": 347,
	"<frame_token_244>": 348,
	"<frame_token_245>": 349,
	"<frame_token_246>": 350,
	"<frame_token_247>": 351,
	"<frame_token_248>": 352,
	"<frame_token_249>": 353,
	"<frame_token_250>": 354,
	"<<commander>>": 355,
	"<<follower>>": 356,
	"!": 357,
	"\"": 358,
	"#": 359,
	"$": 360,
	"%": 361,
	"&": 362,
	"'": 363,
	"(": 364,
	")": 365,
	"*": 366,
	"+": 367,
	",": 368,
	"-": 369,
	".": 370,
	"/": 371,
	"0": 372,
	"1": 373,
	"2": 374,
	"3": 375,
	"4": 376,
	"5": 377,
	"6": 378,
	"7": 379,
	"8": 380,
	"9": 381,
	":": 382,
	";": 383,
	"<": 384,
	"=": 385,
	">": 386,
	"?": 387,
	"@": 388,
	"A": 389,
	"B": 390,
	"C": 391,
	"D": 392,
	"E": 393,
	"F": 394,
	"G": 395,
	"H": 396,
	"I": 397,
	"J": 398,
	"K": 399,
	"L": 400,
	"M": 401,
	"N": 402,
	"O": 403,
	"P": 404,
	"Q": 405,
	"R": 406,
	"S": 407,
	"T": 408,
	"U": 409,
	"V": 410,
	"W": 411,
	"X": 412,
	"Y": 413,
	"Z": 414,
	"[": 415,
	"\\": 416,
	"]": 417,
	"^": 418,
	"_": 419,
	"`": 420,
	"a": 421,
	"b": 422,
	"c": 423,
	"d": 424,
	"e": 425,
	"f": 426,
	"g": 427,
	"h": 428,
	"i": 429,
	"j": 430,
	"k": 431,
	"l": 432,
	"m": 433,
	"n": 434,
	"o": 435,
	"p": 436,
	"q": 437,
	"r": 438,
	"s": 439,
	"t": 440,
	"u": 441,
	"v": 442,
	"w": 443,
	"x": 444,
	"y": 445,
	"z": 446,
	"|": 447,
	"}": 448,
	"~": 449,
	"¢": 450,
	"¦": 451,
	"§": 452,
	"¨": 453,
	"©": 454,
	"°": 455,
	"±": 456,
	"´": 457,
	"»": 458,
	"½": 459,
	"Â": 460,
	"Ã": 461,
	"â": 462,
	"ĉ": 463,
	"Ċ": 464,
	"Ġ": 465,
	"Ģ": 466,
	"Ħ": 467,
	"Ķ": 468,
	"Ļ": 469,
	"Ġt": 470,
	"he": 471,
	"Ġo": 472,
	"Ġthe": 473,
	"Ġof": 474,
	"Ġto": 475,
	"le": 476,
	"ri": 477,
	"an": 478,
	"in": 479,
	"te": 480,
	"Ġb": 481,
	"Ġle": 482,
	"gh": 483,
	"ght": 484,
	"Ġri": 485,
	"Ġs": 486,
	"ft": 487,
	"Ġa": 488,
	"Ġleft": 489,
	"Ġright": 490,
	"Ġw": 491,
	"re": 492,
	"as": 493,
	"Ġc": 494,
	"Ġp": 495,
	"Ġh": 496,
	"er": 497,
	"hi": 498,
	"Ġon": 499,
	"la": 500,
	"ow": 501,
	"man": 502,
	"tt": 503,
	"ck": 504,
	"ing": 505,
	"ar": 506,
	"on": 507,
	"or": 508,
	"bu": 509,
	"is": 510,
	"Ġhas": 511,
	"al": 512,
	"Ġatt": 513,
	"Ġg": 514,
	"ribu": 515,
	"ribute": 516,
	"Ġattribute": 517,
	"Ġf": 518,
	"en": 519,
	"ir": 520,
	"at": 521,
	"et": 522,
	"es": 523,
	"and": 524,
	"Ġis": 525,
	"Ġin": 526,
	"ou": 527,
	"hite": 528,
	"Ġd": 529,
	"ra": 530,
	"il": 531,
	"it": 532,
	"rt": 533,
	"all": 534,
	"oo": 535,
	"ers": 536,
	"ind": 537,
	"hirt": 538,
	"ter": 539,
	"Ġwhite": 540,
	"the": 541,
	"el": 542,
	"Ġman": 543,
	"ad": 544,
	"ab": 545,
	"air": 546,
	"Ġm": 547,
	"oman": 548,
	"ch": 549,
	"ea": 550,
	"lack": 551,
	"ce": 552,
	"Ġst": 553,
	"erson": 554,
	"ed": 555,
	"ng": 556,
	"indow": 557,
	"ol": 558,
	"ding": 559,
	"Ġl": 560,
	"ass": 561,
	"bo": 562,
	"Ġsi": 563,
	"op": 564,
	"able": 565,
	"Ġbu": 566,
	"ring": 567,
	"ge": 568,
	"ree": 569,
	"low": 570,
	"ts": 571,
	"Ġblack": 572,
	"oun": 573,
	"oor": 574,
	"lu": 575,
	"ack": 576,
	"Ġand": 577,
	"Ġbo": 578,
	"Ġn": 579,
	"ve": 580,
	"se": 581,
	"ith": 582,
	"Ġwith": 583,
	"red": 584,
	"st": 585,
	"Ġshirt": 586,
	"earing": 587,
	"Ġwearing": 588,
	"lue": 589,
	"The": 590,
	"ro": 591,
	"row": 592,
	"reen": 593,
	"ear": 594,
	"ic": 595,
	"ilding": 596,
	"ot": 597,
	"Ġpla": 598,
	"head": 599,
	"Ġtable": 600,
	"ru": 601,
	"Ġblue": 602,
	"Ġla": 603,
	"Ġwall": 604,
	"ard": 605,
	"ap": 606,
	"shirt": 607,
	"lass": 608,
	"de": 609,
	"gn": 610,
	"rown": 611,
	"Ġwoman": 612,
	"ood": 613,
	"Ġwindow": 614,
	"mp": 615,
	"Ġsh": 616,
	"hair": 617,
	"ound": 618,
	"Ġperson": 619,
	"ain": 620,
	"round": 621,
	"ole": 622,
	"Ġsk": 623,
	"ont": 624,
	"woman": 625,
	"ight": 626,
	"Ġu": 627,
	"ff": 628,
	"person": 629,
	"ke": 630,
	"Ġcar": 631,
	"og": 632,
	"Ġgreen": 633,
	"Ġtree": 634,
	"Ġe": 635,
	"Ġred": 636,
	"ople": 637,
	"eople": 638,
	"mb": 639,
	"ur": 640,
	"Ġbrown": 641,
	"ook": 642,
	"Ġbuilding": 643,
	"Ġj": 644,
	"window": 645,
	"Ġco": 646,
	"hel": 647,
	"ver": 648,
	"sh": 649,
	"ag": 650,
	"board": 651,
	"Ġplate": 652,
	"ants": 653,
	"Ġtra": 654,
	"ttle": 655,
	"lo": 656,
	"irl": 657,
	"Ġare": 658,
	"ant": 659,
	"Ġhand": 660,
	"ves": 661,
	"Ġglass": 662,
	"ater": 663,
	"acket": 664,
	"Ġsign": 665,
	"rass": 666,
	"Ġchair": 667,
	"ark": 668,
	"cle": 669,
	"'s": 670,
	"white": 671,
	"ase": 672,
	"me": 673,
	"one": 674,
	"Ġbe": 675,
	"ellow": 676,
	"Ġcu": 677,
	"ion": 678,
	"tree": 679,
	"Ġdoor": 680,
	"alk": 681,
	"ran": 682,
	"car": 683,
	"ire": 684,
	"Ġy": 685,
	"che": 686,
	"Ġlight": 687,
	"wall": 688,
	"Ġhead": 689,
	"ph": 690,
	"Ġpole": 691,
	"si": 692,
	"reet": 693,
	"tting": 694,
	"Ġside": 695,
	"rees": 696,
	"Ġcol": 697,
	"Ġpi": 698,
	"let": 699,
	"Ġk": 700,
	"his": 701,
	"Ġtop": 702,
	"pla": 703,
	"ence": 704,
	"Ġhair": 705,
	"ffe": 706,
	"loor": 707,
	"ink": 708,
	"Ġwood": 709,
	"ine": 710,
	"mall": 711,
	"ront": 712,
	"ure": 713,
	"pp": 714,
	"ss": 715,
	"Ġwater": 716,
	"umb": 717,
	"Ġne": 718,
	"dy": 719,
	"roo": 720,
	"Ġback": 721,
	"owl": 722,
	"zz": 723,
	"ct": 724,
	"wo": 725,
	"Ġsitting": 726,
	"Ġhol": 727,
	"ate": 728,
	"ld": 729,
	"Ġro": 730,
	"Ġyellow": 731,
	"Ġgrass": 732,
	"Ġstand": 733,
	"ray": 734,
	"rel": 735,
	"lan": 736,
	"lou": 737,
	"Ġre": 738,
	"hat": 739,
	"zza": 740,
	"ycle": 741,
	"illow": 742,
	"Ġsky": 743,
	"rge": 744,
	"Ġfront": 745,
	"orse": 746,
	"chair": 747,
	"Ġleg": 748,
	"ds": 749,
	"door": 750,
	"leph": 751,
	"Ġpeople": 752,
	"ut": 753,
	"now": 754,
	"Ġbus": 755,
	"co": 756,
	"hind": 757,
	"aves": 758,
	"Ġbehind": 759,
	"building": 760,
	"Ġstreet": 761,
	"Ġdog": 762,
	"Ġboy": 763,
	"abin": 764,
	"Ġtrain": 765,
	"Ġground": 766,
	"Ġbottle": 767,
	"Ġtru": 768,
	"Ġjacket": 769,
	"if": 770,
	"ans": 771,
	"ture": 772,
	"Ġan": 773,
	"abinet": 774,
	"rella": 775,
	"nk": 776,
	"top": 777,
	"Ġholding": 778,
	"Ġgirl": 779,
	"cu": 780,
	"helf": 781,
	"ye": 782,
	"met": 783,
	"Ġsp": 784,
	"Ġpants": 785,
	"heel": 786,
	"people": 787,
	"ilver": 788,
	"this": 789,
	"ace": 790,
	"ying": 791,
	"Ġnear": 792,
	"black": 793,
	"sk": 794,
	"pole": 795,
	"der": 796,
	"ove": 797,
	"leg": 798,
	"Ġfloor": 799,
	"hand": 800,
	"uter": 801,
	"orts": 802,
	"mputer": 803,
	"Ġstanding": 804,
	"art": 805,
	"cks": 806,
	"ket": 807,
	"am": 808,
	"Ġbag": 809,
	"Ġcat": 810,
	"range": 811,
	"hild": 812,
	"glass": 813,
	"Ġph": 814,
	"boy": 815,
	"Ġv": 816,
	"li": 817,
	"icture": 818,
	"aper": 819,
	"ira": 820,
	"Ġsu": 821,
	"age": 822,
	"eld": 823,
	"ground": 824,
	"lephant": 825,
	"ail": 826,
	"eans": 827,
	"Ġra": 828,
	"nif": 829,
	"th": 830,
	"anan": 831,
	"Ġcolor": 832,
	"Ġpo": 833,
	"Ġcont": 834,
	"ouse": 835,
	"helmet": 836,
	"Ġhat": 837,
	"Ġfence": 838,
	"Ġdes": 839,
	"Ġsho": 840,
	"ench": 841,
	"ptop": 842,
	"Ġtrees": 843,
	"Ġbed": 844,
	"table": 845,
	"xt": 846,
	"Ġgray": 847,
	"walk": 848,
	"Ġlarge": 849,
	"ĠA": 850,
	"ong": 851,
	"yer": 852,
	"sign": 853,
	"otor": 854,
	"Ġorange": 855,
	"room": 856,
	"Ġso": 857,
	"girl": 858,
	"ay": 859,
	"ounter": 860,
	"Ġar": 861,
	"Ġbear": 862,
	"im": 863,
	"pe": 864,
	"rtain": 865,
	"ang": 866,
	"les": 867,
	"raw": 868,
	"au": 869,
	"lock": 870,
	"Ġpizza": 871,
	"iraffe": 872,
	"Ġbowl": 873,
	"Ġcup": 874,
	"Ġfor": 875,
	"ast": 876,
	"ted": 877,
	"ball": 878,
	"eat": 879,
	"Ġsnow": 880,
	"Ġsmall": 881,
	"Ġnext": 882,
	"Ġear": 883,
	"Ġpl": 884,
	"tter": 885,
	"ie": 886,
	"Ġhorse": 887,
	"cket": 888,
	"id": 889,
	"otorc": 890,
	"ent": 891,
	"ose": 892,
	"ress": 893,
	"ator": 894,
	"Ġclou": 895,
	"rol": 896,
	"otorcycle": 897,
	"Ġbat": 898,
	"Ġdis": 899,
	"urf": 900,
	"ger": 901,
	"ake": 902,
	"Ġflow": 903,
	"Ġat": 904,
	"etal": 905,
	"her": 906,
	"Ġbook": 907,
	"Ġumb": 908,
	"Ġroad": 909,
	"ze": 910,
	"po": 911,
	"Ġcou": 912,
	"Ġpark": 913,
	"ato": 914,
	"plate": 915,
	"nis": 916,
	"ike": 917,
	"ep": 918,
	"Ġfi": 919,
	"ror": 920,
	"irror": 921,
	"ul": 922,
	"Ġdesk": 923,
	"pants": 924,
	"Ġtow": 925,
	"Ġsilver": 926,
	"to": 927,
	"irt": 928,
	"Ġmetal": 929,
	"fri": 930,
	"ĠM": 931,
	"jacket": 932,
	"Ġarm": 933,
	"bra": 934,
	"ple": 935,
	"Ġwooden": 936,
	"ler": 937,
	"Ġumbrella": 938,
	"key": 939,
	"af": 940,
	"Ġfood": 941,
	"Ġpillow": 942,
	"Ġby": 943,
	"Ġbox": 944,
	"Ġwalk": 945,
	"Ġphone": 946,
	"bag": 947,
	"atch": 948,
	"Ġlamp": 949,
	"book": 950,
	"Ġglasses": 951,
	"su": 952,
	"umber": 953,
	"Ġsand": 954,
	"ilet": 955,
	"lane": 956,
	"ick": 957,
	"Ġcabinet": 958,
	"Ġsw": 959,
	"oot": 960,
	"ne": 961,
	"nder": 962,
	"Ġcomputer": 963,
	"Ġcounter": 964,
	"side": 965,
	"green": 966,
	"Ġleaves": 967,
	"White": 968,
	"Ġshelf": 969,
	"Ġletter": 970,
	"pen": 971,
	"ennis": 972,
	"Ġwheel": 973,
	"Ġelephant": 974,
	"Ġtruck": 975,
	"Man": 976,
	"part": 977,
	"Ġshorts": 978,
	"aseball": 979,
	"bottle": 980,
	"qu": 981,
	"orm": 982,
	"two": 983,
	"Ġ2": 984,
	"Ġbench": 985,
	"ateboard": 986,
	"ave": 987,
	"be": 988,
	"Ġcan": 989,
	"Ġhang": 990,
	"ainer": 991,
	"rey": 992,
	"ash": 993,
	"Ġsc": 994,
	"trees": 995,
	"Ġbri": 996,
	"Ġhelmet": 997,
	"arm": 998,
	"oli": 999,
	"Ġeye": 1000,
	"Ġtennis": 1001,
	"Ġdark": 1002,
	"uy": 1003,
	"ak": 1004,
	"zebra": 1005,
	"ite": 1006,
	"Ġface": 1007,
	"Ġpaper": 1008,
	"Ġlaptop": 1009,
	"ĠThe": 1010,
	"ten": 1011,
	"flow": 1012,
	"Ġsurf": 1013,
	"Ġsidewalk": 1014,
	"Ġ25": 1015,
	"Ġve": 1016,
	"ĠAhead": 1017,
	"ĠMove": 1018,
	"Ġit": 1019,
	"Ġhanging": 1020,
	"anana": 1021,
	"Ġair": 1022,
	"ell": 1023,
	"Ġgiraffe": 1024,
	"Ġpicture": 1025,
	"Ġjeans": 1026,
	"read": 1027,
	"eak": 1028,
	"orn": 1029,
	"lar": 1030,
	"ird": 1031,
	"Ġfield": 1032,
	"ort": 1033,
	"gerator": 1034,
	"Ġpink": 1035,
	"Ġclouds": 1036,
	"heep": 1037,
	"Ġmotorcycle": 1038,
	"kin": 1039,
	"asket": 1040,
	"tra": 1041,
	"grass": 1042,
	"ffee": 1043,
	"frigerator": 1044,
	"Ġplayer": 1045,
	"sho": 1046,
	"Ġpot": 1047,
	"Ġwalking": 1048,
	"lag": 1049,
	"Ġunder": 1050,
	"cc": 1051,
	"light": 1052,
	"itche": 1053,
	"get": 1054,
	"ry": 1055,
	"pillow": 1056,
	"Ġball": 1057,
	"pi": 1058,
	"own": 1059,
	"Ġbackground": 1060,
	"keyboard": 1061,
	"Ġchild": 1062,
	"rame": 1063,
	"fence": 1064,
	"Ġout": 1065,
	"Ġboat": 1066,
	"ide": 1067,
	"blue": 1068,
	"Ġstri": 1069,
	"iling": 1070,
	"Ġlong": 1071,
	"Ġclock": 1072,
	"mato": 1073,
	"ese": 1074,
	"Ġpost": 1075,
	"nife": 1076,
	"Ġski": 1077,
	"imal": 1078,
	"wi": 1079,
	"Ġcow": 1080,
	"Ġfro": 1081,
	"tru": 1082,
	"cup": 1083,
	"bus": 1084,
	"way": 1085,
	"Ġte": 1086,
	"mo": 1087,
	"ogo": 1088,
	"Ġup": 1089,
	"pper": 1090,
	"gg": 1091,
	"inds": 1092,
	"Ġdress": 1093,
	"each": 1094,
	"letter": 1095,
	"lev": 1096,
	"pack": 1097,
	"Ġtrunk": 1098,
	"led": 1099,
	"Ġli": 1100,
	"Ġsuit": 1101,
	"Ġch": 1102,
	"Ġwri": 1103,
	"Ġbaseball": 1104,
	"apkin": 1105,
	"ade": 1106,
	"eye": 1107,
	"astic": 1108,
	"Ġcap": 1109,
	"bove": 1110,
	"Ġabove": 1111,
	"Ġcontrol": 1112,
	"Ġcouch": 1113,
	"ruit": 1114,
	"ord": 1115,
	"ision": 1116,
	"ven": 1117,
	"shelf": 1118,
	"brown": 1119,
	"levision": 1120,
	"bowl": 1121,
	"cabinet": 1122,
	"sky": 1123,
	"Ġfri": 1124,
	"so": 1125,
	"Ġcurtain": 1126,
	"Ġsink": 1127,
	"Ġti": 1128,
	"Ġtoilet": 1129,
	"Ġcoat": 1130,
	"Ġmirror": 1131,
	"Ġgrey": 1132,
	"dog": 1133,
	"Ġskateboard": 1134,
	"are": 1135,
	"rash": 1136,
	"Ġshoe": 1137,
	"ored": 1138,
	"case": 1139,
	"sp": 1140,
	"Ġbike": 1141,
	"itor": 1142,
	"Ġboard": 1143,
	"eater": 1144,
	"Ġcle": 1145,
	"child": 1146,
	"water": 1147,
	"cat": 1148,
	"Ġpur": 1149,
	"Ġche": 1150,
	"Ġparked": 1151,
	"getable": 1152,
	"oth": 1153,
	"onitor": 1154,
	"Black": 1155,
	"leaves": 1156,
	"Ġth": 1157,
	"Ġtail": 1158,
	"outh": 1159,
	"Ġdown": 1160,
	"Ġnose": 1161,
	"Ġover": 1162,
	"box": 1163,
	"niform": 1164,
	"rou": 1165,
	"roof": 1166,
	"Ġcake": 1167,
	"lamp": 1168,
	"hicle": 1169,
	"wheel": 1170,
	"icycle": 1171,
	"Ġthat": 1172,
	"ice": 1173,
	"lanket": 1174,
	"om": 1175,
	"Ġtowel": 1176,
	"Ġzebra": 1177,
	"Ġru": 1178,
	"Ġwindows": 1179,
	"floor": 1180,
	"Ġtan": 1181,
	"ame": 1182,
	"ffic": 1183,
	"ped": 1184,
	"Ġplastic": 1185,
	"suit": 1186,
	"lect": 1187,
	"rocc": 1188,
	"Ġneck": 1189,
	"roccoli": 1190,
	"wich": 1191,
	"Ġlady": 1192,
	"Ġshoes": 1193,
	"ĠO": 1194,
	"Ġlook": 1195,
	"Ġopen": 1196,
	"Ġfrom": 1197,
	"ment": 1198,
	"street": 1199,
	"umbrella": 1200,
	"Ġmu": 1201,
	"itchen": 1202,
	"horse": 1203,
	"Ġapp": 1204,
	"Ġtall": 1205,
	"ount": 1206,
	"Ġflower": 1207,
	"old": 1208,
	"pl": 1209,
	"Ġpe": 1210,
	"Ġcolored": 1211,
	"Ġanimal": 1212,
	"Ġwine": 1213,
	"ower": 1214,
	"love": 1215,
	"Ġde": 1216,
	"ect": 1217,
	"bee": 1218,
	"Ġcontainer": 1219,
	"ork": 1220,
	"oon": 1221,
	"Ġflowers": 1222,
	"Ġcove": 1223,
	"auc": 1224,
	"Ġdri": 1225,
	"Ġbath": 1226,
	"picture": 1227,
	"Ġmouse": 1228,
	"oung": 1229,
	"Ġpie": 1230,
	"food": 1231,
	"hes": 1232,
	"sbee": 1233,
	"Two": 1234,
	"shorts": 1235,
	"Ġpain": 1236,
	"ountain": 1237,
	"ting": 1238,
	"ananas": 1239,
	"jeans": 1240,
	"ey": 1241,
	"ĠT": 1242,
	"Ġleaf": 1243,
	"Ġlegs": 1244,
	"Ġframe": 1245,
	"Ġkeyboard": 1246,
	"lady": 1247,
	"Ġste": 1248,
	"rawer": 1249,
	"Ġcoffee": 1250,
	"Ġbeach": 1251,
	"onut": 1252,
	"computer": 1253,
	"Ġracket": 1254,
	"Ġclear": 1255,
	"Ġbel": 1256,
	"ig": 1257,
	"rop": 1258,
	"large": 1259,
	"pizza": 1260,
	"train": 1261,
	"Ġbird": 1262,
	"uts": 1263,
	"alm": 1264,
	"face": 1265,
	"Ġen": 1266,
	"Ġsheep": 1267,
	"amer": 1268,
	"Ġkitchen": 1269,
	"dge": 1270,
	"Ġflag": 1271,
	"small": 1272,
	"shoe": 1273,
	"tan": 1274,
	"cher": 1275,
	"Ġwatch": 1276,
	"curtain": 1277,
	"clou": 1278,
	"ĠR": 1279,
	"plane": 1280,
	"Ġroom": 1281,
	"Ġround": 1282,
	"loth": 1283,
	"Ġvase": 1284,
	"Ġce": 1285,
	"Ġbasket": 1286,
	"ation": 1287,
	"Ġseat": 1288,
	"flower": 1289,
	"yellow": 1290,
	"amera": 1291,
	"cont": 1292,
	"glasses": 1293,
	"ving": 1294,
	"Ġclo": 1295,
	"Ġrefrigerator": 1296,
	"Ġdirt": 1297,
	"Ġbanana": 1298,
	"ill": 1299,
	"Ġhouse": 1300,
	"ber": 1301,
	"Ġtire": 1302,
	"Ġscreen": 1303,
	"Ġfl": 1304,
	"rot": 1305,
	"Ġnumber": 1306,
	"Ġplant": 1307,
	"Ġcon": 1308,
	"nose": 1309,
	"aby": 1310,
	"mote": 1311,
	"This": 1312,
	"Ġstove": 1313,
	"post": 1314,
	"Ġaround": 1315,
	"andle": 1316,
	"tail": 1317,
	"snow": 1318,
	"laptop": 1319,
	"Ġtray": 1320,
	"Ġbl": 1321,
	"Ġgra": 1322,
	"Ġfire": 1323,
	"Woman": 1324,
	"ore": 1325,
	"coat": 1326,
	"Ġplane": 1327,
	"Ġkite": 1328,
	"ĠS": 1329,
	"Ġmonitor": 1330,
	"Ġguy": 1331,
	"Ġknife": 1332,
	"What": 1333,
	"ating": 1334,
	"ines": 1335,
	"ange": 1336,
	"ll": 1337,
	"adow": 1338,
	"pes": 1339,
	"sc": 1340,
	"hield": 1341,
	"Ġsurfboard": 1342,
	"paper": 1343,
	"ches": 1344,
	"orange": 1345,
	"Ġfork": 1346,
	"Ġor": 1347,
	"elephant": 1348,
	"Ġthere": 1349,
	"Ġriding": 1350,
	"Ġlooking": 1351,
	"auce": 1352,
	"uff": 1353,
	"Ġoven": 1354,
	"back": 1355,
	"Ġfoot": 1356,
	"Ġmade": 1357,
	"ish": 1358,
	"Ġlogo": 1359,
	"Ġhandle": 1360,
	"ross": 1361,
	"HE": 1362,
	"ull": 1363,
	"pot": 1364,
	"Ġphot": 1365,
	"ric": 1366,
	"Ġplaying": 1367,
	"Ġcheese": 1368,
	"lice": 1369,
	"Ġcell": 1370,
	"indshield": 1371,
	"Ġshort": 1372,
	"Ġtie": 1373,
	"boat": 1374,
	"player": 1375,
	"Ġbread": 1376,
	"windows": 1377,
	"inger": 1378,
	"Ġfruit": 1379,
	"Ġwrist": 1380,
	"Ġnapkin": 1381,
	"guy": 1382,
	"Ġvehicle": 1383,
	"Ġtomato": 1384,
	"Ġstick": 1385,
	"ble": 1386,
	"ty": 1387,
	"ĠB": 1388,
	"Red": 1389,
	"Ġdish": 1390,
	"con": 1391,
	"bench": 1392,
	"cake": 1393,
	"dr": 1394,
	"Ġpan": 1395,
	"cow": 1396,
	"ĠI": 1397,
	"urn": 1398,
	"Ġbackpack": 1399,
	"ump": 1400,
	"aucet": 1401,
	"out": 1402,
	"Ġpiece": 1403,
	"edge": 1404,
	"Ġrock": 1405,
	"Ġsandwich": 1406,
	"bat": 1407,
	"eet": 1408,
	"mirror": 1409,
	"cou": 1410,
	"Ġse": 1411,
	"icrow": 1412,
	"Ġbicycle": 1413,
	"icrowave": 1414,
	"dle": 1415,
	"Ġcovered": 1416,
	"Ġsweater": 1417,
	"Ġline": 1418,
	"ydr": 1419,
	"Ġbun": 1420,
	"cor": 1421,
	"Ġpurple": 1422,
	"Ġbran": 1423,
	"ydrant": 1424,
	"Ġroof": 1425,
	"bel": 1426,
	"fa": 1427,
	"Ġbrick": 1428,
	"ren": 1429,
	"Ġhis": 1430,
	"dress": 1431,
	"cap": 1432,
	"ĠW": 1433,
	"Ġhydrant": 1434,
	"Ġvegetable": 1435,
	"Ġtelevision": 1436,
	"sand": 1437,
	"Ġtwo": 1438,
	"ly": 1439,
	"flowers": 1440,
	"plant": 1441,
	"des": 1442,
	"Ġmouth": 1443,
	"Ġbathroom": 1444,
	"giraffe": 1445,
	"truck": 1446,
	"ears": 1447,
	"long": 1448,
	"silver": 1449,
	"wood": 1450,
	"ĠC": 1451,
	"sw": 1452,
	"Ġtracks": 1453,
	"ses": 1454,
	"wine": 1455,
	"Ġuniform": 1456,
	"vest": 1457,
	"Ġblanket": 1458,
	"Ġbush": 1459,
	"our": 1460,
	"uce": 1461,
	"bed": 1462,
	"ue": 1463,
	"Ġoff": 1464,
	"banana": 1465,
	"Ġphoto": 1466,
	"Ġmen": 1467,
	"clock": 1468,
	"Ġsle": 1469,
	"eaker": 1470,
	"Green": 1471,
	"Ġinside": 1472,
	"ti": 1473,
	"owel": 1474,
	"Ġtower": 1475,
	"container": 1476,
	"number": 1477,
	"leaf": 1478,
	"aw": 1479,
	"trunk": 1480,
	"motorcycle": 1481,
	"Ġpepper": 1482,
	"flect": 1483,
	"Ġspoon": 1484,
	"Ġfrisbee": 1485,
	"neck": 1486,
	"ps": 1487,
	"Ġtraffic": 1488,
	"uffed": 1489,
	"phone": 1490,
	"Ġcamera": 1491,
	"Ġapple": 1492,
	"ther": 1493,
	"tire": 1494,
	"Ġtrash": 1495,
	"Ġstriped": 1496,
	"Ġpat": 1497,
	"Ġhill": 1498,
	"Ġwire": 1499,
	"ĠN": 1500,
	"pet": 1501,
	"cean": 1502,
	"ĠL": 1503,
	"towel": 1504,
	"sed": 1505,
	"Ġhands": 1506,
	"Ġceiling": 1507,
	"Small": 1508,
	"Is": 1509,
	"ping": 1510,
	"hick": 1511,
	"yes": 1512,
	"legs": 1513,
	"spo": 1514,
	"Ġyoung": 1515,
	"lad": 1516,
	"ub": 1517,
	"Ġslice": 1518,
	"Ġglove": 1519,
	"rin": 1520,
	"Ġhot": 1521,
	"Ġbroccoli": 1522,
	"tomato": 1523,
	"Ġvan": 1524,
	"Ġlights": 1525,
	"ched": 1526,
	"Blue": 1527,
	"eakers": 1528,
	"Ġeyes": 1529,
	"carf": 1530,
	"Ġcontroller": 1531,
	"road": 1532,
	"mpty": 1533,
	"ach": 1534,
	"Ġbananas": 1535,
	"men": 1536,
	"refrigerator": 1537,
	"ved": 1538,
	"Ġlid": 1539,
	"Person": 1540,
	"bike": 1541,
	"ner": 1542,
	"ttom": 1543,
	"cre": 1544,
	"tance": 1545,
	"counter": 1546,
	"Ġpad": 1547,
	"Ġgame": 1548,
	"Ġeating": 1549,
	"Ġdistance": 1550,
	"Ġmountain": 1551,
	"Ġbar": 1552,
	"sidewalk": 1553,
	"basket": 1554,
	"Ġbelow": 1555,
	"Ġno": 1556,
	"ttuce": 1557,
	"tens": 1558,
	"ries": 1559,
	"bush": 1560,
	"ĠP": 1561,
	"eddy": 1562,
	"bj": 1563,
	"IN": 1564,
	"ign": 1565,
	"ggage": 1566,
	"fork": 1567,
	"Ġairplane": 1568,
	"ser": 1569,
	"couch": 1570,
	"ome": 1571,
	"band": 1572,
	"rying": 1573,
	"Ġher": 1574,
	"An": 1575,
	"Ġbaby": 1576,
	"sheep": 1577,
	"foot": 1578,
	"Ġcook": 1579,
	"Ġpair": 1580,
	"Ġbes": 1581,
	"play": 1582,
	"ive": 1583,
	"tensil": 1584,
	"Ġremote": 1585,
	"Ġsm": 1586,
	"Ġletters": 1587,
	"Ġdrawer": 1588,
	"television": 1589,
	"sting": 1590,
	"logo": 1591,
	"Ġsauce": 1592,
	"ron": 1593,
	"mu": 1594,
	"Ġteddy": 1595,
	"ersey": 1596,
	"um": 1597,
	"toilet": 1598,
	"lic": 1599,
	"bear": 1600,
	"Ġbeside": 1601,
	"clouds": 1602,
	"ense": 1603,
	"bird": 1604,
	"thes": 1605,
	"bri": 1606,
	"flag": 1607,
	"can": 1608,
	"Ġstop": 1609,
	"bject": 1610,
	"napkin": 1611,
	"Ġbooks": 1612,
	"knife": 1613,
	"tton": 1614,
	"rist": 1615,
	"roup": 1616,
	"Ġlaying": 1617,
	"Ġocean": 1618,
	"backpack": 1619,
	"ĠY": 1620,
	"form": 1621,
	"stick": 1622,
	"place": 1623,
	"rock": 1624,
	"shoes": 1625,
	"heet": 1626,
	"Ġdonut": 1627,
	"Ġwet": 1628,
	"pepper": 1629,
	"Ġsuitcase": 1630,
	"ool": 1631,
	"Ġsqu": 1632,
	"house": 1633,
	"neakers": 1634,
	"ac": 1635,
	"trash": 1636,
	"col": 1637,
	"image": 1638,
	"ster": 1639,
	"ski": 1640,
	"coffee": 1641,
	"bread": 1642,
	"Brown": 1643,
	"Ġlines": 1644,
	"Ġhe": 1645,
	"rope": 1646,
	"Ġ9": 1647,
	"rots": 1648,
	"Ġsofa": 1649,
	"cheese": 1650,
	"Ġcourt": 1651,
	"Ġstone": 1652,
	"Ġdrink": 1653,
	"gra": 1654,
	"rush": 1655,
	"vase": 1656,
	"up": 1657,
	"Ġcorn": 1658,
	"fruit": 1659,
	"Ġslee": 1660,
	"loves": 1661,
	"Ġchairs": 1662,
	"Ġcloth": 1663,
	"lace": 1664,
	"Ġdo": 1665,
	"Ġarea": 1666,
	"Ġpainted": 1667,
	"Ġimage": 1668,
	"frame": 1669,
	"sink": 1670,
	"uniform": 1671,
	"Ġstraw": 1672,
	"umbers": 1673,
	"ond": 1674,
	"Ġparking": 1675,
	"surf": 1676,
	"aker": 1677,
	"atue": 1678,
	"ale": 1679,
	"Ġmeat": 1680,
	"Ġ90": 1681,
	"ĠNo": 1682,
	"otate": 1683,
	"broccoli": 1684,
	"crete": 1685,
	"Ġcarrying": 1686,
	"apple": 1687,
	"ful": 1688,
	"Ġfull": 1689,
	"sweater": 1690,
	"alad": 1691,
	"oots": 1692,
	"Ġmicrowave": 1693,
	"Ġmug": 1694,
	"Ġcars": 1695,
	"un": 1696,
	"med": 1697,
	"seat": 1698,
	"screen": 1699,
	"Ġold": 1700,
	"Ġbottom": 1701,
	"Ġouts": 1702,
	"ĠYes": 1703,
	"Ġfinger": 1704,
	"doors": 1705,
	"ity": 1706,
	"vegetable": 1707,
	"Ġcur": 1708,
	"ords": 1709,
	"Ġflying": 1710,
	"desk": 1711,
	"flection": 1712,
	"Ġrug": 1713,
	"AN": 1714,
	"Ġgold": 1715,
	"mouth": 1716,
	"Lar": 1717,
	"Ġpurse": 1718,
	"spoon": 1719,
	"ĠIS": 1720,
	"tie": 1721,
	"Ġme": 1722,
	"books": 1723,
	"lasses": 1724,
	"Ġcarrot": 1725,
	"less": 1726,
	"clo": 1727,
	"iny": 1728,
	"blanket": 1729,
	"ning": 1730,
	"skateboard": 1731,
	"Ġwheels": 1732,
	"Large": 1733,
	"Ġcollar": 1734,
	"Ġonion": 1735,
	"Ġdu": 1736,
	"fit": 1737,
	"Ġcandle": 1738,
	"Ġcross": 1739,
	"three": 1740,
	"Ġcart": 1741,
	"Ġpart": 1742,
	"vel": 1743,
	"berry": 1744,
	"bran": 1745,
	"Ġlot": 1746,
	"fire": 1747,
	"Ġoutside": 1748,
	"Ġcord": 1749,
	"di": 1750,
	"Ġcatcher": 1751,
	"Ġfaucet": 1752,
	"ogg": 1753,
	"no": 1754,
	"pur": 1755,
	"ĠD": 1756,
	"Ġvest": 1757,
	"assen": 1758,
	"tform": 1759,
	"quid": 1760,
	"Ġtri": 1761,
	"Ġmo": 1762,
	"Ġdoors": 1763,
	"late": 1764,
	"Ġempty": 1765,
	"ones": 1766,
	"Ġpen": 1767,
	"rink": 1768,
	"ĠRotate": 1769,
	"wooden": 1770,
	"Ġtag": 1771,
	"cloth": 1772,
	"Ġgo": 1773,
	"Ġfeet": 1774,
	"Ġwindshield": 1775,
	"watch": 1776,
	"glove": 1777,
	"rust": 1778,
	"Ġlying": 1779,
	"Ġdecor": 1780,
	"van": 1781,
	"oco": 1782,
	"Ġwatching": 1783,
	"kite": 1784,
	"oni": 1785,
	"ining": 1786,
	"Ġtile": 1787,
	"Ġlu": 1788,
	"wire": 1789,
	"Ġcre": 1790,
	"orses": 1791,
	"Ġbranch": 1792,
	"dark": 1793,
	"Ġlittle": 1794,
	"Ġrun": 1795,
	"drawer": 1796,
	"celet": 1797,
	"Ġfur": 1798,
	"racket": 1799,
	"we": 1800,
	"stand": 1801,
	"nglasses": 1802,
	"Ġsun": 1803,
	"hich": 1804,
	"Ġwa": 1805,
	"Ġ1": 1806,
	"dish": 1807,
	"Ġcom": 1808,
	"Ġag": 1809,
	"Ġtak": 1810,
	"THE": 1811,
	"Ġcarpet": 1812,
	"Ġpotato": 1813,
	"Ġdou": 1814,
	"ces": 1815,
	"Ġstuffed": 1816,
	"Bo": 1817,
	"ather": 1818,
	"Ġpalm": 1819,
	"Ġcorner": 1820,
	"donut": 1821,
	"Ġpillows": 1822,
	"Ġskirt": 1823,
	"roll": 1824,
	"lephants": 1825,
	"Ġsome": 1826,
	"bicycle": 1827,
	"Ġjar": 1828,
	"ige": 1829,
	"Ġsnowboard": 1830,
	"Ġconcrete": 1831,
	"Yellow": 1832,
	"itch": 1833,
	"Ġcabinets": 1834,
	"dirt": 1835,
	"Ġtank": 1836,
	"Ġcurtains": 1837,
	"letters": 1838,
	"lid": 1839,
	"Ġwing": 1840,
	"cell": 1841,
	"roller": 1842,
	"traffic": 1843,
	"ii": 1844,
	"Ġrocks": 1845,
	"Ġring": 1846,
	"Ġagain": 1847,
	"Ġdisplay": 1848,
	"carrot": 1849,
	"sing": 1850,
	"Ġbutton": 1851,
	"Ġvegetables": 1852,
	"ste": 1853,
	"Ġcone": 1854,
	"tern": 1855,
	"tray": 1856,
	"bananas": 1857,
	"tall": 1858,
	"Ġbuildings": 1859,
	"hot": 1860,
	"ING": 1861,
	"wrist": 1862,
	"Ġtoy": 1863,
	"Ġskis": 1864,
	"Ġagainst": 1865,
	"oggles": 1866,
	"Ġsquare": 1867,
	"est": 1868,
	"ras": 1869,
	"Ġdesign": 1870,
	"vehicle": 1871,
	"ction": 1872,
	"shroom": 1873,
	"itcher": 1874,
	"ik": 1875,
	"candle": 1876,
	"pain": 1877,
	"avement": 1878,
	"alf": 1879,
	"TE": 1880,
	"Ġalong": 1881,
	"RE": 1882,
	"Ġcloud": 1883,
	"Ġmid": 1884,
	"There": 1885,
	"mon": 1886,
	"cloud": 1887,
	"gray": 1888,
	"hicken": 1889,
	"metal": 1890,
	"ocolate": 1891,
	"Ġwears": 1892,
	"Ġstack": 1893,
	"rough": 1894,
	"Ġbright": 1895,
	"Ġbushes": 1896,
	"lat": 1897,
	"Ġscarf": 1898,
	"cars": 1899,
	"rowing": 1900,
	"Ġpaw": 1901,
	"tert": 1902,
	"Ġears": 1903,
	"Ġbig": 1904,
	"az": 1905,
	"da": 1906,
	"Ġchain": 1907,
	"Ġluggage": 1908,
	"tertop": 1909,
	"ountertop": 1910,
	"grey": 1911,
	"Ġshadow": 1912,
	"onion": 1913,
	"Ġbra": 1914,
	"oven": 1915,
	"Ġcream": 1916,
	"airs": 1917,
	"Ġdi": 1918,
	"HI": 1919,
	"helves": 1920,
	"Ġmark": 1921,
	"Ġsmiling": 1922,
	"Ġbatter": 1923,
	"Ġbelt": 1924,
	"ightstand": 1925,
	"ĠObject": 1926,
	"St": 1927,
	"apers": 1928,
	"lectric": 1929,
	"tub": 1930,
	"windshield": 1931,
	"bl": 1932,
	"AR": 1933,
	"Ġhi": 1934,
	"ached": 1935,
	"iraff": 1936,
	"ĠON": 1937,
	"ĠF": 1938,
	"straw": 1939,
	"Ġshade": 1940,
	"cord": 1941,
	"Ġbottles": 1942,
	"iraffes": 1943,
	"Ġdraw": 1944,
	"shadow": 1945,
	"Ġegg": 1946,
	"Ġother": 1947,
	"Ġutensil": 1948,
	"Ġstripes": 1949,
	"rap": 1950,
	"Ġattached": 1951,
	"Ġsocks": 1952,
	"Ġturn": 1953,
	"ax": 1954,
	"Ġcolorful": 1955,
	"cross": 1956,
	"Ġjersey": 1957,
	"Ġskier": 1958,
	"Ġgroup": 1959,
	"Ġclosed": 1960,
	"sandwich": 1961,
	"monitor": 1962,
	"Ġbur": 1963,
	"sta": 1964,
	"Ġprin": 1965,
	"Ġsheet": 1966,
	"omen": 1967,
	"Ġgloves": 1968,
	"palm": 1969,
	"Ġsunglasses": 1970,
	"app": 1971,
	"Ġbal": 1972,
	"Ġplace": 1973,
	"las": 1974,
	"front": 1975,
	"Ġend": 1976,
	"assenger": 1977,
	"Ġedge": 1978,
	"Are": 1979,
	"als": 1980,
	"Ġpro": 1981,
	"iss": 1982,
	"Ġleather": 1983,
	"ots": 1984,
	"Ġspeaker": 1985,
	"Ġrail": 1986,
	"People": 1987,
	"veral": 1988,
	"ramed": 1989,
	"animal": 1990,
	"onuts": 1991,
	"Ġplatform": 1992,
	"axi": 1993,
	"surfboard": 1994,
	"Ġspot": 1995,
	"hands": 1996,
	"Ġfil": 1997,
	"Ġsticker": 1998,
	"ask": 1999,
	"Ġlettuce": 2000,
	"Ġboots": 2001,
	"baseball": 2002,
	"eyes": 2003,
	"Ġswitch": 2004,
	"these": 2005,
	"lephone": 2006,
	"meat": 2007,
	"very": 2008,
	"nob": 2009,
	"Ġfore": 2010,
	"Ġstripe": 2011,
	"Ġsalad": 2012,
	"alt": 2013,
	"Ġsneakers": 2014,
	"ges": 2015,
	"Ġbranches": 2016,
	"tte": 2017,
	"Ġwomen": 2018,
	"agn": 2019,
	"Ġworn": 2020,
	"Ġcutting": 2021,
	"Th": 2022,
	"Ġbeing": 2023,
	"gar": 2024,
	"Ġshower": 2025,
	"ccer": 2026,
	"Ġsteel": 2027,
	"Ġthrough": 2028,
	"Ġhorses": 2029,
	"fi": 2030,
	"Ġwriting": 2031,
	"Ġstore": 2032,
	"faucet": 2033,
	"iew": 2034,
	"olice": 2035,
	"rowd": 2036,
	"rate": 2037,
	"eft": 2038,
	"Ġvis": 2039,
	"stove": 2040,
	"Ġad": 2041,
	"pink": 2042,
	"rain": 2043,
	"remote": 2044,
	"onde": 2045,
	"aning": 2046,
	"Silver": 2047,
	"Ġhorn": 2048,
	"berries": 2049,
	"Ġtiles": 2050,
	"finger": 2051,
	"cony": 2052,
	"Ġbridge": 2053,
	"catcher": 2054,
	"Ġju": 2055,
	"brush": 2056,
	"Ġskate": 2057,
	"Ġclothes": 2058,
	"Ġstatue": 2059,
	"icense": 2060,
	"Ġbeer": 2061,
	"Ġlabel": 2062,
	"Ġroll": 2063,
	"rellas": 2064,
	"bras": 2065,
	"purse": 2066,
	"Ġhave": 2067,
	"Ġpattern": 2068,
	"Ġcovering": 2069,
	"Ġfilled": 2070,
	"asher": 2071,
	"mountain": 2072,
	"Ġsock": 2073,
	"us": 2074,
	"Ġholder": 2075,
	"ĠH": 2076,
	"cone": 2077,
	"Ġblinds": 2078,
	"Ġstation": 2079,
	"ppers": 2080,
	"bushes": 2081,
	"mat": 2082,
	"Ġcity": 2083,
	"bur": 2084,
	"Ġinto": 2085,
	"airplane": 2086,
	"Ġplates": 2087,
	"jar": 2088,
	"mpire": 2089,
	"Ġbeige": 2090,
	"Ġcloudy": 2091,
	"Ġband": 2092,
	"Ġfridge": 2093,
	"Ġmiddle": 2094,
	"Ġrope": 2095,
	"Ġpavement": 2096,
	"Ġbody": 2097,
	"Ġcarrots": 2098,
	"rug": 2099,
	"ĠTHE": 2100,
	"Light": 2101,
	"riage": 2102,
	"curtains": 2103,
	"iti": 2104,
	"Ġdoorway": 2105,
	"Ġelephants": 2106,
	"ors": 2107,
	"eds": 2108,
	"Ġset": 2109,
	"eatshirt": 2110,
	"pect": 2111,
	"enter": 2112,
	"Ġben": 2113,
	"pped": 2114,
	"agaz": 2115,
	"zebras": 2116,
	"Ġshap": 2117,
	"ist": 2118,
	"Ġmane": 2119,
	"Ġread": 2120,
	"Ġfe": 2121,
	"ene": 2122,
	"Ġ15": 2123,
	"Ġsleeve": 2124,
	"Ġtv": 2125,
	"Ġlicense": 2126,
	"Ġplay": 2127,
	"LA": 2128,
	"collar": 2129,
	"ho": 2130,
	"Ġun": 2131,
	"pectator": 2132,
	"Ġgar": 2133,
	"speaker": 2134,
	"baby": 2135,
	"ular": 2136,
	"Ġtowels": 2137,
	"Ġword": 2138,
	"Ġgate": 2139,
	"pan": 2140,
	"Ġtea": 2141,
	"CK": 2142,
	"washer": 2143,
	"Ġrack": 2144,
	"rocks": 2145,
	"Ġleaning": 2146,
	"Ġgrowing": 2147,
	"agnet": 2148,
	"Ġliquid": 2149,
	"Ġbet": 2150,
	"Ġcard": 2151,
	"ĠĠ": 2152,
	"Ġplants": 2153,
	"Ġcover": 2154,
	"ffiti": 2155,
	"ween": 2156,
	"LE": 2157,
	"Ġwave": 2158,
	"Ġoutfit": 2159,
	"hill": 2160,
	"Ġoutlet": 2161,
	"Ġpast": 2162,
	"branch": 2163,
	"for": 2164,
	"frisbee": 2165,
	"Three": 2166,
	"right": 2167,
	"Ġbetween": 2168,
	"buildings": 2169,
	"Ġnecklace": 2170,
	"Ġcenter": 2171,
	"Ġbucket": 2172,
	"field": 2173,
	"sauce": 2174,
	"ingers": 2175,
	"ies": 2176,
	"Ġpaint": 2177,
	"Ġday": 2178,
	"Wood": 2179,
	"potato": 2180,
	"aster": 2181,
	"Ġfireplace": 2182,
	"Ġbookshelf": 2183,
	"Ġchi": 2184,
	"Ġone": 2185,
	"Ġkne": 2186,
	"Ġmeter": 2187,
	"Ġtent": 2188,
	"ock": 2189,
	"sock": 2190,
	"rican": 2191,
	"Ġbunch": 2192,
	"suitcase": 2193,
	"ms": 2194,
	"sticker": 2195,
	"skier": 2196,
	"Ġcir": 2197,
	"batter": 2198,
	"ĠG": 2199,
	"Ġke": 2200,
	"Ġbase": 2201,
	"irds": 2202,
	"Ġview": 2203,
	"Ġumpire": 2204,
	"angular": 2205,
	"Ġscene": 2206,
	"spectator": 2207,
	"aus": 2208,
	"Ġgiraffes": 2209,
	"wing": 2210,
	"Ġplan": 2211,
	"chairs": 2212,
	"Ġgri": 2213,
	"Ġcouple": 2214,
	"camera": 2215,
	"eth": 2216,
	"teddy": 2217,
	"ould": 2218,
	"cook": 2219,
	"Ġcrust": 2220,
	"Do": 2221,
	"eather": 2222,
	"Ġpoin": 2223,
	"microwave": 2224,
	"Ġwii": 2225,
	"ated": 2226,
	"lip": 2227,
	"ER": 2228,
	"Ġtooth": 2229,
	"Ġsurface": 2230,
	"Ġdriving": 2231,
	"tis": 2232,
	"bun": 2233,
	"Ġspect": 2234,
	"Ġbare": 2235,
	"lettuce": 2236,
	"ible": 2237,
	"Ġcut": 2238,
	"cabinets": 2239,
	"Ġframed": 2240,
	"Ġpainting": 2241,
	"Ġrunning": 2242,
	"Ġsit": 2243,
	"estri": 2244,
	"Ġvery": 2245,
	"Ġpoles": 2246,
	"ĠRight": 2247,
	"Ġpatch": 2248,
	"Ġsoap": 2249,
	"Ġheadboard": 2250,
	"Ġoli": 2251,
	"Ġspots": 2252,
	"Ġsea": 2253,
	"penser": 2254,
	"Ġrow": 2255,
	"Ġanimals": 2256,
	"oll": 2257,
	"iture": 2258,
	"aucer": 2259,
	"forter": 2260,
	"Ġchocolate": 2261,
	"urniture": 2262,
	"cumber": 2263,
	"Ġpocket": 2264,
	"Ġknob": 2265,
	"issors": 2266,
	"Ġgoggles": 2267,
	"ars": 2268,
	"Ġap": 2269,
	"feet": 2270,
	"Ġpa": 2271,
	"egg": 2272,
	"tag": 2273,
	"scarf": 2274,
	"shi": 2275,
	"Ġelectric": 2276,
	"Ġtablecloth": 2277,
	"ooter": 2278,
	"chup": 2279,
	"Ġpipe": 2280,
	"Ġarrow": 2281,
	"Sh": 2282,
	"Ġex": 2283,
	"Ġshaker": 2284,
	"wheels": 2285,
	"Ġblonde": 2286,
	"Ġnet": 2287,
	"Ġfurniture": 2288,
	"Ġapron": 2289,
	"Part": 2290,
	"Ġkey": 2291,
	"ĠOF": 2292,
	"clothes": 2293,
	"Ġmi": 2294,
	"bage": 2295,
	"Ġnumbers": 2296,
	"vegetables": 2297,
	"ĠLeft": 2298,
	"blinds": 2299,
	"paw": 2300,
	"dis": 2301,
	"ausage": 2302,
	"Ġblond": 2303,
	"ative": 2304,
	"skirt": 2305,
	"vy": 2306,
	"vice": 2307,
	"Ġtopping": 2308,
	"Ġfan": 2309,
	"Ġbracelet": 2310,
	"some": 2311,
	"Ġthis": 2312,
	"Ġble": 2313,
	"Ġtrack": 2314,
	"ous": 2315,
	"horn": 2316,
	"bath": 2317,
	"min": 2318,
	"Ġboot": 2319,
	"Ġhome": 2320,
	"Ġsoccer": 2321,
	"Ġspectator": 2322,
	"Ġtrim": 2323,
	"Ġacross": 2324,
	"Ġskin": 2325,
	"license": 2326,
	"lights": 2327,
	"Ġhu": 2328,
	"iting": 2329,
	"Ġarms": 2330,
	"eath": 2331,
	"Ġvisible": 2332,
	"Ġcows": 2333,
	"pillows": 2334,
	"Ġeng": 2335,
	"arrow": 2336,
	"Ġwires": 2337,
	"tennis": 2338,
	"achine": 2339,
	"there": 2340,
	"Ġcountertop": 2341,
	"tower": 2342,
	"mane": 2343,
	"park": 2344,
	"Orange": 2345,
	"Ġtaken": 2346,
	"Which": 2347,
	"umpire": 2348,
	"ooth": 2349,
	"Ġdough": 2350,
	"Ġas": 2351,
	"Ġapples": 2352,
	"Ġplaid": 2353,
	"Ġshop": 2354,
	"Ġfrosting": 2355,
	"Ġpitcher": 2356,
	"doorway": 2357,
	"ny": 2358,
	"stuffed": 2359,
	"go": 2360,
	"OW": 2361,
	"Ġcand": 2362,
	"ainless": 2363,
	"ideo": 2364,
	"Ġzebras": 2365,
	"ulti": 2366,
	"Ġnightstand": 2367,
	"Ġshiny": 2368,
	"label": 2369,
	"ings": 2370,
	"Ġliving": 2371,
	"ching": 2372,
	"Ġnot": 2373,
	"Ġdogs": 2374,
	"Ġpassenger": 2375,
	"stone": 2376,
	"ope": 2377,
	"phones": 2378,
	"Ġskiing": 2379,
	"Ġcontain": 2380,
	"Ġpine": 2381,
	"carpet": 2382,
	"arding": 2383,
	"oup": 2384,
	"Ġmat": 2385,
	"fur": 2386,
	"Ġboth": 2387,
	"Ġjump": 2388,
	"iler": 2389,
	"ware": 2390,
	"Ġcase": 2391,
	"Ġfac": 2392,
	"Ġmask": 2393,
	"ranges": 2394,
	"ection": 2395,
	"bb": 2396,
	"Ġhood": 2397,
	"ety": 2398,
	"acon": 2399,
	"Ġtomatoes": 2400,
	"belt": 2401,
	"Ġbeard": 2402,
	"Ġrailing": 2403,
	"Ġrect": 2404,
	"Ġdresser": 2405,
	"Ġfo": 2406,
	"opy": 2407,
	"Ġhigh": 2408,
	"He": 2409,
	"plants": 2410,
	"ney": 2411,
	"young": 2412,
	"ered": 2413,
	"Ġite": 2414,
	"clear": 2415,
	"Ġtoget": 2416,
	"ilk": 2417,
	"Ġtogether": 2418,
	"Ġpath": 2419,
	"du": 2420,
	"Boy": 2421,
	"Ġits": 2422,
	"ult": 2423,
	"Ġsliced": 2424,
	"louse": 2425,
	"Ġlit": 2426,
	"pple": 2427,
	"EN": 2428,
	"Ġmar": 2429,
	"Ġdrawers": 2430,
	"luggage": 2431,
	"Ġchicken": 2432,
	"Ġstairs": 2433,
	"xture": 2434,
	"utensil": 2435,
	"gu": 2436,
	"Ġfries": 2437,
	"jersey": 2438,
	"ape": 2439,
	"Ġser": 2440,
	"Ġcooked": 2441,
	"Ġhel": 2442,
	"Ġwaves": 2443,
	"Ġbathtub": 2444,
	"Ġho": 2445,
	"Ġpepperoni": 2446,
	"rinkles": 2447,
	"mney": 2448,
	"sofa": 2449,
	"Ġdeck": 2450,
	"Ġumbrellas": 2451,
	"Ġreflection": 2452,
	"Ġdirty": 2453,
	"Ġtu": 2454,
	"Ġsurfer": 2455,
	"geon": 2456,
	"Ġmaker": 2457,
	"Window": 2458,
	"Sk": 2459,
	"Ġpu": 2460,
	"Ġsoda": 2461,
	"pie": 2462,
	"Ġgu": 2463,
	"Ġbags": 2464,
	"agazine": 2465,
	"Ġchildren": 2466,
	"painting": 2467,
	"sneakers": 2468,
	"Ġkind": 2469,
	"Ġsigns": 2470,
	"Ġflat": 2471,
	"Ġposter": 2472,
	"Ġengine": 2473,
	"lices": 2474,
	"Ġz": 2475,
	"rier": 2476,
	"Ġcarriage": 2477,
	"mel": 2478,
	"Ġriver": 2479,
	"ĠU": 2480,
	"stard": 2481,
	"Ġhalf": 2482,
	"Ġkid": 2483,
	"Ġwork": 2484,
	"Ġtalk": 2485,
	"Ġoranges": 2486,
	"icing": 2487,
	"ooler": 2488,
	"oulder": 2489,
	"outlet": 2490,
	"Ġbricks": 2491,
	"ier": 2492,
	"Ġtelephone": 2493,
	"carrots": 2494,
	"four": 2495,
	"Ġshelves": 2496,
	"Ġwaiting": 2497,
	"Ġdonuts": 2498,
	"chain": 2499,
	"Ġpor": 2500,
	"Ġturned": 2501,
	"Ġcupboard": 2502,
	"Ġplayers": 2503,
	"Ġmushroom": 2504,
	"hed": 2505,
	"Ġshaped": 2506,
	"Ġbears": 2507,
	"icks": 2508,
	"Ġbrush": 2509,
	"ip": 2510,
	"Ġpile": 2511,
	"Ġswing": 2512,
	"Ġwetsuit": 2513,
	"Ġbik": 2514,
	"tent": 2515,
	"ded": 2516,
	"zing": 2517,
	"tten": 2518,
	"stri": 2519,
	"Ġcrowd": 2520,
	"Ġice": 2521,
	"Ġbutter": 2522,
	"reflection": 2523,
	"Ġwords": 2524,
	"headboard": 2525,
	"Ġsy": 2526,
	"Ġany": 2527,
	"Ġdra": 2528,
	"Ġwra": 2529,
	"olding": 2530,
	"pine": 2531,
	"amp": 2532,
	"Ġyou": 2533,
	"cted": 2534,
	"Ġgrassy": 2535,
	"snowboard": 2536,
	"Ġdispenser": 2537,
	"Ġshore": 2538,
	"Ġthree": 2539,
	"ming": 2540,
	"afety": 2541,
	"Ġtalking": 2542,
	"land": 2543,
	"Ġpack": 2544,
	"sert": 2545,
	"bottles": 2546,
	"atu": 2547,
	"Wooden": 2548,
	"Ġban": 2549,
	"Ġped": 2550,
	"Ġpre": 2551,
	"Ġdecoration": 2552,
	"Ġbea": 2553,
	"amic": 2554,
	"Ġusing": 2555,
	"Ġthin": 2556,
	"gate": 2557,
	"moke": 2558,
	"urant": 2559,
	"mbol": 2560,
	"open": 2561,
	"bookshelf": 2562,
	"Ġlette": 2563,
	"section": 2564,
	"Ġjuice": 2565,
	"OR": 2566,
	"Ġfixture": 2567,
	"Ġhard": 2568,
	"sue": 2569,
	"Trees": 2570,
	"boot": 2571,
	"eramic": 2572,
	"Ġpapers": 2573,
	"sheet": 2574,
	"tiles": 2575,
	"Ġkettle": 2576,
	"Ġdevice": 2577,
	"Ġcrate": 2578,
	"mug": 2579,
	"oral": 2580,
	"draw": 2581,
	"Ġwritten": 2582,
	"decor": 2583,
	"port": 2584,
	"Ġgrazing": 2585,
	"Ġlettering": 2586,
	"Ġcups": 2587,
	"eathers": 2588,
	"itar": 2589,
	"wsp": 2590,
	"Ġlemon": 2591,
	"nut": 2592,
	"Ġsweatshirt": 2593,
	"pipe": 2594,
	"Ġbul": 2595,
	"Ġcheck": 2596,
	"work": 2597,
	"staurant": 2598,
	"bracelet": 2599,
	"Ġskateboarder": 2600,
	"Ġmachine": 2601,
	"short": 2602,
	"outfit": 2603,
	"boarding": 2604,
	"Ġdrinking": 2605,
	"Ġbalcony": 2606,
	"several": 2607,
	"Ġreflect": 2608,
	"Ġearring": 2609,
	"cart": 2610,
	"pad": 2611,
	"Ġtaxi": 2612,
	"hone": 2613,
	"Ġpanel": 2614,
	"att": 2615,
	"Ġsay": 2616,
	"quet": 2617,
	"Ġstacked": 2618,
	"Girl": 2619,
	"rine": 2620,
	"Ġpick": 2621,
	"oliceman": 2622,
	"bar": 2623,
	"ance": 2624,
	"wires": 2625,
	"branches": 2626,
	"ON": 2627,
	"Ġpotatoes": 2628,
	"toy": 2629,
	"eping": 2630,
	"HITE": 2631,
	"Ġshow": 2632,
	"Ġdock": 2633,
	"akes": 2634,
	"beer": 2635,
	"Ġdouble": 2636,
	"Ġvideo": 2637,
	"Ġplu": 2638,
	"statue": 2639,
	"Ġsection": 2640,
	"agon": 2641,
	"wspaper": 2642,
	"Ġjet": 2643,
	"Ġrectangular": 2644,
	"Ġpower": 2645,
	"Cat": 2646,
	"Ġlog": 2647,
	"necklace": 2648,
	"left": 2649,
	"mushroom": 2650,
	"olded": 2651,
	"Ġsail": 2652,
	"set": 2653,
	"Ġlad": 2654,
	"bs": 2655,
	"Ġsurfing": 2656,
	"Ġresting": 2657,
	"rance": 2658,
	"sun": 2659,
	"ini": 2660,
	"bow": 2661,
	"Dark": 2662,
	"word": 2663,
	"Ġsn": 2664,
	"rent": 2665,
	"ĠIN": 2666,
	"tel": 2667,
	"Ġcircle": 2668,
	"Ġtiled": 2669,
	"ĠTV": 2670,
	"ases": 2671,
	"Ġsleeved": 2672,
	"Ġoutdoors": 2673,
	"other": 2674,
	"shion": 2675,
	"Ġbirds": 2676,
	"Ġrice": 2677,
	"Ġknee": 2678,
	"Ġkn": 2679,
	"Ġonions": 2680,
	"ĠDown": 2681,
	"Ġstar": 2682,
	"Ġboxes": 2683,
	"merican": 2684,
	"net": 2685,
	"Ġsur": 2686,
	"controller": 2687,
	"vertis": 2688,
	"Ġflu": 2689,
	"Ġsl": 2690,
	"bucket": 2691,
	"Ġwalls": 2692,
	"Ġtaking": 2693,
	"ards": 2694,
	"past": 2695,
	"skis": 2696,
	"couple": 2697,
	"Ġmountains": 2698,
	"na": 2699,
	"Ġscooter": 2700,
	"Ġal": 2701,
	"Ġclean": 2702,
	"utif": 2703,
	"Ġobject": 2704,
	"Ġ\"": 2705,
	"Ġlo": 2706,
	"socks": 2707,
	"Ġname": 2708,
	"AT": 2709,
	"Ġsaucer": 2710,
	"Ġcable": 2711,
	"numbers": 2712,
	"ile": 2713,
	"entrance": 2714,
	"dd": 2715,
	"Ġgoat": 2716,
	"LL": 2717,
	"ition": 2718,
	"Ġswim": 2719,
	"liquid": 2720,
	"words": 2721,
	"Ġwe": 2722,
	"Ġcoming": 2723,
	"verage": 2724,
	"Ġcurb": 2725,
	"parking": 2726,
	"little": 2727,
	"ari": 2728,
	"Ġgirls": 2729,
	"Ġshoulder": 2730,
	"pepperoni": 2731,
	"Ġsteps": 2732,
	"Ġceramic": 2733,
	"cl": 2734,
	"zer": 2735,
	"Ġpeppers": 2736,
	"utiful": 2737,
	"Ġsays": 2738,
	"Ġeach": 2739,
	"atula": 2740,
	"Ġladder": 2741,
	"Ġtong": 2742,
	"fireplace": 2743,
	"fferent": 2744,
	"lur": 2745,
	"apron": 2746,
	"Ġboys": 2747,
	"Ġpull": 2748,
	"appy": 2749,
	"Ġramp": 2750,
	"aking": 2751,
	"Ġflop": 2752,
	"ister": 2753,
	"Ġmans": 2754,
	"melon": 2755,
	"Ġtoothbrush": 2756,
	"ess": 2757,
	"resh": 2758,
	"Ġdining": 2759,
	"Ġswinging": 2760,
	"poster": 2761,
	"Ġwhich": 2762,
	"Ġwalkway": 2763,
	"nic": 2764,
	"com": 2765,
	"ND": 2766,
	"Ġnote": 2767,
	"pat": 2768,
	"Ġthick": 2769,
	"Ġmotor": 2770,
	"Ġblender": 2771,
	"Ġcrossing": 2772,
	"Ġcushion": 2773,
	"Ġteeth": 2774,
	"Ġpieces": 2775,
	"Ġduck": 2776,
	"Ġtub": 2777,
	"Ġpol": 2778,
	"ounted": 2779,
	"drink": 2780,
	"rench": 2781,
	"Ġbeak": 2782,
	"topping": 2783,
	"Ġart": 2784,
	"Ġdishwasher": 2785,
	"ents": 2786,
	"gloves": 2787,
	"Ġwas": 2788,
	"Ġutensils": 2789,
	"Ġcement": 2790,
	"Ġdry": 2791,
	"Ġsleeping": 2792,
	"eller": 2793,
	"AS": 2794,
	"Who": 2795,
	"Ġsoup": 2796,
	"inea": 2797,
	"plan": 2798,
	"Young": 2799,
	"plates": 2800,
	"Ġall": 2801,
	"illar": 2802,
	"chicken": 2803,
	"Ġland": 2804,
	"Ġhorns": 2805,
	"Ġwristband": 2806,
	"gold": 2807,
	"zed": 2808,
	"fro": 2809,
	"tablecloth": 2810,
	"Ġtis": 2811,
	"Ġdressed": 2812,
	"Ġslices": 2813,
	"Ġrestaurant": 2814,
	"ceiling": 2815,
	"salad": 2816,
	"Ġstrawberry": 2817,
	"Ġsee": 2818,
	"spread": 2819,
	"spots": 2820,
	"bal": 2821,
	"Ġsupp": 2822,
	"ropeller": 2823,
	"Ġmounted": 2824,
	"IR": 2825,
	"Gray": 2826,
	"Ġfour": 2827,
	"EAR": 2828,
	"Ġstool": 2829,
	"Ġleafy": 2830,
	"children": 2831,
	"Ġscissors": 2832,
	"io": 2833,
	"Ġtou": 2834,
	"squ": 2835,
	"Ġprint": 2836,
	"Tall": 2837,
	"Ġgrill": 2838,
	"estrian": 2839,
	"Ġburner": 2840,
	"ffy": 2841,
	"papers": 2842,
	"ins": 2843,
	"shower": 2844,
	"rice": 2845,
	"wn": 2846,
	"Ġlooks": 2847,
	"ife": 2848,
	"paint": 2849,
	"Ġboats": 2850,
	"ices": 2851,
	"Ġha": 2852,
	"icnic": 2853,
	"Ġheld": 2854,
	"Ġhole": 2855,
	"inach": 2856,
	"ES": 2857,
	"Ġdecorative": 2858,
	"Ġfacing": 2859,
	"Ġblock": 2860,
	"Ġsty": 2861,
	"Ġsits": 2862,
	"Ġoffice": 2863,
	"Ġtheir": 2864,
	"tertain": 2865,
	"Ġplanter": 2866,
	"Ġused": 2867,
	"ley": 2868,
	"Ġpar": 2869,
	"boots": 2870,
	"rack": 2871,
	"women": 2872,
	"Ġsafety": 2873,
	"Ġshining": 2874,
	"iron": 2875,
	"ED": 2876,
	"ud": 2877,
	"Ġjumping": 2878,
	"Ġolive": 2879,
	"wet": 2880,
	"purple": 2881,
	"Ġhappy": 2882,
	"etchup": 2883,
	"Ġrain": 2884,
	"Ġstem": 2885,
	"Ġcab": 2886,
	"pocket": 2887,
	"bright": 2888,
	"Big": 2889,
	"Ġmagnet": 2890,
	"Ġwhi": 2891,
	"tertainment": 2892,
	"taxi": 2893,
	"tomatoes": 2894,
	"Ġdoll": 2895,
	"Ġlink": 2896,
	"chi": 2897,
	"Ġrear": 2898,
	"Ġcomforter": 2899,
	"bathtub": 2900,
	"fan": 2901,
	"male": 2902,
	"Ġfingers": 2903,
	"Ġsuv": 2904,
	"ily": 2905,
	"IT": 2906,
	"cing": 2907,
	"nt": 2908,
	"ĠLook": 2909,
	"stairs": 2910,
	"Ġlike": 2911,
	"Ġmany": 2912,
	"OU": 2913,
	"Ġchop": 2914,
	"Ġbut": 2915,
	"Look": 2916,
	"ony": 2917,
	"Head": 2918,
	"ired": 2919,
	"ouses": 2920,
	"Ġstrap": 2921,
	"Metal": 2922,
	"crust": 2923,
	"suv": 2924,
	"ial": 2925,
	"bik": 2926,
	"pples": 2927,
	"Ġham": 2928,
	"pitcher": 2929,
	"Ġstands": 2930,
	"Ġclothing": 2931,
	"Ġcooking": 2932,
	"Ġstra": 2933,
	"Pick": 2934,
	"Ġstainless": 2935,
	"Ġfloral": 2936,
	"stache": 2937,
	"Ġpaved": 2938,
	"Ġcalm": 2939,
	"beach": 2940,
	"icrop": 2941,
	"bber": 2942,
	"apples": 2943,
	"Ġheadband": 2944,
	"Ġref": 2945,
	"diator": 2946,
	"Ġballoon": 2947,
	"Ġketchup": 2948,
	"Ġcardboard": 2949,
	"cular": 2950,
	"Ġpos": 2951,
	"Ġdifferent": 2952,
	"Ġbookcase": 2953,
	"Bu": 2954,
	"Re": 2955,
	"Ġfolded": 2956,
	"star": 2957,
	"Ġseen": 2958,
	"Ġi": 2959,
	"Ġfish": 2960,
	"soap": 2961,
	"icrophone": 2962,
	"countertop": 2963,
	"graffiti": 2964,
	"Ġtrailer": 2965,
	"Ġsugar": 2966,
	"frosting": 2967,
	"surfer": 2968,
	"arms": 2969,
	"hole": 2970,
	"Ġforest": 2971,
	"handle": 2972,
	"here": 2973,
	"ĠWHITE": 2974,
	"Ġthumb": 2975,
	"Pink": 2976,
	"ET": 2977,
	"Dog": 2978,
	"Ġstroller": 2979,
	"soda": 2980,
	"cand": 2981,
	"nightstand": 2982,
	"wii": 2983,
	"Ġdin": 2984,
	"strawberry": 2985,
	"Ġsandals": 2986,
	"Ġsausage": 2987,
	"Ġsticking": 2988,
	"Co": 2989,
	"Ġlake": 2990,
	"tank": 2991,
	"cupboard": 2992,
	"cakes": 2993,
	"pit": 2994,
	"lemon": 2995,
	"burner": 2996,
	"Ġiron": 2997,
	"Ġmilk": 2998,
	"ttoman": 2999,
	"piece": 3000,
	"Ġty": 3001,
	"Ġki": 3002,
	"Ġstring": 3003,
	"anges": 3004,
	"goggles": 3005,
	"Ġnight": 3006,
	"olive": 3007,
	"Ġcupcake": 3008,
	"Snow": 3009,
	"Ġdriver": 3010,
	"Ġgoing": 3011,
	"Ġflags": 3012,
	"river": 3013,
	"oranges": 3014,
	"On": 3015,
	"OM": 3016,
	"Ġtoaster": 3017,
	"plastic": 3018,
	"home": 3019,
	"ally": 3020,
	"Ġholds": 3021,
	"ju": 3022,
	"Ġhandles": 3023,
	"Ġdoughnut": 3024,
	"Picture": 3025,
	"ef": 3026,
	"Ġbedroom": 3027,
	"Ġchar": 3028,
	"magnet": 3029,
	"Ġlap": 3030,
	"lurry": 3031,
	"Ġgraffiti": 3032,
	"Ġcomp": 3033,
	"Ġflo": 3034,
	"beard": 3035,
	"shelves": 3036,
	"One": 3037,
	"cil": 3038,
	"cture": 3039,
	"bricks": 3040,
	"Ġgravel": 3041,
	"Ġicing": 3042,
	"ladder": 3043,
	"neath": 3044,
	"Ġsignal": 3045,
	"Ġphotog": 3046,
	"lower": 3047,
	"Ġairport": 3048,
	"Ġcucumber": 3049,
	"Shadow": 3050,
	"ycl": 3051,
	"ashing": 3052,
	"Ġwrapped": 3053,
	"Ġunderneath": 3054,
	"Ġreading": 3055,
	"pa": 3056,
	"Ġcast": 3057,
	"Ġheadlight": 3058,
	"Ġflip": 3059,
	"Ġcheckered": 3060,
	"icker": 3061,
	"Ġcond": 3062,
	"Ġmix": 3063,
	"stop": 3064,
	"group": 3065,
	"Ġpulling": 3066,
	"Long": 3067,
	"ium": 3068,
	"Ġel": 3069,
	"inter": 3070,
	"Ġbell": 3071,
	"fingers": 3072,
	"oc": 3073,
	"crate": 3074,
	"real": 3075,
	"oodles": 3076,
	"slice": 3077,
	"Ġskateboarding": 3078,
	"drawers": 3079,
	"bags": 3080,
	"Ġlift": 3081,
	"LACK": 3082,
	"cable": 3083,
	"ives": 3084,
	"Ġpony": 3085,
	"Ġbeautiful": 3086,
	"Ġrunway": 3087,
	"mbs": 3088,
	"ical": 3089,
	"Ġtoppings": 3090,
	"Ġblouse": 3091,
	"ement": 3092,
	"Ġsymbol": 3093,
	"Ġway": 3094,
	"Ġcooler": 3095,
	"cucumber": 3096,
	"Ġfruits": 3097,
	"Ġmotorcycles": 3098,
	"Ġbanner": 3099,
	"gers": 3100,
	"urch": 3101,
	"lumin": 3102,
	"liance": 3103,
	"Ġgrape": 3104,
	"Ġbacon": 3105,
	"decoration": 3106,
	"ckpit": 3107,
	"mountains": 3108,
	"ders": 3109,
	"balcony": 3110,
	"mas": 3111,
	"dishwasher": 3112,
	"Ġbulb": 3113,
	"Ġsalt": 3114,
	"Ġserving": 3115,
	"Ġdessert": 3116,
	"Ġcellphone": 3117,
	"wristband": 3118,
	"Ġport": 3119,
	"ineapple": 3120,
	"Ġrefle": 3121,
	"Ġfluffy": 3122,
	"donuts": 3123,
	"Ġeggs": 3124,
	"Ġshowing": 3125,
	"ering": 3126,
	"fries": 3127,
	"bridge": 3128,
	"Ġtee": 3129,
	"onions": 3130,
	"dra": 3131,
	"orful": 3132,
	"Ġbre": 3133,
	"Ġcandles": 3134,
	"corn": 3135,
	"Ġgrapes": 3136,
	"Ġcolour": 3137,
	"Does": 3138,
	"Ġcanopy": 3139,
	"Ġfeathers": 3140,
	"Ġripe": 3141,
	"ading": 3142,
	"ret": 3143,
	"line": 3144,
	"Ġenclo": 3145,
	"Ġlin": 3146,
	"hisk": 3147,
	"Ġshi": 3148,
	"grape": 3149,
	"platform": 3150,
	"earring": 3151,
	"Ġbikes": 3152,
	"gout": 3153,
	"kitchen": 3154,
	"empty": 3155,
	"store": 3156,
	"Glass": 3157,
	"Ch": 3158,
	"Ġper": 3159,
	"Ġbin": 3160,
	"Ġfen": 3161,
	"amily": 3162,
	"Ġoffic": 3163,
	"Ġslope": 3164,
	"Ġje": 3165,
	"fig": 3166,
	"Ġhay": 3167,
	"per": 3168,
	"Ġmulti": 3169,
	"Ġbuttons": 3170,
	"Ġcru": 3171,
	"Ġpastry": 3172,
	"Ġdoing": 3173,
	"cul": 3174,
	"Four": 3175,
	"game": 3176,
	"Ġready": 3177,
	"skateboarder": 3178,
	"ĠST": 3179,
	"log": 3180,
	"Ġitems": 3181,
	"Ġstru": 3182,
	"lery": 3183,
	"hing": 3184,
	"rome": 3185,
	"sted": 3186,
	"ddler": 3187,
	"Ġtissue": 3188,
	"Ġhotdog": 3189,
	"que": 3190,
	"culp": 3191,
	"Ġmustard": 3192,
	"Water": 3193,
	"Ġadvertis": 3194,
	"Ġpatterned": 3195,
	"Ġbla": 3196,
	"Ġaw": 3197,
	"Ġstep": 3198,
	"assengers": 3199,
	"Ġpillar": 3200,
	"abric": 3201,
	"day": 3202,
	"Ġplacemat": 3203,
	"Ġchimney": 3204,
	"Ġmagazine": 3205,
	"riz": 3206,
	"Ġreflected": 3207,
	"Ġmeal": 3208,
	"Ġmel": 3209,
	"Turn": 3210,
	"Ġsupport": 3211,
	"Li": 3212,
	"telephone": 3213,
	"Ġcats": 3214,
	"end": 3215,
	"EARING": 3216,
	"Some": 3217,
	"Ġbull": 3218,
	"ĠUp": 3219,
	"ĠE": 3220,
	"ĠWEARING": 3221,
	"sweatshirt": 3222,
	"Front": 3223,
	"ctor": 3224,
	"Ġstair": 3225,
	"Ġcla": 3226,
	"lain": 3227,
	"boxes": 3228,
	"Hand": 3229,
	"sticks": 3230,
	"Open": 3231,
	"mer": 3232,
	"ĠWii": 3233,
	"Ġbarrier": 3234,
	"Ġreflecting": 3235,
	"tooth": 3236,
	"Ġbent": 3237,
	"crowd": 3238,
	"rand": 3239,
	"Ġtables": 3240,
	"mouse": 3241,
	"boats": 3242,
	"Ġbow": 3243,
	"Ġtied": 3244,
	"Ġstyle": 3245,
	"power": 3246,
	"peppers": 3247,
	"Ġfresh": 3248,
	"burger": 3249,
	"culpture": 3250,
	"ward": 3251,
	"cups": 3252,
	"Ġdrain": 3253,
	"Ġtongue": 3254,
	"many": 3255,
	"Ġelectrical": 3256,
	"prin": 3257,
	"itten": 3258,
	"Ġheart": 3259,
	"Ġfla": 3260,
	"time": 3261,
	"inder": 3262,
	"vers": 3263,
	"ital": 3264,
	"Ġcontainers": 3265,
	"aked": 3266,
	"Ġolives": 3267,
	"Ġhoo": 3268,
	"Ġsprinkles": 3269,
	"To": 3270,
	"ana": 3271,
	"Ġbeneath": 3272,
	"Ġfeed": 3273,
	"Ġvehicles": 3274,
	"butter": 3275,
	"Ġdecker": 3276,
	"Ġplatter": 3277,
	"Ġcube": 3278,
	"sure": 3279,
	"fo": 3280,
	"ise": 3281,
	"duce": 3282,
	"goat": 3283,
	"Grey": 3284,
	"ages": 3285,
	"Ġcurved": 3286,
	"ters": 3287,
	"Sign": 3288,
	"sty": 3289,
	"Ġclose": 3290,
	"Ġab": 3291,
	"Ġpointing": 3292,
	"OO": 3293,
	"unch": 3294,
	"Ġfabric": 3295,
	"Ġpigeon": 3296,
	"Ġpool": 3297,
	"Ġcage": 3298,
	"yclist": 3299,
	"celain": 3300,
	"big": 3301,
	"Ġpul": 3302,
	"ĠMAN": 3303,
	"bookcase": 3304,
	"Ġbeverage": 3305,
	"gri": 3306,
	"Ġforeground": 3307,
	"Ġentrance": 3308,
	"wetsuit": 3309,
	"Ġnewspaper": 3310,
	"Ġtape": 3311,
	"angle": 3312,
	"avy": 3313,
	"Ġstructure": 3314,
	"comforter": 3315,
	"Ġsandy": 3316,
	"ume": 3317,
	"Ġmitt": 3318,
	"Ġpicnic": 3319,
	"Ġbowls": 3320,
	"umer": 3321,
	"Ġgas": 3322,
	"ado": 3323,
	"Ġmenu": 3324,
	"Ġnapkins": 3325,
	"Ġbeans": 3326,
	"Ġge": 3327,
	"Ġmale": 3328,
	"py": 3329,
	"estrians": 3330,
	"Ġlawn": 3331,
	"pick": 3332,
	"Se": 3333,
	"aul": 3334,
	"salt": 3335,
	"pigeon": 3336,
	"Ġmini": 3337,
	"Ġheadphones": 3338,
	"sausage": 3339,
	"chocolate": 3340,
	"Ġsnowboarder": 3341,
	"Ġrubber": 3342,
	"horses": 3343,
	"otive": 3344,
	"dresser": 3345,
	"Baseball": 3346,
	"elephants": 3347,
	"Ġhaired": 3348,
	"Ġbro": 3349,
	"Ġduring": 3350,
	"ristmas": 3351,
	"ild": 3352,
	"Put": 3353,
	"tenna": 3354,
	"Ġdishes": 3355,
	"brick": 3356,
	"she": 3357,
	"Ġhook": 3358,
	"tong": 3359,
	"Ġitem": 3360,
	"Ġgarbage": 3361,
	"Back": 3362,
	"Ġtext": 3363,
	"steps": 3364,
	"Ġprote": 3365,
	"patch": 3366,
	"Pi": 3367,
	"Ġgla": 3368,
	"Ġrais": 3369,
	"ocean": 3370,
	"raph": 3371,
	"lets": 3372,
	"cond": 3373,
	"Ġadult": 3374,
	"HIS": 3375,
	"umpkin": 3376,
	"wic": 3377,
	"Ġcords": 3378,
	"passenger": 3379,
	"Ġenclosure": 3380,
	"Ġdinner": 3381,
	"shop": 3382,
	"Ġcurly": 3383,
	"spectators": 3384,
	"Ġsmoke": 3385,
	"Ġsnowy": 3386,
	"Car": 3387,
	"beak": 3388,
	"Ġporcelain": 3389,
	"wiches": 3390,
	"rimp": 3391,
	"mi": 3392,
	"ketchup": 3393,
	"Ġwide": 3394,
	"ppy": 3395,
	"Ġthrow": 3396,
	"Ġrim": 3397,
	"cows": 3398,
	"Ġdot": 3399,
	"potatoes": 3400,
	"juice": 3401,
	"Ġwagon": 3402,
	"asted": 3403,
	"towels": 3404,
	"Ġzoo": 3405,
	"irth": 3406,
	"Ġyard": 3407,
	"Ġpolar": 3408,
	"Ġawning": 3409,
	"pping": 3410,
	"Ġlife": 3411,
	"cast": 3412,
	"teeth": 3413,
	"Ġsheets": 3414,
	"Ġkites": 3415,
	"Ġtime": 3416,
	"dio": 3417,
	"Ġfig": 3418,
	"voc": 3419,
	"vocado": 3420,
	"Ġweeds": 3421,
	"Ġtouching": 3422,
	"lowing": 3423,
	"mething": 3424,
	"Ġanother": 3425,
	"ĠSU": 3426,
	"Ġpaws": 3427,
	"asil": 3428,
	"Ġconne": 3429,
	"Pl": 3430,
	"Ġstor": 3431,
	"stru": 3432,
	"Ġamerican": 3433,
	"Ġcrosswalk": 3434,
	"american": 3435,
	"ano": 3436,
	"balloon": 3437,
	"mask": 3438,
	"Ġfigu": 3439,
	"Ġspl": 3440,
	"pair": 3441,
	"Ġfigure": 3442,
	"Ġpads": 3443,
	"Grass": 3444,
	"irthday": 3445,
	"onkey": 3446,
	"stume": 3447,
	"RA": 3448,
	"IG": 3449,
	"hak": 3450,
	"Ġpaddle": 3451,
	"wig": 3452,
	"Ġabout": 3453,
	"Ġhere": 3454,
	"Ġspatula": 3455,
	"Ġsli": 3456,
	"Ġcookie": 3457,
	"Ġofficer": 3458,
	"Ġbenches": 3459,
	"Ġmud": 3460,
	"acher": 3461,
	"ned": 3462,
	"cupcake": 3463,
	"Ġstrawberries": 3464,
	"Ġentertainment": 3465,
	"Ġtusk": 3466,
	"gravel": 3467,
	"Ġorn": 3468,
	"ling": 3469,
	"bbon": 3470,
	"Ġshel": 3471,
	"Ġchurch": 3472,
	"Ġinter": 3473,
	"ĠBLACK": 3474,
	"Ġwicker": 3475,
	"flags": 3476,
	"umbrellas": 3477,
	"stom": 3478,
	"jo": 3479,
	"horns": 3480,
	"Ġpulled": 3481,
	"hiskers": 3482,
	"Ġship": 3483,
	"skin": 3484,
	"ham": 3485,
	"Ġtires": 3486,
	"risbee": 3487,
	"Ġswimming": 3488,
	"Ġmaroon": 3489,
	"utensils": 3490,
	"Ġmatch": 3491,
	"oose": 3492,
	"Ġprinted": 3493,
	"Tennis": 3494,
	"Ġshirts": 3495,
	"Ġbedspread": 3496,
	"Ġhitting": 3497,
	"Ġcandy": 3498,
	"planter": 3499,
	"attress": 3500,
	"bacon": 3501,
	"carriage": 3502,
	"Ġcal": 3503,
	"Ġguitar": 3504,
	"arp": 3505,
	"Ġpas": 3506,
	"Building": 3507,
	"Tree": 3508,
	"policeman": 3509,
	"Ġhoriz": 3510,
	"Ġhose": 3511,
	"Ġbi": 3512,
	"Ġportion": 3513,
	"umn": 3514,
	"chimney": 3515,
	"iflower": 3516,
	"silverware": 3517,
	"Ġpots": 3518,
	"Ġchest": 3519,
	"Ġshopping": 3520,
	"tty": 3521,
	"Ġpictures": 3522,
	"cream": 3523,
	"pod": 3524,
	"Cle": 3525,
	"ĠAND": 3526,
	"grapes": 3527,
	"Ġdel": 3528,
	"sy": 3529,
	"blouse": 3530,
	"aded": 3531,
	"Ġhardwood": 3532,
	"dou": 3533,
	"ilt": 3534,
	"display": 3535,
	"auliflower": 3536,
	"Ġthem": 3537,
	"thumb": 3538,
	"colored": 3539,
	"achers": 3540,
	"sian": 3541,
	"card": 3542,
	"Ġber": 3543,
	"Ġappliance": 3544,
	"ious": 3545,
	"Ġpatio": 3546,
	"cutting": 3547,
	"sail": 3548,
	"stack": 3549,
	"nuts": 3550,
	"cords": 3551,
	"cooked": 3552,
	"haki": 3553,
	"Ġmound": 3554,
	"Ġsticks": 3555,
	"Ġfolding": 3556,
	"Ġgarage": 3557,
	"Ġwhile": 3558,
	"tea": 3559,
	"Ġcondition": 3560,
	"Ġenjo": 3561,
	"toaster": 3562,
	"Ġpropeller": 3563,
	"Ġcher": 3564,
	"Ġstrip": 3565,
	"OP": 3566,
	"Pizza": 3567,
	"Food": 3568,
	"Ġnumer": 3569,
	"Ġrider": 3570,
	"Ġrac": 3571,
	"bottom": 3572,
	"square": 3573,
	"Ġea": 3574,
	"THIS": 3575,
	"ronic": 3576,
	"kini": 3577,
	"Ġdaytime": 3578,
	"Ġspectators": 3579,
	"cra": 3580,
	"Ġfew": 3581,
	"walls": 3582,
	"ouquet": 3583,
	"Ġblurry": 3584,
	"Book": 3585,
	"Ġposing": 3586,
	"IC": 3587,
	"magazine": 3588,
	"Ze": 3589,
	"elier": 3590,
	"lectronic": 3591,
	"weeds": 3592,
	"Ġcrou": 3593,
	"nel": 3594,
	"Ġr": 3595,
	"allway": 3596,
	"Ġchin": 3597,
	"sea": 3598,
	"headband": 3599,
	"Ġribbon": 3600,
	"Ġpoliceman": 3601,
	"Ġtrunks": 3602,
	"Ġrest": 3603,
	"ian": 3604,
	"blender": 3605,
	"agazines": 3606,
	"scissors": 3607,
	"atting": 3608,
	"arette": 3609,
	"Ġsilverware": 3610,
	"Ġbor": 3611,
	"Little": 3612,
	"driver": 3613,
	"duck": 3614,
	"Ġwinter": 3615,
	"Ġsurround": 3616,
	"AD": 3617,
	"igarette": 3618,
	"Ġhoodie": 3619,
	"Ġoutdoor": 3620,
	"eling": 3621,
	"Ġdrapes": 3622,
	"Ġpasta": 3623,
	"ĠK": 3624,
	"ither": 3625,
	"Child": 3626,
	"Ġtrick": 3627,
	"Ġcrack": 3628,
	"Ġhandbag": 3629,
	"TER": 3630,
	"Ġenjoying": 3631,
	"LD": 3632,
	"Ġspe": 3633,
	"Ġfrench": 3634,
	"ially": 3635,
	"Ġtin": 3636,
	"Ġskies": 3637,
	"Ġrose": 3638,
	"Ġdugout": 3639,
	"Ġrailroad": 3640,
	"Ġstones": 3641,
	"ALL": 3642,
	"mark": 3643,
	"Ġfar": 3644,
	"Ġclu": 3645,
	"larm": 3646,
	"Ġhillside": 3647,
	"Ġsandal": 3648,
	"ged": 3649,
	"Ġmarket": 3650,
	"shiny": 3651,
	"Ġdire": 3652,
	"Ġballs": 3653,
	"path": 3654,
	"Ġgi": 3655,
	"Ġtype": 3656,
	"Ġpolice": 3657,
	"Ġpedestrian": 3658,
	"ken": 3659,
	"Ġintersection": 3660,
	"Ġeither": 3661,
	"pastry": 3662,
	"Ġseveral": 3663,
	"Ġgetting": 3664,
	"Ġmicrophone": 3665,
	"yard": 3666,
	"Ġpointy": 3667,
	"ooring": 3668,
	"Ġcircular": 3669,
	"ĠĠĠĠ": 3670,
	"Ġknobs": 3671,
	"Le": 3672,
	"phalt": 3673,
	"saucer": 3674,
	"Ġ3": 3675,
	"Ġspinach": 3676,
	"allet": 3677,
	"ĠARE": 3678,
	"giraffes": 3679,
	"dishes": 3680,
	"Ġfemale": 3681,
	"Windows": 3682,
	"Ġcans": 3683,
	"placemat": 3684,
	"fast": 3685,
	"Ġspray": 3686,
	"canopy": 3687,
	"riting": 3688,
	"vehicles": 3689,
	"LU": 3690,
	"oe": 3691,
	"birds": 3692,
	"ĠV": 3693,
	"pavement": 3694,
	"colorful": 3695,
	"Ġhotel": 3696,
	"Ġottoman": 3697,
	"par": 3698,
	"Ġgolden": 3699,
	"Ġopened": 3700,
	"Ġtran": 3701,
	"Ġlamb": 3702,
	"fla": 3703,
	"rane": 3704,
	"val": 3705,
	"Ġcones": 3706,
	"ery": 3707,
	"pt": 3708,
	"oy": 3709,
	"Ġfoil": 3710,
	"mustard": 3711,
	"smoke": 3712,
	"animals": 3713,
	"Ġwaist": 3714,
	"cur": 3715,
	"Ġsomething": 3716,
	"Ġcolors": 3717,
	"Train": 3718,
	"Ġaway": 3719,
	"menu": 3720,
	"Ġelbow": 3721,
	"Ġbuses": 3722,
	"Ġmustache": 3723,
	"cooler": 3724,
	"Ġcowboy": 3725,
	"Ġsame": 3726,
	"Ġwings": 3727,
	"jam": 3728,
	"Ġhit": 3729,
	"AND": 3730,
	"grill": 3731,
	"ats": 3732,
	"Ġmoving": 3733,
	"iness": 3734,
	"cumbers": 3735,
	"akfast": 3736,
	"Ġsunny": 3737,
	"Ġonto": 3738,
	"chool": 3739,
	"Ġmed": 3740,
	"Ġshape": 3741,
	"ACK": 3742,
	"Ġmotorbike": 3743,
	"AB": 3744,
	"urt": 3745,
	"Ġchips": 3746,
	"Pickup": 3747,
	"Ġeyeglasses": 3748,
	"Ġtoast": 3749,
	"Clear": 3750,
	"oned": 3751,
	"Ġradiator": 3752,
	"os": 3753,
	"Reflection": 3754,
	"Ġisland": 3755,
	"Ġhouses": 3756,
	"Ġupside": 3757,
	"Ġflooring": 3758,
	"cts": 3759,
	"Ġwhere": 3760,
	"Ġbirthday": 3761,
	"Ġfloating": 3762,
	"nequ": 3763,
	"eled": 3764,
	"Ġgear": 3765,
	"Ġkhaki": 3766,
	"Ġphotograph": 3767,
	"Ġfigurine": 3768,
	"Ġthrowing": 3769,
	"Ġam": 3770,
	"Ġden": 3771,
	"Ġfoam": 3772,
	"by": 3773,
	"Ġtowards": 3774,
	"Ġvent": 3775,
	"Ġshru": 3776,
	"icious": 3777,
	"Ġnotebook": 3778,
	"AL": 3779,
	"headphones": 3780,
	"Ġpasture": 3781,
	"Pie": 3782,
	"walkway": 3783,
	"olives": 3784,
	"gull": 3785,
	"Ġchrome": 3786,
	"Ġracquet": 3787,
	"These": 3788,
	"letic": 3789,
	"Ġlined": 3790,
	"Ġfried": 3791,
	"Ġskater": 3792,
	"roun": 3793,
	"players": 3794,
	"Ġtip": 3795,
	"Ġflops": 3796,
	"OT": 3797,
	"Ġseated": 3798,
	"Ġraised": 3799,
	"ĠJ": 3800,
	"sprinkles": 3801,
	"sole": 3802,
	"Ġtarm": 3803,
	"ames": 3804,
	"rapher": 3805,
	"Ġrange": 3806,
	"doll": 3807,
	"ĠFrisbee": 3808,
	"trailer": 3809,
	"ath": 3810,
	"aste": 3811,
	"Ġlan": 3812,
	"anda": 3813,
	"eggs": 3814,
	"arden": 3815,
	"Right": 3816,
	"pro": 3817,
	"Ġpolo": 3818,
	"Ġmet": 3819,
	"fish": 3820,
	"Ġhuman": 3821,
	"Ġbarn": 3822,
	"electric": 3823,
	"Ġspread": 3824,
	"Ġca": 3825,
	"button": 3826,
	"cy": 3827,
	"ament": 3828,
	"Ġcolumn": 3829,
	"Left": 3830,
	"boys": 3831,
	"Ġlow": 3832,
	"Ġqu": 3833,
	"step": 3834,
	"aching": 3835,
	"uck": 3836,
	"allic": 3837,
	"Ġwip": 3838,
	"Ġovercast": 3839,
	"LUE": 3840,
	"Ġspotted": 3841,
	"Ġporch": 3842,
	"Ġbald": 3843,
	"Ġext": 3844,
	"Ġwhiskers": 3845,
	"fly": 3846,
	"Ġworking": 3847,
	"Ġwithout": 3848,
	"Ġmuff": 3849,
	"stroller": 3850,
	"illa": 3851,
	"Ġsub": 3852,
	"Bus": 3853,
	"Ġstraight": 3854,
	"scooter": 3855,
	"Ġtrains": 3856,
	"Ġleading": 3857,
	"Round": 3858,
	"Ġbeen": 3859,
	"edding": 3860,
	"Ġbicycles": 3861,
	"strawberries": 3862,
	"ctive": 3863,
	"attoo": 3864,
	"ID": 3865,
	"teri": 3866,
	"Ġoverhead": 3867,
	"Ġlock": 3868,
	"Ġsad": 3869,
	"Ġwatermelon": 3870,
	"Ġbending": 3871,
	"alle": 3872,
	"Ġpacket": 3873,
	"Ġpow": 3874,
	"kettle": 3875,
	"IS": 3876,
	"Ġconditioner": 3877,
	"rounding": 3878,
	"drapes": 3879,
	"Pur": 3880,
	"ĠIt": 3881,
	"icol": 3882,
	"Zebra": 3883,
	"cookie": 3884,
	"nee": 3885,
	"Ġpencil": 3886,
	"amond": 3887,
	"Group": 3888,
	"Ġath": 3889,
	"els": 3890,
	"Ġbars": 3891,
	"Ġbiker": 3892,
	"toppings": 3893,
	"multi": 3894,
	"Top": 3895,
	"ulticol": 3896,
	"mes": 3897,
	"int": 3898,
	"Ġfurry": 3899,
	"Ġasphalt": 3900,
	"Ġchef": 3901,
	"Bottle": 3902,
	"candles": 3903,
	"Ġsurrounding": 3904,
	"aller": 3905,
	"Ġkids": 3906,
	"Ġkeys": 3907,
	"Ġposts": 3908,
	"Ġnoodles": 3909,
	"rinal": 3910,
	"agus": 3911,
	"fe": 3912,
	"Ġmarble": 3913,
	"bathroom": 3914,
	"AIR": 3915,
	"Old": 3916,
	"Ġlips": 3917,
	"Ġdenim": 3918,
	"sandal": 3919,
	"Ġleash": 3920,
	"Ġfall": 3921,
	"fore": 3922,
	"Ġcockpit": 3923,
	"Ġcloset": 3924,
	"Ġcereal": 3925,
	"Ġtool": 3926,
	"biker": 3927,
	"Ġhuge": 3928,
	"soccer": 3929,
	"acter": 3930,
	"Ġforward": 3931,
	"RT": 3932,
	"Ġtravel": 3933,
	"Ġprinter": 3934,
	"bikes": 3935,
	"barrier": 3936,
	"Ġstain": 3937,
	"Ġmaking": 3938,
	"Ġborder": 3939,
	"Ġcli": 3940,
	"Ġdecorated": 3941,
	"Several": 3942,
	"Ġheadlights": 3943,
	"Phot": 3944,
	"ghter": 3945,
	"nequin": 3946,
	"Ġplaced": 3947,
	"Tan": 3948,
	"figu": 3949,
	"jamas": 3950,
	"Ġhar": 3951,
	"Giraffe": 3952,
	"vi": 3953,
	"fruits": 3954,
	"pots": 3955,
	"igital": 3956,
	"gged": 3957,
	"Ġfree": 3958,
	"thick": 3959,
	"tissue": 3960,
	"ried": 3961,
	"Ġdrive": 3962,
	"Ġcanister": 3963,
	"toothbrush": 3964,
	"ingle": 3965,
	"chop": 3966,
	"ockey": 3967,
	"vergreen": 3968,
	"Ġexten": 3969,
	"isher": 3970,
	"Ġcabbage": 3971,
	"Ġknives": 3972,
	"Tra": 3973,
	"vert": 3974,
	"dience": 3975,
	"Ġdr": 3976,
	"kn": 3977,
	"kes": 3978,
	"Ġtur": 3979,
	"spatula": 3980,
	"irst": 3981,
	"Sand": 3982,
	"cases": 3983,
	"aring": 3984,
	"sm": 3985,
	"Ġtarmac": 3986,
	"ary": 3987,
	"ĠSUV": 3988,
	"Ġseats": 3989,
	"newspaper": 3990,
	"Ġadvertisement": 3991,
	"dered": 3992,
	"Ġmelted": 3993,
	"Ġbaked": 3994,
	"Ġpineapple": 3995,
	"ca": 3996,
	"Ġrocky": 3997,
	"Ġcherry": 3998,
	"napkins": 3999,
	"Ġmost": 4000,
	"Ġspices": 4001,
	"Ġarched": 4002,
	"Ġlamps": 4003,
	"Ġapart": 4004,
	"Pla": 4005,
	"symbol": 4006,
	"Street": 4007,
	"Ġsculpture": 4008,
	"Ġmother": 4009,
	"Ġskating": 4010,
	"Many": 4011,
	"Ġsurrounded": 4012,
	"Ġdead": 4013,
	"heart": 4014,
	"tape": 4015,
	"Ġindoors": 4016,
	"Ġsla": 4017,
	"scrap": 4018,
	"ute": 4019,
	"terior": 4020,
	"milk": 4021,
	"shing": 4022,
	"rail": 4023,
	"Lamp": 4024,
	"Ġsale": 4025,
	"Table": 4026,
	"Ġoil": 4027,
	"Ġrolling": 4028,
	"Ġpersons": 4029,
	"Ġconnected": 4030,
	"zzas": 4031,
	"rolled": 4032,
	"Ġhills": 4033,
	"Ġledge": 4034,
	"beige": 4035,
	"Ġwoods": 4036,
	"char": 4037,
	"Horse": 4038,
	"Ġsquash": 4039,
	"dessert": 4040,
	"Ġcrossed": 4041,
	"Ġwild": 4042,
	"cru": 4043,
	"Ġbusiness": 4044,
	"Purple": 4045,
	"arious": 4046,
	"craft": 4047,
	"ki": 4048,
	"Ġtoddler": 4049,
	"Ġnail": 4050,
	"note": 4051,
	"Ġkitten": 4052,
	"snowboarder": 4053,
	"Ġfamily": 4054,
	"Ġmot": 4055,
	"ERS": 4056,
	"Bri": 4057,
	"Ġponytail": 4058,
	"lose": 4059,
	"Ġmushrooms": 4060,
	"Slice": 4061,
	"name": 4062,
	"Ġstaircase": 4063,
	"Ġproduce": 4064,
	"feathers": 4065,
	"Ġwind": 4066,
	"ons": 4067,
	"rear": 4068,
	"Ġter": 4069,
	"Ġmetallic": 4070,
	"ream": 4071,
	"Ġind": 4072,
	"stem": 4073,
	"Ġdelicious": 4074,
	"mper": 4075,
	"ĠBU": 4076,
	"Ġtrou": 4077,
	"ROW": 4078,
	"lled": 4079,
	"OMAN": 4080,
	"ĠHAS": 4081,
	"Ġolder": 4082,
	"Ġcostume": 4083,
	"spinach": 4084,
	"ĠPLA": 4085,
	"Ġwool": 4086,
	"Ġpassengers": 4087,
	"Ġguard": 4088,
	"Bright": 4089,
	"Ġvisor": 4090,
	"pile": 4091,
	"Ġmattress": 4092,
	"Ġeaten": 4093,
	"Ġbleachers": 4094,
	"ads": 4095,
	"sandals": 4096,
	"ka": 4097,
	"body": 4098,
	"ulticolored": 4099,
	"Ġpea": 4100,
	"knee": 4101,
	"Ġdrawing": 4102,
	"dern": 4103,
	"phot": 4104,
	"Ġfencing": 4105,
	"Ġdrinks": 4106,
	"bble": 4107,
	"ĠCh": 4108,
	"hay": 4109,
	"Ġdirection": 4110,
	"Ġhung": 4111,
	"unnel": 4112,
	"beans": 4113,
	"CH": 4114,
	"propeller": 4115,
	"ingu": 4116,
	"ainers": 4117,
	"De": 4118,
	"spi": 4119,
	"ailbox": 4120,
	"spices": 4121,
	"concrete": 4122,
	"rup": 4123,
	"roiss": 4124,
	"REEN": 4125,
	"zzarella": 4126,
	"Ġtap": 4127,
	"Ġpartially": 4128,
	"Wall": 4129,
	"Ġhats": 4130,
	"Ġprepa": 4131,
	"radiator": 4132,
	"Ġelectronic": 4133,
	"Ġ4": 4134,
	"Ġbandana": 4135,
	"writing": 4136,
	"knob": 4137,
	"bor": 4138,
	"bull": 4139,
	"sues": 4140,
	"Ġsandwiches": 4141,
	"bedspread": 4142,
	"planes": 4143,
	"Ġpiano": 4144,
	"Ġsize": 4145,
	"acks": 4146,
	"canister": 4147,
	"Ġtiny": 4148,
	"azy": 4149,
	"Ġfeeding": 4150,
	"arsley": 4151,
	"Ġrusty": 4152,
	"pedestrian": 4153,
	"Ġwedding": 4154,
	"nish": 4155,
	"Ro": 4156,
	"Ġplain": 4157,
	"older": 4158,
	"stainless": 4159,
	"Ġphones": 4160,
	"Gold": 4161,
	"Ġgarden": 4162,
	"king": 4163,
	"Ġdiamond": 4164,
	"Ġbikini": 4165,
	"Photo": 4166,
	"rial": 4167,
	"paddle": 4168,
	"Be": 4169,
	"Ġpotted": 4170,
	"Ġstickers": 4171,
	"Plate": 4172,
	"Ġdesktop": 4173,
	"ility": 4174,
	"Door": 4175,
	"Ġcontrollers": 4176,
	"Ġteam": 4177,
	"CE": 4178,
	"Ġwho": 4179,
	"uc": 4180,
	"In": 4181,
	"Ġemb": 4182,
	"hose": 4183,
	"ĠSH": 4184,
	"inguisher": 4185,
	"ady": 4186,
	"Ġschool": 4187,
	"Sky": 4188,
	"ured": 4189,
	"Ġextinguisher": 4190,
	"ABLE": 4191,
	"lips": 4192,
	"Ġcalf": 4193,
	"dock": 4194,
	"soup": 4195,
	"Plastic": 4196,
	"girls": 4197,
	"ĠBLUE": 4198,
	"tongue": 4199,
	"del": 4200,
	"Ġblind": 4201,
	"containers": 4202,
	"Ġdots": 4203,
	"Ġlime": 4204,
	"ogurt": 4205,
	"ocom": 4206,
	"lit": 4207,
	"adium": 4208,
	"Ġpin": 4209,
	"Ġguys": 4210,
	"Ġmarker": 4211,
	"artwork": 4212,
	"Ġshe": 4213,
	"ocomotive": 4214,
	"Ġsecond": 4215,
	"Ġpackage": 4216,
	"Ġfountain": 4217,
	"ITH": 4218,
	"Ġartwork": 4219,
	"rasp": 4220,
	"ique": 4221,
	"Ġmate": 4222,
	"dispenser": 4223,
	"Ġcookies": 4224,
	"decorative": 4225,
	"Clock": 4226,
	"ĠWITH": 4227,
	"Ġdryer": 4228,
	"luminum": 4229,
	"bell": 4230,
	"Ġwristwatch": 4231,
	"thin": 4232,
	"Piece": 4233,
	"offic": 4234,
	"Ġdrawn": 4235,
	"vertical": 4236,
	"Ġplugged": 4237,
	"foam": 4238,
	"onge": 4239,
	"Ġwhat": 4240,
	"OUND": 4241,
	"Ġtopped": 4242,
	"wa": 4243,
	"Ġrod": 4244,
	"Ġ&": 4245,
	"Ġcelery": 4246,
	"Ġkick": 4247,
	"SS": 4248,
	"ĠClose": 4249,
	"Dirt": 4250,
	"Ġbean": 4251,
	"vd": 4252,
	"half": 4253,
	"rest": 4254,
	"Ġsoft": 4255,
	"Te": 4256,
	"its": 4257,
	"Ġlocomotive": 4258,
	"handbag": 4259,
	"Ġsaddle": 4260,
	"illumin": 4261,
	"Ġpiled": 4262,
	"Ġpond": 4263,
	"Ġshut": 4264,
	"Ġcarton": 4265,
	"SE": 4266,
	"watermelon": 4267,
	"figurine": 4268,
	"Ġgames": 4269,
	"Ġknit": 4270,
	"beverage": 4271,
	"Elephant": 4272,
	"Ġsides": 4273,
	"Ġappears": 4274,
	"Ġspeakers": 4275,
	"arent": 4276,
	"Ġathletic": 4277,
	"Ġsill": 4278,
	"Ġpumpkin": 4279,
	"Ġlace": 4280,
	"Ġbrand": 4281,
	"Ġlining": 4282,
	"tv": 4283,
	"shirts": 4284,
	"aptop": 4285,
	"tered": 4286,
	"shade": 4287,
	"unk": 4288,
	"Ġsneaker": 4289,
	"GE": 4290,
	"motorcycles": 4291,
	"Ġcatching": 4292,
	"Lights": 4293,
	"vds": 4294,
	"framed": 4295,
	"Ġdecorations": 4296,
	"nd": 4297,
	"Ġpant": 4298,
	"Ġindic": 4299,
	"squash": 4300,
	"Ġtrail": 4301,
	"striped": 4302,
	"Ġbeef": 4303,
	"Ġherd": 4304,
	"tile": 4305,
	"efcase": 4306,
	"cab": 4307,
	"Col": 4308,
	"bare": 4309,
	"Ġlaptops": 4310,
	"houses": 4311,
	"Ġspice": 4312,
	"gun": 4313,
	"scraper": 4314,
	"Ġpens": 4315,
	"Ġdisplayed": 4316,
	"any": 4317,
	"Ġcigarette": 4318,
	"Ġdeep": 4319,
	"Ġhorizon": 4320,
	"hered": 4321,
	"Ġmap": 4322,
	"Empty": 4323,
	"Laptop": 4324,
	"Ġtongs": 4325,
	"Ġpedestrians": 4326,
	"TS": 4327,
	"Ġed": 4328,
	"shadows": 4329,
	"Ġskinny": 4330,
	"heels": 4331,
	"HIRT": 4332,
	"Ġglo": 4333,
	"Ġjean": 4334,
	"Ġtops": 4335,
	"paste": 4336,
	"Ġsmooth": 4337,
	"bowls": 4338,
	"ws": 4339,
	"Ġwrink": 4340,
	"Ġwomans": 4341,
	"deck": 4342,
	"dless": 4343,
	"Ġstuck": 4344,
	"Ġburger": 4345,
	"Side": 4346,
	"rose": 4347,
	"Ġrolled": 4348,
	"Ġsweat": 4349,
	"Ġtoys": 4350,
	"officer": 4351,
	"stones": 4352,
	"Ġthen": 4353,
	"Ġcables": 4354,
	"Ġmagnets": 4355,
	"Ġcomputers": 4356,
	"Leg": 4357,
	"pasta": 4358,
	"uffy": 4359,
	"pol": 4360,
	"cir": 4361,
	"celets": 4362,
	"ĠRED": 4363,
	"ĠTABLE": 4364,
	"ouch": 4365,
	"kid": 4366,
	"sheets": 4367,
	"Ġseeds": 4368,
	"velope": 4369,
	"Ġwallpaper": 4370,
	"OOD": 4371,
	"Ġavocado": 4372,
	"Ġgood": 4373,
	"Ġthan": 4374,
	"Ġaluminum": 4375,
	"Ġsetting": 4376,
	"Computer": 4377,
	"Ġhoof": 4378,
	"sts": 4379,
	"Ġspace": 4380,
	"struction": 4381,
	"Ġfu": 4382,
	"Ġpizzas": 4383,
	"most": 4384,
	"Ġhallway": 4385,
	"ĠSt": 4386,
	"Ġmess": 4387,
	"Ġbroken": 4388,
	"Ġhedge": 4389,
	"Ġneon": 4390,
	"link": 4391,
	"Ġcalled": 4392,
	"tires": 4393,
	"thy": 4394,
	"fl": 4395,
	"pens": 4396,
	"candy": 4397,
	"Ġsteering": 4398,
	"Ġshrimp": 4399,
	"Ġvases": 4400,
	"Ġma": 4401,
	"Ġstud": 4402,
	"Ġpushing": 4403,
	"IL": 4404,
	"microphone": 4405,
	"Ġlunch": 4406,
	"ness": 4407,
	"Ġpuppy": 4408,
	"Ġcurled": 4409,
	"Ġhelmets": 4410,
	"getation": 4411,
	"Ġstorage": 4412,
	"Gra": 4413,
	"Ġtablet": 4414,
	"ades": 4415,
	"vet": 4416,
	"Ġtoasted": 4417,
	"Ġfrosted": 4418,
	"off": 4419,
	"Ġantenna": 4420,
	"Ġbreakfast": 4421,
	"Ġbouquet": 4422,
	"sunglasses": 4423,
	"Ġreaching": 4424,
	"Ġlush": 4425,
	"chand": 4426,
	"crosswalk": 4427,
	"oulders": 4428,
	"ranite": 4429,
	"Ġacc": 4430,
	"pu": 4431,
	"Ġgrou": 4432,
	"Ġfreezer": 4433,
	"Ġmaterial": 4434,
	"ROUND": 4435,
	"oney": 4436,
	"pineapple": 4437,
	"ipper": 4438,
	"Sp": 4439,
	"roissant": 4440,
	"drain": 4441,
	"Ġhold": 4442,
	"spice": 4443,
	"wards": 4444,
	"Ġkneeling": 4445,
	"Ġpreparing": 4446,
	"Ġradio": 4447,
	"flip": 4448,
	"ashi": 4449,
	"cockpit": 4450,
	"ucch": 4451,
	"Ġglazed": 4452,
	"cut": 4453,
	"robe": 4454,
	"Ġmixer": 4455,
	"bbles": 4456,
	"mustache": 4457,
	"hook": 4458,
	"Ġnarrow": 4459,
	"afe": 4460,
	"Po": 4461,
	"vent": 4462,
	"Skateboard": 4463,
	"ublic": 4464,
	"ert": 4465,
	"antique": 4466,
	"Ġclay": 4467,
	"Ġbasil": 4468,
	"Ġmarks": 4469,
	"Ġmostly": 4470,
	"Lady": 4471,
	"ex": 4472,
	"Ġlots": 4473,
	"flat": 4474,
	"Ġequ": 4475,
	"lour": 4476,
	"Ġdoes": 4477,
	"ROWN": 4478,
	"Ġunit": 4479,
	"ky": 4480,
	"ottoman": 4481,
	"Ġsailboat": 4482,
	"Ġstadium": 4483,
	"Chair": 4484,
	"cabbage": 4485,
	"Ġalarm": 4486,
	"Ġdesigns": 4487,
	"Ġcri": 4488,
	"Ġsingle": 4489,
	"Ġmuffin": 4490,
	"entertainment": 4491,
	"put": 4492,
	"Ġpanda": 4493,
	"Lea": 4494,
	"ucchini": 4495,
	"rows": 4496,
	"Ġrobe": 4497,
	"waves": 4498,
	"Ġnavy": 4499,
	"Ġcontaining": 4500,
	"Ġextended": 4501,
	"illuminated": 4502,
	"TH": 4503,
	"cial": 4504,
	"cereal": 4505,
	"Su": 4506,
	"handelier": 4507,
	"rus": 4508,
	"anging": 4509,
	"gas": 4510,
	"Ġskiers": 4511,
	"machine": 4512,
	"guitar": 4513,
	"Flow": 4514,
	"folding": 4515,
	"Ġplanes": 4516,
	"Ġcatch": 4517,
	"Ġtwig": 4518,
	"ĠSHIRT": 4519,
	"Ġleafless": 4520,
	"Ġfry": 4521,
	"tracks": 4522,
	"Ġconsole": 4523,
	"Ġpear": 4524,
	"illet": 4525,
	"Ġdump": 4526,
	"Ġlower": 4527,
	"lines": 4528,
	"Ġplug": 4529,
	"Bird": 4530,
	"Ġpale": 4531,
	"Ġsa": 4532,
	"Ġreflective": 4533,
	"Ġpier": 4534,
	"sliced": 4535,
	"retched": 4536,
	"Surf": 4537,
	"Ġupper": 4538,
	"Ġsplashing": 4539,
	"life": 4540,
	"noodles": 4541,
	"Ġeat": 4542,
	"LO": 4543,
	"Ġclocks": 4544,
	"Ġbumper": 4545,
	"Ġpane": 4546,
	"IGH": 4547,
	"Ġcloudless": 4548,
	"Ġearrings": 4549,
	"Ġarmchair": 4550,
	"Ġcauliflower": 4551,
	"ature": 4552,
	"Ġau": 4553,
	"Ġpastries": 4554,
	"meal": 4555,
	"printer": 4556,
	"cherry": 4557,
	"Ġchopped": 4558,
	"Ġpass": 4559,
	"elling": 4560,
	"Ġskinned": 4561,
	"Clou": 4562,
	"oldier": 4563,
	"Ġsteam": 4564,
	"celery": 4565,
	"Ġbol": 4566,
	"stomer": 4567,
	"Ġwrapper": 4568,
	"Ġcutter": 4569,
	"Handle": 4570,
	"dry": 4571,
	"stair": 4572,
	"tool": 4573,
	"ELL": 4574,
	"Ġ5": 4575,
	"Cow": 4576,
	"dershirt": 4577,
	"Ġsized": 4578,
	"kites": 4579,
	"Ġtrucks": 4580,
	"Ġlaces": 4581,
	"design": 4582,
	"lightly": 4583,
	"Cars": 4584,
	"Ġphotographer": 4585,
	"How": 4586,
	"mother": 4587,
	"Ġtransp": 4588,
	"ory": 4589,
	"zzy": 4590,
	"swim": 4591,
	"mix": 4592,
	"ARD": 4593,
	"hic": 4594,
	"Ġurinal": 4595,
	"Ġchalk": 4596,
	"Ġthink": 4597,
	"figure": 4598,
	"iled": 4599,
	"ĠAmerican": 4600,
	"drawing": 4601,
	"ason": 4602,
	"Ġfirst": 4603,
	"So": 4604,
	"Ġlanding": 4605,
	"turn": 4606,
	"Che": 4607,
	"bile": 4608,
	"ific": 4609,
	"chef": 4610,
	"mushrooms": 4611,
	"IND": 4612,
	"Ġtrimmed": 4613,
	"Ġmarkings": 4614,
	"ĠDO": 4615,
	"Ġcabin": 4616,
	"Ġpillars": 4617,
	"knives": 4618,
	"Ġpipes": 4619,
	"lamb": 4620,
	"Ġarch": 4621,
	"MAN": 4622,
	"Ġcanoe": 4623,
	"notebook": 4624,
	"Ġsnowboarding": 4625,
	"Bl": 4626,
	"Flowers": 4627,
	"elf": 4628,
	"Ġpud": 4629,
	"Ġcrash": 4630,
	"Ġsmile": 4631,
	"ipment": 4632,
	"BO": 4633,
	"Glasses": 4634,
	"Ġlip": 4635,
	"Ġevergreen": 4636,
	"Ġhighway": 4637,
	"Ġberries": 4638,
	"AP": 4639,
	"Ste": 4640,
	"Ġwashing": 4641,
	"rum": 4642,
	"ĠCO": 4643,
	"ects": 4644,
	"hills": 4645,
	"Ġhazy": 4646,
	"Ġcrane": 4647,
	"Ġform": 4648,
	"Rotate": 4649,
	"Mountain": 4650,
	"Ġvegg": 4651,
	"antenna": 4652,
	"Ġfra": 4653,
	"Ġbinder": 4654,
	"bjects": 4655,
	"Fence": 4656,
	"tables": 4657,
	"Ġpolka": 4658,
	"Ġmis": 4659,
	"Ġjeep": 4660,
	"shore": 4661,
	"orted": 4662,
	"Ġdigital": 4663,
	"She": 4664,
	"Ġblazer": 4665,
	"Ġcrouching": 4666,
	"Ġboards": 4667,
	"Ġbusy": 4668,
	"five": 4669,
	"Ġchandelier": 4670,
	"Ġob": 4671,
	"forest": 4672,
	"Ġoval": 4673,
	"Ġworker": 4674,
	"Ġhamburger": 4675,
	"bunch": 4676,
	"over": 4677,
	"Ġstaring": 4678,
	"Ġatop": 4679,
	"pencil": 4680,
	"lem": 4681,
	"Ġtattoo": 4682,
	"ĠWOMAN": 4683,
	"bears": 4684,
	"Ġbill": 4685,
	"tle": 4686,
	"gings": 4687,
	"fu": 4688,
	"platter": 4689,
	"Sun": 4690,
	"family": 4691,
	"gy": 4692,
	"Ġbeds": 4693,
	"Ġdressing": 4694,
	"sugar": 4695,
	"Ġfloors": 4696,
	"Ġvertical": 4697,
	"Ġmoss": 4698,
	"picnic": 4699,
	"oliage": 4700,
	"Ġlighting": 4701,
	"pedestrians": 4702,
	"Ġpeach": 4703,
	"Ġkept": 4704,
	"Ġroman": 4705,
	"Ġsurfboards": 4706,
	"lete": 4707,
	"Ġstory": 4708,
	"spar": 4709,
	"Pillow": 4710,
	"Ġstraps": 4711,
	"bicycles": 4712,
	"Ġang": 4713,
	"Ġnice": 4714,
	"dough": 4715,
	"ban": 4716,
	"Ġcotton": 4717,
	"ST": 4718,
	"Ġbas": 4719,
	"redded": 4720,
	"lies": 4721,
	"Ġprotective": 4722,
	"Ġsnowsuit": 4723,
	"Tail": 4724,
	"Ġpitch": 4725,
	"oped": 4726,
	"passengers": 4727,
	"bla": 4728,
	"LDING": 4729,
	"olid": 4730,
	"double": 4731,
	"Ġmes": 4732,
	"dirty": 4733,
	"Ġtw": 4734,
	"WHITE": 4735,
	"Ġshown": 4736,
	"Ġaircraft": 4737,
	"Ġdoughnuts": 4738,
	"look": 4739,
	"Ġtraveling": 4740,
	"Ġwell": 4741,
	"Ġprop": 4742,
	"magnets": 4743,
	"high": 4744,
	"basil": 4745,
	"Ġtarp": 4746,
	"Ġheater": 4747,
	"Ġcupcakes": 4748,
	"Baby": 4749,
	"Ġsleeves": 4750,
	"Ġholes": 4751,
	"Ġfalling": 4752,
	"Ġcucumbers": 4753,
	"Ġnumeral": 4754,
	"wristwatch": 4755,
	"Ġstopped": 4756,
	"Ġtab": 4757,
	"Ġpublic": 4758,
	"Ġblo": 4759,
	"Ġtoward": 4760,
	"Air": 4761,
	"Ġrails": 4762,
	"pow": 4763,
	"Books": 4764,
	"site": 4765,
	"Ġtshirt": 4766,
	"Ġcrashing": 4767,
	"ĠBO": 4768,
	"ontal": 4769,
	"video": 4770,
	"VE": 4771,
	"ĠApple": 4772,
	"Ġrece": 4773,
	"Traffic": 4774,
	"view": 4775,
	"ashioned": 4776,
	"Ġ'": 4777,
	"Ġpump": 4778,
	"garage": 4779,
	"rofoam": 4780,
	"Ġhaving": 4781,
	"Ġspoons": 4782,
	"Ġshades": 4783,
	"corner": 4784,
	"Ġcam": 4785,
	"intage": 4786,
	"Ġroses": 4787,
	"cal": 4788,
	"althy": 4789,
	"stickers": 4790,
	"Ġequipment": 4791,
	"ĠSK": 4792,
	"Ġbank": 4793,
	"Ġcontrols": 4794,
	"eautiful": 4795,
	"oof": 4796,
	"shrimp": 4797,
	"cookies": 4798,
	"Ġnuts": 4799,
	"gon": 4800,
	"cowboy": 4801,
	"Ġplank": 4802,
	"staircase": 4803,
	"Mirror": 4804,
	"tility": 4805,
	"Ġsleeveless": 4806,
	"inn": 4807,
	"Ġtissues": 4808,
	"Ġmotion": 4809,
	"mini": 4810,
	"lator": 4811,
	"Pair": 4812,
	"Ġcrown": 4813,
	"toast": 4814,
	"hu": 4815,
	"Ġantique": 4816,
	"Ġsomeone": 4817,
	"Ġbaking": 4818,
	"Ġhangs": 4819,
	"gundy": 4820,
	"Ġtrying": 4821,
	"pumpkin": 4822,
	"Ġtube": 4823,
	"Ġgrilled": 4824,
	"made": 4825,
	"hedge": 4826,
	"Ġrings": 4827,
	"Ġpajamas": 4828,
	"Ġcrumbs": 4829,
	"Cup": 4830,
	"rew": 4831,
	"Ġbuilt": 4832,
	"Ġpuffy": 4833,
	"por": 4834,
	"Ġwhe": 4835,
	"toddler": 4836,
	"Ġpickup": 4837,
	"Ġapartment": 4838,
	"Ġbaskets": 4839,
	"Paper": 4840,
	"cho": 4841,
	"iscu": 4842,
	"muff": 4843,
	"Ġstars": 4844,
	"Ġsports": 4845,
	"Ġsuitcases": 4846,
	"ging": 4847,
	"Toilet": 4848,
	"Ġbutterfly": 4849,
	"enches": 4850,
	"Stri": 4851,
	"je": 4852,
	"ners": 4853,
	"Ġcra": 4854,
	"Ġdome": 4855,
	"Ġcargo": 4856,
	"Ġmantle": 4857,
	"Ġcharacter": 4858,
	"Ġvegetation": 4859,
	"Ġmagazines": 4860,
	"EA": 4861,
	"Ġgranite": 4862,
	"tongs": 4863,
	"Ġeyeb": 4864,
	"Ġripples": 4865,
	"Ve": 4866,
	"Ġbatting": 4867,
	"Ġnike": 4868,
	"Number": 4869,
	"entle": 4870,
	"Tru": 4871,
	"Ġlampshade": 4872,
	"avocado": 4873,
	"Ġlemons": 4874,
	"Bear": 4875,
	"blonde": 4876,
	"Ġstump": 4877,
	"paws": 4878,
	"Ġpickles": 4879,
	"foil": 4880,
	"Electric": 4881,
	"Ġpans": 4882,
	"Ġopening": 4883,
	"Ġornate": 4884,
	"Ġcooker": 4885,
	"Ġmonkey": 4886,
	"Ġpuddle": 4887,
	"mar": 4888,
	"ropes": 4889,
	"Ġmodern": 4890,
	"dogs": 4891,
	"pillar": 4892,
	"tri": 4893,
	"ments": 4894,
	"Ġseagull": 4895,
	"Ġforks": 4896,
	"Ġpointed": 4897,
	"Ġmirrors": 4898,
	"itary": 4899,
	"oggle": 4900,
	"ident": 4901,
	"Ġroadway": 4902,
	"Ġornament": 4903,
	"Ġnumerals": 4904,
	"Ġlar": 4905,
	"Ġwhole": 4906,
	"Ġcharger": 4907,
	"curved": 4908,
	"Ġjackets": 4909,
	"do": 4910,
	"advertis": 4911,
	"Where": 4912,
	"Ġstuff": 4913,
	"Ġtusks": 4914,
	"yl": 4915,
	"allen": 4916,
	"station": 4917,
	"IGHT": 4918,
	"Ġilluminated": 4919,
	"cables": 4920,
	"sculpture": 4921,
	"cauliflower": 4922,
	"Ġwallet": 4923,
	"Ġlevel": 4924,
	"lime": 4925,
	"Ġsep": 4926,
	"Ġberry": 4927,
	"RI": 4928,
	"ates": 4929,
	"Ġblade": 4930,
	"nail": 4931,
	"Ġmixed": 4932,
	"Ġstill": 4933,
	"cement": 4934,
	"Patch": 4935,
	"ns": 4936,
	"Ġjars": 4937,
	"Bunch": 4938,
	"cans": 4939,
	"Ġtractor": 4940,
	"Ġaudience": 4941,
	"polo": 4942,
	"wallpaper": 4943,
	"Ġsliding": 4944,
	"ix": 4945,
	"ĠCAR": 4946,
	"Ġshelter": 4947,
	"electrical": 4948,
	"Ġbarrel": 4949,
	"bandana": 4950,
	"Ġtunnel": 4951,
	"ely": 4952,
	"Ġroo": 4953,
	"Multi": 4954,
	"artment": 4955,
	"ma": 4956,
	"Cu": 4957,
	"produce": 4958,
	"formation": 4959,
	"Ġblueberry": 4960,
	"ĠĠĠĠĠĠĠĠ": 4961,
	"Ġbushy": 4962,
	"Nose": 4963,
	"jet": 4964,
	"moss": 4965,
	"clu": 4966,
	"Ġcovers": 4967,
	"ĠBROWN": 4968,
	"crumbs": 4969,
	"tip": 4970,
	"oles": 4971,
	"hau": 4972,
	"Ġcycle": 4973,
	"benches": 4974,
	"ĠTO": 4975,
	"photog": 4976,
	"crack": 4977,
	"Ġmesh": 4978,
	"Ne": 4979,
	"Ġtrashcan": 4980,
	"Ġburnt": 4981,
	"closet": 4982,
	"tiny": 4983,
	"another": 4984,
	"radio": 4985,
	"stud": 4986,
	"twig": 4987,
	"Ġswimsuit": 4988,
	"rect": 4989,
	"pea": 4990,
	"Ġlogs": 4991,
	"safety": 4992,
	"sparagus": 4993,
	"mpled": 4994,
	"Ġperform": 4995,
	"haust": 4996,
	"Ġminivan": 4997,
	"Ġdraped": 4998,
	"conut": 4999,
	"Ġipod": 5000,
	"Ski": 5001,
	"locom": 5002,
	"locomotive": 5003,
	"Ġsupporting": 5004,
	"cage": 5005,
	"Ġcub": 5006,
	"golden": 5007,
	"cting": 5008,
	"Ġcupboards": 5009,
	"Ġswan": 5010,
	"Ġba": 5011,
	"ELLOW": 5012,
	"No": 5013,
	"ural": 5014,
	"binder": 5015,
	"His": 5016,
	"Ġobjects": 5017,
	"AM": 5018,
	"Ġwavy": 5019,
	"Ġboarding": 5020,
	"Ġtrays": 5021,
	"dges": 5022,
	"Ġseed": 5023,
	"LASS": 5024,
	"Ġgoal": 5025,
	"Ġslat": 5026,
	"ppo": 5027,
	"opper": 5028,
	"Ad": 5029,
	"Ġmulticolored": 5030,
	"wings": 5031,
	"headlight": 5032,
	"Fork": 5033,
	"magazines": 5034,
	"Ġrectangle": 5035,
	"din": 5036,
	"Ġfarm": 5037,
	"Ġrainbow": 5038,
	"Ġsubway": 5039,
	"Ġasparagus": 5040,
	"Ġframes": 5041,
	"Ġoct": 5042,
	"Ġmannequin": 5043,
	"Ġdried": 5044,
	"Ġfoliage": 5045,
	"Ġhim": 5046,
	"ĠBACK": 5047,
	"Ġsmaller": 5048,
	"phic": 5049,
	"Ġalongside": 5050,
	"Ġtake": 5051,
	"Ar": 5052,
	"Ġpus": 5053,
	"Coffee": 5054,
	"Ġhairy": 5055,
	"Ġcyclist": 5056,
	"Ġfashioned": 5057,
	"ilitary": 5058,
	"ship": 5059,
	"speakers": 5060,
	"Ġutility": 5061,
	"chandelier": 5062,
	"ipod": 5063,
	"Ġplush": 5064,
	"cyclist": 5065,
	"Ġslightly": 5066,
	"city": 5067,
	"apler": 5068,
	"Ġgrate": 5069,
	"ĠNike": 5070,
	"Ġshadows": 5071,
	"Ġsponge": 5072,
	"ripples": 5073,
	"Ri": 5074,
	"hol": 5075,
	"sn": 5076,
	"Beige": 5077,
	"Ġsus": 5078,
	"blueberry": 5079,
	"Eye": 5080,
	"Ġstage": 5081,
	"Ġknees": 5082,
	"Ġpetal": 5083,
	"rines": 5084,
	"ution": 5085,
	"Ġwear": 5086,
	"lee": 5087,
	"whi": 5088,
	"Ġboarder": 5089,
	"Ġtriangular": 5090,
	"weed": 5091,
	"Ġweather": 5092,
	"Ġteal": 5093,
	"Ġwipers": 5094,
	"ngth": 5095,
	"VER": 5096,
	"Ġwiper": 5097,
	"Ġtriangle": 5098,
	"Player": 5099,
	"minal": 5100,
	"trunks": 5101,
	"Ġcleats": 5102,
	"Ġbarefoot": 5103,
	"ĠHE": 5104,
	"Hot": 5105,
	"Buildings": 5106,
	"ĠTRA": 5107,
	"hard": 5108,
	"ountry": 5109,
	"Ġbeam": 5110,
	"Ġmake": 5111,
	"french": 5112,
	"IDE": 5113,
	"bro": 5114,
	"Ġbagel": 5115,
	"ls": 5116,
	"Ġharness": 5117,
	"Ġsprink": 5118,
	"snowsuit": 5119,
	"map": 5120,
	"ĠCH": 5121,
	"Ġfake": 5122,
	"balls": 5123,
	"ĠChristmas": 5124,
	"Wine": 5125,
	"cones": 5126,
	"Ġyogurt": 5127,
	"Ġass": 5128,
	"ĠGREEN": 5129,
	"Ġsystem": 5130,
	"arning": 5131,
	"Ġfive": 5132,
	"Ġsweet": 5133,
	"Short": 5134,
	"Ġjug": 5135,
	"Ġemblem": 5136,
	"EL": 5137,
	"ineapples": 5138,
	"Motorcycle": 5139,
	"steering": 5140,
	"wagon": 5141,
	"Ġwaste": 5142,
	"Ġcliff": 5143,
	"Ġsteak": 5144,
	"Ġasian": 5145,
	"Ġchopsticks": 5146,
	"Ġreg": 5147,
	"Ġwireless": 5148,
	"TING": 5149,
	"ttered": 5150,
	"TV": 5151,
	"base": 5152,
	"dining": 5153,
	"wool": 5154,
	"ipt": 5155,
	"entleman": 5156,
	"office": 5157,
	"Ġshin": 5158,
	"RED": 5159,
	"Ġpeas": 5160,
	"Ġpushed": 5161,
	"Ġcolla": 5162,
	"marker": 5163,
	"ject": 5164,
	"Ġfeeder": 5165,
	"prints": 5166,
	"Ġvanity": 5167,
	"cohol": 5168,
	"circular": 5169,
	"Stack": 5170,
	"aff": 5171,
	"gerine": 5172,
	"Ġcoke": 5173,
	"Ġposition": 5174,
	"Sc": 5175,
	"vid": 5176,
	"Ġ6": 5177,
	"pillars": 5178,
	"RO": 5179,
	"Men": 5180,
	"mercial": 5181,
	"Ġperched": 5182,
	"ghted": 5183,
	"Ġcrates": 5184,
	"Ġbriefcase": 5185,
	"my": 5186,
	"Ġstir": 5187,
	"ette": 5188,
	"armchair": 5189,
	"allow": 5190,
	"shopping": 5191,
	"Ġmay": 5192,
	"Colorful": 5193,
	"ished": 5194,
	"skater": 5195,
	"ERSON": 5196,
	"waist": 5197,
	"Ġaf": 5198,
	"amon": 5199,
	"Ġzipper": 5200,
	"pastries": 5201,
	"Ġcrouched": 5202,
	"Bag": 5203,
	"ĠPI": 5204,
	"Ġdrape": 5205,
	"slices": 5206,
	"acle": 5207,
	"ĠPut": 5208,
	"Sheep": 5209,
	"Ġloung": 5210,
	"ĠGIR": 5211,
	"scape": 5212,
	"police": 5213,
	"blind": 5214,
	"Ġjust": 5215,
	"inese": 5216,
	"pieces": 5217,
	"drinks": 5218,
	"olk": 5219,
	"Ġves": 5220,
	"Ġhing": 5221,
	"Box": 5222,
	"Ġpickle": 5223,
	"Ġwrinkled": 5224,
	"Con": 5225,
	"FF": 5226,
	"Ear": 5227,
	"Ġjockey": 5228,
	"that": 5229,
	"Ġnew": 5230,
	"anut": 5231,
	"lots": 5232,
	"Ġconstruction": 5233,
	"Ġpanels": 5234,
	"polar": 5235,
	"Ġdocked": 5236,
	"Ġstall": 5237,
	"pipes": 5238,
	"Ġhooves": 5239,
	"ilted": 5240,
	"zzle": 5241,
	"Ġsteep": 5242,
	"Ġrounded": 5243,
	"Ġgarnish": 5244,
	"Ġblueberries": 5245,
	"attered": 5246,
	"ĠAsian": 5247,
	"Ġent": 5248,
	"mixer": 5249,
	"aur": 5250,
	"hir": 5251,
	"Ġcompany": 5252,
	"br": 5253,
	"IGN": 5254,
	"KE": 5255,
	"iff": 5256,
	"ino": 5257,
	"Ġcd": 5258,
	"decorations": 5259,
	"Ġmuddy": 5260,
	"AIN": 5261,
	"Ġhind": 5262,
	"roman": 5263,
	"Ġmissing": 5264,
	"calf": 5265,
	"Ġgat": 5266,
	"sandwiches": 5267,
	"Ġvarious": 5268,
	"ia": 5269,
	"agne": 5270,
	"Ġmonitors": 5271,
	"Bottom": 5272,
	"Ġwarm": 5273,
	"Ġdivi": 5274,
	"ampagne": 5275,
	"Ġhealthy": 5276,
	"Ġow": 5277,
	"Guy": 5278,
	"Ġdisc": 5279,
	"Ġbrass": 5280,
	"stomers": 5281,
	"Ġmarking": 5282,
	"Sm": 5283,
	"Ġsyrup": 5284,
	"Ġgravy": 5285,
	"ional": 5286,
	"package": 5287,
	"Ġdonkey": 5288,
	"Ġcondim": 5289,
	"Ġgrain": 5290,
	"ions": 5291,
	"Catcher": 5292,
	"Ġ7": 5293,
	"Ġcoach": 5294,
	"ĠPLATE": 5295,
	"Brick": 5296,
	"lance": 5297,
	"tin": 5298,
	"igh": 5299,
	"hillside": 5300,
	"Ġadvertising": 5301,
	"bars": 5302,
	"Ġmailbox": 5303,
	"Ġfat": 5304,
	"Ġflight": 5305,
	"lection": 5306,
	"cd": 5307,
	"Ġstream": 5308,
	"Ġpockets": 5309,
	"Bat": 5310,
	"culator": 5311,
	"peted": 5312,
	"uring": 5313,
	"Ġkiwi": 5314,
	"Ġbooth": 5315,
	"Ġclip": 5316,
	"Des": 5317,
	"dies": 5318,
	"Ġbolt": 5319,
	"Ġballoons": 5320,
	"Ġlength": 5321,
	"Ġsto": 5322,
	"Ġserved": 5323,
	"bi": 5324,
	"tablet": 5325,
	"cucumbers": 5326,
	"Ġfuzzy": 5327,
	"Bowl": 5328,
	"Ġgiant": 5329,
	"Ġherbs": 5330,
	"Ġsepar": 5331,
	"Ġaqu": 5332,
	"Fire": 5333,
	"Ġsuspen": 5334,
	"Ġsplash": 5335,
	"rong": 5336,
	"Ġshot": 5337,
	"caroni": 5338,
	"Ġpowdered": 5339,
	"hallway": 5340,
	"Ġshirtless": 5341,
	"Ġmessy": 5342,
	"barn": 5343,
	"Ġfin": 5344,
	"Ġclass": 5345,
	"Ġsquatting": 5346,
	"Ġheads": 5347,
	"Ġparsley": 5348,
	"steam": 5349,
	"sunlight": 5350,
	"den": 5351,
	"muffin": 5352,
	"flu": 5353,
	"Ġgre": 5354,
	"Ġsharp": 5355,
	"Ġflowered": 5356,
	"Ġfans": 5357,
	"dugout": 5358,
	"ilot": 5359,
	"Ġairplanes": 5360,
	"toys": 5361,
	"Ġstems": 5362,
	"Ġbuoy": 5363,
	"Ġfancy": 5364,
	"Ġcountry": 5365,
	"Ġpatches": 5366,
	"Ġshield": 5367,
	"Ġbru": 5368,
	"ĠWA": 5369,
	"Ġskillet": 5370,
	"mud": 5371,
	"cess": 5372,
	"costume": 5373,
	"Ġbackwards": 5374,
	"blurry": 5375,
	"iscuit": 5376,
	"Ġdist": 5377,
	"pud": 5378,
	"Ġgraphic": 5379,
	"sers": 5380,
	"bouquet": 5381,
	"Ġchristmas": 5382,
	"seeds": 5383,
	"Mo": 5384,
	"Place": 5385,
	"spy": 5386,
	"Ġbracelets": 5387,
	"Ġsack": 5388,
	"pear": 5389,
	"lake": 5390,
	"Decor": 5391,
	"ets": 5392,
	"Ġmultiple": 5393,
	"Clouds": 5394,
	"Leaves": 5395,
	"paragus": 5396,
	"Ġgoats": 5397,
	"Ġrefri": 5398,
	"Ġgarlic": 5399,
	"Key": 5400,
	"asparagus": 5401,
	"arium": 5402,
	"serving": 5403,
	"jector": 5404,
	"Ġprice": 5405,
	"Ġspo": 5406,
	"Ġspeck": 5407,
	"ola": 5408,
	"Five": 5409,
	"bulance": 5410,
	"sailboat": 5411,
	"Ġmozzarella": 5412,
	"fresh": 5413,
	"ek": 5414,
	"Ġrace": 5415,
	"Ġtoothpaste": 5416,
	"closed": 5417,
	"Ġglowing": 5418,
	"device": 5419,
	"VD": 5420,
	"yond": 5421,
	"Ġhal": 5422,
	"Ġwaving": 5423,
	"Ġpeel": 5424,
	"Ġwoven": 5425,
	"akers": 5426,
	"icho": 5427,
	"melted": 5428,
	"cus": 5429,
	"Ġbeyond": 5430,
	"Ġscattered": 5431,
	"Ġmus": 5432,
	"Ġstained": 5433,
	"Park": 5434,
	"Ġcushions": 5435,
	"act": 5436,
	"Ġhorizontal": 5437,
	"osaur": 5438,
	"Ġmin": 5439,
	"dead": 5440,
	"Ġgoose": 5441,
	"mplo": 5442,
	"lamps": 5443,
	"derly": 5444,
	"Ġtrouser": 5445,
	"Ġtrousers": 5446,
	"Ġvintage": 5447,
	"bre": 5448,
	"crane": 5449,
	"drape": 5450,
	"rolley": 5451,
	"guin": 5452,
	"Cheese": 5453,
	"KING": 5454,
	"mploye": 5455,
	"Animal": 5456,
	"Ġshrubs": 5457,
	"hanging": 5458,
	"they": 5459,
	"ĠFR": 5460,
	"seagull": 5461,
	"Ġtinted": 5462,
	"alarm": 5463,
	"pattern": 5464,
	"ĠWOOD": 5465,
	"WO": 5466,
	"ĠToggle": 5467,
	"Ġperforming": 5468,
	"00": 5469,
	"Ġrough": 5470,
	"Ġheavy": 5471,
	"ampoo": 5472,
	"Ġshrub": 5473,
	"Ġroadside": 5474,
	"appliance": 5475,
	"someone": 5476,
	"tti": 5477,
	"lli": 5478,
	"atches": 5479,
	"Ġrailway": 5480,
	"Ġbasin": 5481,
	"oop": 5482,
	"Ġrou": 5483,
	"stal": 5484,
	"Pot": 5485,
	"Row": 5486,
	"run": 5487,
	"Ġsocket": 5488,
	"peas": 5489,
	"cooking": 5490,
	"Ġchunk": 5491,
	"Knife": 5492,
	"Floor": 5493,
	"Ġcarpeted": 5494,
	"Rocks": 5495,
	"Wire": 5496,
	"lanted": 5497,
	"Ġbedside": 5498,
	"worker": 5499,
	"Dou": 5500,
	"gla": 5501,
	"calm": 5502,
	"buoy": 5503,
	"Ġtags": 5504,
	"Ġrasp": 5505,
	"Ġmilitary": 5506,
	"canoe": 5507,
	"iner": 5508,
	"pickles": 5509,
	"Ġlion": 5510,
	"wallet": 5511,
	"scent": 5512,
	"Ġpancake": 5513,
	"lemons": 5514,
	"Ġturkey": 5515,
	"Ġmodel": 5516,
	"Ġdrop": 5517,
	"ĠPick": 5518,
	"Section": 5519,
	"Ġmousepad": 5520,
	"mannequin": 5521,
	"Ġskyscraper": 5522,
	"Ġnut": 5523,
	"oise": 5524,
	"wave": 5525,
	"puppy": 5526,
	"ains": 5527,
	"Ġstrings": 5528,
	"Ġfloppy": 5529,
	"Ġpretty": 5530,
	"Ġmelon": 5531,
	"Ġbrake": 5532,
	"ual": 5533,
	"floral": 5534,
	"Ġride": 5535,
	"Cell": 5536,
	"ctus": 5537,
	"Ġforehead": 5538,
	"Ġpop": 5539,
	"Mountains": 5540,
	"Ġreads": 5541,
	"BLACK": 5542,
	"ĠPickup": 5543,
	"Ġsmo": 5544,
	"Ġstock": 5545,
	"ways": 5546,
	"ripe": 5547,
	"eng": 5548,
	"INK": 5549,
	"Ġfallen": 5550,
	"Ġstripped": 5551,
	"Ġenvelope": 5552,
	"lette": 5553,
	"puddle": 5554,
	"Ġfacial": 5555,
	"innamon": 5556,
	"Ġterminal": 5557,
	"Ġdesigned": 5558,
	"blazer": 5559,
	"mbing": 5560,
	"controllers": 5561,
	"Ġvine": 5562,
	"Ġbelly": 5563,
	"tretched": 5564,
	"Ġlighthouse": 5565,
	"Ġdvd": 5566,
	"ĠSIGN": 5567,
	"hird": 5568,
	"Ġinformation": 5569,
	"UT": 5570,
	"Bed": 5571,
	"Ġladies": 5572,
	"Ġstyrofoam": 5573,
	"Ġlarger": 5574,
	"rushes": 5575,
	"Ġmon": 5576,
	"THAT": 5577,
	"Ġveggies": 5578,
	"Sunglasses": 5579,
	"Ġcold": 5580,
	"Ġhoney": 5581,
	"cupcakes": 5582,
	"Ġsnout": 5583,
	"Ġblocks": 5584,
	"Ġlane": 5585,
	"fans": 5586,
	"Ġpancakes": 5587,
	"Ġcollared": 5588,
	"mound": 5589,
	"Ġmobile": 5590,
	"Ġsha": 5591,
	"Ġalone": 5592,
	"cove": 5593,
	"Ġsets": 5594,
	"Ġshredded": 5595,
	"mployee": 5596,
	"multiple": 5597,
	"Pain": 5598,
	"pictures": 5599,
	"anta": 5600,
	"railing": 5601,
	"Ġbrushing": 5602,
	"Ġtrans": 5603,
	"urky": 5604,
	"peach": 5605,
	"Ġbillboard": 5606,
	"Ġlandscape": 5607,
	"Ġdrum": 5608,
	"Ġelev": 5609,
	"Ġedges": 5610,
	"Towel": 5611,
	"Clo": 5612,
	"island": 5613,
	"Ġident": 5614,
	"gging": 5615,
	"Ġwrap": 5616,
	"Ġbeanie": 5617,
	"Ġparty": 5618,
	"Ġmotorc": 5619,
	"Ġcommercial": 5620,
	"Ġflour": 5621,
	"mboo": 5622,
	"mple": 5623,
	"American": 5624,
	"va": 5625,
	"Ġslats": 5626,
	"Ġparrot": 5627,
	"Half": 5628,
	"REE": 5629,
	"mbled": 5630,
	"Ġblowing": 5631,
	"intersection": 5632,
	"Ġtents": 5633,
	"lawn": 5634,
	"elly": 5635,
	"gran": 5636,
	"lurred": 5637,
	"alend": 5638,
	"Ġrecl": 5639,
	"ornament": 5640,
	"acters": 5641,
	"Pe": 5642,
	"Ġundershirt": 5643,
	"sest": 5644,
	"Ġwhipped": 5645,
	"strich": 5646,
	"Ġonly": 5647,
	"Ġleggings": 5648,
	"jars": 5649,
	"beautiful": 5650,
	"Ġloc": 5651,
	"pos": 5652,
	"ĠOn": 5653,
	"aged": 5654,
	"Ġblankets": 5655,
	"Ġmain": 5656,
	"Ġstalk": 5657,
	"Broccoli": 5658,
	"looking": 5659,
	"heater": 5660,
	"rectangular": 5661,
	"ug": 5662,
	"Ġbeads": 5663,
	"Ġcane": 5664,
	"minivan": 5665,
	"piano": 5666,
	"Ġsuits": 5667,
	"Ġburgundy": 5668,
	"buses": 5669,
	"inten": 5670,
	"Ġbulbs": 5671,
	"ĠHO": 5672,
	"dump": 5673,
	"Ġcakes": 5674,
	"Skier": 5675,
	"Ġquilt": 5676,
	"ashed": 5677,
	"cent": 5678,
	"shel": 5679,
	"Ġcaps": 5680,
	"Ġparas": 5681,
	"Ġsed": 5682,
	"poin": 5683,
	"seed": 5684,
	"Ġval": 5685,
	"alendar": 5686,
	"Ġsport": 5687,
	"ugh": 5688,
	"'t": 5689,
	"Ġdumpster": 5690,
	"Ġcroissant": 5691,
	"character": 5692,
	"mozzarella": 5693,
	"ending": 5694,
	"dvds": 5695,
	"intendo": 5696,
	"Ġindicating": 5697,
	"Ġtransparent": 5698,
	"Ġtabby": 5699,
	"Ġfences": 5700,
	"Ġtor": 5701,
	"Ġuse": 5702,
	"swan": 5703,
	"Ġcaution": 5704,
	"Edge": 5705,
	"Ġdvds": 5706,
	"Ġsunlight": 5707,
	"tur": 5708,
	"Ġhooded": 5709,
	"arts": 5710,
	"porch": 5711,
	"icy": 5712,
	"Trash": 5713,
	"patio": 5714,
	"Ġbit": 5715,
	"Ġfaded": 5716,
	"telope": 5717,
	"US": 5718,
	"ĠWALL": 5719,
	"Ġsandw": 5720,
	"Ġdotted": 5721,
	"nch": 5722,
	"ckle": 5723,
	"Ġtrolley": 5724,
	"quoise": 5725,
	"Ġoppo": 5726,
	"Ġshakers": 5727,
	"Ġgreens": 5728,
	"Ġcloths": 5729,
	"Ġdesert": 5730,
	"Ġturning": 5731,
	"Ġtown": 5732,
	"Ġnotes": 5733,
	"ronze": 5734,
	"swimsuit": 5735,
	"Squ": 5736,
	"cigarette": 5737,
	"father": 5738,
	"gi": 5739,
	"Umpire": 5740,
	"Sandwich": 5741,
	"Ġseason": 5742,
	"blueberries": 5743,
	"son": 5744,
	"rought": 5745,
	"Stainless": 5746,
	"Ġpackets": 5747,
	"Ġscrew": 5748,
	"Ġdriveway": 5749,
	"Ġbuns": 5750,
	"BOARD": 5751,
	"Kite": 5752,
	"eta": 5753,
	"Hat": 5754,
	"restaurant": 5755,
	"Ġarran": 5756,
	"ĠTI": 5757,
	"Ġsix": 5758,
	"oil": 5759,
	"Ġmoped": 5760,
	"Ġoutstretched": 5761,
	"Ġlocated": 5762,
	"Bicycle": 5763,
	"Ġtight": 5764,
	"Ġ8": 5765,
	"Ġank": 5766,
	"spray": 5767,
	"Ġtort": 5768,
	"Ġevent": 5769,
	"ONT": 5770,
	"elbow": 5771,
	"packet": 5772,
	"Ġsedan": 5773,
	"Ġstools": 5774,
	"bbit": 5775,
	"ĠYELLOW": 5776,
	"sent": 5777,
	"Ġzucchini": 5778,
	"mailbox": 5779,
	"Ġmedium": 5780,
	"sack": 5781,
	"jockey": 5782,
	"Boat": 5783,
	"iced": 5784,
	"dgerator": 5785,
	"Ġsquares": 5786,
	"gle": 5787,
	"Ġloaf": 5788,
	"Ġwaters": 5789,
	"ĠRO": 5790,
	"spl": 5791,
	"Ġfenced": 5792,
	"Ġget": 5793,
	"dvd": 5794,
	"Ġhour": 5795,
	"Ex": 5796,
	"six": 5797,
	"Ġbroom": 5798,
	"Ġchinese": 5799,
	"estal": 5800,
	"Ġwash": 5801,
	"headlights": 5802,
	"bikini": 5803,
	"Ġfol": 5804,
	"Ġglaze": 5805,
	"iddle": 5806,
	"Un": 5807,
	"kiwi": 5808,
	"Ġsoldier": 5809,
	"folded": 5810,
	"mattress": 5811,
	"colli": 5812,
	"kitten": 5813,
	"Ġpig": 5814,
	"Ġexhaust": 5815,
	"Ġducks": 5816,
	"toon": 5817,
	"jeep": 5818,
	"Ġlaugh": 5819,
	"cessed": 5820,
	"chopsticks": 5821,
	"Ġwi": 5822,
	"Sho": 5823,
	"omes": 5824,
	"Ġrackets": 5825,
	"press": 5826,
	"tou": 5827,
	"eathered": 5828,
	"Very": 5829,
	"gan": 5830,
	"Ġsnack": 5831,
	"Ġpeak": 5832,
	"Tomato": 5833,
	"reline": 5834,
	"Ġstudent": 5835,
	"Ġcluttered": 5836,
	"Ġcafe": 5837,
	"Blonde": 5838,
	"pajamas": 5839,
	"dome": 5840,
	"parked": 5841,
	"herd": 5842,
	"painted": 5843,
	"PU": 5844,
	"hats": 5845,
	"INDOW": 5846,
	"ral": 5847,
	"Ġpetting": 5848,
	"iosk": 5849,
	"Power": 5850,
	"ined": 5851,
	"Kitchen": 5852,
	"icine": 5853,
	"Ġlay": 5854,
	"Ġshutters": 5855,
	"buttons": 5856,
	"audience": 5857,
	"Ġcasting": 5858,
	"chrome": 5859,
	"butterfly": 5860,
	"spoons": 5861,
	"advertisement": 5862,
	"ĠGLASS": 5863,
	"Her": 5864,
	"logs": 5865,
	"church": 5866,
	"Ġafter": 5867,
	"It": 5868,
	"Ġglobe": 5869,
	"ĠDOG": 5870,
	"Ġrust": 5871,
	"RAS": 5872,
	"Ġrimmed": 5873,
	"Rail": 5874,
	"engine": 5875,
	"laces": 5876,
	"Ġdistant": 5877,
	"full": 5878,
	"Ġbad": 5879,
	"powdered": 5880,
	"idas": 5881,
	"bagel": 5882,
	"nette": 5883,
	"Foot": 5884,
	"Ġgroom": 5885,
	"Ġmurky": 5886,
	"affolding": 5887,
	"Apple": 5888,
	"Ġarranged": 5889,
	"ACKET": 5890,
	"Ġchecked": 5891,
	"Ġgun": 5892,
	"ĠBUS": 5893,
	"Rear": 5894,
	"Ġteapot": 5895,
	"pancake": 5896,
	"ĠGIRL": 5897,
	"Ġhinge": 5898,
	"ĠPO": 5899,
	"Ġopposite": 5900,
	"Ġrolls": 5901,
	"icle": 5902,
	"TWO": 5903,
	"Thick": 5904,
	"Cake": 5905,
	"control": 5906,
	"Concrete": 5907,
	"Ġelderly": 5908,
	"rystal": 5909,
	"asian": 5910,
	"Thin": 5911,
	"portion": 5912,
	"Ġpears": 5913,
	"Ġgown": 5914,
	"parsley": 5915,
	"Fruit": 5916,
	"wide": 5917,
	"illing": 5918,
	"playing": 5919,
	"Ġropes": 5920,
	"Ġcoats": 5921,
	"Ġpou": 5922,
	"fountain": 5923,
	"Ġsinks": 5924,
	"Ġpreser": 5925,
	"Ġstre": 5926,
	"Cont": 5927,
	"Ġsemi": 5928,
	"Ġlaughing": 5929,
	"string": 5930,
	"Television": 5931,
	"beef": 5932,
	"Phone": 5933,
	"Decorative": 5934,
	"ariety": 5935,
	"Ġinterior": 5936,
	"Ġuniforms": 5937,
	"Ġthings": 5938,
	"isy": 5939,
	"guys": 5940,
	"Ġgathered": 5941,
	"Hel": 5942,
	"Ġbunny": 5943,
	"Ġspeed": 5944,
	"ART": 5945,
	"Ġbalding": 5946,
	"redi": 5947,
	"ĠPERSON": 5948,
	"RU": 5949,
	"Ġrusted": 5950,
	"Ġes": 5951,
	"Ġskateboards": 5952,
	"Ġcoaster": 5953,
	"Let": 5954,
	"ASE": 5955,
	"arment": 5956,
	"bleachers": 5957,
	"Ġclosest": 5958,
	"Ġprocess": 5959,
	"Ġamong": 5960,
	"Ġwheelchair": 5961,
	"ooked": 5962,
	"Ġbelong": 5963,
	"Ġweb": 5964,
	"GROUND": 5965,
	"Square": 5966,
	"rais": 5967,
	"stripes": 5968,
	"xing": 5969,
	"Ġcards": 5970,
	"ĠCD": 5971,
	"mingo": 5972,
	"Batter": 5973,
	"Ġrefridgerator": 5974,
	"Ġneat": 5975,
	"zel": 5976,
	"Teddy": 5977,
	"Ġsandwhich": 5978,
	"Ġbark": 5979,
	"Ġnecktie": 5980,
	"Ġkeep": 5981,
	"Ġfris": 5982,
	"Ġcustomer": 5983,
	"Ġcomb": 5984,
	"Ġgift": 5985,
	"Ġpedestal": 5986,
	"Ġbraid": 5987,
	"Ġbite": 5988,
	"Ġalcohol": 5989,
	"Ġpanes": 5990,
	"Ġnostri": 5991,
	"Ġharbor": 5992,
	"Ġpowder": 5993,
	"phol": 5994,
	"opter": 5995,
	"Ġraw": 5996,
	"zen": 5997,
	"Umb": 5998,
	"Ġfun": 5999,
	"ori": 6000,
	"Ġshallow": 6001,
	"Ġchili": 6002,
	"Ġexit": 6003,
	"Ġregister": 6004,
	"Ġcarried": 6005,
	"Pole": 6006,
	"TU": 6007,
	"Ġyolk": 6008,
	"ĠCHAIR": 6009,
	"Ġpassing": 6010,
	"adult": 6011,
	"Home": 6012,
	"Wheel": 6013,
	"Ġdep": 6014,
	"soft": 6015,
	"cabin": 6016,
	"ĠPAIR": 6017,
	"vases": 6018,
	"roses": 6019,
	"Ġshoulders": 6020,
	"Bench": 6021,
	"Ġlounge": 6022,
	"Ġaut": 6023,
	"herbs": 6024,
	"pre": 6025,
	"EE": 6026,
	"Ġprodu": 6027,
	"Ġpropped": 6028,
	"ĠSIDE": 6029,
	"Ġcastle": 6030,
	"Ġfixtures": 6031,
	"strument": 6032,
	"ancing": 6033,
	"xed": 6034,
	"Ġdeer": 6035,
	"grassy": 6036,
	"Ġsmart": 6037,
	"iral": 6038,
	"Ġposted": 6039,
	"atelli": 6040,
	"AY": 6041,
	"Ġgro": 6042,
	"stars": 6043,
	"covered": 6044,
	"ict": 6045,
	"ggy": 6046,
	"Ġchains": 6047,
	"Ġtricks": 6048,
	"atellite": 6049,
	"Ġhid": 6050,
	"Basket": 6051,
	"Pile": 6052,
	"Ġcatchers": 6053,
	"posable": 6054,
	"Bread": 6055,
	"hou": 6056,
	"icopter": 6057,
	"aped": 6058,
	"ĠHAND": 6059,
	"ffle": 6060,
	"Ġgrown": 6061,
	"Ġsecu": 6062,
	"Ground": 6063,
	"skyscraper": 6064,
	"pans": 6065,
	"agonal": 6066,
	"lish": 6067,
	"Ġboulder": 6068,
	"Ġhandled": 6069,
	"Ġtoo": 6070,
	"MB": 6071,
	"coach": 6072,
	"garnish": 6073,
	"photographer": 6074,
	"Ġupright": 6075,
	"vory": 6076,
	"Ġhedges": 6077,
	"tu": 6078,
	"Ġracing": 6079,
	"Electrical": 6080,
	"fluffy": 6081,
	"Rock": 6082,
	"cats": 6083,
	"Ġnails": 6084,
	"Wheels": 6085,
	"Road": 6086,
	"oodle": 6087,
	"ĠDVD": 6088,
	"Ġalmost": 6089,
	"ingredi": 6090,
	"rical": 6091,
	"Ġbats": 6092,
	"ification": 6093,
	"splash": 6094,
	"Ġcamp": 6095,
	"cked": 6096,
	"Stuffed": 6097,
	"Ġpencils": 6098,
	"Snowboard": 6099,
	"Ġheels": 6100,
	"Ġchampagne": 6101,
	"Ġappear": 6102,
	"Ġaction": 6103,
	"Ġrela": 6104,
	"tents": 6105,
	"shelter": 6106,
	"envelope": 6107,
	"rubber": 6108,
	"Ġbasketball": 6109,
	"Ġgrouped": 6110,
	"Curtain": 6111,
	"rity": 6112,
	"ĠTOP": 6113,
	"hamburger": 6114,
	"Ġdip": 6115,
	"Day": 6116,
	"ftop": 6117,
	"Ġgarland": 6118,
	"Flower": 6119,
	"almon": 6120,
	"Ġcas": 6121,
	"Ġentry": 6122,
	"Ġpadded": 6123,
	"Bike": 6124,
	"Striped": 6125,
	"Chocolate": 6126,
	"wear": 6127,
	"Ġrestroom": 6128,
	"Ġburners": 6129,
	"asty": 6130,
	"slee": 6131,
	"anuts": 6132,
	"Ġdragon": 6133,
	"Ġbloo": 6134,
	"female": 6135,
	"mber": 6136,
	"ĠSIT": 6137,
	"Ġpillowcase": 6138,
	"Ġhanger": 6139,
	"Ġkicking": 6140,
	"Bath": 6141,
	"ized": 6142,
	"Spo": 6143,
	"achute": 6144,
	"Ġbuckle": 6145,
	"Ġwired": 6146,
	"olf": 6147,
	"ARK": 6148,
	"..": 6149,
	"Ġshows": 6150,
	"Ġtwigs": 6151,
	"ilhou": 6152,
	"Ġeyebrow": 6153,
	"whipped": 6154,
	"ausages": 6155,
	"ĠPAN": 6156,
	"Ġbathing": 6157,
	"megran": 6158,
	"Shadows": 6159,
	"ĠThis": 6160,
	"Ġcircles": 6161,
	"law": 6162,
	"kids": 6163,
	"Ġahead": 6164,
	"core": 6165,
	"aggy": 6166,
	"opus": 6167,
	"charger": 6168,
	"Ġshoreline": 6169,
	"Ġdet": 6170,
	"Ġwh": 6171,
	"Ġhidden": 6172,
	"Ġputting": 6173,
	"earrings": 6174,
	"ispy": 6175,
	"Ġstom": 6176,
	"cloudy": 6177,
	"comp": 6178,
	"Ġcoconut": 6179,
	"Ġsurfers": 6180,
	"Ġprints": 6181,
	"Bananas": 6182,
	"UR": 6183,
	"Ġtools": 6184,
	"brushes": 6185,
	"student": 6186,
	"Ġfaces": 6187,
	"ĠBACKGROUND": 6188,
	"customer": 6189,
	"Ġwarning": 6190,
	"wel": 6191,
	"Ġcyl": 6192,
	"Ġthing": 6193,
	"Plane": 6194,
	"Ġpit": 6195,
	"Ġstrips": 6196,
	"chopped": 6197,
	"Ġstret": 6198,
	"console": 6199,
	"ĠWINDOW": 6200,
	"garland": 6201,
	"Ġfrying": 6202,
	"Ġlif": 6203,
	"Ġgiving": 6204,
	"quor": 6205,
	"signs": 6206,
	"Ġankle": 6207,
	"Ġsuspended": 6208,
	"Ġbunches": 6209,
	"ited": 6210,
	"izer": 6211,
	"Ġchoppy": 6212,
	"Ġrocking": 6213,
	"croissant": 6214,
	"Ġstomach": 6215,
	"mallow": 6216,
	"urinal": 6217,
	"Ġmugs": 6218,
	"Someone": 6219,
	"Airplane": 6220,
	"Ġbagels": 6221,
	"cupboards": 6222,
	"Ġslab": 6223,
	"Hair": 6224,
	"Ġformation": 6225,
	"shmallow": 6226,
	"ĠHOLDING": 6227,
	"ĠSITTING": 6228,
	"stra": 6229,
	"Ġuphol": 6230,
	"zucchini": 6231,
	"Ġfocus": 6232,
	"Ġslanted": 6233,
	"Ġdisplaying": 6234,
	"ĠWOODEN": 6235,
	"ONE": 6236,
	"Plant": 6237,
	"INE": 6238,
	"Ġstapler": 6239,
	"yogurt": 6240,
	"crown": 6241,
	"CHE": 6242,
	"Ġsteeple": 6243,
	"Ġassorted": 6244,
	"Ġgoods": 6245,
	"Helmet": 6246,
	"Ġminute": 6247,
	"Ġcheek": 6248,
	"Pillows": 6249,
	"Ġowl": 6250,
	"ATE": 6251,
	"Ġfeather": 6252,
	"utter": 6253,
	"spot": 6254,
	"vas": 6255,
	"Ġshed": 6256,
	"serts": 6257,
	"Ġdivider": 6258,
	"Stop": 6259,
	"fess": 6260,
	"spital": 6261,
	"Ġcolumns": 6262,
	"atural": 6263,
	"opened": 6264,
	"bit": 6265,
	"Ġther": 6266,
	"Face": 6267,
	"blond": 6268,
	"Ġwalks": 6269,
	"Ġ12": 6270,
	"Ġtour": 6271,
	"Ġbound": 6272,
	"crates": 6273,
	"Ġbib": 6274,
	"Another": 6275,
	"ANT": 6276,
	"ha": 6277,
	"dinner": 6278,
	"breakfast": 6279,
	"Logo": 6280,
	"Ġbamboo": 6281,
	"Ġindoor": 6282,
	"Sliced": 6283,
	"Ġcherries": 6284,
	"Ġcola": 6285,
	"ĠBE": 6286,
	"Ġphotos": 6287,
	"Ġkitty": 6288,
	"Ġarrange": 6289,
	"PE": 6290,
	"Ġcattle": 6291,
	"Ġmore": 6292,
	"ĠFOR": 6293,
	"ĠUS": 6294,
	"lush": 6295,
	"Ġpartly": 6296,
	"Ġbedding": 6297,
	"hotdog": 6298,
	"coke": 6299,
	"Ġcobble": 6300,
	"Shiny": 6301,
	"Ġpathway": 6302,
	"AG": 6303,
	"Ġpreserver": 6304,
	"Ġcanisters": 6305,
	"Ġcor": 6306,
	"onna": 6307,
	"Truck": 6308,
	"ĠSTAND": 6309,
	"Ġvines": 6310,
	"Ġpigeons": 6311,
	"Mu": 6312,
	"Ġkay": 6313,
	"CLE": 6314,
	"Ġclaws": 6315,
	"Ġfast": 6316,
	"Ġyour": 6317,
	"Ġtortilla": 6318,
	"Ġlim": 6319,
	"Ġjelly": 6320,
	"Waves": 6321,
	"Ġcopper": 6322,
	"items": 6323,
	"oog": 6324,
	"wrinkles": 6325,
	"stered": 6326,
	"railroad": 6327,
	"photo": 6328,
	"megranate": 6329,
	"Windshield": 6330,
	"Ġpeanut": 6331,
	"Ġprocessor": 6332,
	"Ġsnacks": 6333,
	"gravy": 6334,
	"Ġforefront": 6335,
	"onnaise": 6336,
	"Ġput": 6337,
	"Ġfender": 6338,
	"Ġlayer": 6339,
	"Ġsheer": 6340,
	"Ġlens": 6341,
	"Ġbreast": 6342,
	"Ġbunk": 6343,
	"Framed": 6344,
	"Ġsprinkled": 6345,
	"Ġcontains": 6346,
	"chains": 6347,
	"TLE": 6348,
	"Ġtypes": 6349,
	"bris": 6350,
	"cri": 6351,
	"Ġfishing": 6352,
	"ĠAT": 6353,
	"Ġseating": 6354,
	"Ġrabbit": 6355,
	"Ġjumpsuit": 6356,
	"Ġlanyard": 6357,
	"Ġcases": 6358,
	"Keyboard": 6359,
	"TURE": 6360,
	"lunch": 6361,
	"Ġduff": 6362,
	"lank": 6363,
	"Ġsunset": 6364,
	"Ġsolid": 6365,
	"Ġswitche": 6366,
	"PART": 6367,
	"Ġselling": 6368,
	"amel": 6369,
	"laptops": 6370,
	"Ġcrackers": 6371,
	"Chain": 6372,
	"Wii": 6373,
	"Ġreddish": 6374,
	"Double": 6375,
	"Ġmac": 6376,
	"like": 6377,
	"tch": 6378,
	"icap": 6379,
	"Ġda": 6380,
	"Ġoutlets": 6381,
	"Ġthey": 6382,
	"creen": 6383,
	"Stone": 6384,
	"Surfer": 6385,
	"dumpster": 6386,
	"soldier": 6387,
	"REET": 6388,
	"Ġmeet": 6389,
	"cooker": 6390,
	"Ġmanhole": 6391,
	"Ġdol": 6392,
	"pond": 6393,
	"vis": 6394,
	"Ġuncooked": 6395,
	"Ġcharacters": 6396,
	"stripe": 6397,
	"Ġrides": 6398,
	"monkey": 6399,
	"Ġshell": 6400,
	"ĠCOM": 6401,
	"Ġportable": 6402,
	"Ġmatching": 6403,
	"Ġhandlebars": 6404,
	"ental": 6405,
	"Ġskiis": 6406,
	"Women": 6407,
	"erase": 6408,
	"Ġheel": 6409,
	"Can": 6410,
	"Ġwinds": 6411,
	"OUN": 6412,
	"garlic": 6413,
	"Spectator": 6414,
	"Ġlipstick": 6415,
	"trains": 6416,
	"ĠCAT": 6417,
	"Ġremotes": 6418,
	"Ġspeckled": 6419,
	"ĠWATER": 6420,
	"panda": 6421,
	"MALL": 6422,
	"Ġwasher": 6423,
	"Ġur": 6424,
	"area": 6425,
	"Ġthrown": 6426,
	"fessional": 6427,
	"asuring": 6428,
	"Ġmoon": 6429,
	"cardboard": 6430,
	"RASS": 6431,
	"ared": 6432,
	"single": 6433,
	"Ġcrumpled": 6434,
	"Ġbeams": 6435,
	"tattoo": 6436,
	"vetop": 6437,
	"Ġfather": 6438,
	"Ġmit": 6439,
	"Ġbaker": 6440,
	"Ġskull": 6441,
	"washing": 6442,
	"toothpaste": 6443,
	"Ġarrangement": 6444,
	"goose": 6445,
	"ILDING": 6446,
	"both": 6447,
	"Flag": 6448,
	"rub": 6449,
	"Ġcrispy": 6450,
	"Ġstudents": 6451,
	"team": 6452,
	"Cut": 6453,
	"bbing": 6454,
	"Ġtilted": 6455,
	"Ġbrocolli": 6456,
	"Ġgentleman": 6457,
	"computers": 6458,
	"License": 6459,
	"asoned": 6460,
	"mans": 6461,
	"asy": 6462,
	"Ġlifted": 6463,
	"reo": 6464,
	"Ġpenguin": 6465,
	"Writing": 6466,
	"Meat": 6467,
	"Ġtourist": 6468,
	"Gravel": 6469,
	"ION": 6470,
	"Ġchalkboard": 6471,
	"balloons": 6472,
	"aqu": 6473,
	"gen": 6474,
	"Ġtowers": 6475,
	"shine": 6476,
	"Ġstatu": 6477,
	"shaped": 6478,
	"Ġties": 6479,
	"Ġvess": 6480,
	"Watch": 6481,
	"second": 6482,
	"Ġcartoon": 6483,
	"Mouse": 6484,
	"Ġoverlooking": 6485,
	"Bushes": 6486,
	"GREEN": 6487,
	"dent": 6488,
	"Ġtre": 6489,
	"Button": 6490,
	"Ġrows": 6491,
	"Ġprotection": 6492,
	"Ġfre": 6493,
	"Ġlighted": 6494,
	"Ġlighter": 6495,
	"steel": 6496,
	"Surfboard": 6497,
	"allest": 6498,
	"Ġambulance": 6499,
	"Ġfingernail": 6500,
	"Ġfootball": 6501,
	"Ġsoil": 6502,
	"Kid": 6503,
	"oggy": 6504,
	"Ġcleat": 6505,
	"Ġspectacle": 6506,
	"Ġbuggy": 6507,
	"Umbrella": 6508,
	"electronic": 6509,
	"flour": 6510,
	"color": 6511,
	"briefcase": 6512,
	"Ġfer": 6513,
	"Over": 6514,
	"beads": 6515,
	"Ġcute": 6516,
	"tunnel": 6517,
	"Ġcalendar": 6518,
	"Ġtangerine": 6519,
	"apartment": 6520,
	"pears": 6521,
	"Ġmixing": 6522,
	"Ġrag": 6523,
	"Ġscale": 6524,
	"well": 6525,
	"forks": 6526,
	"Ġneed": 6527,
	"Ġdisposable": 6528,
	"They": 6529,
	"peeled": 6530,
	"Ġ10": 6531,
	"broom": 6532,
	"ilhouette": 6533,
	"ĠAN": 6534,
	"Ġhospital": 6535,
	"hood": 6536,
	"Ġshaded": 6537,
	"Ġpoint": 6538,
	"smiling": 6539,
	"Ġthird": 6540,
	"Ġpeeled": 6541,
	"Ġmove": 6542,
	"hino": 6543,
	"Ġconve": 6544,
	"Ġmov": 6545,
	"Spoon": 6546,
	"Ġcleaning": 6547,
	"ĠSTOP": 6548,
	"teen": 6549,
	"undershirt": 6550,
	"Ġvariety": 6551,
	"Ġdirections": 6552,
	"Ġpeaches": 6553,
	"Ġbreaking": 6554,
	"Ġdeli": 6555,
	"tination": 6556,
	"oleslaw": 6557,
	"Six": 6558,
	"Ġdust": 6559,
	"Fresh": 6560,
	"Ġpri": 6561,
	"baskets": 6562,
	"Ġsmoking": 6563,
	"Remote": 6564,
	"NIS": 6565,
	"Ġbalance": 6566,
	"Ġstreetlight": 6567,
	"opes": 6568,
	"Asian": 6569,
	"Ġsaying": 6570,
	"Bal": 6571,
	"ummy": 6572,
	"Ġeyebrows": 6573,
	"ĠTEN": 6574,
	"Ġglare": 6575,
	"pass": 6576,
	"Ġdetail": 6577,
	"airplanes": 6578,
	"Bar": 6579,
	"baked": 6580,
	"medium": 6581,
	"Ġstretched": 6582,
	"Ġstairway": 6583,
	"Ġalso": 6584,
	"clean": 6585,
	"IE": 6586,
	"bagels": 6587,
	"Ġpresent": 6588,
	"sponge": 6589,
	"Ġreflector": 6590,
	"Ġtyping": 6591,
	"Lu": 6592,
	"Ġtouch": 6593,
	"plaid": 6594,
	"Ġdrainer": 6595,
	"Ġbridle": 6596,
	"Ġvessel": 6597,
	"christmas": 6598,
	"Ġfighter": 6599,
	"Older": 6600,
	"Ġspik": 6601,
	"Ġdinosaur": 6602,
	"Ġpetals": 6603,
	"PH": 6604,
	"ala": 6605,
	"ico": 6606,
	"Ġmeters": 6607,
	"Ġcalculator": 6608,
	"Ġcanvas": 6609,
	"Ġturquoise": 6610,
	"Ġcarved": 6611,
	"Ġpicket": 6612,
	"Ġkayak": 6613,
	"Ġpineapples": 6614,
	"ĠOpen": 6615,
	"Ġfile": 6616,
	"Ġmango": 6617,
	"ĠSTREET": 6618,
	"Ġtabletop": 6619,
	"fried": 6620,
	"Ġarrows": 6621,
	"Ġpouring": 6622,
	"French": 6623,
	"ĠFL": 6624,
	"Ġeggplant": 6625,
	"liding": 6626,
	"broken": 6627,
	"Ġtote": 6628,
	"ssom": 6629,
	"LOOR": 6630,
	"Ġaquarium": 6631,
	"Ġfigurines": 6632,
	"stump": 6633,
	"Ġblades": 6634,
	"Ġappro": 6635,
	"Ġcluster": 6636,
	"bracelets": 6637,
	"ĠLE": 6638,
	"Ġnotepad": 6639,
	"Ġtoiletries": 6640,
	"tery": 6641,
	"Ġlove": 6642,
	"Walk": 6643,
	"stacle": 6644,
	"Ball": 6645,
	"runway": 6646,
	"ĠJACKET": 6647,
	"Ġengines": 6648,
	"vines": 6649,
	"inside": 6650,
	"ĠSHO": 6651,
	"Ġbuds": 6652,
	"Ġvending": 6653,
	"Tire": 6654,
	"Ġcustomers": 6655,
	"Ġwooded": 6656,
	"ids": 6657,
	"Ġknot": 6658,
	"ETAL": 6659,
	"plain": 6660,
	"posed": 6661,
	"Ġbride": 6662,
	"Ġbronze": 6663,
	"Ġsour": 6664,
	"Ġstovetop": 6665,
	"Ġdisk": 6666,
	"ends": 6667,
	"Cou": 6668,
	"twigs": 6669,
	"eline": 6670,
	"ew": 6671,
	"Out": 6672,
	"Ġcarry": 6673,
	"Ġwrought": 6674,
	"cards": 6675,
	"Vehicle": 6676,
	"canisters": 6677,
	"chalk": 6678,
	"Ġcarrier": 6679,
	"icured": 6680,
	"ĠZ": 6681,
	"Dis": 6682,
	"eggplant": 6683,
	"huge": 6684,
	"Ġparade": 6685,
	"Ġpedal": 6686,
	"Dirty": 6687,
	"ĠBUILDING": 6688,
	"Ġrailings": 6689,
	"Ġmantel": 6690,
	"Ġfold": 6691,
	"ichoke": 6692,
	"Ġspiral": 6693,
	"ĠPE": 6694,
	"Ġhut": 6695,
	"Ġairl": 6696,
	"Ġraft": 6697,
	"Ġspokes": 6698,
	"ĠCU": 6699,
	"Ġgrout": 6700,
	"steak": 6701,
	"different": 6702,
	"Legs": 6703,
	"Bare": 6704,
	"ĠHAT": 6705,
	"Trunk": 6706,
	"Ġsword": 6707,
	"Ġhelping": 6708,
	"ĠSO": 6709,
	"strap": 6710,
	"ĠĠĠĠĠĠĠĠĠĠĠĠĠĠĠĠ": 6711,
	"tourist": 6712,
	"rito": 6713,
	"Ġshaggy": 6714,
	"ĠGRASS": 6715,
	"cuum": 6716,
	"wrink": 6717,
	"fall": 6718,
	"Ġbrunette": 6719,
	"Ġwatches": 6720,
	"close": 6721,
	"Ce": 6722,
	"goal": 6723,
	"Ġnetting": 6724,
	"Ġdang": 6725,
	"ameras": 6726,
	"ĠLIGHT": 6727,
	"Cur": 6728,
	"Ġmashed": 6729,
	"rece": 6730,
	"OOK": 6731,
	"skate": 6732,
	"Ġmeadow": 6733,
	"Ġpacked": 6734,
	"ob": 6735,
	"ZZ": 6736,
	"Ġfring": 6737,
	"Shirt": 6738,
	"vely": 6739,
	"Di": 6740,
	"Ġprojector": 6741,
	"cla": 6742,
	"dryer": 6743,
	"Ġcrystal": 6744,
	"Ġreceipt": 6745,
	"blankets": 6746,
	"Advertis": 6747,
	"paved": 6748,
	"living": 6749,
	"Ġfloret": 6750,
	"cli": 6751,
	"Ġbone": 6752,
	"tering": 6753,
	"Ġpouch": 6754,
	"Ġcondiments": 6755,
	"Ġwax": 6756,
	"syrup": 6757,
	"Ġjam": 6758,
	"Ġflush": 6759,
	"Ġfrisbe": 6760,
	"trucks": 6761,
	"surface": 6762,
	"Ġherb": 6763,
	"Ġcork": 6764,
	"Ġcuff": 6765,
	"Ġic": 6766,
	"Ġserve": 6767,
	"Ġamount": 6768,
	"Ġseal": 6769,
	"helmets": 6770,
	"dressing": 6771,
	"Ġbiscuit": 6772,
	"Ġgrasses": 6773,
	"Frisbee": 6774,
	"aucasian": 6775,
	"Ġmacaroni": 6776,
	"Ġwal": 6777,
	"trays": 6778,
	"tractor": 6779,
	"ĠCo": 6780,
	"jump": 6781,
	"rious": 6782,
	"Ġtransport": 6783,
	"Ġpatterns": 6784,
	"Ġgrip": 6785,
	"Ġfly": 6786,
	"fin": 6787,
	"arched": 6788,
	"Ġshampoo": 6789,
	"Spectators": 6790,
	"gown": 6791,
	"ĠHOR": 6792,
	"Ġcarries": 6793,
	"Ġcrumb": 6794,
	"rider": 6795,
	"Ġcarpeting": 6796,
	"PP": 6797,
	"wild": 6798,
	"hotel": 6799,
	"brary": 6800,
	"Ġvi": 6801,
	"Ġchip": 6802,
	"various": 6803,
	"Ġarchway": 6804,
	"ICTURE": 6805,
	"Microwave": 6806,
	"Ġsiding": 6807,
	"pockets": 6808,
	"keys": 6809,
	"Ġdrying": 6810,
	"athletic": 6811,
	"donkey": 6812,
	"Ġhoop": 6813,
	"mot": 6814,
	"Lots": 6815,
	"move": 6816,
	"Multiple": 6817,
	"aming": 6818,
	"Ġsideways": 6819,
	"Leaf": 6820,
	"ĠOff": 6821,
	"knobs": 6822,
	"Police": 6823,
	"gest": 6824,
	"Palm": 6825,
	"Ġscr": 6826,
	"Ġpolish": 6827,
	"iers": 6828,
	"Vegetable": 6829,
	"elt": 6830,
	"Ġclump": 6831,
	"orescent": 6832,
	"ably": 6833,
	"ris": 6834,
	"Ġdecal": 6835,
	"multicolored": 6836,
	"Ġenter": 6837,
	"tissues": 6838,
	"angs": 6839,
	"epsi": 6840,
	"ickey": 6841,
	"feed": 6842,
	"Ġrests": 6843,
	"tender": 6844,
	"Ġpet": 6845,
	"Ġfolder": 6846,
	"Ġfeat": 6847,
	"Straw": 6848,
	"grown": 6849,
	"aments": 6850,
	"ĠTENNIS": 6851,
	"TED": 6852,
	"suitcases": 6853,
	"Ġpilot": 6854,
	"Ġvend": 6855,
	"Ġriders": 6856,
	"ills": 6857,
	"ĠMac": 6858,
	"frican": 6859,
	"Fl": 6860,
	"deep": 6861,
	"Ġbrightly": 6862,
	"verages": 6863,
	"Ġblood": 6864,
	"Ġfoamy": 6865,
	"tain": 6866,
	"ĠTREE": 6867,
	"Ġunripe": 6868,
	"arse": 6869,
	"ee": 6870,
	"ĠWhite": 6871,
	"Ġnearby": 6872,
	"Ġshing": 6873,
	"Ġholders": 6874,
	"Ġostrich": 6875,
	"ĠSP": 6876,
	"WOMAN": 6877,
	"Pro": 6878,
	"Ġslot": 6879,
	"Ġorgan": 6880,
	"cock": 6881,
	"mergen": 6882,
	"Pieces": 6883,
	"Roof": 6884,
	"Ġcracked": 6885,
	"Ġram": 6886,
	"toiletries": 6887,
	"once": 6888,
	"Ġsniff": 6889,
	"digital": 6890,
	"Ġexpress": 6891,
	"Ġupholstered": 6892,
	"Ġfollowing": 6893,
	"Ġdusty": 6894,
	"gage": 6895,
	"ashes": 6896,
	"Ġvel": 6897,
	"Ġhearts": 6898,
	"Ġscore": 6899,
	"market": 6900,
	"Ġwedge": 6901,
	"vine": 6902,
	"leggings": 6903,
	"Ġcool": 6904,
	"Go": 6905,
	"Ġveggie": 6906,
	"ker": 6907,
	"Ġwindowsill": 6908,
	"rolling": 6909,
	"ĠFLOOR": 6910,
	"ceramic": 6911,
	"Ġres": 6912,
	"Ġbadge": 6913,
	"Ġvanilla": 6914,
	"aving": 6915,
	"iter": 6916,
	"Ġbreak": 6917,
	"Cement": 6918,
	"Ġbefore": 6919,
	"RAN": 6920,
	"Ġhub": 6921,
	"cliff": 6922,
	"ĠSTANDING": 6923,
	"take": 6924,
	"mirrors": 6925,
	"IKE": 6926,
	"Pen": 6927,
	"middle": 6928,
	"lings": 6929,
	"Ġmarked": 6930,
	"Ġexhi": 6931,
	"Ġtasty": 6932,
	"Art": 6933,
	"bald": 6934,
	"goats": 6935,
	"Ġplaque": 6936,
	"Ġexterior": 6937,
	"Ġpeeling": 6938,
	"pigeons": 6939,
	"Ġmedicine": 6940,
	"Ġracks": 6941,
	"icking": 6942,
	"ĠFEN": 6943,
	"potted": 6944,
	"Ġsat": 6945,
	"Ġmass": 6946,
	"Ġtoothpick": 6947,
	"Ġcracker": 6948,
	"Ġconnecting": 6949,
	"illed": 6950,
	"Name": 6951,
	"drop": 6952,
	"Ġcau": 6953,
	"ĠHAIR": 6954,
	"Ġwispy": 6955,
	"Ġearphones": 6956,
	"ZZA": 6957,
	"ificial": 6958,
	"Ġfoods": 6959,
	"evergreen": 6960,
	"Ġinfla": 6961,
	"Ġchina": 6962,
	"Line": 6963,
	"Ġbubble": 6964,
	"Golden": 6965,
	"Ġmer": 6966,
	"ĠSHOR": 6967,
	"Bathroom": 6968,
	"welry": 6969,
	"Ġrelaxing": 6970,
	"Ġblurred": 6971,
	"mergency": 6972,
	"circle": 6973,
	"Flat": 6974,
	"clocks": 6975,
	"whole": 6976,
	"Ripples": 6977,
	"honey": 6978,
	"Ġtails": 6979,
	"House": 6980,
	"Ġstorefront": 6981,
	"ĠGROUND": 6982,
	"pointy": 6983,
	"burnt": 6984,
	"IST": 6985,
	"Ġboulders": 6986,
	"Ġfog": 6987,
	"ĠIn": 6988,
	"tening": 6989,
	"maroon": 6990,
	"CT": 6991,
	"Ġbay": 6992,
	"Ġcobblestone": 6993,
	"Ġself": 6994,
	"Ġmeasuring": 6995,
	"Ġcommon": 6996,
	"Ġroasted": 6997,
	"Roll": 6998,
	"Ġdirectional": 6999,
	"Bottles": 7000,
	"ba": 7001,
	"Ġclimbing": 7002,
	"Ġguards": 7003,
	"Ġparachute": 7004,
	"Ġelevated": 7005,
	"Ġoper": 7006,
	"Ġladle": 7007,
	"Cir": 7008,
	"Ġpict": 7009,
	"Wet": 7010,
	"Ġiced": 7011,
	"Ġblow": 7012,
	"Ġeagle": 7013,
	"ĠPANTS": 7014,
	"Ġbelongs": 7015,
	"swimming": 7016,
	"Ġmusic": 7017,
	"Ġash": 7018,
	"desktop": 7019,
	"Pictures": 7020,
	"Ġloading": 7021,
	"Ġclassroom": 7022,
	"All": 7023,
	"Ġcro": 7024,
	"leather": 7025,
	"alls": 7026,
	"Ġwomens": 7027,
	"iles": 7028,
	"Ġroller": 7029,
	"Ġbubbles": 7030,
	"Ġinstrument": 7031,
	"rists": 7032,
	"Ġ[": 7033,
	"Oranges": 7034,
	"Ġskyline": 7035,
	"dering": 7036,
	"Ġscra": 7037,
	"Passenger": 7038,
	"Ġtips": 7039,
	"skillet": 7040,
	"ĠTRU": 7041,
	"Ġbookshelves": 7042,
	"Tracks": 7043,
	"Ġclaw": 7044,
	"Ġbalancing": 7045,
	"Ġsupplies": 7046,
	"Couple": 7047,
	"pineapples": 7048,
	"dant": 7049,
	"tish": 7050,
	"dium": 7051,
	"Ġpaneling": 7052,
	"dried": 7053,
	"seum": 7054,
	"tangerine": 7055,
	"flage": 7056,
	"bster": 7057,
	"lion": 7058,
	"Ġsunflower": 7059,
	"Chop": 7060,
	"gs": 7061,
	"Ġstorm": 7062,
	"LAN": 7063,
	"Ġsupports": 7064,
	"cery": 7065,
	"glaze": 7066,
	"Ġservice": 7067,
	"Ġcondiment": 7068,
	"receipt": 7069,
	"Ġhelicopter": 7070,
	"AIL": 7071,
	"Ġcompartment": 7072,
	"ĠTRAIN": 7073,
	"match": 7074,
	"Bra": 7075,
	"ĠDOOR": 7076,
	"ider": 7077,
	"Ġ20": 7078,
	"Banana": 7079,
	"Ġwheat": 7080,
	"solid": 7081,
	"ĠSN": 7082,
	"ĠHEAD": 7083,
	"pancakes": 7084,
	"ĠBEAR": 7085,
	"YCLE": 7086,
	"mmed": 7087,
	"Ġingredi": 7088,
	"Ġpee": 7089,
	"seaweed": 7090,
	"dden": 7091,
	"Ġtextured": 7092,
	"Ġcactus": 7093,
	"Ġoar": 7094,
	"Letters": 7095,
	"aughter": 7096,
	"Ġgall": 7097,
	"Ġboiled": 7098,
	"Ġstoplight": 7099,
	"Pepper": 7100,
	"Ġbacksplash": 7101,
	"Ġcoca": 7102,
	"Ġbiting": 7103,
	"manhole": 7104,
	"Ġcordless": 7105,
	"REY": 7106,
	"Ġcubes": 7107,
	"Plants": 7108,
	"isted": 7109,
	"Med": 7110,
	"Ġbuff": 7111,
	"Ġliner": 7112,
	"Sidewalk": 7113,
	"print": 7114,
	"Ġwea": 7115,
	"Mar": 7116,
	"derside": 7117,
	"Painting": 7118,
	"rait": 7119,
	"Ġshelving": 7120,
	"drum": 7121,
	"ĠX": 7122,
	"Cows": 7123,
	"Ġloose": 7124,
	"Ġunpeeled": 7125,
	"Ġhomemade": 7126,
	"Skateboarder": 7127,
	"Ġparasail": 7128,
	"Ġwhisk": 7129,
	"Arm": 7130,
	"Ġpaintings": 7131,
	"hoof": 7132,
	"mus": 7133,
	"Ġlantern": 7134,
	"Ġsniffing": 7135,
	"rusty": 7136,
	"Ġspraying": 7137,
	"handles": 7138,
	"Ġemployee": 7139,
	"hang": 7140,
	"Ġindi": 7141,
	"Ġtransit": 7142,
	"Ġcourtyard": 7143,
	"plu": 7144,
	"Ġome": 7145,
	"Ġraincoat": 7146,
	"Ġrel": 7147,
	"ila": 7148,
	"Ġbeet": 7149,
	"Ġsecurity": 7150,
	"jackets": 7151,
	"Ġripp": 7152,
	"vidual": 7153,
	"ked": 7154,
	"town": 7155,
	"footprints": 7156,
	"Desk": 7157,
	"Cream": 7158,
	"Headlight": 7159,
	"ĠSHE": 7160,
	"Male": 7161,
	"pers": 7162,
	"rainbow": 7163,
	"PUTER": 7164,
	"airport": 7165,
	"waste": 7166,
	"Ġcarts": 7167,
	"Ġplanted": 7168,
	"Ġwrapping": 7169,
	"decker": 7170,
	"gin": 7171,
	"Ġmail": 7172,
	"Ġmast": 7173,
	"students": 7174,
	"school": 7175,
	"urdle": 7176,
	"Smiling": 7177,
	"track": 7178,
	"bol": 7179,
	"Ġhugging": 7180,
	"herb": 7181,
	"ĠCOL": 7182,
	"Ġmanicured": 7183,
	"Ġori": 7184,
	"coats": 7185,
	"asing": 7186,
	"Hard": 7187,
	"self": 7188,
	"Ġseaweed": 7189,
	"ĠBAT": 7190,
	"Ġkiosk": 7191,
	"Ġplanks": 7192,
	"orage": 7193,
	"ĠNE": 7194,
	"Ġraspberries": 7195,
	"photograph": 7196,
	"ield": 7197,
	"ĠBOW": 7198,
	"Ġivory": 7199,
	"Ġlicking": 7200,
	"Ġdestination": 7201,
	"garbage": 7202,
	"Ġraspberry": 7203,
	"Ġnostril": 7204,
	"pas": 7205,
	"Ġfed": 7206,
	"Parking": 7207,
	"ument": 7208,
	"Ġtrop": 7209,
	"Ġpictured": 7210,
	"ILVER": 7211,
	"Ġaccents": 7212,
	"muter": 7213,
	"wicker": 7214,
	"rocky": 7215,
	"AVE": 7216,
	"Napkin": 7217,
	"mango": 7218,
	"REES": 7219,
	"ĠRE": 7220,
	"Dish": 7221,
	"Ġbraided": 7222,
	"Ġpersonal": 7223,
	"partially": 7224,
	"Headlights": 7225,
	"Ġofficers": 7226,
	"Ġcoin": 7227,
	"surfboards": 7228,
	"Ġstains": 7229,
	"Ġidentification": 7230,
	"Ġcushioned": 7231,
	"Ġexhibit": 7232,
	"Ġroute": 7233,
	"EY": 7234,
	"jumpsuit": 7235,
	"Ġey": 7236,
	"cane": 7237,
	"Ġparts": 7238,
	"Ġstun": 7239,
	"ances": 7240,
	"whiskers": 7241,
	"Ġpret": 7242,
	"atering": 7243,
	"coconut": 7244,
	"Ġseasoned": 7245,
	"Vase": 7246,
	"Ġseparating": 7247,
	"Ġgrow": 7248,
	"ĠDES": 7249,
	"od": 7250,
	"Ġfli": 7251,
	"bedroom": 7252,
	"angled": 7253,
	"ĠChinese": 7254,
	"Ġcinnamon": 7255,
	"beet": 7256,
	"Ġathlete": 7257,
	"guard": 7258,
	"mashed": 7259,
	"Telephone": 7260,
	"ĠBOY": 7261,
	"Ġson": 7262,
	"Christmas": 7263,
	"turkey": 7264,
	"ĠPLAY": 7265,
	"Ġmuffins": 7266,
	"Ġcour": 7267,
	"glowing": 7268,
	"navy": 7269,
	"Ġgreat": 7270,
	"arn": 7271,
	"Ġthese": 7272,
	"Ġcollection": 7273,
	"Hands": 7274,
	"Ġcorded": 7275,
	"powder": 7276,
	"ornate": 7277,
	"Papers": 7278,
	"Ġcompet": 7279,
	"ists": 7280,
	"Ġink": 7281,
	"iding": 7282,
	"raspberry": 7283,
	"ides": 7284,
	"Ġvol": 7285,
	"za": 7286,
	"Ġcapital": 7287,
	"gentleman": 7288,
	"Ġlibrary": 7289,
	"Ġale": 7290,
	"ican": 7291,
	"Ġothers": 7292,
	"Ġcandies": 7293,
	"leafy": 7294,
	"ĠPIZZA": 7295,
	"fortable": 7296,
	"Ġscreens": 7297,
	"Ġshutter": 7298,
	"Graffiti": 7299,
	"Sw": 7300,
	"Ġantelope": 7301,
	"bably": 7302,
	"customers": 7303,
	"Ġwake": 7304,
	"Ġteen": 7305,
	"hedges": 7306,
	"Ġkickstand": 7307,
	"We": 7308,
	"Ġheaded": 7309,
	"apay": 7310,
	"Ġflore": 7311,
	"Ġgarment": 7312,
	"Ġhalves": 7313,
	"Ġmolding": 7314,
	"Ġflamingo": 7315,
	"Carrots": 7316,
	"oca": 7317,
	"Ġrouter": 7318,
	"lap": 7319,
	"Ġliquor": 7320,
	"ilets": 7321,
	"Ġva": 7322,
	"dip": 7323,
	"Ġbutt": 7324,
	"mobile": 7325,
	"meter": 7326,
	"ckered": 7327,
	"lers": 7328,
	"Ġcran": 7329,
	"yor": 7330,
	"Ġrecliner": 7331,
	"Ġtoothbrushes": 7332,
	"Ġrooftop": 7333,
	"ortment": 7334,
	"Ġcleaner": 7335,
	"Ġhip": 7336,
	"Ġfrisbees": 7337,
	"Ġgreenery": 7338,
	"Ġbullet": 7339,
	"ĠPH": 7340,
	"Zebras": 7341,
	"Ġrunner": 7342,
	"Ġoutfield": 7343,
	"sweet": 7344,
	"rina": 7345,
	"Ġskiier": 7346,
	"Ġtofu": 7347,
	"tags": 7348,
	"Ġoctopus": 7349,
	"cherries": 7350,
	"feeder": 7351,
	"Ġlambs": 7352,
	"Ġfiling": 7353,
	"ANS": 7354,
	"Ġspear": 7355,
	"Ġscaffolding": 7356,
	"Ru": 7357,
	"Rect": 7358,
	"Ġhotdogs": 7359,
	"stapler": 7360,
	"pillowcase": 7361,
	"Ġsparse": 7362,
	"Ġbrist": 7363,
	"strial": 7364,
	"Ġcompact": 7365,
	"Ġswirl": 7366,
	"leep": 7367,
	"Ġextending": 7368,
	"Sunlight": 7369,
	"wash": 7370,
	"Ġthermo": 7371,
	"Dead": 7372,
	"neon": 7373,
	"Ġmuseum": 7374,
	"Ġfoggy": 7375,
	"Ġswitches": 7376,
	"BLUE": 7377,
	"Ġcop": 7378,
	"Knob": 7379,
	"notepad": 7380,
	"Ġlimb": 7381,
	"RY": 7382,
	"patterned": 7383,
	"tta": 7384,
	"pale": 7385,
	"bookshelves": 7386,
	"LEPH": 7387,
	"partial": 7388,
	"cloths": 7389,
	"Ġtakes": 7390,
	"something": 7391,
	"Ġstatues": 7392,
	"bbery": 7393,
	"Ġfilling": 7394,
	"ĠCOMPUTER": 7395,
	"Ġgrinder": 7396,
	"Cross": 7397,
	"Lettuce": 7398,
	"bubbles": 7399,
	"Ġfound": 7400,
	"Pitcher": 7401,
	"Pan": 7402,
	"Ġprofessional": 7403,
	"Ġpantry": 7404,
	"pant": 7405,
	"Ġtaped": 7406,
	"LET": 7407,
	"yy": 7408,
	"Ġpaneled": 7409,
	"Ġbaseboard": 7410,
	"cactus": 7411,
	"Fe": 7412,
	"Ġsnowboards": 7413,
	"ducks": 7414,
	"Ġpage": 7415,
	"Elephants": 7416,
	"Cabinet": 7417,
	"Ġchopping": 7418,
	"LES": 7419,
	"standing": 7420,
	"apaya": 7421,
	"Ġbarren": 7422,
	"Neck": 7423,
	"ĠCOLOR": 7424,
	"ĠFENCE": 7425,
	"Ġshrubbery": 7426,
	"Ġshops": 7427,
	"Ġgrocery": 7428,
	"Ġstrapped": 7429,
	"Ġdirect": 7430,
	"Beautiful": 7431,
	"Ġdom": 7432,
	"Ġburning": 7433,
	"peaches": 7434,
	"ouflage": 7435,
	"Clu": 7436,
	"cinnamon": 7437,
	"Ġpail": 7438,
	"Ġforming": 7439,
	"Ġdoorknob": 7440,
	"chinese": 7441,
	"Ġsausages": 7442,
	"alog": 7443,
	"Ġrecept": 7444,
	"Ġcash": 7445,
	"Ġpartition": 7446,
	"ĠGRA": 7447,
	"Ġgy": 7448,
	"lighthouse": 7449,
	"Ġapproaching": 7450,
	"Ġeven": 7451,
	"Ġsole": 7452,
	"Ġcurve": 7453,
	"Ġseasoning": 7454,
	"Ġgrabbing": 7455,
	"Ġhomes": 7456,
	"biscuit": 7457,
	"hetti": 7458,
	"armes": 7459,
	"pane": 7460,
	"Corn": 7461,
	"ens": 7462,
	"Closed": 7463,
	"ĠCoca": 7464,
	"pump": 7465,
	"ARGE": 7466,
	"ONG": 7467,
	"Ġdesserts": 7468,
	"ĠBOWL": 7469,
	"Ġelectronics": 7470,
	"Ġmou": 7471,
	"oring": 7472,
	"indrical": 7473,
	"ĠPICTURE": 7474,
	"Ġdrawings": 7475,
	"Ġturf": 7476,
	"Ġoverpass": 7477,
	"cluster": 7478,
	"Ġbands": 7479,
	"earest": 7480,
	"Ġim": 7481,
	"OPLE": 7482,
	"rubs": 7483,
	"Ġ.": 7484,
	"Ġhandicap": 7485,
	"Ġmedian": 7486,
	"poles": 7487,
	"Ġresi": 7488,
	"Gar": 7489,
	"Camera": 7490,
	"ĠHORSE": 7491,
	"VES": 7492,
	"Tile": 7493,
	"Ġslide": 7494,
	"Ġfron": 7495,
	"hest": 7496,
	"acked": 7497,
	"aghetti": 7498,
	"Ġkit": 7499,
	"Ġknitted": 7500,
	"Dry": 7501,
	"Ġjets": 7502,
	"smooth": 7503,
	"Ġfaucets": 7504,
	"used": 7505,
	"Ġarmrest": 7506,
	"issor": 7507,
	"Both": 7508,
	"Ġsushi": 7509,
	"Ġmidair": 7510,
	"Ġprobably": 7511,
	"Ġpatchy": 7512,
	"ank": 7513,
	"SH": 7514,
	"Ġflame": 7515,
	"conies": 7516,
	"macaroni": 7517,
	"Ġhips": 7518,
	"Ġminiature": 7519,
	"spe": 7520,
	"Ġsignals": 7521,
	"Ġ11": 7522,
	"human": 7523,
	"Sink": 7524,
	"ults": 7525,
	"ĠFRONT": 7526,
	"Ġclas": 7527,
	"Ġbarbed": 7528,
	"Ġstacks": 7529,
	"Ġstereo": 7530,
	"ichokes": 7531,
	"Ġnatural": 7532,
	"Ġridden": 7533,
	"armesan": 7534,
	"ama": 7535,
	"Ġvests": 7536,
	"MP": 7537,
	"Eyes": 7538,
	"CKS": 7539,
	"Chi": 7540,
	"Ġdial": 7541,
	"Ġdaisy": 7542,
	"Ġfringe": 7543,
	"Ġsprou": 7544,
	"Ġmir": 7545,
	"REL": 7546,
	"Soccer": 7547,
	"chandise": 7548,
	"Ġbackyard": 7549,
	"atmeal": 7550,
	"elds": 7551,
	"Ġtiger": 7552,
	"cellphone": 7553,
	"Ġware": 7554,
	"ĠMETAL": 7555,
	"Ġpodium": 7556,
	"Ġbottoms": 7557,
	"ĠBED": 7558,
	"Ġtoilets": 7559,
	"TOP": 7560,
	"Ġblu": 7561,
	"Ġcamo": 7562,
	"aprt": 7563,
	"ICE": 7564,
	"Ġsleep": 7565,
	"sive": 7566,
	"Ġterra": 7567,
	"Ġbrace": 7568,
	"Ġtim": 7569,
	"Ġworkers": 7570,
	"Ġx": 7571,
	"Vegetables": 7572,
	"Ġtone": 7573,
	"CD": 7574,
	"brass": 7575,
	"Ġoutline": 7576,
	"bot": 7577,
	"Ġbrownie": 7578,
	"cover": 7579,
	"CO": 7580,
	"Ġblank": 7581,
	"calculator": 7582,
	"Ġtrough": 7583,
	"Ġkeypad": 7584,
	"deer": 7585,
	"Ġdarker": 7586,
	"ĠBOT": 7587,
	"Toy": 7588,
	"Blanket": 7589,
	"ĠWI": 7590,
	"atee": 7591,
	"Ġconveyor": 7592,
	"ton": 7593,
	"Ġtucked": 7594,
	"vender": 7595,
	"Ġsort": 7596,
	"Ġcouches": 7597,
	"Ġshaved": 7598,
	"Ġwhit": 7599,
	"hour": 7600,
	"Ġtwin": 7601,
	"motor": 7602,
	"Ġdiced": 7603,
	"Ġstew": 7604,
	"Ġbins": 7605,
	"grilled": 7606,
	"bone": 7607,
	"DY": 7608,
	"Ġus": 7609,
	"shield": 7610,
	"Ġlotion": 7611,
	"Ġaqua": 7612,
	"Ġpicking": 7613,
	"Ġappli": 7614,
	"undry": 7615,
	"Ġwheeled": 7616,
	"Tea": 7617,
	"Various": 7618,
	"Ġpeanuts": 7619,
	"irrel": 7620,
	"Ġhandlebar": 7621,
	"Wires": 7622,
	"Ġturt": 7623,
	"ANG": 7624,
	"pilot": 7625,
	"Ġcourse": 7626,
	"gift": 7627,
	"Ġdash": 7628,
	"Ġserver": 7629,
	"Set": 7630,
	"employee": 7631,
	"ATCH": 7632,
	"Ġbangs": 7633,
	"overhead": 7634,
	"Ġterrain": 7635,
	"ĠNintendo": 7636,
	"Mouth": 7637,
	"Burn": 7638,
	"Ġsteamed": 7639,
	"Ġgolf": 7640,
	"ĠRed": 7641,
	"bby": 7642,
	"Ġgym": 7643,
	"FA": 7644,
	"bucks": 7645,
	"Ġreins": 7646,
	"ripple": 7647,
	"Ġfrog": 7648,
	"Ġbatters": 7649,
	"Ġdec": 7650,
	"Ġtorso": 7651,
	"mmer": 7652,
	"sushi": 7653,
	"Ġitself": 7654,
	"asser": 7655,
	"Ġsailboats": 7656,
	"Ġbracket": 7657,
	"Ġcondu": 7658,
	"raspberries": 7659,
	"Ġangled": 7660,
	"Statue": 7661,
	"Ġevery": 7662,
	"Ġlead": 7663,
	"Ped": 7664,
	"Ġfriends": 7665,
	"pencils": 7666,
	"down": 7667,
	"Ġdev": 7668,
	"Ġnearest": 7669,
	"Snowboarder": 7670,
	"oval": 7671,
	"temp": 7672,
	"igar": 7673,
	"Ġsheeps": 7674,
	"HIND": 7675,
	"ci": 7676,
	"tow": 7677,
	"AGE": 7678,
	"av": 7679,
	"Ġbeaded": 7680,
	"haired": 7681,
	"Ġlatch": 7682,
	"tools": 7683,
	"cushion": 7684,
	"Egg": 7685,
	"ixed": 7686,
	"redit": 7687,
	"Ġpowered": 7688,
	"Ġinfield": 7689,
	"Children": 7690,
	"Ġfully": 7691,
	"Ġtoe": 7692,
	"anding": 7693,
	"Ġdate": 7694,
	"ĠWAL": 7695,
	"Ġdelivery": 7696,
	"bedding": 7697,
	"ĠSKY": 7698,
	"Cooked": 7699,
	"Salt": 7700,
	"patches": 7701,
	"ĠBEHIND": 7702,
	"dragon": 7703,
	"asserole": 7704,
	"Hu": 7705,
	"Ġreally": 7706,
	"Ġmarshmallow": 7707,
	"Ceiling": 7708,
	"Ġcape": 7709,
	"Ġobserving": 7710,
	"Ġgrapefruit": 7711,
	"Ġpra": 7712,
	"Ġmom": 7713,
	"Ġauto": 7714,
	"istening": 7715,
	"ĠORAN": 7716,
	"reflections": 7717,
	"Bran": 7718,
	"Ġchecker": 7719,
	"Ġwor": 7720,
	"Ġtines": 7721,
	"cer": 7722,
	"Ġtattoos": 7723,
	"Ġpadd": 7724,
	"Ġstab": 7725,
	"Ġprong": 7726,
	"Ġflames": 7727,
	"Ġcds": 7728,
	"Ġmotorcyclist": 7729,
	"esame": 7730,
	"ccu": 7731,
	"ĠOUT": 7732,
	"Ġstreak": 7733,
	"lipstick": 7734,
	"iffel": 7735,
	"Ġlen": 7736,
	"shampoo": 7737,
	"ĠBlack": 7738,
	"Ġboardwalk": 7739,
	"uttle": 7740,
	"Ġspire": 7741,
	"Ġscooters": 7742,
	"Ġmount": 7743,
	"Ġspring": 7744,
	"Ġhanding": 7745,
	"Silverware": 7746,
	"Ring": 7747,
	"Ġselfie": 7748,
	"Ġdispens": 7749,
	"LM": 7750,
	"brand": 7751,
	"Ġstocking": 7752,
	"Ġcrowded": 7753,
	"aquarium": 7754,
	"Ġchunks": 7755,
	"Ġsticky": 7756,
	"Buttons": 7757,
	"Ġentering": 7758,
	"Ġexpression": 7759,
	"Horses": 7760,
	"SMALL": 7761,
	"Ġsold": 7762,
	"Ġflash": 7763,
	"Ġsailing": 7764,
	"tscreen": 7765,
	"AMP": 7766,
	"Ġlaid": 7767,
	"Ġoctagonal": 7768,
	"Ġtook": 7769,
	"Birds": 7770,
	"Ġgras": 7771,
	"Ġforeign": 7772,
	"smaller": 7773,
	"Ġrecessed": 7774,
	"ĠBIKE": 7775,
	"Ġcubicle": 7776,
	"lig": 7777,
	"Ġaccent": 7778,
	"dinosaur": 7779,
	"Shoes": 7780,
	"Ġspout": 7781,
	"bul": 7782,
	"Ġstamp": 7783,
	"Ġmonument": 7784,
	"pasture": 7785,
	"Ġcracks": 7786,
	"Ġindicator": 7787,
	"Ġpitching": 7788,
	"shake": 7789,
	"Ġsatellite": 7790,
	"Ġmoney": 7791,
	"ĠELEPH": 7792,
	"ĠSC": 7793,
	"blood": 7794,
	"file": 7795,
	"Ġpolicemen": 7796,
	"ĠGREY": 7797,
	"phin": 7798,
	"ADE": 7799,
	"crackers": 7800,
	"RELLA": 7801,
	"bunny": 7802,
	"onal": 7803,
	"OG": 7804,
	"OTOR": 7805,
	"ations": 7806,
	"ĠCLO": 7807,
	"ĠJE": 7808,
	"Words": 7809,
	"Ġleafs": 7810,
	"Ġasleep": 7811,
	"Seat": 7812,
	"elev": 7813,
	"suits": 7814,
	"Ġstu": 7815,
	"Ġpretzel": 7816,
	"outlets": 7817,
	"Medium": 7818,
	"Slices": 7819,
	"ortilla": 7820,
	"Ġlab": 7821,
	"Ġcapped": 7822,
	"Ġfiretruck": 7823,
	"price": 7824,
	"Ġturtle": 7825,
	"Ġmakes": 7826,
	"MBRELLA": 7827,
	"doughnut": 7828,
	"projector": 7829,
	"Single": 7830,
	"Curtains": 7831,
	"Eng": 7832,
	"cds": 7833,
	"Ġalley": 7834,
	"Ġflakes": 7835,
	"Ġlids": 7836,
	"banner": 7837,
	"Lit": 7838,
	"Ġpal": 7839,
	"Ġvendor": 7840,
	"Ġif": 7841,
	"Draw": 7842,
	"12": 7843,
	"Ġconvers": 7844,
	"APER": 7845,
	"Ġbaggage": 7846,
	"ĠTIRE": 7847,
	"Ġbristles": 7848,
	"Ġneatly": 7849,
	"Sauce": 7850,
	"flies": 7851,
	"Ġ@": 7852,
	"ĠIT": 7853,
	"Ġends": 7854,
	"ĠUn": 7855,
	"Ġcreamy": 7856,
	"curb": 7857,
	"Rug": 7858,
	"Ġdipping": 7859,
	"opyright": 7860,
	"sandy": 7861,
	"Ġseem": 7862,
	"sleeve": 7863,
	"ĠDESK": 7864,
	"ough": 7865,
	"peanut": 7866,
	"Ġadju": 7867,
	"horiz": 7868,
	"Ġbrowned": 7869,
	"Ġvelvet": 7870,
	"narrow": 7871,
	"text": 7872,
	"roadside": 7873,
	"Ġsubst": 7874,
	"garden": 7875,
	"Ġbud": 7876,
	"rely": 7877,
	"Ġdials": 7878,
	"Ġthigh": 7879,
	"Ġdebris": 7880,
	"ements": 7881,
	"Ġsummer": 7882,
	"object": 7883,
	"Ġcanal": 7884,
	"cam": 7885,
	"Ġwatering": 7886,
	"Ġcomplete": 7887,
	"Ġpebbles": 7888,
	"ENT": 7889,
	"Ġdividing": 7890,
	"Shoe": 7891,
	"Ġdangling": 7892,
	"rooked": 7893,
	"Ġtoes": 7894,
	"Ġbind": 7895,
	"what": 7896,
	"Ġleaving": 7897,
	"Ġbump": 7898,
	"Ġdirectly": 7899,
	"parrot": 7900,
	"Ġox": 7901,
	"Ġwil": 7902,
	"Ġwre": 7903,
	"Hanging": 7904,
	"Ġleave": 7905,
	"upper": 7906,
	"vity": 7907,
	"ane": 7908,
	"may": 7909,
	"Ġmayonnaise": 7910,
	"chili": 7911,
	"Ġtoss": 7912,
	"ĠCUP": 7913,
	"ĠCL": 7914,
	"Ġbug": 7915,
	"Ġobstacle": 7916,
	"Bro": 7917,
	"vending": 7918,
	"Ġflowing": 7919,
	"Tooth": 7920,
	"aco": 7921,
	"ATEBOARD": 7922,
	"ops": 7923,
	"Ġchasing": 7924,
	"Ġmovie": 7925,
	"Female": 7926,
	"Donut": 7927,
	"Ġgrin": 7928,
	"Ġshapes": 7929,
	"Ġoak": 7930,
	"addle": 7931,
	"Ġjuicy": 7932,
	"Ġsilk": 7933,
	"ager": 7934,
	"antelope": 7935,
	"athlete": 7936,
	"Chairs": 7937,
	"Ġalert": 7938,
	"Ġdownhill": 7939,
	"outdoor": 7940,
	"eyeglasses": 7941,
	"Ġgloved": 7942,
	"Cook": 7943,
	"Ġpeace": 7944,
	"Ġweathered": 7945,
	"vac": 7946,
	"Numbers": 7947,
	"ĠRoman": 7948,
	"igan": 7949,
	"Ġsweatband": 7950,
	"OWER": 7951,
	"dustrial": 7952,
	"castle": 7953,
	"Ġpitchers": 7954,
	"Ġopener": 7955,
	"Ġmuzzle": 7956,
	"roadway": 7957,
	"Pod": 7958,
	"ational": 7959,
	"Ġshark": 7960,
	"Ġhatch": 7961,
	"Ġskateboarders": 7962,
	"una": 7963,
	"Ġcrab": 7964,
	"iz": 7965,
	"Ġproducts": 7966,
	"ĠBEN": 7967,
	"inner": 7968,
	"baking": 7969,
	"wer": 7970,
	"Ġhandrail": 7971,
	"Faucet": 7972,
	"Ġwaffle": 7973,
	"Ġfacade": 7974,
	"opard": 7975,
	"figurines": 7976,
	"Ġslippers": 7977,
	"ĠSHOES": 7978,
	"ĠJEANS": 7979,
	"Ġteh": 7980,
	"Ġhiding": 7981,
	"Ġgoatee": 7982,
	"Ġstores": 7983,
	"oom": 7984,
	"picks": 7985,
	"abies": 7986,
	"NDER": 7987,
	"lla": 7988,
	"angu": 7989,
	"storage": 7990,
	"ĠUMBRELLA": 7991,
	"yers": 7992,
	"Ġeight": 7993,
	"ora": 7994,
	"Ġoriental": 7995,
	"Salad": 7996,
	"Ġweed": 7997,
	"Ġinflatable": 7998,
	"owed": 7999,
	"Ġareas": 8000,
	"Ġoveralls": 8001,
	"Ġcamouflage": 8002,
	"nice": 8003,
	"ĠPINK": 8004,
	"Ġaged": 8005,
	"Chrome": 8006,
	"Ġscissor": 8007,
	"Ġtaller": 8008,
	"Ġlimbs": 8009,
	"Ġjumper": 8010,
	"Ġanch": 8011,
	"aint": 8012,
	"Ġbricked": 8013,
	"inyl": 8014,
	"Container": 8015,
	"ost": 8016,
	"bunches": 8017,
	"first": 8018,
	"drawings": 8019,
	"Advertisement": 8020,
	"sunflower": 8021,
	"Chicken": 8022,
	"GLASS": 8023,
	"Ġsanta": 8024,
	"cker": 8025,
	"Ġsidel": 8026,
	"Ġele": 8027,
	"ĠTRUCK": 8028,
	"Ġplayground": 8029,
	"Ġblossom": 8030,
	"pret": 8031,
	"Ġcameras": 8032,
	"Ġovergrown": 8033,
	"Crack": 8034,
	"zipper": 8035,
	"Port": 8036,
	"Ġtier": 8037,
	"Ġlangu": 8038,
	"Boats": 8039,
	"Ġbarric": 8040,
	"Poster": 8041,
	"ĠUP": 8042,
	"Move": 8043,
	"skinny": 8044,
	"Ġmarina": 8045,
	"Ġtrey": 8046,
	"Ġcrib": 8047,
	"Horn": 8048,
	"Ġchilds": 8049,
	"res": 8050,
	"UN": 8051,
	"tw": 8052,
	"Ġmixture": 8053,
	"Cloudy": 8054,
	"Luggage": 8055,
	"seven": 8056,
	"ĠORANGE": 8057,
	"scaffolding": 8058,
	"ĠSHORTS": 8059,
	"Ġkeyboards": 8060,
	"umerous": 8061,
	"Ġruff": 8062,
	"Ġbattery": 8063,
	"Ġartificial": 8064,
	"worn": 8065,
	"CYCLE": 8066,
	"Ġconditioning": 8067,
	"PLE": 8068,
	"glo": 8069,
	"Ġstreets": 8070,
	"Ġrhino": 8071,
	"Kn": 8072,
	"cape": 8073,
	"Ġfrozen": 8074,
	"Ġtass": 8075,
	"Couch": 8076,
	"Ġlone": 8077,
	"lot": 8078,
	"bubble": 8079,
	"Ġdam": 8080,
	"Ġcommuter": 8081,
	"Screen": 8082,
	"EB": 8083,
	"Ġgrand": 8084,
	"Ġruns": 8085,
	"ĠBAG": 8086,
	"Floral": 8087,
	"Ġadidas": 8088,
	"Ġduffle": 8089,
	"Ġfurt": 8090,
	"Ġparent": 8091,
	"Ġprotect": 8092,
	"Sea": 8093,
	"Ġfle": 8094,
	"Ġrising": 8095,
	"daisy": 8096,
	"Ġcardigan": 8097,
	"lined": 8098,
	"moon": 8099,
	"Ġsau": 8100,
	"ison": 8101,
	"Ġgaming": 8102,
	"Ġbordering": 8103,
	"Ġtripod": 8104,
	"Ġrainy": 8105,
	"Take": 8106,
	"issing": 8107,
	"aping": 8108,
	"Ġwritings": 8109,
	"ambulance": 8110,
	"YELLOW": 8111,
	"tofu": 8112,
	"ĠGLASSES": 8113,
	"AKE": 8114,
	"cue": 8115,
	"Ġlaundry": 8116,
	"Ġpeeking": 8117,
	"fog": 8118,
	"ĠAir": 8119,
	"Ġbroth": 8120,
	"Shelf": 8121,
	"shredded": 8122,
	"Ice": 8123,
	"Ġcalico": 8124,
	"OUSE": 8125,
	"ladle": 8126,
	"pied": 8127,
	"tortilla": 8128,
	"chunk": 8129,
	"Gri": 8130,
	"Ġplays": 8131,
	"toasted": 8132,
	"Design": 8133,
	"Ġvalley": 8134,
	"oping": 8135,
	"wri": 8136,
	"Ġgrater": 8137,
	"Smoke": 8138,
	"oleum": 8139,
	"hardwood": 8140,
	"orter": 8141,
	"Ġburrito": 8142,
	"Ġboundary": 8143,
	"Ġrowing": 8144,
	"chief": 8145,
	"Animals": 8146,
	"aved": 8147,
	"fen": 8148,
	"Ġcharging": 8149,
	"BALL": 8150,
	"tective": 8151,
	"OTORCYCLE": 8152,
	"Ġpress": 8153,
	"Ġten": 8154,
	"snacks": 8155,
	"Ġslopes": 8156,
	"Ġsplit": 8157,
	"nty": 8158,
	"Ġple": 8159,
	"cracker": 8160,
	"Ġbuckets": 8161,
	"Most": 8162,
	"earphones": 8163,
	"pouch": 8164,
	"Ġfootprints": 8165,
	"Ġbeverages": 8166,
	"Tip": 8167,
	"modern": 8168,
	"ĠTH": 8169,
	"Ġclothe": 8170,
	"nge": 8171,
	"Ġupward": 8172,
	"Ġcel": 8173,
	"ĠBri": 8174,
	"Ġstunt": 8175,
	"Ġlic": 8176,
	"Ġgl": 8177,
	"Ġflorets": 8178,
	"tone": 8179,
	"mode": 8180,
	"cation": 8181,
	"Rectangular": 8182,
	"Vehicles": 8183,
	"Ġappliances": 8184,
	"Ġpottery": 8185,
	"ĠSAND": 8186,
	"ĠSNOW": 8187,
	"Ġroast": 8188,
	"Ġbakery": 8189,
	"Tag": 8190,
	"HEEL": 8191,
	"Ġshuttle": 8192,
	"Ġproduct": 8193,
	"ulch": 8194,
	"ĠSTRI": 8195,
	"Potato": 8196,
	"ufa": 8197,
	"grapefruit": 8198,
	"comb": 8199,
	"Ġhorseback": 8200,
	"chalkboard": 8201,
	"Ġwig": 8202,
	"router": 8203,
	"pport": 8204,
	"minute": 8205,
	"furry": 8206,
	"Ġinte": 8207,
	"KET": 8208,
	"Ġwithin": 8209,
	"wheelchair": 8210,
	"Ġzi": 8211,
	"Cru": 8212,
	"Ġbolts": 8213,
	"Ġsitted": 8214,
	"ĠEng": 8215,
	"Ġaccess": 8216,
	"Ġresort": 8217,
	"Ġrelish": 8218,
	"lacks": 8219,
	"Ġbabies": 8220,
	"ligator": 8221,
	"DS": 8222,
	"Ġfair": 8223,
	"Signs": 8224,
	"Base": 8225,
	"Ġnoodle": 8226,
	"IRT": 8227,
	"Ġinner": 8228,
	"mekin": 8229,
	"Ġarmy": 8230,
	"giant": 8231,
	"Ġfluorescent": 8232,
	"Ġmall": 8233,
	"Ġmeeting": 8234,
	"Ġdiaper": 8235,
	"Ġpromot": 8236,
	"yclists": 8237,
	"Ġcredit": 8238,
	"ĠSA": 8239,
	"pizzas": 8240,
	"Ġhubcap": 8241,
	"Ġveg": 8242,
	"ĠBENCH": 8243,
	"angles": 8244,
	"rinals": 8245,
	"Ġjo": 8246,
	"Ġornaments": 8247,
	"Ġindustrial": 8248,
	"Bun": 8249,
	"Sto": 8250,
	"Ġisn": 8251,
	"Flu": 8252,
	"amole": 8253,
	"THER": 8254,
	"Card": 8255,
	"Ġlego": 8256,
	"utility": 8257,
	"Ġadults": 8258,
	"Crowd": 8259,
	"Wearing": 8260,
	"ROOM": 8261,
	"Ġsuite": 8262,
	"awning": 8263,
	"Ġnintendo": 8264,
	"pretzel": 8265,
	"ĠStreet": 8266,
	"kiosk": 8267,
	"PEN": 8268,
	"Ġskatepark": 8269,
	"ĠNO": 8270,
	"Ġloves": 8271,
	"Ġchees": 8272,
	"Beer": 8273,
	"ĠSKI": 8274,
	"Drink": 8275,
	"pomegranate": 8276,
	"Ġroofs": 8277,
	"Ġangle": 8278,
	"ung": 8279,
	"Ġpairs": 8280,
	"acamole": 8281,
	"Ġsunshine": 8282,
	"Ġunderside": 8283,
	"borne": 8284,
	"Ġont": 8285,
	"Ġimp": 8286,
	"Ġfalls": 8287,
	"ĠELEPHANT": 8288,
	"Ġsubstance": 8289,
	"AFF": 8290,
	"Ġcomfortable": 8291,
	"lation": 8292,
	"Ġalligator": 8293,
	"stain": 8294,
	"Stairs": 8295,
	"10": 8296,
	"Ġsprinkle": 8297,
	"BROWN": 8298,
	"gre": 8299,
	"penguin": 8300,
	"Ġbesides": 8301,
	"atching": 8302,
	"lowed": 8303,
	"snack": 8304,
	"Ġspeak": 8305,
	"Ġstabil": 8306,
	"Ġloaded": 8307,
	"Ġsmartphone": 8308,
	"Ġtorn": 8309,
	"Ġthread": 8310,
	"Ġashtray": 8311,
	"HEAD": 8312,
	"FT": 8313,
	"item": 8314,
	"ĠSKATEBOARD": 8315,
	"Ġshaving": 8316,
	"nas": 8317,
	"outs": 8318,
	"Ġexposed": 8319,
	"Ġcall": 8320,
	"ĠSUR": 8321,
	"Ġreceptacle": 8322,
	"semb": 8323,
	"Ġdude": 8324,
	"ĠUNDER": 8325,
	"Ġsails": 8326,
	"Pine": 8327,
	"Ġsections": 8328,
	"Ġeas": 8329,
	"Grassy": 8330,
	"uous": 8331,
	"more": 8332,
	"istant": 8333,
	"marble": 8334,
	"ĠCola": 8335,
	"Ġcoleslaw": 8336,
	"Ġslacks": 8337,
	"Ġflap": 8338,
	"Ġparasol": 8339,
	"thing": 8340,
	"Bricks": 8341,
	"Ġdull": 8342,
	"Ġswi": 8343,
	"Stick": 8344,
	"sa": 8345,
	"Ġsconce": 8346,
	"shops": 8347,
	"mond": 8348,
	"Chopped": 8349,
	"ssy": 8350,
	"Ġquar": 8351,
	"Ġfixed": 8352,
	"ĠSh": 8353,
	"Ġpackages": 8354,
	"Ġurban": 8355,
	"parent": 8356,
	"Ġfloat": 8357,
	"yle": 8358,
	"ration": 8359,
	"Ġmarkers": 8360,
	"chopstick": 8361,
	"Ġsan": 8362,
	"Skis": 8363,
	"scrapers": 8364,
	"Ġyarn": 8365,
	"ĠLAP": 8366,
	"upside": 8367,
	"cycle": 8368,
	"sailboats": 8369,
	"Ġnap": 8370,
	"Ġbacks": 8371,
	"Ġpomegranate": 8372,
	"sword": 8373,
	"Ġaff": 8374,
	"Plaid": 8375,
	"wind": 8376,
	"ĠSW": 8377,
	"dor": 8378,
	"Ġcylindrical": 8379,
	"sour": 8380,
	"bats": 8381,
	"Ġprotru": 8382,
	"Ġhun": 8383,
	"Bur": 8384,
	"ĠWR": 8385,
	"Ġcylinder": 8386,
	"Ġchipped": 8387,
	"Ġarena": 8388,
	"Ġicon": 8389,
	"wh": 8390,
	"games": 8391,
	"Ġsalmon": 8392,
	"Ġreal": 8393,
	"hazy": 8394,
	"Ġovens": 8395,
	"wal": 8396,
	"Ho": 8397,
	"Ġpork": 8398,
	"chan": 8399,
	"ĠBlue": 8400,
	"Refrigerator": 8401,
	"Ġlanguage": 8402,
	"hering": 8403,
	"stool": 8404,
	"Ġspaghetti": 8405,
	"bent": 8406,
	"Ġspoke": 8407,
	"Ġbanners": 8408,
	"company": 8409,
	"oogie": 8410,
	"apan": 8411,
	"THESE": 8412,
	"Ġstretch": 8413,
	"High": 8414,
	"Ġstrong": 8415,
	"allel": 8416,
	"ĠAd": 8417,
	"pointed": 8418,
	"Ġpoints": 8419,
	"Ġcheesecake": 8420,
	"ĠHIS": 8421,
	"Ġfut": 8422,
	"Ġovers": 8423,
	"Ġramekin": 8424,
	"homes": 8425,
	"Ġac": 8426,
	"Ġnest": 8427,
	"Ġgreenish": 8428,
	"lettering": 8429,
	"ĠPAPER": 8430,
	"Ġfigures": 8431,
	"Adult": 8432,
	"Rope": 8433,
	"Ġsilhouette": 8434,
	"ĠPARK": 8435,
	"Ġflock": 8436,
	"Ears": 8437,
	"Ġpendant": 8438,
	"roissants": 8439,
	"ANGING": 8440,
	"Ġrims": 8441,
	"andy": 8442,
	"Ġdesks": 8443,
	"Ġscrambled": 8444,
	"ĠBOTTLE": 8445,
	"satellite": 8446,
	"ractive": 8447,
	"uniforms": 8448,
	"Oven": 8449,
	"Ġcrest": 8450,
	"garment": 8451,
	"Ġloveseat": 8452,
	"Ġtights": 8453,
	"Ġmowed": 8454,
	"Ġplugs": 8455,
	"Pepperoni": 8456,
	"Ġstepping": 8457,
	"Ġreclining": 8458,
	"birthday": 8459,
	"assorted": 8460,
	"STIC": 8461,
	"itching": 8462,
	"copper": 8463,
	"ubby": 8464,
	"ĠFrench": 8465,
	"Ġbead": 8466,
	"throw": 8467,
	"Ġhooked": 8468,
	"Ġvacuum": 8469,
	"dition": 8470,
	"Ġseven": 8471,
	"Ġpulls": 8472,
	"rushed": 8473,
	"ylon": 8474,
	"Circular": 8475,
	"rence": 8476,
	"Lot": 8477,
	"Ġslic": 8478,
	"emb": 8479,
	"abit": 8480,
	"IRR": 8481,
	"Bush": 8482,
	"Ġloo": 8483,
	"Ġportrait": 8484,
	"Ġchecking": 8485,
	"Ġcoloring": 8486,
	"Ġprotector": 8487,
	"LANE": 8488,
	"oogles": 8489,
	"Ġsquirrel": 8490,
	"Soap": 8491,
	"Ġattach": 8492,
	"Folded": 8493,
	"Ġeyel": 8494,
	"Ġhall": 8495,
	"belly": 8496,
	"Ġhimself": 8497,
	"ĠPHONE": 8498,
	"Fur": 8499,
	"tran": 8500,
	"dex": 8501,
	"Blinds": 8502,
	"pantry": 8503,
	"Ġspiky": 8504,
	"rilla": 8505,
	"Ġleans": 8506,
	"Ġbulletin": 8507,
	"Ġaffixed": 8508,
	"Ġkinds": 8509,
	"Ġbigger": 8510,
	"alapen": 8511,
	"Ġprepared": 8512,
	"Ġvisitor": 8513,
	"bolt": 8514,
	"Ġsesame": 8515,
	"Ġwill": 8516,
	"ram": 8517,
	"Opened": 8518,
	"Ġcent": 8519,
	"ccupied": 8520,
	"Ġanalog": 8521,
	"edges": 8522,
	"Ġdispensers": 8523,
	"Tri": 8524,
	"Ġomelette": 8525,
	"dential": 8526,
	"Ġemergency": 8527,
	"boulders": 8528,
	"yal": 8529,
	"arch": 8530,
	"tyrofoam": 8531,
	"Ġenclosed": 8532,
	"flective": 8533,
	"ooves": 8534,
	"Ġchewing": 8535,
	"Ġspectacles": 8536,
	"rusted": 8537,
	"Shower": 8538,
	"PERSON": 8539,
	"Parked": 8540,
	"IRROR": 8541,
	"recessed": 8542,
	"Ġpoking": 8543,
	"ĠKN": 8544,
	"kra": 8545,
	"Ġlean": 8546,
	"Nike": 8547,
	"Ocean": 8548,
	"Off": 8549,
	"Ġchained": 8550,
	"Ġlitter": 8551,
	"Ġroot": 8552,
	"ures": 8553,
	"rews": 8554,
	"Potted": 8555,
	"Ġflav": 8556,
	"Ġurinals": 8557,
	"Ġcruise": 8558,
	"ĠPEOPLE": 8559,
	"Ġact": 8560,
	"Ġbrownish": 8561,
	"Ġtexting": 8562,
	"tended": 8563,
	"ITCHE": 8564,
	"City": 8565,
	"ĠLEA": 8566,
	"Ġwait": 8567,
	"reek": 8568,
	"under": 8569,
	"Ġgeese": 8570,
	"ostrich": 8571,
	"buns": 8572,
	"Ġinclu": 8573,
	"Ġangry": 8574,
	"Ġstart": 8575,
	"Ġoblong": 8576,
	"umin": 8577,
	"Ġyounger": 8578,
	"Ġrefe": 8579,
	"Corner": 8580,
	"ĠCHI": 8581,
	"50": 8582,
	"Mel": 8583,
	"Ġtropical": 8584,
	"11": 8585,
	"IF": 8586,
	"Ġhig": 8587,
	"Ġint": 8588,
	"Ġshine": 8589,
	"WOOD": 8590,
	"Steel": 8591,
	"Tomatoes": 8592,
	"Carpet": 8593,
	"Van": 8594,
	"ĠPOLE": 8595,
	"Ġblocking": 8596,
	"Ġhooks": 8597,
	"Ġtwisted": 8598,
	"touch": 8599,
	"Ġbic": 8600,
	"ĠROAD": 8601,
	"Sticker": 8602,
	"Suit": 8603,
	"ĠGRAY": 8604,
	"Com": 8605,
	"Ġhurdle": 8606,
	"har": 8607,
	"Ġlobster": 8608,
	"flamingo": 8609,
	"fle": 8610,
	"Ġheading": 8611,
	"Ġunlit": 8612,
	"Bridge": 8613,
	"aps": 8614,
	"itched": 8615,
	"Monitor": 8616,
	"EP": 8617,
	"Blurry": 8618,
	"landing": 8619,
	"Ġlifting": 8620,
	"cotton": 8621,
	"Ġvinyl": 8622,
	"Ġbalconies": 8623,
	"Ġcages": 8624,
	"Backpack": 8625,
	"oct": 8626,
	"Ġlimit": 8627,
	"blo": 8628,
	"Ġlemonade": 8629,
	"Ġassortment": 8630,
	"skiers": 8631,
	"Ġpolished": 8632,
	"sses": 8633,
	"Ġspons": 8634,
	"THERE": 8635,
	"Ġstockings": 8636,
	"Ġdaughter": 8637,
	"main": 8638,
	"Ġcrooked": 8639,
	"ASEBALL": 8640,
	"Ġseems": 8641,
	"azel": 8642,
	"Ġstalks": 8643,
	"ĠWALKING": 8644,
	"ĠTREES": 8645,
	"Ġhabit": 8646,
	"ackson": 8647,
	"Ġhum": 8648,
	"wearing": 8649,
	"Ġaer": 8650,
	"Ġsignboard": 8651,
	"Ġbits": 8652,
	"adian": 8653,
	"ĠHELM": 8654,
	"Towels": 8655,
	"tattoos": 8656,
	"Ġbrim": 8657,
	"AC": 8658,
	"action": 8659,
	"EAT": 8660,
	"fake": 8661,
	"Ġfa": 8662,
	"ĠLAMP": 8663,
	"alcohol": 8664,
	"ĠOPEN": 8665,
	"ĠHANGING": 8666,
	"Past": 8667,
	"Ġconductor": 8668,
	"illage": 8669,
	"Pat": 8670,
	"ils": 8671,
	"brownie": 8672,
	"ĠAIR": 8673,
	"bly": 8674,
	"Ġdevices": 8675,
	"Ġbloom": 8676,
	"Ġduffel": 8677,
	"Ġsprouts": 8678,
	"Ġpromotional": 8679,
	"lighted": 8680,
	"ADOW": 8681,
	"baker": 8682,
	"Ġsilvery": 8683,
	"coin": 8684,
	"Ġbunched": 8685,
	"Ġescape": 8686,
	"teries": 8687,
	"LLOW": 8688,
	"bin": 8689,
	"Ġchopstick": 8690,
	"Dough": 8691,
	"Ġcrisp": 8692,
	"Fan": 8693,
	"Ġlast": 8694,
	"Ġsuper": 8695,
	"ĠMOTORCYCLE": 8696,
	"Ġcele": 8697,
	"Ġmach": 8698,
	"ĠAR": 8699,
	"Ġcamel": 8700,
	"Ġbuffet": 8701,
	"Ġpearl": 8702,
	"Ġgutter": 8703,
	"stage": 8704,
	"Ġswivel": 8705,
	"ĠLAPTOP": 8706,
	"zy": 8707,
	"Ġcapti": 8708,
	"Mini": 8709,
	"Outdoor": 8710,
	"ĠBALL": 8711,
	"Giraffes": 8712,
	"Ġflies": 8713,
	"Ġlargest": 8714,
	"Ġcaught": 8715,
	"Ġ0": 8716,
	"Ġstabilizer": 8717,
	"Middle": 8718,
	"Ġbrow": 8719,
	"style": 8720,
	"Ġcigarettes": 8721,
	"ondon": 8722,
	"Ġcamper": 8723,
	"Ġcoffe": 8724,
	"ĠCOUN": 8725,
	"candies": 8726,
	"Tiles": 8727,
	"Ġalmond": 8728,
	"Cap": 8729,
	"fant": 8730,
	"highway": 8731,
	"ĠWHEEL": 8732,
	"ramp": 8733,
	"Ġairborne": 8734,
	"Ġcha": 8735,
	"ĠBOAT": 8736,
	"Ġnostrils": 8737,
	"raincoat": 8738,
	"Ġhad": 8739,
	"turned": 8740,
	"fuzzy": 8741,
	"lannel": 8742,
	"Ġoatmeal": 8743,
	"Ġraisins": 8744,
	"ever": 8745,
	"iduous": 8746,
	"Ġske": 8747,
	"ufacture": 8748,
	"Ġspeaking": 8749,
	"othing": 8750,
	"ĠSOFA": 8751,
	"Ġplaza": 8752,
	"Ġbackpacks": 8753,
	"fts": 8754,
	"Ġlegged": 8755,
	"condim": 8756,
	"Ġairline": 8757,
	"center": 8758,
	"neven": 8759,
	"Ġflatscreen": 8760,
	"Ġbarricade": 8761,
	"Ġzip": 8762,
	"Ġwrinkles": 8763,
	"Ġpita": 8764,
	"fitti": 8765,
	"BOY": 8766,
	"crab": 8767,
	"ĠCan": 8768,
	"ycling": 8769,
	"eaten": 8770,
	"Ġshines": 8771,
	"cute": 8772,
	"flames": 8773,
	"Ġdresses": 8774,
	"Ġbend": 8775,
	"Ġcould": 8776,
	"ĠCOU": 8777,
	"Ġbundle": 8778,
	"sliding": 8779,
	"Ġvane": 8780,
	"Maroon": 8781,
	"Ġscoreboard": 8782,
	"loaf": 8783,
	"Mushroom": 8784,
	"Ġga": 8785,
	"champagne": 8786,
	"frog": 8787,
	"Ġrid": 8788,
	"ladies": 8789,
	"cracks": 8790,
	"Ġreflections": 8791,
	"ĠBOARD": 8792,
	"ĠMacBook": 8793,
	"ĠBEA": 8794,
	"ĠSUN": 8795,
	"Ġlays": 8796,
	"Ġgripping": 8797,
	"Ġcrock": 8798,
	"Ġthermos": 8799,
	"Ġown": 8800,
	"Rain": 8801,
	"Ġposters": 8802,
	"cel": 8803,
	"cedes": 8804,
	"rounded": 8805,
	"Ġhairs": 8806,
	"Ġgran": 8807,
	"ised": 8808,
	"ĠGIRAFF": 8809,
	"Ġhabitat": 8810,
	"Ġcarving": 8811,
	"ctory": 8812,
	"Ġvolley": 8813,
	"monitors": 8814,
	"Board": 8815,
	"marshmallow": 8816,
	"leece": 8817,
	"Ġali": 8818,
	"ĠiPod": 8819,
	"Huge": 8820,
	"ara": 8821,
	"Ġsplas": 8822,
	"Ġdrops": 8823,
	"Ġtransportation": 8824,
	"nger": 8825,
	"Ġlicence": 8826,
	"Ġscar": 8827,
	"Ġlinoleum": 8828,
	"Ġjack": 8829,
	"paintings": 8830,
	"Ġspider": 8831,
	"Letter": 8832,
	"Or": 8833,
	"Ġodd": 8834,
	"zes": 8835,
	"stacks": 8836,
	"Ġoctagon": 8837,
	"Ġload": 8838,
	"fully": 8839,
	"apanese": 8840,
	"whisk": 8841,
	"smile": 8842,
	"Ġboogie": 8843,
	"Stripes": 8844,
	"Ġfuton": 8845,
	"Cord": 8846,
	"rored": 8847,
	"Ġloop": 8848,
	"peanuts": 8849,
	"battery": 8850,
	"faded": 8851,
	"Ġdone": 8852,
	"Ġsauc": 8853,
	"Calm": 8854,
	"Full": 8855,
	"Ġgoes": 8856,
	"Ass": 8857,
	"Ġarches": 8858,
	"Ġartichoke": 8859,
	"Ġcare": 8860,
	"space": 8861,
	"policemen": 8862,
	"towers": 8863,
	"Ġarc": 8864,
	"iscuits": 8865,
	"Ġingredients": 8866,
	"aches": 8867,
	"Ġpaddling": 8868,
	"Ġtof": 8869,
	"Ġlovely": 8870,
	"strip": 8871,
	"checkered": 8872,
	"happy": 8873,
	"cuff": 8874,
	"Ġautomobile": 8875,
	"Ġbackdrop": 8876,
	"Ġmic": 8877,
	"Ġwatermark": 8878,
	"Ġpeacock": 8879,
	"bled": 8880,
	"Ġdolls": 8881,
	"lender": 8882,
	"ĠBen": 8883,
	"Ġfins": 8884,
	"Ġmaybe": 8885,
	"Ġcooling": 8886,
	"Ġoverhang": 8887,
	"triangular": 8888,
	"heavy": 8889,
	"Portion": 8890,
	"Ġfunny": 8891,
	"awk": 8892,
	"UMB": 8893,
	"Ġlavender": 8894,
	"advertising": 8895,
	"Ġembro": 8896,
	"Ġcock": 8897,
	"Ġstopper": 8898,
	"interior": 8899,
	"Ġseafood": 8900,
	"Ġwebsite": 8901,
	"Ġbartender": 8902,
	"Ġlies": 8903,
	"Ġherding": 8904,
	"aces": 8905,
	"aging": 8906,
	"Ġbarely": 8907,
	"Candle": 8908,
	"Ġlever": 8909,
	"Ġpay": 8910,
	"Second": 8911,
	"Plu": 8912,
	"Ġwreath": 8913,
	"ĠCOUNTER": 8914,
	"rson": 8915,
	"oured": 8916,
	"Ġwaterfall": 8917,
	"pri": 8918,
	"lular": 8919,
	"Ġcoast": 8920,
	"Ġtourists": 8921,
	"finished": 8922,
	"HROOM": 8923,
	"anna": 8924,
	"Ġnecklaces": 8925,
	"Engine": 8926,
	"alumin": 8927,
	"Ġsided": 8928,
	"agged": 8929,
	"Ġunderwear": 8930,
	"Ġpropellers": 8931,
	"aluminum": 8932,
	"Ġearing": 8933,
	"Railing": 8934,
	"ĠZEB": 8935,
	"artichoke": 8936,
	"Ġjewelry": 8937,
	"Ġshoelaces": 8938,
	"Ġentryway": 8939,
	"Ġawnings": 8940,
	"Ġplantains": 8941,
	"Ġlabels": 8942,
	"vil": 8943,
	"Ġ19": 8944,
	"womans": 8945,
	"Ġwildflowers": 8946,
	"Ġrise": 8947,
	"Ġwatercraft": 8948,
	"sung": 8949,
	"diced": 8950,
	"Ġgrows": 8951,
	"Ġtomatoe": 8952,
	"Scissors": 8953,
	"ousel": 8954,
	"Apples": 8955,
	"Ġran": 8956,
	"ufacturer": 8957,
	"Ġlogos": 8958,
	"Ġscrub": 8959,
	"Broken": 8960,
	"itted": 8961,
	"feta": 8962,
	"enger": 8963,
	"Comp": 8964,
	"Ġpract": 8965,
	"Ġimages": 8966,
	"LI": 8967,
	"Ġswung": 8968,
	"Ġvents": 8969,
	"GH": 8970,
	"Ġhy": 8971,
	"Ġearth": 8972,
	"Ġedging": 8973,
	"Ġdivid": 8974,
	"Horns": 8975,
	"Feet": 8976,
	"monds": 8977,
	"leton": 8978,
	"Ġgathering": 8979,
	"Ġparallel": 8980,
	"Ġresidential": 8981,
	"hedr": 8982,
	"boards": 8983,
	"Ġwoo": 8984,
	"Ġtit": 8985,
	"IRE": 8986,
	"Ġyear": 8987,
	"tiled": 8988,
	"Kids": 8989,
	"Ġindicates": 8990,
	"Ġmoustache": 8991,
	"mayonnaise": 8992,
	"ĠPOT": 8993,
	"ĠHELMET": 8994,
	"Ġward": 8995,
	"Ġneigh": 8996,
	"Control": 8997,
	"Tu": 8998,
	"End": 8999,
	"Tiny": 9000,
	"oothi": 9001,
	"Ġlinen": 9002,
	"ference": 9003,
	"Tray": 9004,
	"Lines": 9005,
	"rating": 9006,
	"Ġdug": 9007,
	"ĠEnglish": 9008,
	"Ġsuspenders": 9009,
	"ĠMIRROR": 9010,
	"Ġpeice": 9011,
	"Cloth": 9012,
	"Ġgallon": 9013,
	"ĠFLA": 9014,
	"Ġbandage": 9015,
	"ckles": 9016,
	"ditional": 9017,
	"bes": 9018,
	"shed": 9019,
	"Ġwhtie": 9020,
	"Ġfleece": 9021,
	"Ġdense": 9022,
	"Ġer": 9023,
	"ĠEY": 9024,
	"workers": 9025,
	"Ġgoogles": 9026,
	"Ġcaramel": 9027,
	"ĠBY": 9028,
	"orry": 9029,
	"ngle": 9030,
	"Ġprep": 9031,
	"Ġkeeping": 9032,
	"ĠSINK": 9033,
	"Ġhik": 9034,
	"Branches": 9035,
	"Oli": 9036,
	"rig": 9037,
	"snowy": 9038,
	"ĠPLASTIC": 9039,
	"Ġcroche": 9040,
	"Ġevening": 9041,
	"tension": 9042,
	"hedral": 9043,
	"ander": 9044,
	"ased": 9045,
	"Ġfriend": 9046,
	"Ġlamppost": 9047,
	"column": 9048,
	"OUR": 9049,
	"Ġwading": 9050,
	"Ġowner": 9051,
	"vintage": 9052,
	"Ġremo": 9053,
	"reddish": 9054,
	"Ġbalck": 9055,
	"Ġfrees": 9056,
	"Ġstretching": 9057,
	"racks": 9058,
	"Roman": 9059,
	"Ġhaircut": 9060,
	"ĠTAN": 9061,
	"erman": 9062,
	"aircraft": 9063,
	"Ġcurrent": 9064,
	"ddles": 9065,
	"Ġless": 9066,
	"igns": 9067,
	"riers": 9068,
	"inning": 9069,
	"itrus": 9070,
	"medicine": 9071,
	"Jackson": 9072,
	"Ġgrated": 9073,
	"eple": 9074,
	"Ġspec": 9075,
	"AK": 9076,
	"Lab": 9077,
	"Ġticket": 9078,
	"Ġflood": 9079,
	"Ġheating": 9080,
	"Ġthumbs": 9081,
	"teal": 9082,
	"Ġprotruding": 9083,
	"ĠUSB": 9084,
	"amsung": 9085,
	"SU": 9086,
	"Ġribs": 9087,
	"Overhead": 9088,
	"horizontal": 9089,
	"blurred": 9090,
	"cash": 9091,
	"glazed": 9092,
	"Ġflowering": 9093,
	"ĠCHE": 9094,
	"20": 9095,
	"ests": 9096,
	"Ġwardrobe": 9097,
	"asting": 9098,
	"ote": 9099,
	"velling": 9100,
	"web": 9101,
	"Ġspecks": 9102,
	"Ġedged": 9103,
	"Ġoperating": 9104,
	"clump": 9105,
	"Ġrustic": 9106,
	"Ġreferee": 9107,
	"Ġseries": 9108,
	"FR": 9109,
	"ails": 9110,
	"ĠBOX": 9111,
	"Melted": 9112,
	"Ġtar": 9113,
	"Ġsnowboarders": 9114,
	"ĠAfrican": 9115,
	"Ġsing": 9116,
	"ĠCAKE": 9117,
	"ĠSILVER": 9118,
	"innie": 9119,
	"ingus": 9120,
	"Ġupwards": 9121,
	"Ġcaucasian": 9122,
	"ĠSanta": 9123,
	"bandoned": 9124,
	"Speaker": 9125,
	"PLA": 9126,
	"Ġsled": 9127,
	"Ġcasserole": 9128,
	"keypad": 9129,
	"IM": 9130,
	"Ġouter": 9131,
	"kerchief": 9132,
	"ABY": 9133,
	"ĠCLOCK": 9134,
	"Ġmas": 9135,
	"bride": 9136,
	"ĠStates": 9137,
	"Ġmaple": 9138,
	"ĠSTRIP": 9139,
	"rinse": 9140,
	"Ġtangled": 9141,
	"Ġ18": 9142,
	"ĠHOT": 9143,
	"Ġdripping": 9144,
	"String": 9145,
	"yed": 9146,
	"Ġridge": 9147,
	"Ġdecorating": 9148,
	"vanna": 9149,
	"Ġindex": 9150,
	"burgundy": 9151,
	"raisins": 9152,
	"Ġpallet": 9153,
	"Ġflannel": 9154,
	"Ġtying": 9155,
	"Ġtouchpad": 9156,
	"lover": 9157,
	"Garbage": 9158,
	"Onions": 9159,
	"Ġshingles": 9160,
	"Ġresemb": 9161,
	"Ġwatermelons": 9162,
	"wrinkle": 9163,
	"Ġcomf": 9164,
	"Ġsaf": 9165,
	"Ġbeets": 9166,
	"Hardwood": 9167,
	"Ġfeta": 9168,
	"Ġlorry": 9169,
	"Ġribbons": 9170,
	"ridge": 9171,
	"wildflowers": 9172,
	"Ġginger": 9173,
	"Ġsurrounds": 9174,
	"Ġhinges": 9175,
	"alsa": 9176,
	"Players": 9177,
	"ĠOVER": 9178,
	"Cardboard": 9179,
	"Ite": 9180,
	"Ketchup": 9181,
	"mostat": 9182,
	"sausages": 9183,
	"Ġstate": 9184,
	"Field": 9185,
	"OWERS": 9186,
	"ITCHEN": 9187,
	"ĠNew": 9188,
	"Different": 9189,
	"DVD": 9190,
	"Ġblooming": 9191,
	"Ġruffled": 9192,
	"QU": 9193,
	"Ġpamp": 9194,
	"raised": 9195,
	"IELD": 9196,
	"ically": 9197,
	"Ġpepsi": 9198,
	"Ġnine": 9199,
	"where": 9200,
	"Ġfaced": 9201,
	"Ġmechan": 9202,
	"sli": 9203,
	"Ġhammer": 9204,
	"Ġflown": 9205,
	"Ġtimer": 9206,
	"lucent": 9207,
	"sleeved": 9208,
	"Ġgrasping": 9209,
	"ooh": 9210,
	"Ġvalve": 9211,
	"Ġlayers": 9212,
	"Beach": 9213,
	"Ġneedles": 9214,
	"Ġtoned": 9215,
	"Ġeasy": 9216,
	"Ġprongs": 9217,
	"ĠLONG": 9218,
	"Ġcreamer": 9219,
	"Ġshinny": 9220,
	"Ġtravelling": 9221,
	"Houses": 9222,
	"Ġcommode": 9223,
	"UL": 9224,
	"bine": 9225,
	"night": 9226,
	"mperature": 9227,
	"Ġtipped": 9228,
	"ares": 9229,
	"holes": 9230,
	"Ġci": 9231,
	"mugs": 9232,
	"Ġkicked": 9233,
	"Ġhelp": 9234,
	"Ġsunflowers": 9235,
	"Ġoutfits": 9236,
	"Ġhalter": 9237,
	"FFEE": 9238,
	"Ġcaptivity": 9239,
	"plenty": 9240,
	"Ġgrid": 9241,
	"GG": 9242,
	"leeping": 9243,
	"Ġrearview": 9244,
	"Ġattire": 9245,
	"nequins": 9246,
	"Ġspark": 9247,
	"Ġfeaturing": 9248,
	"tusk": 9249,
	"peice": 9250,
	"characters": 9251,
	"PErson": 9252,
	"Ġcompetition": 9253,
	"ĠBIR": 9254,
	"Ġhow": 9255,
	"Ġstemmed": 9256,
	"dri": 9257,
	"Ġshingled": 9258,
	"Necklace": 9259,
	"orders": 9260,
	"Ġrobot": 9261,
	"ĠĠĠĠĠĠĠĠĠĠĠĠĠĠĠĠĠĠĠĠĠĠĠĠĠĠĠĠĠĠĠĠ": 9262,
	"Ġsite": 9263,
	"ption": 9264,
	"Cola": 9265,
	"Ġdon": 9266,
	"ĠPark": 9267,
	"Ġidentical": 9268,
	"stomach": 9269,
	"eight": 9270,
	"Ġthru": 9271,
	"Plates": 9272,
	"ĠPLANE": 9273,
	"Clean": 9274,
	"lated": 9275,
	"Ġnothing": 9276,
	"Eyeglasses": 9277,
	"bru": 9278,
	"ilson": 9279,
	"Ġdoily": 9280,
	"ĠMingus": 9281,
	"stacked": 9282,
	"cro": 9283,
	"Ġmountainside": 9284,
	"Ġbarbe": 9285,
	"Ġaddress": 9286,
	"stract": 9287,
	"Ġlounging": 9288,
	"ĠWII": 9289,
	"Goggles": 9290,
	"Ġformal": 9291,
	"Ġnozzle": 9292,
	"sheer": 9293,
	"Clothes": 9294,
	"Ġamber": 9295,
	"Ġsal": 9296,
	"aut": 9297,
	"ANCE": 9298,
	"Utensil": 9299,
	"cran": 9300,
	"orized": 9301,
	"Area": 9302,
	"VING": 9303,
	"Ġhangar": 9304,
	"rainer": 9305,
	"Ġant": 9306,
	"oppy": 9307,
	"ĠPILLOW": 9308,
	"Ġdomed": 9309,
	"Ġobs": 9310,
	"seal": 9311,
	"Ġshinning": 9312,
	"ĠKEY": 9313,
	"Ġseagulls": 9314,
	"Butter": 9315,
	"Ġ-": 9316,
	"Ġmulch": 9317,
	"Ġkneep": 9318,
	"Ġpossi": 9319,
	"Ġscrews": 9320,
	"oul": 9321,
	"Ġrepre": 9322,
	"ricate": 9323,
	"Ġretri": 9324,
	"ifier": 9325,
	"Ġorder": 9326,
	"ĠCOW": 9327,
	"raisin": 9328,
	"Ġlodge": 9329,
	"Multicolored": 9330,
	"hy": 9331,
	"ILET": 9332,
	"Ġrippled": 9333,
	"Ġpom": 9334,
	"Ġmural": 9335,
	"pig": 9336,
	"ĠUnited": 9337,
	"bles": 9338,
	"triangle": 9339,
	"MENT": 9340,
	"Ġsound": 9341,
	"zzled": 9342,
	"dles": 9343,
	"Ġdrivers": 9344,
	"itting": 9345,
	"Ġalmonds": 9346,
	"tion": 9347,
	"Ġcarousel": 9348,
	"Ġfinish": 9349,
	"Ġsoftball": 9350,
	"Ġbroad": 9351,
	"Ġdowntown": 9352,
	"ĠSURF": 9353,
	"Ġdownward": 9354,
	"Ġraisin": 9355,
	"Ġcellular": 9356,
	"adget": 9357,
	"Ġlistening": 9358,
	"otorcyclist": 9359,
	"Ġwo": 9360,
	"ĠMADE": 9361,
	"Ġweight": 9362,
	"En": 9363,
	"fridge": 9364,
	"Hills": 9365,
	"onda": 9366,
	"Ġtaillight": 9367,
	"Ġbutterflies": 9368,
	"icles": 9369,
	"ĠLIT": 9370,
	"Stove": 9371,
	"Ġdonkeys": 9372,
	"seated": 9373,
	"noccupied": 9374,
	"OME": 9375,
	"Shelves": 9376,
	"Pu": 9377,
	"wra": 9378,
	"Ġsimple": 9379,
	"Ġconver": 9380,
	"ĠGreen": 9381,
	"ĠHI": 9382,
	"hearts": 9383,
	"ĠDIS": 9384,
	"Ġjumps": 9385,
	"Ġextra": 9386,
	"Lad": 9387,
	"Ġnic": 9388,
	"Ġwaiter": 9389,
	"First": 9390,
	"ĠTOW": 9391,
	"Ġmett": 9392,
	"Ġviewing": 9393,
	"chest": 9394,
	"Ġmacbook": 9395,
	"tennas": 9396,
	"puffy": 9397,
	"Ġburned": 9398,
	"LER": 9399,
	"Ġspine": 9400,
	"ffles": 9401,
	"scene": 9402,
	"Ġdiner": 9403,
	"Ġabandoned": 9404,
	"Ġplanters": 9405,
	"Ġplumbing": 9406,
	"crumpled": 9407,
	"Steps": 9408,
	"Ġcompletely": 9409,
	"ĠSMALL": 9410,
	"ĠHANDLE": 9411,
	"fancy": 9412,
	"coleslaw": 9413,
	"ĠBASEBALL": 9414,
	"knot": 9415,
	"Ġpumpkins": 9416,
	"cafe": 9417,
	"arian": 9418,
	"Ġlinked": 9419,
	"und": 9420,
	"clothing": 9421,
	"Ġraquet": 9422,
	"wrinkled": 9423,
	"Ġeasel": 9424,
	"rhino": 9425,
	"Ġlanes": 9426,
	"erc": 9427,
	"ĠKITCHEN": 9428,
	"oothie": 9429,
	"Ġstirrup": 9430,
	"ĠCDs": 9431,
	"octopus": 9432,
	"ĠWATCH": 9433,
	"Body": 9434,
	"Ġmessenger": 9435,
	"Ġmode": 9436,
	"instrument": 9437,
	"liet": 9438,
	"bug": 9439,
	"zard": 9440,
	"ILING": 9441,
	"ĠGIRAFFE": 9442,
	"Ġeats": 9443,
	"ĠDIST": 9444,
	"Ġseg": 9445,
	"Knee": 9446,
	"Ġesca": 9447,
	"Ġlocked": 9448,
	"exhaust": 9449,
	"muffins": 9450,
	"alian": 9451,
	"Ġfreshly": 9452,
	"Ġpush": 9453,
	"acant": 9454,
	"ta": 9455,
	"ĠCONT": 9456,
	"orium": 9457,
	"use": 9458,
	"esti": 9459,
	"Ġshelve": 9460,
	"Mustard": 9461,
	"Kites": 9462,
	"Ġwrinkly": 9463,
	"fect": 9464,
	"holding": 9465,
	"ATO": 9466,
	"ĠFROM": 9467,
	"Cellphone": 9468,
	"Ġsunlit": 9469,
	"Ġchimneys": 9470,
	"Star": 9471,
	"Ġelevator": 9472,
	"crispy": 9473,
	"Ġdim": 9474,
	"ica": 9475,
	"pickle": 9476,
	"ĠKID": 9477,
	"Ġobscu": 9478,
	"Ġtallest": 9479,
	"kraut": 9480,
	"rooftop": 9481,
	"hip": 9482,
	"Ġplunger": 9483,
	"bronze": 9484,
	"Ġil": 9485,
	"Ġdaylight": 9486,
	"waiter": 9487,
	"zebo": 9488,
	"Donuts": 9489,
	"ĠCLOU": 9490,
	"ĠPARKED": 9491,
	"ĠLEFT": 9492,
	"ext": 9493,
	"Ġcigar": 9494,
	"Ġfocu": 9495,
	"Ġbandanna": 9496,
	"Ġbowtie": 9497,
	"XT": 9498,
	"Bags": 9499,
	"Ġbrownies": 9500,
	"idered": 9501,
	"Ġbulding": 9502,
	"Ġsectional": 9503,
	"Ġlevels": 9504,
	"IGHTS": 9505,
	"touchpad": 9506,
	"Ġcelebr": 9507,
	"ceries": 9508,
	"stores": 9509,
	"Ġslatted": 9510,
	"Ġferry": 9511,
	"Ġmerchandise": 9512,
	"ime": 9513,
	"Weeds": 9514,
	"polka": 9515,
	"Ġerase": 9516,
	"Ġspare": 9517,
	"Ġunoccupied": 9518,
	"Du": 9519,
	"diamond": 9520,
	"fencing": 9521,
	"ener": 9522,
	"Ġshopper": 9523,
	"fallen": 9524,
	"ination": 9525,
	"Ġflyer": 9526,
	"Ġjungle": 9527,
	"Ġdamaged": 9528,
	"ĠPLAYER": 9529,
	"Bracelet": 9530,
	"vo": 9531,
	"Ġquilted": 9532,
	"Potatoes": 9533,
	"Ġfight": 9534,
	"Ġshaking": 9535,
	"khaki": 9536,
	"Ġ13": 9537,
	"ĠSL": 9538,
	"xedo": 9539,
	"ĠDE": 9540,
	"LED": 9541,
	"Stra": 9542,
	"Ġoutlined": 9543,
	"Ġsliver": 9544,
	"Store": 9545,
	"Ġpages": 9546,
	"Ġblocked": 9547,
	"Ġhalved": 9548,
	"new": 9549,
	"Ġelectricity": 9550,
	"Ham": 9551,
	"dian": 9552,
	"nostri": 9553,
	"gro": 9554,
	"ĠAdidas": 9555,
	"Ġpamph": 9556,
	"Ġmop": 9557,
	"Ġteacup": 9558,
	"ĠTRAY": 9559,
	"Ġseparate": 9560,
	"ĠDVDs": 9561,
	"ona": 9562,
	"andel": 9563,
	"Ġones": 9564,
	"rectangle": 9565,
	"Ġ14": 9566,
	"itorium": 9567,
	"Ġsignage": 9568,
	"Ġkissing": 9569,
	"Ġinfant": 9570,
	"grinder": 9571,
	"Tie": 9572,
	"Ġcob": 9573,
	"ĠEN": 9574,
	"Counter": 9575,
	"saddle": 9576,
	"Ġheat": 9577,
	"ened": 9578,
	"ograph": 9579,
	"ĠLARGE": 9580,
	"burn": 9581,
	"Knobs": 9582,
	"ĠFIELD": 9583,
	"Ġgrowth": 9584,
	"ĠSUIT": 9585,
	"Ġlapel": 9586,
	"Items": 9587,
	"Ġray": 9588,
	"bie": 9589,
	"Ġunmade": 9590,
	"ox": 9591,
	"Ġpoodle": 9592,
	"Ġshorter": 9593,
	"Ġpatty": 9594,
	"Ġreflects": 9595,
	"scra": 9596,
	"Ġadj": 9597,
	"Handles": 9598,
	"Ġwedges": 9599,
	"Ġstrainer": 9600,
	"Ġcoated": 9601,
	"Ġexiting": 9602,
	"illboard": 9603,
	"Ġpadding": 9604,
	"ĠCOFFEE": 9605,
	"Ġfreesbee": 9606,
	"Ġsil": 9607,
	"Ġfoots": 9608,
	"vacy": 9609,
	"Ġdepic": 9610,
	"ĠEAR": 9611,
	"Burnt": 9612,
	"Ġswoo": 9613,
	"bank": 9614,
	"strings": 9615,
	"Ġclassic": 9616,
	"ĠDISTANCE": 9617,
	"Ġlate": 9618,
	"Ġlearning": 9619,
	"yered": 9620,
	"stadium": 9621,
	"Ġslicing": 9622,
	"Ġborders": 9623,
	"OND": 9624,
	"printed": 9625,
	"ĠMON": 9626,
	"ĠBu": 9627,
	"collection": 9628,
	"Ġnu": 9629,
	"jewelry": 9630,
	"Ġmotorcyle": 9631,
	"Pre": 9632,
	"Ġna": 9633,
	"Ġcurious": 9634,
	"hinge": 9635,
	"Ġtreat": 9636,
	"Label": 9637,
	"Hill": 9638,
	"ĠWindow": 9639,
	"ĠKI": 9640,
	"Ġacces": 9641,
	"VEN": 9642,
	"Ġtide": 9643,
	"curled": 9644,
	"blade": 9645,
	"ĠRIGHT": 9646,
	"Painted": 9647,
	"Wide": 9648,
	"tention": 9649,
	"Ġsmiley": 9650,
	"ĠLe": 9651,
	"Ġid": 9652,
	"alic": 9653,
	"Ġentire": 9654,
	"vacuum": 9655,
	"Ġillumin": 9656,
	"Ġcopyright": 9657,
	"Ġdocu": 9658,
	"Ġven": 9659,
	"coming": 9660,
	"Ġscrap": 9661,
	"money": 9662,
	"Ġhardware": 9663,
	"Ġduvet": 9664,
	"Ġracer": 9665,
	"ĠAROUND": 9666,
	"Ġcamping": 9667,
	"Ġbackside": 9668,
	"Ġtrench": 9669,
	"LIGHT": 9670,
	"Ġsewing": 9671,
	"ĠPUR": 9672,
	"football": 9673,
	"brant": 9674,
	"Ġrecord": 9675,
	"ĠMan": 9676,
	"Ġtaco": 9677,
	"Ġcircus": 9678,
	"Boxes": 9679,
	"Ġboo": 9680,
	"ced": 9681,
	"written": 9682,
	"ĠHER": 9683,
	"Ġtric": 9684,
	"ĠBR": 9685,
	"Pale": 9686,
	"Ġsoles": 9687,
	"Rocky": 9688,
	"atched": 9689,
	"ifying": 9690,
	"delicious": 9691,
	"Ġhanged": 9692,
	"Ġrods": 9693,
	"Ġdrople": 9694,
	"Ser": 9695,
	"Ġstraws": 9696,
	"Ġsloped": 9697,
	"Orn": 9698,
	"curly": 9699,
	"Smaller": 9700,
	"Bald": 9701,
	"slanted": 9702,
	"sharp": 9703,
	"bartender": 9704,
	"helicopter": 9705,
	"sized": 9706,
	"Ġpaving": 9707,
	"Toddler": 9708,
	"Ġslaw": 9709,
	"Stem": 9710,
	"Ġpiles": 9711,
	"ĠFLOWERS": 9712,
	"Ġtheater": 9713,
	"mpet": 9714,
	"Polar": 9715,
	"stir": 9716,
	"shrubs": 9717,
	"Ġtuxedo": 9718,
	"Ġurn": 9719,
	"Tis": 9720,
	"Ġstructures": 9721,
	"Ġpinned": 9722,
	"LF": 9723,
	"Ġmonster": 9724,
	"Ġcarafe": 9725,
	"sitting": 9726,
	"Ġlandline": 9727,
	"erly": 9728,
	"mband": 9729,
	"Ġdisplays": 9730,
	"Ġfreight": 9731,
	"Rust": 9732,
	"OLD": 9733,
	"Ġpose": 9734,
	"Ġsnowman": 9735,
	"omelette": 9736,
	"Ġchord": 9737,
	"Ġartichokes": 9738,
	"ĠNEXT": 9739,
	"Ġnaked": 9740,
	"milar": 9741,
	"reg": 9742,
	"Ġheight": 9743,
	"THREE": 9744,
	"Crust": 9745,
	"Jar": 9746,
	"Ġdancing": 9747,
	"walking": 9748,
	"Ġsquared": 9749,
	"Ġnearly": 9750,
	"Del": 9751,
	"dol": 9752,
	"teed": 9753,
	"ago": 9754,
	"alapeno": 9755,
	"Ġsol": 9756,
	"Ġclub": 9757,
	"Ġbuoys": 9758,
	"grater": 9759,
	"RESS": 9760,
	"Ġtiered": 9761,
	"ĠStyrofoam": 9762,
	"Ġstrand": 9763,
	"Ġbulls": 9764,
	"ttice": 9765,
	"Ġprofile": 9766,
	"Ġtoliet": 9767,
	"Ġextension": 9768,
	"Ġpac": 9769,
	"alo": 9770,
	"Ġwhen": 9771,
	"Tattoo": 9772,
	"irection": 9773,
	"essy": 9774,
	"ello": 9775,
	"ĠYork": 9776,
	"acent": 9777,
	"EAK": 9778,
	"Carrot": 9779,
	"ĠSTE": 9780,
	"ĠBEACH": 9781,
	"Ġforearm": 9782,
	"Ġengineer": 9783,
	"Ġdeciduous": 9784,
	"Prin": 9785,
	"Ġbold": 9786,
	"borhood": 9787,
	"Ġcourts": 9788,
	"Ġpapaya": 9789,
	"Bre": 9790,
	"Ġthemed": 9791,
	"Ġbottled": 9792,
	"Ġbowling": 9793,
	"Ġstirring": 9794,
	"Log": 9795,
	"getarian": 9796,
	"Ġcorners": 9797,
	"Ġsavanna": 9798,
	"Fluffy": 9799,
	"zzly": 9800,
	"asphalt": 9801,
	"asoning": 9802,
	"Brand": 9803,
	"almond": 9804,
	"ĠNEAR": 9805,
	"ĠLINE": 9806,
	"Of": 9807,
	"ĠFA": 9808,
	"Me": 9809,
	"Gu": 9810,
	"Magazine": 9811,
	"Ġivy": 9812,
	"chid": 9813,
	"Inside": 9814,
	"lown": 9815,
	"Ġcurving": 9816,
	"Ġscall": 9817,
	"Ġcrusty": 9818,
	"RAW": 9819,
	"urdy": 9820,
	"Ġfields": 9821,
	"Family": 9822,
	"ĠCoke": 9823,
	"Ġfedora": 9824,
	"Ġcrop": 9825,
	"Ġscen": 9826,
	"Ġtram": 9827,
	"neat": 9828,
	"information": 9829,
	"taining": 9830,
	"elevated": 9831,
	"Ġneeds": 9832,
	"Newspaper": 9833,
	"Driver": 9834,
	"Ġleopard": 9835,
	"acht": 9836,
	"Bacon": 9837,
	"jama": 9838,
	"ulticolor": 9839,
	"Ġangel": 9840,
	"Ġboun": 9841,
	"Ġmelons": 9842,
	"flo": 9843,
	"Ġappet": 9844,
	"Ġindividual": 9845,
	"Ent": 9846,
	"antro": 9847,
	"Assorted": 9848,
	"Ġfas": 9849,
	"visitor": 9850,
	"orary": 9851,
	"liquor": 9852,
	"Ġcapris": 9853,
	"Jacket": 9854,
	"Ġtexture": 9855,
	"Ġupon": 9856,
	"AYING": 9857,
	"angry": 9858,
	"desserts": 9859,
	"ĠSTO": 9860,
	"Wrist": 9861,
	"elican": 9862,
	"amed": 9863,
	"ĠTOILET": 9864,
	"saic": 9865,
	"Ġuses": 9866,
	"Post": 9867,
	"Up": 9868,
	"Cart": 9869,
	"Lemon": 9870,
	"farm": 9871,
	"business": 9872,
	"Pack": 9873,
	"Ġscroll": 9874,
	"Ġworld": 9875,
	"ni": 9876,
	"ĠPi": 9877,
	"hydrant": 9878,
	"sual": 9879,
	"Ġplayed": 9880,
	"yyyy": 9881,
	"bits": 9882,
	"Ġvolleyball": 9883,
	"tible": 9884,
	"Ġescalator": 9885,
	"Ġsid": 9886,
	"Ġsizes": 9887,
	"Ġamid": 9888,
	"story": 9889,
	"ĠCAP": 9890,
	"Suitcase": 9891,
	"opening": 9892,
	"meric": 9893,
	"Ġvacant": 9894,
	"Ġleast": 9895,
	"buoys": 9896,
	"Balcony": 9897,
	"Curved": 9898,
	"shoulder": 9899,
	"Ġroyal": 9900,
	"Ġroots": 9901,
	"Keys": 9902,
	"Ġnon": 9903,
	"Ġcaboose": 9904,
	"OOKS": 9905,
	"Ġwhip": 9906,
	"MW": 9907,
	"Ġwastebasket": 9908,
	"Ġyellowish": 9909,
	"Ġarmband": 9910,
	"Ġsidelines": 9911,
	"onald": 9912,
	"ilation": 9913,
	"stable": 9914,
	"Ġbookbag": 9915,
	"Cable": 9916,
	"Lid": 9917,
	"ARKING": 9918,
	"drinking": 9919,
	"Al": 9920,
	"shirtless": 9921,
	"ga": 9922,
	"Net": 9923,
	"Sail": 9924,
	"lor": 9925,
	"only": 9926,
	"rails": 9927,
	"Pedestrian": 9928,
	"debris": 9929,
	"Ġdozen": 9930,
	"Ġdolphin": 9931,
	"ĠiPhone": 9932,
	"silhouette": 9933,
	"LADY": 9934,
	"ied": 9935,
	"ks": 9936,
	"cartoon": 9937,
	"ĠBritish": 9938,
	"mostly": 9939,
	"Ġfurthest": 9940,
	"Ġlimes": 9941,
	"Ġsippy": 9942,
	"Ġbusses": 9943,
	"Ġscratching": 9944,
	"Ġcray": 9945,
	"metric": 9946,
	"GLASSES": 9947,
	"rim": 9948,
	"tops": 9949,
	"SILVER": 9950,
	"ĠDARK": 9951,
	"Ġunopened": 9952,
	"Railroad": 9953,
	"Night": 9954,
	"blossom": 9955,
	"Clump": 9956,
	"kick": 9957,
	"Ġtuna": 9958,
	"Ġadjacent": 9959,
	"Ġsimilar": 9960,
	"Ġcurvy": 9961,
	"Ġfingernails": 9962,
	"len": 9963,
	"Ġleads": 9964,
	"ĠZEBRA": 9965,
	"Ġadjusting": 9966,
	"ALK": 9967,
	"azelle": 9968,
	"Jeans": 9969,
	"dot": 9970,
	"not": 9971,
	"Ġconcent": 9972,
	"signia": 9973,
	"Fried": 9974,
	"ĠRID": 9975,
	"PS": 9976,
	"Wing": 9977,
	"Ġknow": 9978,
	"OWN": 9979,
	"Ġsymbols": 9980,
	"Ġgreasy": 9981,
	"Close": 9982,
	"Ġtuft": 9983,
	"Dress": 9984,
	"nes": 9985,
	"Ġattachment": 9986,
	"Ġmettalic": 9987,
	"oplane": 9988,
	"Ġhatchback": 9989,
	"urope": 9990,
	"vaila": 9991,
	"Ġswoosh": 9992,
	"\".": 9993,
	"Ġtemple": 9994,
	"Fireplace": 9995,
	"Ġvalance": 9996,
	"Leather": 9997,
	"Cabinets": 9998,
	"Blond": 9999,
	"Ġfist": 10000,
	"Ġbarriers": 10001,
	"free": 10002,
	"Ġbrushed": 10003,
	"Ġknack": 10004,
	"Ġlenses": 10005,
	"reflective": 10006,
	"Ġnecks": 10007,
	"Mug": 10008,
	"mented": 10009,
	"ESE": 10010,
	"Hole": 10011,
	"KIN": 10012,
	"Ġsponsor": 10013,
	"Ġconference": 10014,
	"Ġrooster": 10015,
	"Ġscoop": 10016,
	"rette": 10017,
	"liers": 10018,
	"ĠBABY": 10019,
	"Ġwaits": 10020,
	"wedding": 10021,
	"Ġkhak": 10022,
	"pebbles": 10023,
	"ĠLight": 10024,
	"13": 10025,
	"ASKET": 10026,
	"ARE": 10027,
	"fer": 10028,
	"oak": 10029,
	"ĠMouse": 10030,
	"Ġbrushes": 10031,
	"lay": 10032,
	"Ġretaining": 10033,
	"papaya": 10034,
	"vegetation": 10035,
	"sely": 10036,
	"ashion": 10037,
	"Ġlamin": 10038,
	"Ġbegin": 10039,
	"ĠTOWEL": 10040,
	"ĠBAN": 10041,
	"leene": 10042,
	"Ġcot": 10043,
	"Ġsweatpants": 10044,
	"Ġnews": 10045,
	"Ġpaste": 10046,
	"ina": 10047,
	"looks": 10048,
	"Ġgour": 10049,
	"Ġfixing": 10050,
	"Ġpullover": 10051,
	"quee": 10052,
	"eper": 10053,
	"cheesecake": 10054,
	"Ġskeleton": 10055,
	"leenex": 10056,
	"third": 10057,
	"Magazines": 10058,
	"ells": 10059,
	"Ġexerc": 10060,
	"Ġgau": 10061,
	"Ġparka": 10062,
	"cola": 10063,
	"Ġsandles": 10064,
	"lex": 10065,
	"clay": 10066,
	"tes": 10067,
	"Ġking": 10068,
	"ient": 10069,
	"spokes": 10070,
	"ABIN": 10071,
	"Ġprivacy": 10072,
	"Gi": 10073,
	"Ġswings": 10074,
	"Ġpinky": 10075,
	"Ġdeter": 10076,
	"ĠCPU": 10077,
	"vailable": 10078,
	"Ġvillage": 10079,
	"Ġsmelling": 10080,
	"Ġcreated": 10081,
	"Ġnicely": 10082,
	"coli": 10083,
	"chment": 10084,
	"zor": 10085,
	"Boys": 10086,
	"healthy": 10087,
	"rated": 10088,
	"Ġpavers": 10089,
	"Ġironing": 10090,
	"support": 10091,
	"Ġstreaks": 10092,
	"Ġreigns": 10093,
	"Ġspool": 10094,
	"ĠFOOD": 10095,
	"Ġbulld": 10096,
	"Ġpup": 10097,
	"structure": 10098,
	"Ġtemperature": 10099,
	"greens": 10100,
	"Ġmoose": 10101,
	"SK": 10102,
	"Ġslow": 10103,
	"Mac": 10104,
	"Ġcitrus": 10105,
	"aqua": 10106,
	"Ġmassive": 10107,
	"OON": 10108,
	"Ġsalsa": 10109,
	"ĠSM": 10110,
	"Flags": 10111,
	"Ġdete": 10112,
	"Sandy": 10113,
	"Ġkhakis": 10114,
	"terminal": 10115,
	"Ġavocados": 10116,
	"Ġmessage": 10117,
	"Safety": 10118,
	"Ġslender": 10119,
	"Ġpajama": 10120,
	"Ġpastel": 10121,
	"UMBER": 10122,
	"ometric": 10123,
	"Ġobscured": 10124,
	"Ġeyelashes": 10125,
	"Ġgazebo": 10126,
	"Ġrivet": 10127,
	"Ġdying": 10128,
	"Ġstreamers": 10129,
	"Ġhash": 10130,
	"mely": 10131,
	"Ġtarmacked": 10132,
	"Qu": 10133,
	"fabric": 10134,
	"Gla": 10135,
	"Ġdrizzled": 10136,
	"screw": 10137,
	"Ġswitched": 10138,
	"Seven": 10139,
	"Magnet": 10140,
	"Ġmy": 10141,
	"Ġkno": 10142,
	"EST": 10143,
	"Ġcreek": 10144,
	"curity": 10145,
	"Partially": 10146,
	"shopper": 10147,
	"Ġrec": 10148,
	"Ġmilkshake": 10149,
	"remely": 10150,
	"Ġshoot": 10151,
	"muddy": 10152,
	"Ġcotta": 10153,
	"BLE": 10154,
	"Navy": 10155,
	"sher": 10156,
	"Ġwinding": 10157,
	"Ġfeathered": 10158,
	"Ġglossy": 10159,
	"oomy": 10160,
	"Spinach": 10161,
	"Purse": 10162,
	"Ġgranola": 10163,
	"Ġinfront": 10164,
	"Ġnur": 10165,
	"ĠDell": 10166,
	"ĠPIE": 10167,
	"woven": 10168,
	"Ġclaim": 10169,
	"lighter": 10170,
	"Ġgroomed": 10171,
	"Ġretriever": 10172,
	"olet": 10173,
	"WOODEN": 10174,
	"Ġmatches": 10175,
	"pony": 10176,
	"Ġthrew": 10177,
	"Ġgull": 10178,
	"Ġuneven": 10179,
	"ague": 10180,
	"plantains": 10181,
	"Ġcathedral": 10182,
	"Ġblossoms": 10183,
	"Ġvert": 10184,
	"ITOR": 10185,
	"dust": 10186,
	"Ġanchored": 10187,
	"Ġslim": 10188,
	"Ġguiding": 10189,
	"Ġhutch": 10190,
	"Eld": 10191,
	"INES": 10192,
	"Ġcasing": 10193,
	"Ġmovies": 10194,
	"Ġcranberry": 10195,
	"merica": 10196,
	"hooves": 10197,
	"Ġmens": 10198,
	"Ġmotorbikes": 10199,
	"Ġorganizer": 10200,
	"Ġbowel": 10201,
	"Gas": 10202,
	"Ġgir": 10203,
	"ABINET": 10204,
	"hell": 10205,
	"dumplings": 10206,
	"Wave": 10207,
	"Wicker": 10208,
	"Menu": 10209,
	"Ġgrease": 10210,
	"ĠLAYING": 10211,
	"Ġbuild": 10212,
	"iver": 10213,
	"Ġcode": 10214,
	"Ġshells": 10215,
	"Ġfighting": 10216,
	"brow": 10217,
	"cD": 10218,
	"Ġattaching": 10219,
	"Ġintere": 10220,
	"erkraut": 10221,
	"Ġattemp": 10222,
	"Ġ24": 10223,
	"blet": 10224,
	"Ġsignpost": 10225,
	"Ġbacked": 10226,
	"Ġhou": 10227,
	"Display": 10228,
	"Ġformed": 10229,
	"nister": 10230,
	"Ġinstruction": 10231,
	"Ġguide": 10232,
	"Ġstormy": 10233,
	"ĠDe": 10234,
	"test": 10235,
	"hua": 10236,
	"vin": 10237,
	"Collar": 10238,
	"OOKING": 10239,
	"Ġmangoes": 10240,
	"izers": 10241,
	"Ġphotographs": 10242,
	"Ġcheesy": 10243,
	"Ġted": 10244,
	"Ġmuch": 10245,
	"LARGE": 10246,
	"Ġripple": 10247,
	"Ġmats": 10248,
	"Ġhiking": 10249,
	"estic": 10250,
	"Footprints": 10251
}
